/**
  ******************************************************************************
  * @file    weights/conv2d.cc
  * @author  Pierre-Emmanuel Novac <penovac@unice.fr>, LEAT, CNRS, Université Côte d'Azur, France
  * @version V2.0
  * @date    24 march 2020
  * @brief   Template generating plain C code for the implementation of Convolutional Neural Networks on MCU
  */

#include <stdint.h>

#define INPUT_CHANNELS     32
#define CONV_FILTERS       64
#define CONV_KERNEL_SIZE_Y 3
#define CONV_KERNEL_SIZE_X 3
#define CONV_GROUPS        1


const float conv2d_1_bias[CONV_FILTERS] = {0x1.0779860000000p-6, -0x1.d69f860000000p-7, 0x1.117be20000000p-5, 0x1.b9e79c0000000p-5, -0x1.8f54060000000p-7, -0x1.9929e40000000p-8, -0x1.49ac200000000p-6, 0x1.0475f00000000p-5, -0x1.2ae24e0000000p-8, 0x1.5828b80000000p-5, 0x1.737ea20000000p-10, 0x1.3dac200000000p-6, 0x1.57b01a0000000p-7, 0x1.00eed00000000p-5, -0x1.a99e2c0000000p-7, -0x1.f0700c0000000p-8, -0x1.2013ba0000000p-5, 0x1.055df20000000p-8, -0x1.2c87b60000000p-5, -0x1.ad3fc00000000p-6, -0x1.4d07400000000p-5, 0x1.b2d7760000000p-7, -0x1.be55180000000p-7, -0x1.594d820000000p-6, 0x1.981fa80000000p-7, -0x1.c431ea0000000p-5, 0x1.1d84e60000000p-8, -0x1.6f5eb80000000p-10, -0x1.21a0440000000p-7, -0x1.f044de0000000p-7, 0x1.6056780000000p-9, -0x1.ea450e0000000p-6, -0x1.fe4f280000000p-6, 0x1.e4eb900000000p-10, 0x1.29c20e0000000p-6, -0x1.d812c00000000p-5, -0x1.2312ea0000000p-5, 0x1.f30bec0000000p-8, 0x1.6de2be0000000p-6, -0x1.1e443a0000000p-5, -0x1.e417a40000000p-6, -0x1.2819100000000p-7, 0x1.6c04bc0000000p-6, 0x1.c8e0ec0000000p-5, 0x1.0296200000000p-6, -0x1.5edc0e0000000p-6, 0x1.302d980000000p-7, 0x1.3cb9e60000000p-7, -0x1.14322a0000000p-4, -0x1.435f900000000p-8, -0x1.9513f80000000p-7, 0x1.68ed000000000p-15, -0x1.d4d6940000000p-5, -0x1.fec42c0000000p-8, 0x1.758fba0000000p-5, 0x1.f3a1320000000p-7, -0x1.f2f6fc0000000p-7, -0x1.20f8e60000000p-6, -0x1.bce4e00000000p-6, 0x1.85384c0000000p-5, -0x1.6c94700000000p-5, -0x1.b201800000000p-6, -0x1.57cb000000000p-5, 0x1.a565800000000p-7}
;


const float conv2d_1_kernel[CONV_FILTERS][CONV_KERNEL_SIZE_Y][CONV_KERNEL_SIZE_X][INPUT_CHANNELS / CONV_GROUPS] = {{{{0x1.1e5fdc0000000p-4, 0x1.4f12da0000000p-3, -0x1.3b5ad60000000p-4, 0x1.6ab6220000000p-5, 0x1.4ed5d60000000p-5, 0x1.0c80a40000000p-4, 0x1.77ec140000000p-5, -0x1.e786540000000p-5, 0x1.3c096e0000000p-8, -0x1.d6ca260000000p-5, 0x1.f2054a0000000p-5, -0x1.9c1f7e0000000p-7, -0x1.4450fe0000000p-3, -0x1.efd0bc0000000p-3, -0x1.c64f180000000p-6, 0x1.d4c0860000000p-10, 0x1.31c0300000000p-5, -0x1.e673140000000p-4, 0x1.b6ce680000000p-5, -0x1.a2a4ec0000000p-4, -0x1.06ce380000000p-5, 0x1.335e7a0000000p-4, -0x1.9e95160000000p-5, -0x1.a4d04a0000000p-5, -0x1.662ab20000000p-6, -0x1.96b45a0000000p-5, 0x1.cd1b2c0000000p-5, 0x1.89fb500000000p-8, -0x1.2f5f1c0000000p-5, 0x1.4d5a580000000p-4, 0x1.2c34f40000000p-4, 0x1.850b5c0000000p-4}
, {0x1.391e7a0000000p-3, -0x1.a1e4ca0000000p-4, 0x1.aa41460000000p-4, -0x1.9ac8e20000000p-4, 0x1.e1849a0000000p-6, 0x1.06a86a0000000p-3, 0x1.1cb3b40000000p-4, 0x1.b4568e0000000p-4, -0x1.d9fff40000000p-8, -0x1.9eac5a0000000p-6, 0x1.cc38720000000p-6, 0x1.0a2acc0000000p-3, 0x1.fc43540000000p-4, 0x1.3149560000000p-6, -0x1.214ad20000000p-7, 0x1.3e9fce0000000p-4, 0x1.000a820000000p-4, 0x1.2f321a0000000p-5, -0x1.6b55440000000p-5, 0x1.bf5ef40000000p-5, 0x1.5a85660000000p-4, 0x1.73d5ae0000000p-3, 0x1.a87e760000000p-4, 0x1.1825b80000000p-7, 0x1.37055c0000000p-4, 0x1.1c95a80000000p-3, 0x1.50760a0000000p-3, 0x1.aaae9c0000000p-5, 0x1.088d240000000p-5, -0x1.bba1160000000p-5, 0x1.6cfce60000000p-4, 0x1.5fcef80000000p-4}
, {0x1.316bc60000000p-3, -0x1.90c9300000000p-8, 0x1.d05e660000000p-4, -0x1.2c15300000000p-3, 0x1.3e3e6a0000000p-3, 0x1.92d1180000000p-4, 0x1.3f2a380000000p-3, 0x1.9e77f20000000p-4, 0x1.8d52460000000p-5, -0x1.c6ff580000000p-5, 0x1.1661be0000000p-5, 0x1.9030000000000p-3, -0x1.49f7c80000000p-5, 0x1.36755a0000000p-3, 0x1.1d524e0000000p-4, 0x1.1a40b40000000p-3, 0x1.541c020000000p-4, 0x1.2a2be40000000p-3, 0x1.ec64a20000000p-4, 0x1.3705d60000000p-4, 0x1.2a7a260000000p-3, 0x1.60991c0000000p-5, 0x1.930a440000000p-5, 0x1.189d220000000p-3, 0x1.49b6980000000p-5, 0x1.0ec6b60000000p-3, -0x1.63c3180000000p-5, 0x1.4eb3280000000p-5, 0x1.0a18620000000p-7, 0x1.41c85e0000000p-3, 0x1.41fc1c0000000p-5, 0x1.a678220000000p-4}
}
, {{0x1.1b5d3c0000000p-3, -0x1.1b09600000000p-3, -0x1.cd32020000000p-3, -0x1.8a778e0000000p-6, -0x1.4a1a720000000p-3, -0x1.28b9b60000000p-3, 0x1.a6a7920000000p-4, 0x1.3999580000000p-2, -0x1.a102f40000000p-4, 0x1.ae76940000000p-5, -0x1.d114080000000p-3, -0x1.f082780000000p-3, -0x1.b23a520000000p-5, -0x1.2a36640000000p-3, -0x1.2c65e80000000p-3, -0x1.566bda0000000p-3, -0x1.bb1b380000000p-3, -0x1.55a54c0000000p-3, -0x1.b29e580000000p-4, -0x1.f79c040000000p-3, -0x1.fcbc0e0000000p-5, 0x1.64e8280000000p-3, -0x1.f9beba0000000p-3, -0x1.774ed60000000p-5, -0x1.b403780000000p-3, 0x1.68a4020000000p-5, 0x1.0e79900000000p-3, -0x1.d411140000000p-7, -0x1.ad732c0000000p-3, -0x1.654f940000000p-4, -0x1.2fca520000000p-4, -0x1.423a340000000p-2}
, {0x1.a2d36c0000000p-4, -0x1.13902e0000000p-3, -0x1.d6a7a60000000p-3, -0x1.0393f20000000p-5, -0x1.bd46e80000000p-4, -0x1.1144540000000p-4, 0x1.5e24520000000p-3, 0x1.014c140000000p-2, -0x1.2e550c0000000p-5, 0x1.7d0b9a0000000p-3, -0x1.88661e0000000p-3, -0x1.0f1d6c0000000p-2, -0x1.24f0420000000p-3, -0x1.7e23520000000p-2, -0x1.72fd280000000p-4, -0x1.b5864c0000000p-4, -0x1.148d9e0000000p-2, -0x1.8f00980000000p-3, 0x1.283a340000000p-5, -0x1.6ab0020000000p-2, 0x1.93d6aa0000000p-5, 0x1.59c8b20000000p-5, -0x1.01b0ba0000000p-4, 0x1.14fd5c0000000p-6, -0x1.d1b3080000000p-3, -0x1.3c80560000000p-4, 0x1.b6e6ba0000000p-4, 0x1.00f98e0000000p-6, -0x1.287b8a0000000p-3, -0x1.deac640000000p-5, -0x1.32086c0000000p-4, -0x1.f37f340000000p-4}
, {0x1.5e8b4e0000000p-3, -0x1.740ef00000000p-3, -0x1.7f3da80000000p-4, 0x1.f1d9d00000000p-4, -0x1.7fc4c40000000p-8, -0x1.6674340000000p-12, 0x1.0e22e00000000p-3, 0x1.7f76240000000p-3, -0x1.e2efd00000000p-8, 0x1.fe1e840000000p-4, -0x1.1c01fe0000000p-3, -0x1.bac9de0000000p-4, 0x1.9dd2800000000p-9, -0x1.2517ca0000000p-4, -0x1.d908f00000000p-5, -0x1.df6ab40000000p-5, -0x1.cd6d820000000p-4, -0x1.57ee000000000p-4, 0x1.7557680000000p-4, -0x1.09ef100000000p-3, 0x1.186a880000000p-4, -0x1.b3fb020000000p-6, -0x1.7687d60000000p-6, 0x1.f037e60000000p-4, -0x1.1b9c4e0000000p-4, 0x1.0a238e0000000p-5, 0x1.1e8a5c0000000p-3, 0x1.2ee4c80000000p-4, 0x1.dcfbba0000000p-5, 0x1.c75a040000000p-5, 0x1.0084b80000000p-3, -0x1.ff70d00000000p-5}
}
, {{-0x1.cd11020000000p-4, -0x1.8466960000000p-8, -0x1.c0bffe0000000p-4, -0x1.165c000000000p-4, -0x1.1f5c1c0000000p-5, -0x1.7821960000000p-3, -0x1.20d0820000000p-2, 0x1.9324c00000000p-5, -0x1.19ca9c0000000p-3, 0x1.03d3f40000000p-4, -0x1.652eac0000000p-5, 0x1.ca373a0000000p-5, -0x1.cf3e340000000p-5, 0x1.7cfd060000000p-6, -0x1.03c2440000000p-4, -0x1.9729020000000p-8, -0x1.97b7360000000p-10, -0x1.9da9b20000000p-4, -0x1.4ee1f00000000p-3, -0x1.5573100000000p-7, -0x1.9413e80000000p-3, 0x1.fc29a00000000p-4, 0x1.88e0a40000000p-7, -0x1.91d8480000000p-3, -0x1.d7e58a0000000p-4, -0x1.9085640000000p-7, -0x1.fa96a00000000p-3, -0x1.202c8e0000000p-3, -0x1.66da5a0000000p-4, -0x1.ce362c0000000p-3, -0x1.b25c220000000p-3, 0x1.0bc6880000000p-3}
, {-0x1.d4bb2a0000000p-4, -0x1.28184e0000000p-3, -0x1.a803d20000000p-5, 0x1.0251b00000000p-7, -0x1.71daa20000000p-4, -0x1.2ad77a0000000p-2, -0x1.fafc280000000p-3, -0x1.cbfaa40000000p-4, -0x1.b0cd9a0000000p-3, 0x1.b9d4460000000p-5, 0x1.dd34c60000000p-9, -0x1.b9bf080000000p-4, -0x1.2a63780000000p-8, 0x1.0cbd940000000p-3, -0x1.b0c9e60000000p-5, -0x1.b7cc700000000p-4, 0x1.6b87d60000000p-5, -0x1.8a5fee0000000p-4, -0x1.45e1cc0000000p-2, -0x1.2d85f00000000p-4, -0x1.9725500000000p-3, -0x1.4b36b40000000p-4, -0x1.359aa00000000p-3, -0x1.878e4e0000000p-3, -0x1.337f020000000p-4, -0x1.ffe3e60000000p-5, -0x1.c54ba80000000p-2, -0x1.6ed5280000000p-2, -0x1.de20f40000000p-4, -0x1.2ccd960000000p-2, -0x1.3409d80000000p-2, -0x1.997c0c0000000p-6}
, {-0x1.acc9300000000p-3, -0x1.afee260000000p-3, 0x1.7f93b20000000p-6, 0x1.0922d40000000p-3, -0x1.e81de80000000p-4, -0x1.99af260000000p-5, -0x1.3237de0000000p-2, -0x1.78079c0000000p-6, 0x1.9c305c0000000p-5, 0x1.1a05120000000p-3, -0x1.8857b20000000p-6, 0x1.9379340000000p-5, -0x1.803cc80000000p-7, 0x1.f242ae0000000p-4, -0x1.13e1640000000p-3, -0x1.445c380000000p-3, -0x1.746d4a0000000p-4, -0x1.0c0bba0000000p-5, -0x1.5e730a0000000p-3, -0x1.ca83240000000p-6, -0x1.4f053c0000000p-3, 0x1.a674c40000000p-8, -0x1.95cd740000000p-4, -0x1.52a4ee0000000p-3, -0x1.9823e00000000p-5, -0x1.20c6340000000p-4, -0x1.dfcff00000000p-3, -0x1.d461640000000p-3, -0x1.cc8daa0000000p-4, -0x1.d761780000000p-4, -0x1.1245180000000p-3, -0x1.e49e340000000p-4}
}
}
, {{{0x1.a5eff20000000p-6, 0x1.9b740e0000000p-4, 0x1.4f5fda0000000p-7, -0x1.5ee41c0000000p-3, 0x1.6606dc0000000p-7, -0x1.1bb36e0000000p-4, 0x1.a774ba0000000p-7, 0x1.4ef5020000000p-3, -0x1.4337580000000p-4, 0x1.d0f9200000000p-6, -0x1.1659ae0000000p-7, -0x1.722b240000000p-4, 0x1.158d840000000p-5, -0x1.b844f60000000p-7, -0x1.03c04c0000000p-5, -0x1.d4744c0000000p-7, -0x1.37eabe0000000p-4, -0x1.3029340000000p-4, -0x1.109b480000000p-6, 0x1.8bf2fe0000000p-6, -0x1.bf02060000000p-4, 0x1.4e87b60000000p-3, 0x1.5fda900000000p-9, 0x1.ea8e480000000p-7, 0x1.1c5b520000000p-4, 0x1.4d0fde0000000p-4, 0x1.574ce80000000p-6, -0x1.ae3cea0000000p-4, -0x1.f6796e0000000p-7, -0x1.7f1c3a0000000p-4, -0x1.7ec5840000000p-4, 0x1.94aa1a0000000p-5}
, {0x1.9fd33e0000000p-4, -0x1.96f77e0000000p-4, 0x1.0c46000000000p-3, -0x1.f55cba0000000p-8, 0x1.15ec8a0000000p-5, 0x1.26c6020000000p-5, 0x1.decd040000000p-7, 0x1.996be40000000p-4, 0x1.43bf600000000p-3, 0x1.344a040000000p-4, -0x1.4c6b2c0000000p-9, 0x1.8b129e0000000p-5, -0x1.33a27e0000000p-5, -0x1.7688e00000000p-3, -0x1.84b47e0000000p-8, 0x1.b538040000000p-5, -0x1.e0c7d20000000p-6, 0x1.1408700000000p-6, 0x1.665f2e0000000p-5, -0x1.228ef60000000p-5, 0x1.ec694e0000000p-9, 0x1.1ef9cc0000000p-5, 0x1.14c19a0000000p-3, 0x1.244daa0000000p-5, 0x1.0d66cc0000000p-4, 0x1.0107520000000p-4, 0x1.ee1a220000000p-5, 0x1.88a1980000000p-5, -0x1.66b3220000000p-6, 0x1.45156c0000000p-6, 0x1.8d08c20000000p-7, -0x1.2160ea0000000p-6}
, {0x1.f67b760000000p-5, -0x1.0e774c0000000p-5, -0x1.3826bc0000000p-3, 0x1.8dbe5c0000000p-5, 0x1.ef788e0000000p-5, 0x1.c6567e0000000p-4, 0x1.6385bc0000000p-4, 0x1.d851700000000p-5, 0x1.03ca4c0000000p-4, 0x1.388acc0000000p-3, 0x1.5ca05c0000000p-8, -0x1.e3d9240000000p-4, -0x1.839e440000000p-4, -0x1.363a3e0000000p-2, 0x1.e94cf60000000p-10, 0x1.465e300000000p-4, -0x1.f4c09a0000000p-4, -0x1.1bb6d00000000p-4, 0x1.5603380000000p-3, -0x1.1c1a000000000p-3, 0x1.0ff6a20000000p-4, -0x1.efc3c00000000p-7, 0x1.5cdca40000000p-5, 0x1.7bcf7c0000000p-5, -0x1.3013640000000p-3, -0x1.6ef0e40000000p-5, 0x1.d133be0000000p-4, 0x1.1b823e0000000p-4, 0x1.8a4a6c0000000p-8, -0x1.275eda0000000p-6, 0x1.5bba5a0000000p-8, -0x1.6e4e4c0000000p-6}
}
, {{0x1.2f955a0000000p-2, -0x1.13dd5e0000000p-3, -0x1.181d360000000p-3, -0x1.67e87a0000000p-5, -0x1.a178380000000p-7, -0x1.0cda600000000p-3, 0x1.0273b00000000p-3, 0x1.a81a640000000p-5, 0x1.b26b800000000p-6, 0x1.dbbf1c0000000p-7, -0x1.2f6a1c0000000p-3, -0x1.c380ae0000000p-2, -0x1.b239b00000000p-4, -0x1.261ad40000000p-3, -0x1.90e7aa0000000p-3, -0x1.ba476e0000000p-4, -0x1.f5b2060000000p-3, -0x1.716c180000000p-2, -0x1.f2d5720000000p-7, -0x1.015e5a0000000p-2, -0x1.3491be0000000p-4, -0x1.8e352e0000000p-6, -0x1.01c62c0000000p-3, 0x1.60417a0000000p-5, -0x1.1ce5b60000000p-2, -0x1.50432a0000000p-3, 0x1.dc57f80000000p-4, 0x1.0849f20000000p-3, -0x1.4f49b40000000p-3, -0x1.7296ee0000000p-8, 0x1.ba64600000000p-5, -0x1.e5c7c80000000p-3}
, {0x1.27b7200000000p-2, -0x1.6475000000000p-2, -0x1.1287ce0000000p-5, 0x1.37fab00000000p-3, -0x1.9a27000000000p-3, -0x1.1bb1fa0000000p-2, 0x1.8fa7fc0000000p-3, -0x1.ef6a300000000p-6, -0x1.687c4c0000000p-3, -0x1.423d4c0000000p-5, -0x1.127ca80000000p-6, -0x1.67dd8a0000000p-2, -0x1.ae29e00000000p-5, 0x1.bd79d40000000p-3, -0x1.a417680000000p-3, -0x1.12206e0000000p-3, 0x1.5b87300000000p-4, -0x1.724dc00000000p-3, -0x1.e93c0e0000000p-4, -0x1.0b926e0000000p-3, -0x1.0ae8620000000p-2, -0x1.6d51ec0000000p-3, -0x1.2697620000000p-2, -0x1.33de440000000p-4, -0x1.acf62c0000000p-5, -0x1.3f121c0000000p-5, -0x1.faa6500000000p-5, -0x1.badc060000000p-3, -0x1.650d860000000p-3, -0x1.d8b2fa0000000p-4, -0x1.df521e0000000p-5, -0x1.a4be700000000p-3}
, {-0x1.170d000000000p-4, -0x1.8678440000000p-3, 0x1.bce06c0000000p-7, -0x1.dc44d80000000p-7, -0x1.63f38a0000000p-3, -0x1.8d97260000000p-3, -0x1.b2769e0000000p-4, -0x1.086b740000000p-3, -0x1.3c68d20000000p-4, 0x1.2c72200000000p-5, -0x1.ba68fe0000000p-6, 0x1.024b440000000p-9, 0x1.445a520000000p-8, 0x1.5881640000000p-3, -0x1.0c4f5a0000000p-3, -0x1.8a2ab20000000p-5, 0x1.79530e0000000p-3, 0x1.3b0cd40000000p-4, -0x1.c491fa0000000p-3, 0x1.2c7b4c0000000p-5, -0x1.6dd3760000000p-3, -0x1.eddb140000000p-6, -0x1.724a0a0000000p-6, -0x1.1c6d840000000p-4, 0x1.6beebe0000000p-4, -0x1.604dcc0000000p-5, -0x1.a755120000000p-5, -0x1.1afbd20000000p-3, -0x1.4ec16e0000000p-3, -0x1.7c546c0000000p-3, -0x1.801c5e0000000p-4, 0x1.c5ae840000000p-5}
}
, {{-0x1.6aa7e80000000p-3, -0x1.d9d9840000000p-2, -0x1.1e89d40000000p-6, -0x1.b878a40000000p-8, -0x1.3b07c40000000p-2, -0x1.cee7f00000000p-3, -0x1.f0fef60000000p-3, -0x1.c95b560000000p-3, -0x1.52aa3c0000000p-3, 0x1.9192100000000p-7, -0x1.5bcad80000000p-5, -0x1.311b5a0000000p-3, 0x1.3370d60000000p-2, 0x1.e506280000000p-4, -0x1.ada7260000000p-3, -0x1.b0d3780000000p-3, 0x1.0501c60000000p-7, -0x1.f254ba0000000p-4, -0x1.ef97ac0000000p-3, -0x1.2f93040000000p-4, -0x1.a996140000000p-3, 0x1.fe973a0000000p-4, -0x1.d301fe0000000p-4, -0x1.cea3640000000p-4, 0x1.10cf040000000p-4, 0x1.646aaa0000000p-3, -0x1.a785300000000p-3, -0x1.19ce300000000p-2, -0x1.2ba8220000000p-2, -0x1.b3fb2a0000000p-3, -0x1.504a660000000p-4, -0x1.224ea60000000p-2}
, {-0x1.5df8760000000p-3, -0x1.6fb94a0000000p-5, 0x1.3efb5e0000000p-3, -0x1.4064b40000000p-3, -0x1.1e689e0000000p-7, 0x1.82677c0000000p-4, -0x1.6b06a40000000p-3, -0x1.9c4c520000000p-3, 0x1.8271a00000000p-4, -0x1.5b7b320000000p-3, 0x1.7ad5260000000p-5, 0x1.72f98c0000000p-3, 0x1.27f0a60000000p-3, 0x1.4add600000000p-3, 0x1.0309000000000p-4, -0x1.fd588c0000000p-11, 0x1.65ea9e0000000p-4, 0x1.4bf7560000000p-3, 0x1.5fdace0000000p-4, 0x1.f043140000000p-4, 0x1.d7ae6a0000000p-5, -0x1.ebed920000000p-5, 0x1.9da16c0000000p-3, -0x1.71efd00000000p-5, 0x1.8d77c80000000p-3, 0x1.bd03280000000p-3, -0x1.1061d40000000p-2, 0x1.2099400000000p-5, 0x1.b9ce7a0000000p-4, 0x1.79caa20000000p-4, -0x1.94d70c0000000p-4, 0x1.2f65f60000000p-4}
, {0x1.4f29920000000p-2, -0x1.22ef700000000p-4, 0x1.077fc60000000p-3, -0x1.b000700000000p-4, 0x1.10ac5e0000000p-4, 0x1.4ba8b60000000p-4, 0x1.4db3b20000000p-3, -0x1.0ac5f60000000p-3, -0x1.ca1e6a0000000p-8, -0x1.23c2ae0000000p-2, 0x1.6ae0f00000000p-4, 0x1.4c2ac80000000p-5, -0x1.3da3000000000p-4, 0x1.440e980000000p-4, 0x1.9a84540000000p-5, 0x1.dd2f640000000p-4, 0x1.cbf0dc0000000p-4, 0x1.accaba0000000p-4, 0x1.9580b80000000p-3, 0x1.46657c0000000p-4, 0x1.60672a0000000p-3, -0x1.4965ba0000000p-6, 0x1.51309c0000000p-4, 0x1.c0ab540000000p-5, 0x1.84dc180000000p-9, 0x1.b96fe40000000p-4, -0x1.85019c0000000p-4, 0x1.b230f80000000p-4, 0x1.30a4400000000p-4, 0x1.242d7a0000000p-4, 0x1.2d85940000000p-3, 0x1.e8a19a0000000p-5}
}
}
, {{{-0x1.27b6f40000000p-6, 0x1.7850880000000p-3, 0x1.d1c58a0000000p-6, 0x1.5688dc0000000p-4, 0x1.2690c40000000p-5, 0x1.4155b40000000p-4, -0x1.6bb8f20000000p-4, 0x1.898ab60000000p-8, 0x1.512d980000000p-5, -0x1.7f3eba0000000p-6, 0x1.362a6a0000000p-4, 0x1.221ae60000000p-3, 0x1.cf12be0000000p-7, 0x1.852e4a0000000p-8, 0x1.f650f00000000p-4, 0x1.3515700000000p-4, 0x1.ae6c940000000p-9, -0x1.b162220000000p-8, 0x1.3215280000000p-5, -0x1.346a220000000p-5, 0x1.28acb40000000p-4, 0x1.28e4820000000p-4, 0x1.efec5a0000000p-7, -0x1.fd93040000000p-5, -0x1.d1d1ba0000000p-7, 0x1.74b3780000000p-4, 0x1.50d2fa0000000p-4, 0x1.7ff3880000000p-6, 0x1.3f7df40000000p-4, 0x1.3f1e240000000p-3, 0x1.7877d80000000p-5, 0x1.0757c80000000p-2}
, {0x1.e2f1480000000p-5, -0x1.64b85e0000000p-5, -0x1.8c453c0000000p-5, 0x1.9547720000000p-5, -0x1.3627060000000p-5, 0x1.b4b8340000000p-4, -0x1.bc366c0000000p-10, -0x1.0367c40000000p-7, 0x1.23448e0000000p-6, 0x1.ea379a0000000p-6, -0x1.4d12f80000000p-3, -0x1.6bea160000000p-4, 0x1.5773fe0000000p-4, -0x1.5c96a40000000p-3, -0x1.985c620000000p-5, 0x1.8aecf40000000p-6, -0x1.7118fc0000000p-3, -0x1.a704080000000p-4, -0x1.4484f20000000p-8, -0x1.1b15060000000p-3, 0x1.72b0a60000000p-5, 0x1.21cad20000000p-3, -0x1.5cc6900000000p-4, -0x1.63ae0c0000000p-5, -0x1.4486420000000p-3, 0x1.2c396a0000000p-5, 0x1.be0e040000000p-5, -0x1.a563fe0000000p-8, -0x1.71b2240000000p-5, 0x1.0446f00000000p-4, -0x1.832e7a0000000p-6, 0x1.3b2bca0000000p-6}
, {-0x1.47cd3a0000000p-3, 0x1.e6e3a20000000p-6, -0x1.0eaef00000000p-4, 0x1.059fb60000000p-3, -0x1.74bb180000000p-4, -0x1.35e3b20000000p-4, -0x1.1bd4ba0000000p-3, -0x1.60ef7e0000000p-3, -0x1.0aa3c40000000p-3, 0x1.2a33da0000000p-4, -0x1.6dd8f00000000p-6, -0x1.1c2ed40000000p-3, -0x1.cf6d400000000p-4, 0x1.1a23a20000000p-3, -0x1.26ab200000000p-4, 0x1.ddd8280000000p-7, 0x1.31b5620000000p-4, -0x1.0093360000000p-4, -0x1.d74a920000000p-4, 0x1.f2555a0000000p-6, -0x1.7d81380000000p-5, -0x1.0a72b00000000p-4, -0x1.5cc2a00000000p-6, -0x1.25e4700000000p-5, -0x1.7d96940000000p-5, 0x1.261ed60000000p-6, -0x1.1f72240000000p-4, -0x1.e70ce40000000p-4, -0x1.460f7a0000000p-3, -0x1.9dbe2c0000000p-4, -0x1.e771060000000p-5, -0x1.2340420000000p-4}
}
, {{-0x1.1684fa0000000p-5, 0x1.7a201e0000000p-3, 0x1.2357ee0000000p-3, 0x1.cf05180000000p-5, 0x1.5cc9840000000p-4, 0x1.2d484c0000000p-4, 0x1.3b07180000000p-4, -0x1.a3184e0000000p-6, 0x1.c7324e0000000p-4, -0x1.bb32b00000000p-5, 0x1.1089d80000000p-3, 0x1.1c3a8e0000000p-3, -0x1.5da7360000000p-4, -0x1.511bec0000000p-3, 0x1.b0b34a0000000p-4, 0x1.4180c00000000p-4, 0x1.16a7180000000p-3, 0x1.87ab720000000p-4, 0x1.6351da0000000p-5, 0x1.647b160000000p-5, 0x1.aafc280000000p-6, -0x1.adc6ae0000000p-5, 0x1.92e6ca0000000p-4, -0x1.5d1caa0000000p-5, -0x1.42ff340000000p-4, -0x1.f669ac0000000p-7, -0x1.05e0d00000000p-5, 0x1.aae9100000000p-4, 0x1.8ae42c0000000p-4, 0x1.1073a40000000p-4, 0x1.ec1ac40000000p-4, 0x1.1efc000000000p-4}
, {-0x1.12761e0000000p-4, -0x1.6287d20000000p-5, -0x1.031fd00000000p-3, 0x1.672bae0000000p-3, -0x1.7cbf180000000p-4, -0x1.6c45b60000000p-3, -0x1.2cf0c00000000p-3, 0x1.1bdebe0000000p-6, -0x1.1145f20000000p-2, -0x1.e8ec360000000p-7, -0x1.2aace80000000p-3, -0x1.5b37e20000000p-2, 0x1.d314280000000p-5, -0x1.6576540000000p-4, -0x1.cb89300000000p-3, -0x1.0e078a0000000p-3, 0x1.6d955c0000000p-6, -0x1.9ec3e40000000p-2, -0x1.df273e0000000p-4, -0x1.5c917e0000000p-2, -0x1.eb77fe0000000p-3, 0x1.4cb2200000000p-4, -0x1.3f197c0000000p-2, -0x1.15939c0000000p-3, -0x1.b3ab8e0000000p-4, -0x1.b6f6e80000000p-10, -0x1.9f563c0000000p-3, -0x1.876c540000000p-3, -0x1.273c2c0000000p-4, -0x1.8087160000000p-2, -0x1.46cf780000000p-4, -0x1.2f9ee00000000p-2}
, {-0x1.58c7300000000p-3, -0x1.bbf63e0000000p-3, 0x1.75c55c0000000p-4, -0x1.35bbbc0000000p-4, 0x1.5c14780000000p-4, 0x1.c1ab300000000p-5, -0x1.8f4ce60000000p-4, -0x1.77c9760000000p-3, 0x1.81bdf20000000p-4, 0x1.f6db360000000p-9, 0x1.45ec5c0000000p-3, 0x1.0be74e0000000p-6, 0x1.083a2a0000000p-3, 0x1.e8a8cc0000000p-4, -0x1.2cf9140000000p-4, 0x1.74d25a0000000p-7, 0x1.4f7ef20000000p-4, 0x1.42eeb60000000p-3, -0x1.1a8e840000000p-5, -0x1.0fad0e0000000p-10, 0x1.0038fa0000000p-6, 0x1.26f0600000000p-3, 0x1.3579aa0000000p-5, 0x1.66414a0000000p-3, 0x1.21be5a0000000p-3, 0x1.5ae9ee0000000p-3, 0x1.3963040000000p-3, -0x1.1bc7780000000p-4, 0x1.25d9a60000000p-5, 0x1.aa1ec40000000p-4, -0x1.1739aa0000000p-5, -0x1.b56e600000000p-5}
}
, {{0x1.76ab0a0000000p-3, -0x1.1eb2ac0000000p-5, -0x1.887ebe0000000p-3, 0x1.222ffa0000000p-3, 0x1.87f32e0000000p-9, 0x1.663f020000000p-4, 0x1.0723260000000p-3, 0x1.0986600000000p-4, -0x1.287e120000000p-4, 0x1.b3fca00000000p-4, -0x1.de49260000000p-4, -0x1.d660da0000000p-3, -0x1.d57bba0000000p-4, -0x1.54ea820000000p-3, -0x1.96bed20000000p-4, 0x1.e512660000000p-6, -0x1.a77fbc0000000p-3, -0x1.4930960000000p-3, 0x1.0f37380000000p-4, -0x1.e4524e0000000p-3, -0x1.120e080000000p-5, -0x1.d25e240000000p-3, -0x1.6de6e00000000p-3, -0x1.70d8da0000000p-3, -0x1.2ddbfe0000000p-2, -0x1.37b16c0000000p-2, -0x1.7024f00000000p-3, 0x1.95dcfe0000000p-3, 0x1.58e58a0000000p-5, 0x1.fe344a0000000p-5, -0x1.59d1120000000p-6, -0x1.8c0c920000000p-8}
, {-0x1.7ed7b00000000p-3, -0x1.4822560000000p-2, -0x1.93feac0000000p-3, 0x1.2282980000000p-3, -0x1.f609de0000000p-3, -0x1.7af8420000000p-3, -0x1.5378aa0000000p-2, -0x1.5d324e0000000p-7, -0x1.050b380000000p-3, 0x1.0225f60000000p-2, -0x1.1544580000000p-3, -0x1.37f79e0000000p-3, 0x1.b8fef00000000p-4, -0x1.7cac4a0000000p-4, -0x1.fe1bac0000000p-3, -0x1.a577dc0000000p-3, -0x1.c3e6ce0000000p-4, -0x1.ea77820000000p-3, -0x1.cd814c0000000p-3, -0x1.92fa000000000p-3, 0x1.2b962e0000000p-6, 0x1.fb61be0000000p-4, -0x1.28b1080000000p-4, 0x1.385f700000000p-5, -0x1.fda1e00000000p-4, 0x1.0580580000000p-6, -0x1.80f38e0000000p-4, -0x1.4f16700000000p-2, -0x1.24056c0000000p-3, -0x1.d7bf420000000p-3, -0x1.784d000000000p-4, -0x1.fe951a0000000p-3}
, {-0x1.d1bc2c0000000p-3, 0x1.c6f6880000000p-5, 0x1.57a9b80000000p-8, -0x1.3d04c00000000p-3, 0x1.29937a0000000p-4, 0x1.30983e0000000p-6, -0x1.04d8080000000p-4, -0x1.c269de0000000p-3, 0x1.01c0c40000000p-4, -0x1.149ad80000000p-3, -0x1.0af4100000000p-8, 0x1.8310a60000000p-6, 0x1.b2d48c0000000p-4, -0x1.e2615e0000000p-7, 0x1.4718bc0000000p-4, 0x1.48f64c0000000p-4, 0x1.b560360000000p-5, 0x1.f3c16e0000000p-4, -0x1.799a200000000p-10, 0x1.c658f80000000p-5, 0x1.4812060000000p-3, 0x1.722e480000000p-2, 0x1.04a90a0000000p-4, 0x1.35f4ec0000000p-3, 0x1.076bae0000000p-3, 0x1.a38e5e0000000p-3, 0x1.7187800000000p-4, 0x1.47bb3a0000000p-5, 0x1.624fcc0000000p-4, 0x1.05fcea0000000p-3, 0x1.4539ee0000000p-3, 0x1.b817860000000p-6}
}
}
, {{{-0x1.589cb60000000p-5, 0x1.9a8eb40000000p-3, 0x1.7218400000000p-5, 0x1.b6baa20000000p-4, 0x1.52eb9a0000000p-4, 0x1.77235c0000000p-4, 0x1.4fbeb00000000p-6, -0x1.cbd8780000000p-8, 0x1.fb68500000000p-7, -0x1.ecc9380000000p-4, 0x1.3f162c0000000p-4, 0x1.f206320000000p-4, 0x1.ec13360000000p-4, 0x1.ba31300000000p-5, 0x1.4a15b80000000p-5, 0x1.280b900000000p-3, 0x1.590c5a0000000p-4, 0x1.3fcb460000000p-3, 0x1.d5a21e0000000p-4, 0x1.e9dc420000000p-7, 0x1.e862100000000p-8, 0x1.b9bc140000000p-7, 0x1.9f33000000000p-4, 0x1.3b7e120000000p-3, 0x1.797bce0000000p-4, 0x1.1b21de0000000p-4, 0x1.1dbb860000000p-4, 0x1.36fe5c0000000p-4, 0x1.6077da0000000p-3, 0x1.8d7d560000000p-4, 0x1.d13e880000000p-4, 0x1.6b91620000000p-4}
, {-0x1.82c37e0000000p-5, 0x1.0d86340000000p-3, -0x1.cf39a40000000p-6, 0x1.e4e65c0000000p-4, 0x1.22fe600000000p-4, -0x1.97cd420000000p-5, 0x1.5482a20000000p-4, 0x1.0a48c40000000p-4, -0x1.b403700000000p-5, 0x1.eccb120000000p-4, -0x1.8f3f800000000p-6, -0x1.8e81260000000p-5, -0x1.7024fe0000000p-6, -0x1.9c467a0000000p-3, -0x1.032a800000000p-4, -0x1.cc576e0000000p-5, -0x1.d4d8500000000p-4, 0x1.0ebaac0000000p-6, 0x1.d70d7c0000000p-7, -0x1.676ec60000000p-3, -0x1.7816400000000p-7, -0x1.2ce3940000000p-5, -0x1.619bd60000000p-7, -0x1.38cfc40000000p-5, -0x1.4a0afa0000000p-3, -0x1.67e4840000000p-3, -0x1.3ce4020000000p-4, -0x1.cf6f840000000p-5, 0x1.c4ae180000000p-6, -0x1.076e160000000p-5, -0x1.f9d1280000000p-11, 0x1.287e600000000p-5}
, {-0x1.5403be0000000p-4, 0x1.31a8760000000p-5, -0x1.447db00000000p-7, 0x1.e89eac0000000p-9, -0x1.8e376a0000000p-3, -0x1.2a98a80000000p-3, -0x1.5ea53e0000000p-4, 0x1.df949c0000000p-5, -0x1.9946580000000p-3, 0x1.3b8bd60000000p-4, -0x1.1503980000000p-3, -0x1.5e72fa0000000p-3, 0x1.2efa440000000p-2, 0x1.98b4400000000p-5, -0x1.c547620000000p-3, -0x1.4baa040000000p-3, 0x1.f3b4bc0000000p-7, -0x1.44db0e0000000p-3, -0x1.1bc2600000000p-3, -0x1.caf9da0000000p-4, -0x1.356a5a0000000p-4, 0x1.2a00580000000p-3, -0x1.855ae00000000p-3, -0x1.eb0d200000000p-4, -0x1.0e22fc0000000p-11, 0x1.007cca0000000p-4, -0x1.e8f6840000000p-4, -0x1.4b93840000000p-3, -0x1.9a75720000000p-3, -0x1.6cf2380000000p-3, -0x1.5026ca0000000p-5, -0x1.37215c0000000p-3}
}
, {{0x1.3caf040000000p-5, 0x1.6a544c0000000p-3, 0x1.ac7a700000000p-5, 0x1.bb555e0000000p-4, 0x1.03fa680000000p-3, 0x1.36bbee0000000p-3, 0x1.6ee8d80000000p-4, -0x1.5767260000000p-3, 0x1.816a960000000p-4, -0x1.5478600000000p-8, 0x1.e606420000000p-5, 0x1.29d51e0000000p-4, -0x1.5fbb900000000p-3, -0x1.29a40e0000000p-2, 0x1.be70820000000p-4, 0x1.0c7d3a0000000p-5, -0x1.edb5840000000p-7, 0x1.d659140000000p-8, 0x1.07b0120000000p-3, -0x1.9d01660000000p-12, 0x1.9097840000000p-4, -0x1.1b351a0000000p-2, 0x1.7ddaf60000000p-6, -0x1.30aeac0000000p-4, -0x1.4822200000000p-4, -0x1.cfaf500000000p-3, -0x1.76adde0000000p-4, 0x1.9c62e40000000p-4, 0x1.4655fa0000000p-4, 0x1.03bb220000000p-3, -0x1.80585c0000000p-6, 0x1.8b7df60000000p-4}
, {0x1.4c27ec0000000p-4, -0x1.3eda420000000p-5, -0x1.995abe0000000p-3, 0x1.81c03e0000000p-5, -0x1.82c7320000000p-5, -0x1.1e5bc80000000p-5, -0x1.1342c40000000p-5, 0x1.3e81020000000p-5, -0x1.58a0400000000p-3, 0x1.99d2e20000000p-4, -0x1.c918520000000p-4, -0x1.475b920000000p-2, 0x1.7c44a60000000p-4, -0x1.b4a3280000000p-3, -0x1.d7b82e0000000p-4, -0x1.18d2600000000p-3, -0x1.e68df20000000p-5, -0x1.63a60e0000000p-3, -0x1.bc7b920000000p-5, -0x1.bce7b20000000p-3, -0x1.9edc9e0000000p-3, -0x1.7700160000000p-4, -0x1.0eefa80000000p-2, -0x1.4888560000000p-3, -0x1.0e57880000000p-2, -0x1.19d7f80000000p-3, -0x1.1d359a0000000p-3, -0x1.edf76a0000000p-4, -0x1.acf0e20000000p-9, -0x1.4508600000000p-3, -0x1.9e49a40000000p-4, -0x1.058e3e0000000p-3}
, {0x1.b2d9900000000p-4, -0x1.4313c00000000p-3, -0x1.4d3c120000000p-3, 0x1.7efb0c0000000p-5, -0x1.6558000000000p-4, -0x1.df65cc0000000p-4, -0x1.f4bcf80000000p-4, 0x1.0ec1f40000000p-7, -0x1.9e03be0000000p-6, 0x1.8d727c0000000p-6, -0x1.51cd5c0000000p-3, -0x1.5ba7d80000000p-3, -0x1.5570a20000000p-4, -0x1.14a77a0000000p-5, -0x1.a39a240000000p-3, -0x1.0ddd520000000p-3, -0x1.591e3a0000000p-4, -0x1.fe13060000000p-4, -0x1.0e67460000000p-5, -0x1.151a800000000p-3, 0x1.4542d20000000p-9, 0x1.6f9bbc0000000p-5, -0x1.7c825a0000000p-4, 0x1.4660ae0000000p-5, -0x1.3c02dc0000000p-3, 0x1.22df160000000p-5, -0x1.d1cce80000000p-4, 0x1.bbf7d80000000p-9, -0x1.36a1520000000p-3, -0x1.71e8220000000p-3, -0x1.32c8580000000p-6, -0x1.82aea60000000p-3}
}
, {{0x1.fb326c0000000p-8, 0x1.7b04480000000p-7, -0x1.306f100000000p-4, 0x1.bbb3f40000000p-3, 0x1.4527220000000p-4, -0x1.32b6a80000000p-5, -0x1.04db460000000p-3, -0x1.0b38d60000000p-3, 0x1.224afc0000000p-5, 0x1.e849ba0000000p-3, -0x1.4d92420000000p-5, -0x1.adaeaa0000000p-4, -0x1.a038740000000p-3, -0x1.2a13dc0000000p-2, 0x1.9b23520000000p-4, 0x1.4de5b80000000p-7, -0x1.4424300000000p-4, -0x1.0f30a20000000p-3, 0x1.4758f60000000p-4, -0x1.c84cc40000000p-3, -0x1.af41b40000000p-6, -0x1.c426600000000p-3, -0x1.4e0e8a0000000p-4, -0x1.4a19960000000p-3, -0x1.e59ec80000000p-3, -0x1.1c2f060000000p-2, -0x1.1a09f40000000p-3, 0x1.54bb8c0000000p-5, -0x1.23fd4a0000000p-6, 0x1.a52ada0000000p-6, 0x1.6637d00000000p-6, 0x1.c96c500000000p-5}
, {0x1.0f6f7e0000000p-4, -0x1.ba23740000000p-4, -0x1.5bf7360000000p-3, 0x1.f56baa0000000p-5, -0x1.bdbdb80000000p-3, -0x1.acb4540000000p-4, -0x1.b57ab40000000p-3, -0x1.1b9bd00000000p-4, -0x1.2fdaa40000000p-3, 0x1.9d7e100000000p-5, -0x1.797ea00000000p-3, -0x1.89fb140000000p-4, 0x1.1676fc0000000p-4, 0x1.51ce940000000p-3, -0x1.7769900000000p-3, -0x1.002b2e0000000p-3, -0x1.246f860000000p-6, -0x1.27e1720000000p-3, -0x1.bd3cb00000000p-3, 0x1.f2db740000000p-6, -0x1.bca4ca0000000p-3, 0x1.675bb00000000p-12, -0x1.fff93e0000000p-6, -0x1.d7703e0000000p-4, -0x1.c0f6980000000p-6, -0x1.93d17e0000000p-4, -0x1.19ba760000000p-2, -0x1.0d82e60000000p-3, -0x1.f37d500000000p-4, -0x1.4364c60000000p-2, -0x1.92cd6c0000000p-3, -0x1.28bc1e0000000p-3}
, {0x1.19b40a0000000p-3, -0x1.077af40000000p-2, -0x1.3a47780000000p-4, 0x1.9ab0aa0000000p-5, -0x1.5910980000000p-3, -0x1.87828e0000000p-4, -0x1.9566420000000p-7, 0x1.64a29c0000000p-3, -0x1.7f56160000000p-5, 0x1.1dae860000000p-3, -0x1.60e8740000000p-3, -0x1.7d4b940000000p-4, -0x1.3492c40000000p-3, -0x1.81006e0000000p-4, -0x1.48efca0000000p-3, -0x1.c2b77e0000000p-4, -0x1.ebc5f60000000p-5, -0x1.a58cec0000000p-3, -0x1.03d9840000000p-8, -0x1.c8df400000000p-3, -0x1.a37db40000000p-3, 0x1.6ea25a0000000p-4, -0x1.1cde100000000p-3, -0x1.5c88360000000p-3, -0x1.ff11980000000p-4, -0x1.0bf2fa0000000p-3, -0x1.3b418c0000000p-3, -0x1.1b41ac0000000p-3, -0x1.a4f6c20000000p-3, -0x1.52eb180000000p-4, -0x1.60d0f80000000p-3, -0x1.1cce5c0000000p-3}
}
}
, {{{0x1.5f3d180000000p-4, 0x1.550b640000000p-5, 0x1.3f741e0000000p-4, 0x1.aa6efc0000000p-6, -0x1.581e2a0000000p-4, -0x1.13a0d80000000p-3, 0x1.02add00000000p-10, -0x1.35d1a60000000p-5, -0x1.30fc500000000p-3, 0x1.0b4fce0000000p-4, -0x1.b361140000000p-4, -0x1.2da7660000000p-3, -0x1.cc1e440000000p-4, 0x1.20b3960000000p-7, -0x1.7724940000000p-4, 0x1.eaaaf00000000p-8, -0x1.5078ea0000000p-5, -0x1.4bbfdc0000000p-4, -0x1.1670660000000p-4, -0x1.fcb3dc0000000p-4, -0x1.f2a0d00000000p-4, -0x1.16ec300000000p-3, -0x1.286ce20000000p-3, -0x1.8af6ec0000000p-4, -0x1.59fd600000000p-3, -0x1.d61e5a0000000p-4, -0x1.714f440000000p-4, -0x1.77bbcc0000000p-3, -0x1.98525e0000000p-6, -0x1.3ef2b60000000p-3, -0x1.fb855a0000000p-4, -0x1.14a38e0000000p-8}
, {-0x1.cc7e5e0000000p-4, -0x1.1307880000000p-4, 0x1.5b49720000000p-5, -0x1.ae86160000000p-5, 0x1.64656e0000000p-7, -0x1.7e9d6c0000000p-5, 0x1.cbe2de0000000p-9, -0x1.7681b20000000p-6, 0x1.001bde0000000p-4, -0x1.fc0c940000000p-5, 0x1.882c940000000p-6, -0x1.7548d20000000p-6, 0x1.d9797a0000000p-5, 0x1.35d3900000000p-3, -0x1.c79ad00000000p-9, -0x1.2696e00000000p-5, 0x1.965f8a0000000p-4, 0x1.e121dc0000000p-11, 0x1.1eff6c0000000p-7, 0x1.e9ad580000000p-6, -0x1.0a81400000000p-3, -0x1.87bc000000000p-5, -0x1.2524a80000000p-6, 0x1.0cb81c0000000p-8, 0x1.72aedc0000000p-5, 0x1.bbd6000000000p-4, -0x1.384a9e0000000p-4, -0x1.a002c20000000p-6, -0x1.a8683e0000000p-4, -0x1.494c920000000p-5, -0x1.8609a40000000p-4, 0x1.1bd5a80000000p-5}
, {-0x1.75f8360000000p-4, -0x1.eee12e0000000p-5, 0x1.46ad860000000p-4, -0x1.9aee160000000p-6, 0x1.1b07c40000000p-5, 0x1.eb451c0000000p-4, 0x1.95a6440000000p-5, -0x1.4580b80000000p-3, 0x1.9f48b20000000p-3, -0x1.41ca2c0000000p-3, 0x1.b028ec0000000p-5, 0x1.eb4d140000000p-4, 0x1.771e360000000p-3, 0x1.aa651c0000000p-4, 0x1.2953f00000000p-5, -0x1.ffd2dc0000000p-8, 0x1.9c46f40000000p-5, 0x1.a0cec40000000p-6, 0x1.dd998a0000000p-5, 0x1.7132980000000p-4, 0x1.3181220000000p-3, 0x1.cc19ce0000000p-6, 0x1.21b2440000000p-3, 0x1.187b000000000p-5, 0x1.b25da40000000p-3, 0x1.515e3c0000000p-3, -0x1.945c740000000p-4, 0x1.2894cc0000000p-4, 0x1.06b0400000000p-4, 0x1.2b3ba60000000p-3, 0x1.72c9e20000000p-4, 0x1.14f2ea0000000p-4}
}
, {{-0x1.56cc6a0000000p-12, 0x1.90fc960000000p-8, 0x1.7e7cea0000000p-6, -0x1.c9722e0000000p-4, -0x1.733c260000000p-6, -0x1.5634380000000p-4, 0x1.6e8dca0000000p-6, -0x1.dbd3660000000p-3, 0x1.fdafe60000000p-8, -0x1.9e7d700000000p-4, 0x1.8bc7b80000000p-6, -0x1.f6826a0000000p-5, -0x1.90518c0000000p-6, 0x1.28d5b60000000p-3, 0x1.b921e20000000p-7, 0x1.f107e80000000p-5, 0x1.92c1dc0000000p-8, 0x1.2de2a80000000p-6, -0x1.52fd720000000p-9, 0x1.6b31600000000p-5, -0x1.baa2bc0000000p-6, 0x1.bec53e0000000p-6, 0x1.25e84e0000000p-5, 0x1.62b2760000000p-7, -0x1.b27b840000000p-7, 0x1.f1fca20000000p-6, -0x1.6090ae0000000p-3, -0x1.d0eb620000000p-7, -0x1.0df15c0000000p-8, -0x1.3639460000000p-4, -0x1.c7e04a0000000p-6, 0x1.66c4980000000p-7}
, {0x1.f957240000000p-4, 0x1.91030c0000000p-5, 0x1.afdd060000000p-8, 0x1.26e7fa0000000p-6, 0x1.8c21240000000p-5, -0x1.1acbf00000000p-8, 0x1.04543c0000000p-3, -0x1.a7d95a0000000p-2, 0x1.69699e0000000p-3, -0x1.5be1840000000p-2, -0x1.0b000e0000000p-5, 0x1.e32dfe0000000p-4, 0x1.8be1e60000000p-3, 0x1.206f3e0000000p-2, 0x1.ef35720000000p-4, 0x1.e8ace60000000p-5, 0x1.216ebc0000000p-3, 0x1.f15afc0000000p-4, 0x1.99b0640000000p-4, 0x1.fefc900000000p-5, 0x1.7fd9f20000000p-6, -0x1.18f1fe0000000p-5, 0x1.3d90ea0000000p-4, -0x1.cda0f80000000p-5, 0x1.a9c70e0000000p-5, 0x1.18903e0000000p-3, -0x1.b294bc0000000p-4, 0x1.1b50ea0000000p-4, -0x1.15061e0000000p-6, -0x1.be387e0000000p-11, 0x1.9df76a0000000p-7, 0x1.3ad6120000000p-4}
, {0x1.927ad40000000p-3, 0x1.0af1300000000p-4, -0x1.7e55560000000p-3, 0x1.db50440000000p-4, -0x1.2ca2a60000000p-7, -0x1.78bcaa0000000p-8, 0x1.c996dc0000000p-3, -0x1.2ca2740000000p-3, -0x1.43fdc80000000p-6, 0x1.b259460000000p-5, -0x1.ebabea0000000p-7, 0x1.2cddee0000000p-6, -0x1.b2174a0000000p-3, -0x1.29cffc0000000p-3, 0x1.56074a0000000p-5, -0x1.19ef720000000p-5, -0x1.00acd00000000p-2, -0x1.45ce8c0000000p-3, 0x1.8543cc0000000p-4, -0x1.443b580000000p-5, -0x1.632a2c0000000p-5, -0x1.708f960000000p-3, 0x1.a98b600000000p-5, 0x1.19de560000000p-3, -0x1.750a6a0000000p-3, -0x1.9434c80000000p-3, -0x1.d8d6a20000000p-5, 0x1.462ce80000000p-6, 0x1.a432b80000000p-4, 0x1.4241b60000000p-4, 0x1.10300a0000000p-3, -0x1.a60eea0000000p-6}
}
, {{0x1.33c9380000000p-5, -0x1.accc000000000p-6, -0x1.9006440000000p-6, 0x1.91d9ca0000000p-4, -0x1.fc66880000000p-7, 0x1.d379a60000000p-4, 0x1.d7c22e0000000p-6, -0x1.49faaa0000000p-4, 0x1.296c5e0000000p-4, -0x1.8423e00000000p-6, 0x1.5cf8ba0000000p-5, 0x1.2696540000000p-4, 0x1.4328660000000p-5, 0x1.8780820000000p-3, -0x1.f8b7e40000000p-6, 0x1.354e120000000p-7, -0x1.1ccb880000000p-4, 0x1.6e335c0000000p-7, 0x1.c4383c0000000p-5, -0x1.f5d11c0000000p-6, 0x1.96a7c40000000p-6, -0x1.9bc4780000000p-4, 0x1.4b9b3a0000000p-4, 0x1.0743e60000000p-7, 0x1.b2c70e0000000p-4, -0x1.6ead260000000p-6, -0x1.0bdf1a0000000p-3, 0x1.da8fa40000000p-4, 0x1.8df8080000000p-4, 0x1.4eb4c20000000p-6, 0x1.6e0eda0000000p-5, -0x1.06f9960000000p-4}
, {0x1.f654ec0000000p-4, 0x1.e070840000000p-8, -0x1.9e99fe0000000p-3, 0x1.0d5aa80000000p-2, 0x1.e341d40000000p-12, 0x1.2c7e140000000p-5, 0x1.b646000000000p-4, -0x1.a9c2b00000000p-4, -0x1.d088da0000000p-6, 0x1.a1a2860000000p-4, -0x1.3479100000000p-3, -0x1.348b380000000p-3, -0x1.c3a6520000000p-4, -0x1.4367920000000p-3, 0x1.fb8bbc0000000p-7, -0x1.6037100000000p-4, -0x1.3dd0960000000p-3, -0x1.890c280000000p-3, 0x1.02aba80000000p-13, -0x1.7e4acc0000000p-3, -0x1.aba5120000000p-9, -0x1.936f200000000p-4, -0x1.f74ce80000000p-6, -0x1.27d2580000000p-5, -0x1.c899540000000p-4, -0x1.71c5960000000p-3, 0x1.0a09d20000000p-5, 0x1.1784c40000000p-7, 0x1.fd8b080000000p-8, 0x1.123d020000000p-4, -0x1.a9f9920000000p-10, -0x1.06befc0000000p-3}
, {-0x1.d7686c0000000p-5, -0x1.8f71d00000000p-5, -0x1.0fcb860000000p-3, 0x1.05c3b80000000p-3, -0x1.e3ae1e0000000p-4, -0x1.70d5ce0000000p-3, 0x1.2ad93a0000000p-5, 0x1.6002660000000p-5, -0x1.d3c8020000000p-3, 0x1.2000720000000p-2, -0x1.f213ee0000000p-4, -0x1.5b98700000000p-3, 0x1.c64f7a0000000p-7, 0x1.e220b40000000p-6, -0x1.f0a3ee0000000p-5, -0x1.463fb40000000p-3, -0x1.9c45140000000p-5, -0x1.4292f40000000p-3, -0x1.78b9660000000p-3, -0x1.7b26ce0000000p-3, -0x1.0c84ac0000000p-2, -0x1.fa232c0000000p-6, -0x1.e6d4120000000p-3, -0x1.99b1400000000p-3, -0x1.a1302e0000000p-3, -0x1.bdc8140000000p-3, -0x1.4d9d0c0000000p-3, -0x1.5421d20000000p-3, -0x1.a735ec0000000p-3, -0x1.a756020000000p-3, -0x1.189f120000000p-3, -0x1.9afc3c0000000p-4}
}
}
, {{{-0x1.35b8f60000000p-2, -0x1.bb6cb20000000p-4, -0x1.4c242e0000000p-5, 0x1.7d75880000000p-5, 0x1.90dbe40000000p-8, -0x1.3f522c0000000p-5, -0x1.4f7d560000000p-5, -0x1.1425220000000p-3, 0x1.bf964a0000000p-4, -0x1.b5a9300000000p-5, -0x1.0d72ca0000000p-5, -0x1.bf2d960000000p-5, 0x1.1c460c0000000p-4, -0x1.e49de60000000p-6, -0x1.79f2c60000000p-7, -0x1.e78fdc0000000p-8, 0x1.29b2740000000p-4, -0x1.0381460000000p-5, 0x1.d9f3a00000000p-8, -0x1.0c90200000000p-4, 0x1.6db1d60000000p-6, 0x1.41a1840000000p-3, -0x1.c950560000000p-6, 0x1.1d45d60000000p-4, -0x1.05788e0000000p-3, 0x1.ad45e40000000p-7, -0x1.4d5ce60000000p-3, -0x1.1ba18a0000000p-7, 0x1.3bbbe00000000p-4, -0x1.5d69140000000p-9, 0x1.0d78360000000p-4, -0x1.ac9bbe0000000p-4}
, {-0x1.0712aa0000000p-2, 0x1.45c1d40000000p-6, 0x1.fbc31c0000000p-4, -0x1.1681640000000p-3, 0x1.a355120000000p-10, -0x1.2160c60000000p-6, -0x1.9c91000000000p-3, -0x1.0673b00000000p-5, 0x1.b4e2060000000p-5, -0x1.c687de0000000p-5, -0x1.a7b1920000000p-5, -0x1.89217e0000000p-5, -0x1.69cbf40000000p-5, -0x1.a965cc0000000p-4, 0x1.a13e600000000p-6, 0x1.1dfaee0000000p-6, -0x1.c94ad00000000p-7, 0x1.7fe6060000000p-4, 0x1.e98ab60000000p-5, 0x1.4113960000000p-4, -0x1.5069ce0000000p-5, -0x1.c1886e0000000p-6, -0x1.159ae60000000p-5, -0x1.aedefe0000000p-6, -0x1.bd35040000000p-10, -0x1.85c28e0000000p-4, -0x1.542cba0000000p-2, -0x1.a8b1660000000p-5, 0x1.433c800000000p-4, 0x1.2524560000000p-7, 0x1.8a456c0000000p-7, -0x1.5342ac0000000p-7}
, {-0x1.075d380000000p-7, 0x1.3da5d20000000p-5, 0x1.06d7de0000000p-6, -0x1.75e1b40000000p-5, -0x1.069a0a0000000p-6, -0x1.c5a7b40000000p-5, -0x1.abded60000000p-5, -0x1.60a7a40000000p-4, 0x1.03b4320000000p-5, -0x1.f9d0aa0000000p-7, 0x1.0091700000000p-4, 0x1.7e5e680000000p-4, -0x1.60cf8a0000000p-4, 0x1.9ce7880000000p-3, 0x1.c26e6a0000000p-4, -0x1.c82d100000000p-8, 0x1.d49d160000000p-4, 0x1.eae1dc0000000p-5, -0x1.e707840000000p-5, 0x1.bc7e360000000p-5, -0x1.4232200000000p-4, -0x1.681f180000000p-3, 0x1.9aa7880000000p-8, 0x1.0ed31e0000000p-4, 0x1.eab69a0000000p-4, -0x1.4b3a4a0000000p-8, 0x1.8739660000000p-9, -0x1.7a57800000000p-7, 0x1.5ce4c60000000p-6, -0x1.fe694a0000000p-5, 0x1.be090e0000000p-9, 0x1.4362700000000p-3}
}
, {{-0x1.3921fe0000000p-4, 0x1.3cf8080000000p-4, 0x1.848a960000000p-6, -0x1.4d8aac0000000p-3, 0x1.b81f0c0000000p-4, 0x1.95d9080000000p-4, -0x1.7f097e0000000p-5, -0x1.86a6880000000p-3, 0x1.3203860000000p-3, -0x1.061c660000000p-3, 0x1.2ae2100000000p-4, 0x1.b049b00000000p-4, 0x1.28be100000000p-4, 0x1.d09de00000000p-6, 0x1.8c79b40000000p-5, 0x1.0988b80000000p-4, -0x1.31c6660000000p-5, 0x1.71889c0000000p-5, 0x1.b259640000000p-6, -0x1.c035420000000p-5, 0x1.b99c900000000p-8, 0x1.e257c00000000p-7, 0x1.cfa2b20000000p-6, 0x1.a3d3c80000000p-4, -0x1.61b4000000000p-8, 0x1.742ba40000000p-4, -0x1.0a53e20000000p-4, 0x1.4d7f420000000p-3, 0x1.0432ac0000000p-3, 0x1.91e5880000000p-4, 0x1.38bbbc0000000p-4, 0x1.6cebb40000000p-7}
, {0x1.1ad03e0000000p-6, 0x1.3b5b400000000p-4, 0x1.9453580000000p-6, 0x1.f0fa380000000p-5, 0x1.0a037e0000000p-3, 0x1.0045900000000p-4, 0x1.c49b220000000p-4, -0x1.01c2ee0000000p-2, 0x1.08a57e0000000p-5, -0x1.30c12c0000000p-3, 0x1.ba96fc0000000p-5, 0x1.3ced660000000p-3, -0x1.afc4160000000p-7, -0x1.07d19c0000000p-4, 0x1.f98d140000000p-4, 0x1.1f78a20000000p-4, -0x1.b397800000000p-7, 0x1.7ece400000000p-4, 0x1.6d2d580000000p-4, -0x1.95ef000000000p-11, 0x1.277f060000000p-4, -0x1.e977f40000000p-4, 0x1.2a91640000000p-3, -0x1.f226240000000p-6, -0x1.bd25b60000000p-8, 0x1.c49b040000000p-4, -0x1.3c46200000000p-6, 0x1.6ce0d00000000p-3, 0x1.790a000000000p-5, 0x1.0248e40000000p-3, 0x1.48dff00000000p-4, 0x1.c780c20000000p-3}
, {0x1.3937a60000000p-5, 0x1.2c0fd80000000p-5, 0x1.4987540000000p-6, -0x1.06ec140000000p-4, 0x1.446e9e0000000p-5, -0x1.3cf1560000000p-7, 0x1.3334160000000p-11, -0x1.14da4c0000000p-3, 0x1.ee61520000000p-6, 0x1.cfe6600000000p-6, -0x1.78c8860000000p-5, -0x1.12a05a0000000p-5, -0x1.b2fb7a0000000p-4, -0x1.24f8500000000p-2, -0x1.a2eaf60000000p-4, -0x1.922afe0000000p-7, -0x1.1602320000000p-5, -0x1.3f55dc0000000p-6, 0x1.b7217a0000000p-6, -0x1.fdfe320000000p-4, 0x1.921d840000000p-4, -0x1.e16e640000000p-4, -0x1.318c200000000p-4, -0x1.eb37f60000000p-6, -0x1.15de900000000p-3, 0x1.4fab520000000p-7, -0x1.c3a3440000000p-6, 0x1.5bb5360000000p-4, 0x1.5b44360000000p-4, 0x1.bf79fa0000000p-5, 0x1.a2f21a0000000p-4, 0x1.7c22740000000p-4}
}
, {{0x1.9365e80000000p-4, -0x1.3d820e0000000p-6, 0x1.08a5e60000000p-6, -0x1.f174260000000p-6, -0x1.ad3e700000000p-5, 0x1.fc4ff40000000p-5, 0x1.c3b8600000000p-5, -0x1.455eb20000000p-7, -0x1.cfc6f60000000p-12, -0x1.29357e0000000p-6, -0x1.daf8c20000000p-8, -0x1.114adc0000000p-4, -0x1.0b84780000000p-4, -0x1.51e8c00000000p-2, -0x1.01e4d40000000p-5, -0x1.14726a0000000p-4, -0x1.fef0a80000000p-4, -0x1.3badbe0000000p-4, -0x1.2cf6040000000p-5, -0x1.6040d80000000p-4, -0x1.89e4360000000p-5, -0x1.420b780000000p-7, -0x1.53afc80000000p-5, -0x1.614fba0000000p-4, -0x1.bf59f00000000p-4, -0x1.58751e0000000p-4, 0x1.94613e0000000p-4, 0x1.12304e0000000p-6, 0x1.a7fb060000000p-6, 0x1.95c4ca0000000p-4, 0x1.73f8ba0000000p-4, -0x1.4327ba0000000p-4}
, {0x1.9137920000000p-6, -0x1.ebc2640000000p-4, -0x1.9e50260000000p-5, -0x1.4afb240000000p-6, -0x1.0fb9920000000p-4, -0x1.51dca60000000p-4, -0x1.bb35880000000p-6, 0x1.0d37400000000p-2, -0x1.ebc1820000000p-4, 0x1.18dbf80000000p-4, -0x1.6de9dc0000000p-4, -0x1.5bf5960000000p-3, -0x1.b95f9e0000000p-3, 0x1.a0d7d40000000p-6, -0x1.fd9cba0000000p-4, -0x1.bf632c0000000p-5, 0x1.32c5a00000000p-5, -0x1.08f6ca0000000p-5, -0x1.369c100000000p-4, -0x1.6510fc0000000p-3, -0x1.548ab00000000p-5, -0x1.50e7940000000p-4, -0x1.5d51340000000p-4, 0x1.076fec0000000p-4, -0x1.1e32a80000000p-3, -0x1.b15aaa0000000p-4, 0x1.ee39720000000p-5, -0x1.cf95060000000p-5, -0x1.062c740000000p-5, -0x1.8ebdd80000000p-6, 0x1.6b25c00000000p-6, -0x1.1abd240000000p-3}
, {-0x1.a9f5000000000p-5, -0x1.696d180000000p-5, -0x1.04bd840000000p-5, 0x1.03c79e0000000p-3, -0x1.10557e0000000p-4, -0x1.486b7e0000000p-4, 0x1.8e8e6c0000000p-5, 0x1.6375fa0000000p-4, -0x1.b2e28c0000000p-6, 0x1.d730f80000000p-5, -0x1.c9cb620000000p-5, 0x1.0e0dfc0000000p-4, 0x1.00748a0000000p-5, 0x1.541c3a0000000p-4, -0x1.0f5f5a0000000p-4, -0x1.02a7200000000p-5, 0x1.42019a0000000p-4, 0x1.939a1e0000000p-7, -0x1.684d0e0000000p-5, 0x1.6f11f60000000p-6, -0x1.28beac0000000p-3, -0x1.e3d3d20000000p-5, -0x1.e8227a0000000p-4, -0x1.570d2c0000000p-5, 0x1.248b3c0000000p-3, -0x1.533c080000000p-5, -0x1.d394720000000p-6, -0x1.1ee6300000000p-4, -0x1.7f75800000000p-5, -0x1.9183620000000p-4, 0x1.1a982a0000000p-6, -0x1.a133ac0000000p-7}
}
}
, {{{-0x1.beda9e0000000p-5, -0x1.562e7a0000000p-6, 0x1.6879ae0000000p-8, -0x1.bf3ab20000000p-5, -0x1.fe563a0000000p-5, 0x1.4db4440000000p-12, -0x1.e881dc0000000p-4, -0x1.f6bcb00000000p-5, -0x1.17b5e60000000p-4, -0x1.468b9a0000000p-4, 0x1.6ccb0a0000000p-4, 0x1.d71ac40000000p-7, 0x1.11b7320000000p-6, 0x1.ac6b240000000p-5, -0x1.0e05fc0000000p-5, 0x1.28d8e20000000p-6, -0x1.dd7e660000000p-6, 0x1.b406140000000p-7, -0x1.804e520000000p-5, -0x1.b051160000000p-7, 0x1.cd8dc00000000p-9, -0x1.5bf36c0000000p-7, -0x1.89bd6c0000000p-5, -0x1.e2e49e0000000p-7, -0x1.40ad620000000p-6, -0x1.99b3ce0000000p-4, -0x1.49e11a0000000p-4, 0x1.eeb6b20000000p-6, -0x1.96cdc20000000p-5, -0x1.b880920000000p-7, -0x1.4a7ab80000000p-5, 0x1.693fec0000000p-5}
, {-0x1.84e2c00000000p-4, 0x1.e096ae0000000p-5, -0x1.4d169c0000000p-6, -0x1.6c33a60000000p-3, -0x1.f599fa0000000p-5, -0x1.36afe80000000p-7, 0x1.7d540c0000000p-7, -0x1.18a6f80000000p-4, -0x1.6282920000000p-4, -0x1.5895000000000p-3, 0x1.5a5e080000000p-8, 0x1.99dfd60000000p-7, 0x1.bf96ec0000000p-6, 0x1.29ad540000000p-4, 0x1.7c59760000000p-8, 0x1.094ffc0000000p-4, 0x1.075c940000000p-3, -0x1.737e700000000p-6, -0x1.e789a20000000p-6, -0x1.3c8e180000000p-6, -0x1.0bf2e20000000p-4, 0x1.255ffe0000000p-5, 0x1.70f3620000000p-12, -0x1.f9f1f40000000p-4, -0x1.3830920000000p-7, 0x1.f51f500000000p-9, -0x1.5d8b500000000p-4, -0x1.b0ff0c0000000p-5, -0x1.be85020000000p-6, -0x1.02d7080000000p-7, -0x1.2aa5460000000p-5, 0x1.54e4b00000000p-4}
, {-0x1.1bde360000000p-2, 0x1.f7a04e0000000p-5, 0x1.f8dd280000000p-4, -0x1.2a59380000000p-2, -0x1.dc40fa0000000p-6, 0x1.120ae20000000p-8, -0x1.92b4960000000p-3, 0x1.144cf40000000p-4, 0x1.96b0e20000000p-6, -0x1.e2a96a0000000p-3, 0x1.6c1b240000000p-4, 0x1.094a760000000p-3, 0x1.48a69a0000000p-5, 0x1.a8d8b80000000p-4, -0x1.7c780c0000000p-9, 0x1.bd12b40000000p-4, 0x1.dbf36e0000000p-4, 0x1.d496d20000000p-7, -0x1.9aa7a20000000p-4, 0x1.1fe2b60000000p-4, -0x1.1779400000000p-6, -0x1.6623a80000000p-5, 0x1.d748be0000000p-4, -0x1.58276c0000000p-4, 0x1.f3181c0000000p-6, -0x1.3ec35a0000000p-5, -0x1.0e783a0000000p-3, -0x1.2e72c20000000p-5, -0x1.5bc01a0000000p-4, -0x1.6af1320000000p-5, -0x1.5e07b60000000p-3, 0x1.536f180000000p-3}
}
, {{0x1.44117e0000000p-4, 0x1.04c2420000000p-4, -0x1.1b5e760000000p-9, 0x1.916a940000000p-5, 0x1.bff8580000000p-6, 0x1.e901020000000p-6, 0x1.0263e80000000p-3, -0x1.ec04000000000p-9, 0x1.cc91420000000p-5, -0x1.67898e0000000p-5, 0x1.365ab80000000p-4, 0x1.da395a0000000p-6, 0x1.085eda0000000p-7, 0x1.7291040000000p-6, -0x1.e648760000000p-8, 0x1.9a7ad80000000p-9, -0x1.02016e0000000p-3, 0x1.82c0360000000p-7, -0x1.1f607c0000000p-5, -0x1.f9ffd40000000p-5, 0x1.287eb20000000p-5, -0x1.2d035a0000000p-7, 0x1.13bee00000000p-4, 0x1.2511b40000000p-12, 0x1.37d4b40000000p-4, 0x1.498a340000000p-6, 0x1.9b57760000000p-7, 0x1.0a47240000000p-5, 0x1.4cf4900000000p-5, 0x1.56ca460000000p-5, 0x1.9d6f500000000p-4, 0x1.fc941a0000000p-5}
, {0x1.ba9ba20000000p-4, 0x1.ae62da0000000p-7, -0x1.a059800000000p-7, -0x1.17bf380000000p-4, 0x1.d93f000000000p-5, 0x1.7b71140000000p-4, 0x1.5891fe0000000p-3, 0x1.c37e620000000p-3, 0x1.80312a0000000p-5, 0x1.51a01e0000000p-4, 0x1.f7c73a0000000p-7, -0x1.b945fc0000000p-6, -0x1.baf5b00000000p-4, -0x1.06f6e00000000p-3, 0x1.5b83540000000p-5, 0x1.99e7340000000p-5, -0x1.41614a0000000p-4, 0x1.49e43e0000000p-4, 0x1.a8bcbc0000000p-4, 0x1.42cf140000000p-6, 0x1.78a1980000000p-3, 0x1.3de9be0000000p-4, 0x1.7e143e0000000p-4, 0x1.0f36be0000000p-3, -0x1.98b5fa0000000p-7, 0x1.f954c80000000p-6, 0x1.d53ff20000000p-4, 0x1.0b62ec0000000p-5, -0x1.bcc6340000000p-6, 0x1.375d380000000p-7, 0x1.45b08e0000000p-6, -0x1.0ef0500000000p-5}
, {0x1.a141dc0000000p-4, -0x1.42c6e80000000p-6, 0x1.08621a0000000p-5, -0x1.87027c0000000p-5, 0x1.9e16840000000p-5, 0x1.9ce0ae0000000p-4, 0x1.eb992e0000000p-4, 0x1.0026680000000p-5, -0x1.8a625c0000000p-9, -0x1.13311c0000000p-4, 0x1.8e69060000000p-5, -0x1.7f1de00000000p-8, 0x1.b9f66a0000000p-5, -0x1.b36d3e0000000p-3, 0x1.ac4f5c0000000p-4, 0x1.3a0a680000000p-4, 0x1.e9b98a0000000p-6, 0x1.621f7c0000000p-4, 0x1.0aab0a0000000p-3, -0x1.13d2b80000000p-5, 0x1.a3fd520000000p-4, 0x1.6bc4660000000p-3, 0x1.2184ba0000000p-5, 0x1.af05160000000p-4, -0x1.59b2a80000000p-7, 0x1.3ffc6a0000000p-4, 0x1.d1947e0000000p-4, 0x1.f4bcae0000000p-4, 0x1.04e1c00000000p-3, 0x1.15ff300000000p-3, 0x1.8522700000000p-4, 0x1.0e4f3e0000000p-4}
}
, {{0x1.e960020000000p-7, -0x1.cbf9a80000000p-3, -0x1.fc7ef00000000p-4, -0x1.af0bec0000000p-7, -0x1.3348580000000p-3, -0x1.50a6140000000p-4, -0x1.f5b4400000000p-11, 0x1.8e544a0000000p-4, -0x1.42ed080000000p-3, 0x1.6868100000000p-5, -0x1.8305ba0000000p-5, -0x1.4aef2c0000000p-3, -0x1.a1c97a0000000p-8, 0x1.0e43bc0000000p-8, -0x1.75cf440000000p-4, -0x1.16e99c0000000p-5, 0x1.e1bc660000000p-5, -0x1.f4f7c60000000p-3, -0x1.156a920000000p-4, -0x1.add8da0000000p-4, -0x1.4636340000000p-3, 0x1.0870d40000000p-4, -0x1.82d94e0000000p-3, -0x1.b78c100000000p-7, -0x1.8ae0f60000000p-6, -0x1.01c7180000000p-4, -0x1.ff2f8a0000000p-5, -0x1.99b9640000000p-3, -0x1.f0c99a0000000p-7, -0x1.34cd840000000p-5, -0x1.2538560000000p-5, -0x1.f9ce2c0000000p-5}
, {0x1.fe14a00000000p-6, -0x1.f5718e0000000p-4, 0x1.fc45220000000p-8, 0x1.3298aa0000000p-4, -0x1.60899a0000000p-3, -0x1.25d75e0000000p-3, -0x1.2442f40000000p-3, 0x1.81916e0000000p-3, -0x1.860fd20000000p-4, 0x1.0cee8e0000000p-4, -0x1.2c2eaa0000000p-4, -0x1.82c1bc0000000p-4, -0x1.c19f260000000p-4, 0x1.5e50180000000p-5, -0x1.ef20e80000000p-4, -0x1.de588e0000000p-4, -0x1.1981a20000000p-6, -0x1.5a4f640000000p-4, -0x1.c940c60000000p-7, -0x1.17fd3a0000000p-5, -0x1.b0beac0000000p-4, -0x1.8797180000000p-4, -0x1.af4a4e0000000p-4, -0x1.ee0fda0000000p-3, -0x1.7793060000000p-4, -0x1.6f47400000000p-4, -0x1.3420260000000p-3, -0x1.70040c0000000p-3, -0x1.aa538a0000000p-4, -0x1.4c2e5e0000000p-3, -0x1.6640f40000000p-4, -0x1.bb0c4c0000000p-3}
, {0x1.452ed60000000p-3, -0x1.fac0260000000p-4, -0x1.fbbcf60000000p-5, -0x1.5db8020000000p-5, -0x1.16813a0000000p-3, -0x1.3562100000000p-7, 0x1.db77820000000p-4, 0x1.97b1e80000000p-3, -0x1.45d1640000000p-5, -0x1.5ce6280000000p-6, -0x1.0d37c20000000p-5, -0x1.bb6c820000000p-6, -0x1.75dd3c0000000p-10, -0x1.7408e80000000p-5, -0x1.e4eb960000000p-6, -0x1.7cc4060000000p-4, -0x1.8919e40000000p-9, 0x1.cf903e0000000p-5, -0x1.4353bc0000000p-4, 0x1.1519c40000000p-6, -0x1.b14ec60000000p-4, 0x1.db51da0000000p-3, -0x1.8fb8d00000000p-5, 0x1.2c8abe0000000p-4, 0x1.abfab60000000p-6, -0x1.3fe5dc0000000p-5, 0x1.12791e0000000p-5, -0x1.d082f60000000p-4, 0x1.143af80000000p-6, -0x1.faa6be0000000p-5, -0x1.02915a0000000p-5, -0x1.a577140000000p-4}
}
}
, {{{0x1.f9ef540000000p-7, 0x1.7e81a00000000p-3, -0x1.9293200000000p-8, 0x1.0d79620000000p-4, 0x1.15a8780000000p-3, 0x1.1793900000000p-6, 0x1.6b04660000000p-4, -0x1.caac080000000p-4, 0x1.ed54820000000p-6, -0x1.96f7240000000p-4, 0x1.f2c1e80000000p-4, 0x1.96986c0000000p-7, 0x1.c6813e0000000p-4, 0x1.3a4a360000000p-3, -0x1.4899ec0000000p-6, 0x1.723de40000000p-4, 0x1.81b6680000000p-11, -0x1.a553700000000p-8, 0x1.f71a380000000p-4, 0x1.e19be20000000p-6, 0x1.52fc480000000p-4, 0x1.c9a3c40000000p-3, 0x1.cced3a0000000p-5, 0x1.ef1c140000000p-5, -0x1.91566c0000000p-7, 0x1.9ff6e60000000p-5, 0x1.015d7a0000000p-3, 0x1.a8ed260000000p-4, -0x1.daa0a40000000p-6, 0x1.3f4b2c0000000p-7, 0x1.583b7e0000000p-4, 0x1.bdf51e0000000p-5}
, {-0x1.2156c80000000p-4, -0x1.a2ded80000000p-5, -0x1.eee27a0000000p-7, -0x1.3b3dcc0000000p-6, 0x1.47c6f80000000p-7, -0x1.2c31260000000p-6, 0x1.c9d5a00000000p-5, -0x1.01d2740000000p-5, -0x1.8be5400000000p-5, 0x1.7658e00000000p-6, 0x1.d351dc0000000p-5, -0x1.bd90a60000000p-6, -0x1.60a5da0000000p-3, -0x1.0184f60000000p-5, -0x1.6076920000000p-4, -0x1.80ddaa0000000p-6, -0x1.cadc1a0000000p-5, 0x1.d500dc0000000p-11, -0x1.1956ae0000000p-6, -0x1.14d9940000000p-4, 0x1.724dbc0000000p-7, 0x1.060b780000000p-6, -0x1.b027d60000000p-8, -0x1.2acdda0000000p-6, -0x1.0dc6e80000000p-10, -0x1.13a83e0000000p-5, -0x1.6c11300000000p-5, 0x1.e914ac0000000p-4, 0x1.ab7e760000000p-10, -0x1.29f6120000000p-5, 0x1.53298e0000000p-5, -0x1.0f719e0000000p-7}
, {0x1.0dee180000000p-8, -0x1.fee3840000000p-5, -0x1.54a8440000000p-3, 0x1.0045c80000000p-3, -0x1.5d2f740000000p-4, -0x1.b746a80000000p-5, -0x1.728aa80000000p-3, 0x1.6ba3560000000p-6, -0x1.c71f1c0000000p-3, -0x1.05cebc0000000p-7, -0x1.c340d00000000p-3, -0x1.3724e80000000p-2, 0x1.43682e0000000p-3, 0x1.bbf69e0000000p-5, -0x1.2546420000000p-3, -0x1.1960240000000p-3, -0x1.e26d200000000p-6, -0x1.0dfde60000000p-2, -0x1.283c0e0000000p-3, -0x1.0b323e0000000p-2, -0x1.3508060000000p-3, 0x1.adcbbc0000000p-6, -0x1.0b33d20000000p-2, -0x1.3cd74e0000000p-2, -0x1.11b8540000000p-2, -0x1.26c6420000000p-3, -0x1.b021080000000p-3, -0x1.9ca2ac0000000p-3, -0x1.6db1ac0000000p-3, -0x1.98fc780000000p-4, -0x1.31ffd00000000p-3, -0x1.a3dc320000000p-5}
}
, {{-0x1.8b2af00000000p-4, 0x1.4972360000000p-3, 0x1.732fc60000000p-5, 0x1.b8894e0000000p-4, 0x1.40f0ce0000000p-7, 0x1.cabe620000000p-4, -0x1.30d6580000000p-4, -0x1.36561a0000000p-3, 0x1.021d200000000p-3, -0x1.cccfee0000000p-5, 0x1.b5b0b40000000p-6, 0x1.0911080000000p-3, 0x1.4d3a060000000p-2, 0x1.c28d640000000p-4, 0x1.1d7aa40000000p-3, 0x1.8b8c340000000p-4, 0x1.139b2c0000000p-4, 0x1.97325c0000000p-4, 0x1.0187360000000p-4, 0x1.48b3180000000p-4, 0x1.aec59a0000000p-4, 0x1.42b30a0000000p-4, 0x1.7202480000000p-3, -0x1.ef79840000000p-6, 0x1.3bfd220000000p-3, 0x1.f4f6420000000p-4, -0x1.b976a40000000p-5, 0x1.a3bbae0000000p-4, 0x1.86057a0000000p-4, 0x1.e9565c0000000p-5, -0x1.f04a220000000p-6, 0x1.f5e96c0000000p-4}
, {-0x1.dc690e0000000p-5, 0x1.2e33440000000p-5, -0x1.6d242c0000000p-4, 0x1.49e2360000000p-4, 0x1.2b3fc80000000p-4, -0x1.5e67bc0000000p-4, -0x1.286fa20000000p-5, -0x1.5e1d620000000p-5, 0x1.72d9740000000p-10, -0x1.898d8e0000000p-5, -0x1.76ecee0000000p-3, 0x1.0eb41a0000000p-6, -0x1.b9bd520000000p-5, -0x1.690f280000000p-3, -0x1.c56c0a0000000p-4, -0x1.14dccc0000000p-4, -0x1.e5de240000000p-4, -0x1.166b800000000p-4, -0x1.8d49e40000000p-6, -0x1.f0456c0000000p-3, -0x1.133f900000000p-3, -0x1.3251de0000000p-3, -0x1.2d584a0000000p-3, -0x1.06e15a0000000p-3, -0x1.e5ad0a0000000p-3, -0x1.c33e8c0000000p-2, -0x1.62a8800000000p-2, -0x1.5df9640000000p-5, 0x1.d84c860000000p-9, 0x1.323af00000000p-8, -0x1.4281460000000p-3, -0x1.08392e0000000p-6}
, {-0x1.a6d8520000000p-4, -0x1.97303c0000000p-3, -0x1.123ae60000000p-5, 0x1.27eec40000000p-5, -0x1.1136540000000p-2, -0x1.a224780000000p-2, -0x1.142eca0000000p-2, -0x1.7d44140000000p-7, -0x1.95327a0000000p-3, 0x1.a02e9c0000000p-6, -0x1.73d37c0000000p-6, -0x1.4d85240000000p-3, 0x1.090c640000000p-4, 0x1.1095ca0000000p-2, -0x1.1901420000000p-2, -0x1.c56f120000000p-3, 0x1.2c93800000000p-4, -0x1.50261a0000000p-3, -0x1.1634fa0000000p-2, -0x1.0736680000000p-3, -0x1.ba5bda0000000p-4, -0x1.c8c2360000000p-5, -0x1.24ba4a0000000p-4, -0x1.851fde0000000p-4, 0x1.ea5c960000000p-4, 0x1.383a3c0000000p-7, -0x1.7885060000000p-3, -0x1.031ef60000000p-2, -0x1.16319e0000000p-2, -0x1.023a340000000p-2, -0x1.c7748c0000000p-3, -0x1.ab62a40000000p-4}
}
, {{0x1.eb9ac20000000p-6, 0x1.9e7a360000000p-6, -0x1.8390da0000000p-4, 0x1.dcbc300000000p-3, 0x1.164a6e0000000p-4, 0x1.c5a75e0000000p-4, -0x1.2521220000000p-4, -0x1.6ffab00000000p-3, 0x1.b54a940000000p-5, 0x1.212a520000000p-3, -0x1.85bb500000000p-4, 0x1.7b76140000000p-5, -0x1.47a8420000000p-5, -0x1.4e65a40000000p-3, 0x1.e063780000000p-5, 0x1.0a24080000000p-6, -0x1.cb98bc0000000p-3, -0x1.dbab780000000p-7, 0x1.34fd5a0000000p-3, -0x1.e61a920000000p-7, 0x1.07ba6a0000000p-5, -0x1.532c780000000p-2, 0x1.1b4a7a0000000p-4, -0x1.e658680000000p-5, -0x1.f7986a0000000p-7, -0x1.a838b20000000p-3, -0x1.3794080000000p-2, 0x1.4f97120000000p-3, 0x1.d5bd7a0000000p-4, 0x1.43b70e0000000p-4, 0x1.2d25f40000000p-4, 0x1.1b97b40000000p-5}
, {0x1.35b0ce0000000p-6, -0x1.457c820000000p-4, -0x1.c0c88e0000000p-3, 0x1.89aa940000000p-3, -0x1.d7b5e20000000p-3, -0x1.5ac0c60000000p-3, -0x1.bfbf140000000p-5, -0x1.8b264a0000000p-7, -0x1.9efd380000000p-3, 0x1.0f627a0000000p-4, -0x1.ff5d780000000p-3, -0x1.d941920000000p-2, 0x1.d6dd280000000p-4, -0x1.f09a120000000p-5, -0x1.3925080000000p-2, -0x1.167da60000000p-2, -0x1.a0022e0000000p-3, -0x1.2d6f4c0000000p-2, 0x1.f330220000000p-11, -0x1.2e9b1e0000000p-2, -0x1.b0641c0000000p-3, -0x1.89f6140000000p-4, -0x1.996f740000000p-2, -0x1.8a2ee60000000p-2, -0x1.1d56f40000000p-2, -0x1.063de40000000p-2, -0x1.9151a80000000p-2, -0x1.65dd8c0000000p-3, -0x1.31e4380000000p-4, -0x1.6d72180000000p-2, -0x1.cde8ce0000000p-3, -0x1.de9fc20000000p-3}
, {-0x1.54033e0000000p-5, -0x1.57270e0000000p-2, 0x1.3a224a0000000p-6, -0x1.d295600000000p-5, -0x1.47dc2a0000000p-4, 0x1.c8e2800000000p-9, -0x1.2601dc0000000p-2, 0x1.2789f60000000p-4, 0x1.cb481a0000000p-8, 0x1.2da9380000000p-6, 0x1.62081a0000000p-7, -0x1.ff920a0000000p-6, 0x1.2e7a300000000p-3, 0x1.966e8e0000000p-4, -0x1.deb0be0000000p-6, -0x1.c5ff8a0000000p-5, 0x1.6055160000000p-4, 0x1.1306900000000p-3, -0x1.7ba7880000000p-3, 0x1.10e4080000000p-3, 0x1.8638da0000000p-4, 0x1.40fc220000000p-3, 0x1.6f291a0000000p-5, 0x1.fb6e3e0000000p-4, 0x1.254c920000000p-3, 0x1.dbaa3a0000000p-3, -0x1.3e21c20000000p-6, -0x1.0838d40000000p-3, -0x1.e10d2c0000000p-4, -0x1.2c98ee0000000p-5, -0x1.0c08060000000p-6, 0x1.29f5e60000000p-4}
}
}
, {{{0x1.12c6880000000p-3, -0x1.3ab2940000000p-6, -0x1.26f8f40000000p-6, 0x1.99714c0000000p-5, -0x1.830d620000000p-6, 0x1.d7a6a00000000p-4, 0x1.2b65440000000p-6, 0x1.c0baa20000000p-5, 0x1.e58ca20000000p-8, 0x1.ba96d80000000p-4, 0x1.5a684a0000000p-4, 0x1.ea7bbc0000000p-5, -0x1.95e5140000000p-6, -0x1.8c56840000000p-5, -0x1.92f94a0000000p-5, 0x1.06d9120000000p-4, 0x1.2a99a80000000p-5, 0x1.9bdf920000000p-7, 0x1.3bb9140000000p-4, 0x1.f7b8d00000000p-7, 0x1.1d85f00000000p-5, 0x1.30b05c0000000p-3, 0x1.27cb9c0000000p-5, 0x1.b288660000000p-4, 0x1.0af36a0000000p-5, 0x1.93cb7e0000000p-5, -0x1.ae277c0000000p-9, 0x1.edaa820000000p-6, -0x1.55c3460000000p-5, 0x1.3887a80000000p-4, -0x1.0191bc0000000p-5, -0x1.62ebf80000000p-3}
, {-0x1.4e9ab80000000p-3, 0x1.0224140000000p-4, -0x1.377f580000000p-5, 0x1.9598aa0000000p-6, 0x1.01dd960000000p-4, 0x1.fcecfe0000000p-4, -0x1.c955d00000000p-4, -0x1.2f27800000000p-3, 0x1.2174500000000p-3, 0x1.68ae980000000p-5, 0x1.a1a7ee0000000p-4, 0x1.9cd5060000000p-11, 0x1.73b1260000000p-6, -0x1.f62dec0000000p-4, 0x1.061c9e0000000p-4, -0x1.c341140000000p-6, 0x1.36a0f20000000p-3, 0x1.d3932e0000000p-9, 0x1.2d21560000000p-4, -0x1.1f7f140000000p-5, 0x1.b0078e0000000p-4, 0x1.abf6640000000p-6, 0x1.67de7e0000000p-5, 0x1.3971ba0000000p-4, -0x1.08b7e00000000p-6, 0x1.4e8c400000000p-8, -0x1.02802e0000000p-5, 0x1.b937c00000000p-4, 0x1.711d0a0000000p-4, 0x1.44000a0000000p-4, 0x1.12f34a0000000p-6, 0x1.c15dca0000000p-4}
, {-0x1.f54a560000000p-4, 0x1.e53e280000000p-6, 0x1.5a719e0000000p-8, -0x1.aecb1e0000000p-4, 0x1.05361a0000000p-3, 0x1.25125a0000000p-3, -0x1.66971e0000000p-4, -0x1.be36400000000p-3, 0x1.a22ac40000000p-5, -0x1.1277c00000000p-3, -0x1.60a0fc0000000p-8, 0x1.580d880000000p-4, 0x1.32b0420000000p-6, -0x1.70906e0000000p-4, 0x1.71a1ca0000000p-5, 0x1.56a6fe0000000p-4, 0x1.c709b00000000p-5, 0x1.4d806c0000000p-13, 0x1.9534ec0000000p-5, -0x1.09e3260000000p-4, 0x1.f585460000000p-6, 0x1.322b580000000p-4, 0x1.e78ce60000000p-4, 0x1.1be6c00000000p-3, 0x1.ea071e0000000p-6, 0x1.7265780000000p-5, -0x1.8eb71c0000000p-5, 0x1.180f080000000p-3, 0x1.38db460000000p-4, 0x1.4f55480000000p-4, 0x1.21e7080000000p-4, 0x1.84c0320000000p-8}
}
, {{0x1.4bbf940000000p-5, -0x1.a7aef60000000p-4, 0x1.36fda00000000p-6, 0x1.dbce1e0000000p-5, -0x1.b72a240000000p-5, -0x1.8e4aba0000000p-4, 0x1.bb88340000000p-6, -0x1.2a41c60000000p-5, -0x1.1a3f6c0000000p-5, 0x1.0e9a780000000p-5, -0x1.21c5960000000p-3, 0x1.4970b60000000p-13, -0x1.07292e0000000p-4, -0x1.07eb860000000p-4, -0x1.32e1980000000p-7, -0x1.b0a2c40000000p-4, 0x1.4dba100000000p-8, -0x1.9a27580000000p-6, -0x1.31773e0000000p-5, -0x1.1473b40000000p-6, 0x1.8053900000000p-8, 0x1.78effe0000000p-7, -0x1.1f23ca0000000p-5, 0x1.89a7f40000000p-4, 0x1.06822e0000000p-5, -0x1.021ffe0000000p-4, -0x1.04e0ac0000000p-5, -0x1.dc405a0000000p-6, -0x1.07490e0000000p-4, -0x1.78e7be0000000p-8, -0x1.53dc080000000p-9, -0x1.a0c33e0000000p-4}
, {-0x1.7d68fa0000000p-3, -0x1.aadc8c0000000p-7, 0x1.6806b60000000p-5, -0x1.9a56d40000000p-3, -0x1.ec08780000000p-6, -0x1.b88d6e0000000p-6, -0x1.07169a0000000p-3, -0x1.23bdd40000000p-3, 0x1.0112400000000p-4, 0x1.fee6960000000p-6, -0x1.a2d4260000000p-8, 0x1.a737620000000p-8, 0x1.66a8b60000000p-6, -0x1.6161480000000p-3, 0x1.4859de0000000p-6, 0x1.2a38ac0000000p-4, 0x1.3517a40000000p-4, 0x1.add46c0000000p-5, 0x1.3048ee0000000p-4, 0x1.9ee34e0000000p-7, -0x1.af42c20000000p-7, -0x1.99d62c0000000p-5, 0x1.6d890e0000000p-5, 0x1.797f540000000p-4, 0x1.11c3ba0000000p-6, -0x1.c8c5de0000000p-6, -0x1.fa46000000000p-7, 0x1.29e59c0000000p-3, 0x1.31c9360000000p-5, -0x1.1d67dc0000000p-6, 0x1.5787d40000000p-5, -0x1.48779a0000000p-4}
, {-0x1.a088f20000000p-3, -0x1.ea8bf00000000p-7, -0x1.fe83bc0000000p-6, -0x1.8eb7e40000000p-2, 0x1.ffc16a0000000p-6, 0x1.75ebe00000000p-4, -0x1.4360100000000p-4, 0x1.961fc60000000p-6, 0x1.e8a92c0000000p-5, -0x1.2a7df20000000p-2, 0x1.1887ba0000000p-5, -0x1.043f640000000p-6, 0x1.a671740000000p-7, -0x1.03867e0000000p-3, 0x1.f82caa0000000p-8, 0x1.4122420000000p-5, 0x1.ede6380000000p-7, 0x1.5742120000000p-5, 0x1.4b94820000000p-3, -0x1.69b1aa0000000p-4, 0x1.7445e40000000p-4, 0x1.5906860000000p-4, 0x1.01a3dc0000000p-3, 0x1.a2d2080000000p-4, 0x1.c0a76a0000000p-5, 0x1.86da380000000p-7, 0x1.4a9cb40000000p-8, 0x1.0999ac0000000p-3, 0x1.9a3ed20000000p-6, 0x1.0caf420000000p-5, 0x1.aecc8c0000000p-4, -0x1.b3a6140000000p-6}
}
, {{-0x1.616e260000000p-4, -0x1.4498a20000000p-3, -0x1.ee32f80000000p-5, 0x1.547c5a0000000p-5, -0x1.02daee0000000p-4, 0x1.af69360000000p-5, -0x1.8cbecc0000000p-3, -0x1.bdc0be0000000p-6, -0x1.5adbb60000000p-5, 0x1.68eeb00000000p-3, -0x1.659b8a0000000p-4, -0x1.a353540000000p-5, -0x1.6de8d40000000p-7, -0x1.c484fe0000000p-3, -0x1.c960760000000p-6, -0x1.2193e20000000p-4, -0x1.82a57a0000000p-5, 0x1.af7c400000000p-7, 0x1.c44e040000000p-5, -0x1.b181b00000000p-5, -0x1.3ec34a0000000p-7, -0x1.9401ac0000000p-5, 0x1.aeb86e0000000p-6, -0x1.294bf60000000p-5, -0x1.ed88c40000000p-5, 0x1.1565100000000p-5, -0x1.3211f80000000p-3, -0x1.1c99e20000000p-6, -0x1.9d79fa0000000p-4, 0x1.ae73aa0000000p-6, -0x1.34b9ba0000000p-5, 0x1.055bae0000000p-8}
, {0x1.1548080000000p-7, 0x1.81408a0000000p-5, -0x1.0db54a0000000p-3, -0x1.4b762a0000000p-4, 0x1.e197fc0000000p-7, 0x1.3a04ae0000000p-4, 0x1.41bf920000000p-5, 0x1.22b80a0000000p-4, -0x1.cdef960000000p-5, 0x1.4afcf40000000p-4, -0x1.59f3380000000p-6, -0x1.3b26340000000p-3, -0x1.17a6820000000p-7, -0x1.a9a1fe0000000p-2, 0x1.40cbaa0000000p-4, 0x1.2793080000000p-4, -0x1.4833940000000p-3, -0x1.9a3ba20000000p-4, 0x1.0669c80000000p-3, -0x1.57f8e80000000p-4, -0x1.c0a29a0000000p-5, 0x1.90c8980000000p-3, 0x1.1417100000000p-6, 0x1.8180b80000000p-5, -0x1.2aa4ca0000000p-5, -0x1.34a7200000000p-5, 0x1.3f138a0000000p-3, 0x1.3e628c0000000p-5, 0x1.6f40260000000p-6, 0x1.14fb280000000p-4, 0x1.326d8c0000000p-4, -0x1.d3c2380000000p-5}
, {0x1.693c5c0000000p-7, 0x1.86189c0000000p-4, -0x1.434c740000000p-6, -0x1.6c7a0a0000000p-2, -0x1.d6fafa0000000p-10, 0x1.0148440000000p-5, 0x1.527d860000000p-4, 0x1.9257900000000p-6, -0x1.e2cbe00000000p-5, -0x1.f23a840000000p-3, 0x1.76f67e0000000p-5, -0x1.8f058e0000000p-5, 0x1.d966d40000000p-4, -0x1.0cf6560000000p-2, 0x1.01dd520000000p-4, -0x1.3587a40000000p-4, 0x1.437cda0000000p-4, -0x1.6bd57c0000000p-4, -0x1.edb4200000000p-5, -0x1.f172ea0000000p-5, 0x1.23404e0000000p-6, 0x1.39afc20000000p-2, -0x1.f108240000000p-8, 0x1.1273160000000p-5, 0x1.2e37040000000p-5, -0x1.272f9e0000000p-5, 0x1.3954940000000p-4, -0x1.7849260000000p-5, -0x1.2679140000000p-5, 0x1.22c30a0000000p-5, 0x1.0fea1e0000000p-6, 0x1.4343cc0000000p-5}
}
}
, {{{-0x1.7060e20000000p-4, 0x1.b69ea20000000p-3, 0x1.1eca4a0000000p-3, -0x1.e8b5360000000p-6, 0x1.582c540000000p-3, 0x1.a73c9e0000000p-4, -0x1.5bb8dc0000000p-5, -0x1.1a1c000000000p-6, 0x1.4eba780000000p-4, -0x1.91c1820000000p-4, 0x1.90bd180000000p-4, 0x1.5d09a00000000p-5, -0x1.6708a80000000p-4, -0x1.d0ad3c0000000p-5, 0x1.7ddf100000000p-3, 0x1.5564800000000p-3, 0x1.0240160000000p-4, -0x1.7fc40a0000000p-5, 0x1.1de64e0000000p-6, 0x1.51e2f20000000p-5, -0x1.58a0aa0000000p-6, 0x1.b695e80000000p-4, -0x1.3ad0980000000p-10, -0x1.75abf00000000p-9, 0x1.431c420000000p-7, 0x1.0268760000000p-4, 0x1.ce28e60000000p-4, 0x1.fdc6020000000p-5, 0x1.ebe4720000000p-5, 0x1.6958ea0000000p-4, 0x1.8a22de0000000p-4, 0x1.d6c91a0000000p-4}
, {0x1.27b0d60000000p-5, -0x1.56a8140000000p-5, -0x1.42c7880000000p-3, 0x1.d983b60000000p-4, -0x1.3fde900000000p-5, -0x1.470d8a0000000p-8, 0x1.40b2720000000p-4, -0x1.6fedce0000000p-5, -0x1.dfe3de0000000p-4, 0x1.7ca9d00000000p-6, -0x1.cd7e340000000p-3, -0x1.c133fe0000000p-3, -0x1.cfe93e0000000p-6, -0x1.e03c8e0000000p-3, -0x1.f6ce500000000p-4, -0x1.da51ce0000000p-4, -0x1.33e0a60000000p-3, -0x1.b354760000000p-3, 0x1.e652820000000p-9, -0x1.58ff3a0000000p-2, 0x1.2e23480000000p-5, 0x1.64b6200000000p-5, -0x1.1f96de0000000p-3, -0x1.ad8d8c0000000p-5, -0x1.e1cc340000000p-3, -0x1.f4b5e20000000p-7, -0x1.44a9d40000000p-4, 0x1.74ba720000000p-4, 0x1.7b89080000000p-6, -0x1.16318c0000000p-8, -0x1.86215e0000000p-5, -0x1.6f71780000000p-3}
, {-0x1.28cb7e0000000p-3, -0x1.42eef80000000p-3, -0x1.5694fc0000000p-6, 0x1.59fa6a0000000p-6, -0x1.02ca100000000p-3, -0x1.6a81660000000p-10, -0x1.ed89a40000000p-5, -0x1.e841ca0000000p-4, -0x1.122a240000000p-4, 0x1.24ce880000000p-4, 0x1.b71d520000000p-6, 0x1.3398ea0000000p-5, 0x1.2f63920000000p-3, 0x1.37080e0000000p-3, 0x1.1a82560000000p-8, -0x1.741e8e0000000p-5, 0x1.a919820000000p-5, -0x1.19e2120000000p-5, -0x1.18e31c0000000p-4, 0x1.ee7d840000000p-5, 0x1.e6a1c40000000p-7, 0x1.3577640000000p-5, 0x1.bd590c0000000p-5, -0x1.369ab80000000p-4, 0x1.88e33a0000000p-4, -0x1.5c754e0000000p-5, 0x1.942d780000000p-10, -0x1.4e92ee0000000p-4, -0x1.97c22c0000000p-5, -0x1.1e77740000000p-4, -0x1.18b7cc0000000p-8, -0x1.410a640000000p-4}
}
, {{0x1.30376e0000000p-3, 0x1.357d440000000p-2, -0x1.fded060000000p-4, 0x1.4b9bae0000000p-3, 0x1.32a8a00000000p-7, 0x1.4cab9e0000000p-3, 0x1.86e7a20000000p-4, -0x1.767b880000000p-4, 0x1.a366e40000000p-4, 0x1.de007c0000000p-7, 0x1.077a9a0000000p-6, -0x1.a416e40000000p-6, -0x1.758d8e0000000p-2, 0x1.4873cc0000000p-5, 0x1.b45d9c0000000p-5, 0x1.865bb60000000p-6, -0x1.5713e60000000p-3, -0x1.e0dc340000000p-5, 0x1.8787de0000000p-4, -0x1.e0fed60000000p-3, -0x1.d59dde0000000p-5, -0x1.540e3e0000000p-2, -0x1.88f08e0000000p-4, -0x1.436c3a0000000p-4, -0x1.23d7140000000p-3, -0x1.db7ae60000000p-2, -0x1.2212c80000000p-3, 0x1.966a4a0000000p-4, 0x1.3490760000000p-3, 0x1.071f5c0000000p-4, 0x1.ba51f20000000p-6, 0x1.c0b3600000000p-14}
, {-0x1.fba2e40000000p-3, -0x1.9867840000000p-3, -0x1.26ff260000000p-3, 0x1.c340400000000p-4, -0x1.5863fe0000000p-2, -0x1.fcbc800000000p-3, -0x1.3691880000000p-2, -0x1.ccc9e00000000p-5, -0x1.2594cc0000000p-2, 0x1.8f79660000000p-5, -0x1.a3be780000000p-5, -0x1.9521f00000000p-3, 0x1.b6ee200000000p-4, 0x1.312ee20000000p-3, -0x1.4f307e0000000p-2, -0x1.f007620000000p-3, 0x1.27e9300000000p-4, -0x1.874ca80000000p-4, -0x1.b5c21a0000000p-3, -0x1.09a5440000000p-3, -0x1.3e26920000000p-4, 0x1.6e023e0000000p-5, -0x1.46fe3a0000000p-3, -0x1.b0a8280000000p-4, 0x1.1966520000000p-4, 0x1.002cfa0000000p-5, -0x1.4513f80000000p-3, -0x1.ad29540000000p-2, -0x1.0be5c80000000p-3, -0x1.74ede40000000p-2, -0x1.5f22940000000p-4, -0x1.52d9ea0000000p-2}
, {-0x1.15f0320000000p-2, -0x1.8f91fa0000000p-6, 0x1.31e8b60000000p-4, -0x1.6e20ee0000000p-4, -0x1.4741200000000p-9, 0x1.5817820000000p-5, 0x1.42b2ea0000000p-6, -0x1.5af1480000000p-3, 0x1.91991c0000000p-4, -0x1.8ccce80000000p-4, 0x1.7ff8660000000p-4, 0x1.2595d00000000p-3, 0x1.65fb480000000p-4, 0x1.08515c0000000p-4, 0x1.b9e5080000000p-5, 0x1.9a00a80000000p-4, 0x1.ac70820000000p-4, 0x1.4eb0ea0000000p-5, 0x1.deb75a0000000p-4, 0x1.cfbac80000000p-4, 0x1.071c260000000p-3, 0x1.ced6f00000000p-4, 0x1.c779080000000p-4, 0x1.40784a0000000p-3, 0x1.3bd1da0000000p-3, 0x1.1515ea0000000p-4, 0x1.2c22440000000p-5, 0x1.802d800000000p-4, 0x1.6901c60000000p-4, 0x1.17f06c0000000p-3, 0x1.40c4720000000p-4, 0x1.b9ebb40000000p-5}
}
, {{0x1.af21b20000000p-5, -0x1.a02eb20000000p-4, -0x1.1a54160000000p-2, 0x1.eba6660000000p-3, -0x1.f9f1000000000p-3, -0x1.9663380000000p-3, 0x1.3dc9580000000p-5, -0x1.e442920000000p-4, -0x1.df06c00000000p-3, 0x1.dba86c0000000p-3, -0x1.0c8ea00000000p-3, -0x1.abfc880000000p-2, 0x1.342ebc0000000p-6, -0x1.7b296e0000000p-4, -0x1.8dd59e0000000p-3, -0x1.0464fe0000000p-2, -0x1.a7c3c60000000p-4, -0x1.614da00000000p-2, -0x1.76fede0000000p-3, -0x1.3a0d2e0000000p-3, -0x1.22310c0000000p-5, -0x1.9eadf20000000p-3, -0x1.608c520000000p-2, -0x1.0a9fc60000000p-2, -0x1.77594a0000000p-3, -0x1.e934720000000p-4, -0x1.4c06360000000p-10, -0x1.48005a0000000p-4, -0x1.6358100000000p-4, -0x1.d50e420000000p-3, -0x1.2c89fc0000000p-3, -0x1.45ee900000000p-3}
, {-0x1.0ba4dc0000000p-3, -0x1.2bd47c0000000p-3, -0x1.52bf320000000p-3, -0x1.07d1cc0000000p-6, -0x1.2fa0200000000p-4, -0x1.715d2e0000000p-5, -0x1.8de3ba0000000p-3, 0x1.5573b80000000p-4, 0x1.0dabb60000000p-4, 0x1.cb40280000000p-6, -0x1.d583a60000000p-4, -0x1.85666e0000000p-5, 0x1.e047a60000000p-5, -0x1.35a5580000000p-4, -0x1.758df00000000p-3, -0x1.36b6cc0000000p-4, -0x1.0d42aa0000000p-4, -0x1.84e8300000000p-5, -0x1.347e180000000p-3, -0x1.164e3e0000000p-4, -0x1.73ef500000000p-6, 0x1.b22e020000000p-4, -0x1.1b9aca0000000p-5, 0x1.ad5d8c0000000p-4, -0x1.5630b40000000p-4, 0x1.fd9afc0000000p-5, -0x1.c88b8a0000000p-6, -0x1.d93d860000000p-4, -0x1.84ad6c0000000p-3, -0x1.d34c720000000p-4, -0x1.ae0ede0000000p-4, -0x1.a406780000000p-4}
, {0x1.212dea0000000p-6, 0x1.0ebeba0000000p-3, 0x1.65e26c0000000p-4, -0x1.8ff0fe0000000p-6, 0x1.8f3f220000000p-5, -0x1.b673520000000p-7, 0x1.a230cc0000000p-11, -0x1.778e700000000p-5, 0x1.40eaaa0000000p-6, -0x1.8380ce0000000p-3, 0x1.1b07020000000p-5, 0x1.6899700000000p-4, 0x1.6faef20000000p-4, -0x1.b5f4920000000p-4, 0x1.f3750c0000000p-4, -0x1.1e02cc0000000p-8, -0x1.2ea9a40000000p-8, 0x1.7d48dc0000000p-5, 0x1.328f820000000p-3, 0x1.5efbae0000000p-4, 0x1.4b863e0000000p-4, 0x1.d1fb4c0000000p-3, 0x1.cdee940000000p-4, 0x1.376e0a0000000p-3, 0x1.71f2a20000000p-4, 0x1.49604c0000000p-4, 0x1.6532c80000000p-4, 0x1.01fc2e0000000p-4, 0x1.b4df5e0000000p-7, 0x1.49e8a60000000p-4, 0x1.f7337a0000000p-5, 0x1.3dc8a80000000p-5}
}
}
, {{{0x1.5ccece0000000p-4, 0x1.67f7d20000000p-3, -0x1.5e5f340000000p-4, 0x1.b4d9aa0000000p-5, -0x1.6840b20000000p-4, 0x1.577e080000000p-6, -0x1.71b49a0000000p-5, 0x1.2ca22a0000000p-4, -0x1.f173180000000p-5, 0x1.4c73020000000p-5, -0x1.83baf40000000p-4, -0x1.c882380000000p-4, -0x1.4e53980000000p-4, -0x1.bd4bc00000000p-3, -0x1.1bad760000000p-4, -0x1.b6d80a0000000p-4, -0x1.79c2ac0000000p-3, -0x1.fbccfe0000000p-5, 0x1.dd2efc0000000p-6, -0x1.2dd5ae0000000p-3, -0x1.138d040000000p-5, -0x1.ab51020000000p-3, -0x1.64a6bc0000000p-3, -0x1.ae8db80000000p-5, -0x1.dcd03a0000000p-4, -0x1.c924840000000p-3, -0x1.3d5db80000000p-7, -0x1.a1b5560000000p-5, -0x1.e8d6ca0000000p-5, 0x1.de42ec0000000p-6, -0x1.18ce6a0000000p-4, 0x1.0c1eb20000000p-9}
, {-0x1.4322d00000000p-5, -0x1.844cb80000000p-3, -0x1.2ba35c0000000p-9, 0x1.03614e0000000p-6, -0x1.8428cc0000000p-3, -0x1.2c36f00000000p-4, -0x1.a107aa0000000p-7, -0x1.daa1500000000p-4, -0x1.4a6e8e0000000p-3, 0x1.5a84120000000p-4, -0x1.26d3fe0000000p-5, -0x1.7547760000000p-3, -0x1.985a280000000p-5, 0x1.08e6c60000000p-4, -0x1.2530ca0000000p-3, -0x1.57f3200000000p-4, -0x1.825ed00000000p-7, -0x1.9aa7b00000000p-4, -0x1.bb9e000000000p-8, -0x1.9efd5e0000000p-4, -0x1.7ee84e0000000p-4, -0x1.d12a380000000p-5, -0x1.67555c0000000p-5, -0x1.534e640000000p-4, -0x1.cab2120000000p-5, -0x1.49cfea0000000p-5, -0x1.1ffdb60000000p-4, -0x1.6a10180000000p-4, -0x1.37647a0000000p-3, -0x1.749c8a0000000p-4, -0x1.65859c0000000p-4, -0x1.58218a0000000p-5}
, {-0x1.148cfa0000000p-3, -0x1.83ab4e0000000p-6, 0x1.19d9200000000p-3, -0x1.5d81c60000000p-3, 0x1.aa03e40000000p-6, 0x1.1fdfd40000000p-6, 0x1.34bb180000000p-6, -0x1.9d9b8c0000000p-4, 0x1.78448c0000000p-4, -0x1.3669220000000p-2, 0x1.02dca80000000p-4, 0x1.a480260000000p-4, 0x1.8f52dc0000000p-4, 0x1.ce44720000000p-3, 0x1.ce08780000000p-4, 0x1.ae5c4a0000000p-4, 0x1.fcd49c0000000p-6, 0x1.8d00e60000000p-4, 0x1.aba91c0000000p-4, 0x1.9146600000000p-4, -0x1.7fd66e0000000p-12, 0x1.d1c59c0000000p-4, 0x1.514af00000000p-3, 0x1.053b140000000p-11, 0x1.d458f00000000p-4, 0x1.c72f6c0000000p-6, 0x1.1281380000000p-4, 0x1.2013300000000p-4, -0x1.ffffe20000000p-5, -0x1.57797e0000000p-7, 0x1.ad46580000000p-7, 0x1.0d927a0000000p-3}
}
, {{-0x1.1c8b6a0000000p-3, -0x1.6d16080000000p-4, -0x1.cc5d380000000p-4, 0x1.f8313a0000000p-4, -0x1.5d4e5a0000000p-4, -0x1.3b04860000000p-5, 0x1.621d400000000p-9, -0x1.a98f6c0000000p-4, -0x1.59bfb60000000p-3, 0x1.135fe20000000p-4, 0x1.3dc4ea0000000p-7, -0x1.04ec6c0000000p-3, 0x1.366e960000000p-4, 0x1.fd589e0000000p-8, -0x1.5519340000000p-5, -0x1.7e3b7c0000000p-4, -0x1.908ad60000000p-5, -0x1.8232e80000000p-3, 0x1.524aea0000000p-4, -0x1.3035980000000p-3, -0x1.723f5c0000000p-3, -0x1.4ad6ce0000000p-3, -0x1.3925b40000000p-3, -0x1.8b4d1c0000000p-4, -0x1.28ee260000000p-3, -0x1.a3f2900000000p-7, -0x1.ac75920000000p-4, 0x1.f198a40000000p-6, -0x1.ca16ea0000000p-4, -0x1.9be0e60000000p-7, -0x1.bda8a80000000p-4, 0x1.8a4dbc0000000p-9}
, {-0x1.b962b00000000p-3, -0x1.a57cee0000000p-3, 0x1.5e85260000000p-5, -0x1.d362ee0000000p-4, -0x1.b490820000000p-5, -0x1.08868a0000000p-4, -0x1.e534a20000000p-3, -0x1.54fe8e0000000p-3, 0x1.5063500000000p-5, 0x1.8e2f6c0000000p-5, -0x1.874dc80000000p-5, 0x1.363cd80000000p-3, 0x1.261fde0000000p-3, 0x1.7b4ce00000000p-7, -0x1.1041cc0000000p-5, -0x1.047b580000000p-6, 0x1.3151880000000p-5, 0x1.fd8eb40000000p-5, -0x1.5c2fae0000000p-3, -0x1.e4a2840000000p-13, -0x1.05f4480000000p-8, 0x1.1eaabe0000000p-3, 0x1.0f524e0000000p-6, 0x1.316d940000000p-3, 0x1.a12b100000000p-4, 0x1.fe3c780000000p-6, -0x1.b22b620000000p-7, -0x1.3e91180000000p-5, -0x1.78f0420000000p-9, -0x1.7e3f360000000p-5, -0x1.b4748a0000000p-6, 0x1.794a980000000p-7}
, {-0x1.95eedc0000000p-4, 0x1.bc56780000000p-3, 0x1.8895300000000p-6, 0x1.d3e31a0000000p-7, 0x1.e84ad60000000p-4, 0x1.d4984c0000000p-5, 0x1.ea2ad00000000p-4, -0x1.b708060000000p-3, 0x1.489a880000000p-6, -0x1.14d00c0000000p-2, 0x1.821cf40000000p-5, 0x1.8521d00000000p-5, 0x1.bf64b80000000p-4, -0x1.2340960000000p-6, 0x1.dadbda0000000p-5, 0x1.9b8d5e0000000p-4, -0x1.19287a0000000p-6, 0x1.2d11c20000000p-4, 0x1.bb3e1a0000000p-4, -0x1.03b7580000000p-5, -0x1.e382680000000p-7, 0x1.ccdff40000000p-3, 0x1.0d6da00000000p-4, 0x1.5a796a0000000p-3, 0x1.b592440000000p-6, 0x1.4fd24c0000000p-4, 0x1.2a58840000000p-8, -0x1.50f3d20000000p-5, 0x1.60ab5a0000000p-4, -0x1.7c48000000000p-6, 0x1.c4027c0000000p-7, 0x1.b40b820000000p-6}
}
, {{-0x1.36c3ac0000000p-4, -0x1.b1b1a60000000p-4, -0x1.fa774c0000000p-4, 0x1.e765500000000p-3, -0x1.87e39e0000000p-4, -0x1.8c386e0000000p-7, -0x1.0d212c0000000p-4, -0x1.0358c40000000p-6, -0x1.dd1ac20000000p-9, 0x1.7b20b20000000p-5, -0x1.c207f20000000p-4, -0x1.551c440000000p-4, 0x1.211b960000000p-4, -0x1.2134000000000p-5, -0x1.00db660000000p-4, -0x1.4840f20000000p-5, -0x1.00b7c00000000p-5, -0x1.6123de0000000p-4, -0x1.46f7180000000p-4, 0x1.06a28c0000000p-4, -0x1.106f660000000p-4, 0x1.aa89a00000000p-5, -0x1.a856f40000000p-4, -0x1.0b4eda0000000p-3, -0x1.5f6f7c0000000p-6, 0x1.0c87400000000p-5, 0x1.5d744c0000000p-4, -0x1.6d03d80000000p-5, -0x1.050bea0000000p-3, -0x1.079d740000000p-4, -0x1.4e43620000000p-3, -0x1.ec4fae0000000p-6}
, {-0x1.7596e80000000p-5, -0x1.365daa0000000p-4, -0x1.10c73c0000000p-6, -0x1.9c08cc0000000p-4, -0x1.e8ad540000000p-5, 0x1.76d0860000000p-8, -0x1.48b0cc0000000p-4, 0x1.645c940000000p-6, -0x1.42f0ca0000000p-5, 0x1.1422b40000000p-4, 0x1.f9b59c0000000p-5, -0x1.d0671a0000000p-6, 0x1.091ba20000000p-3, 0x1.86f73e0000000p-4, 0x1.56c1720000000p-8, -0x1.02112e0000000p-6, 0x1.762bd20000000p-5, 0x1.c05f920000000p-6, 0x1.49ed000000000p-5, 0x1.7d93b20000000p-4, 0x1.6484a80000000p-4, 0x1.1c941a0000000p-3, 0x1.e7dd920000000p-6, 0x1.53e5360000000p-8, 0x1.9cf32e0000000p-6, 0x1.ba0c400000000p-4, 0x1.a17a160000000p-3, -0x1.3742280000000p-4, -0x1.5b765a0000000p-6, 0x1.25b2100000000p-8, 0x1.0f2ca40000000p-4, 0x1.3109020000000p-7}
, {0x1.aaa4be0000000p-4, 0x1.a09f740000000p-3, -0x1.e927f60000000p-5, -0x1.b5d9ee0000000p-4, 0x1.1464ec0000000p-5, 0x1.dc1e260000000p-5, 0x1.72571e0000000p-8, 0x1.4b3de60000000p-5, -0x1.efe6ba0000000p-5, -0x1.83b3a80000000p-7, 0x1.d0143e0000000p-6, -0x1.08ec880000000p-4, 0x1.b792540000000p-6, -0x1.4de2660000000p-3, -0x1.b9aa3c0000000p-6, -0x1.8075160000000p-6, -0x1.130cc00000000p-3, -0x1.1dac0a0000000p-5, 0x1.82e4900000000p-5, -0x1.699fcc0000000p-5, -0x1.20871c0000000p-5, -0x1.1d0c9e0000000p-6, -0x1.e0899a0000000p-5, -0x1.99c6980000000p-4, -0x1.8065000000000p-5, -0x1.f2e07e0000000p-4, 0x1.3640ae0000000p-4, -0x1.cc0dc60000000p-6, -0x1.f9c47a0000000p-6, 0x1.5c9e9e0000000p-8, -0x1.3d2d540000000p-5, 0x1.6bfe2e0000000p-5}
}
}
, {{{0x1.bc49720000000p-5, 0x1.b3ebfe0000000p-4, 0x1.31ac720000000p-6, 0x1.360ac20000000p-3, 0x1.48b1220000000p-4, 0x1.463b280000000p-5, 0x1.c02eca0000000p-7, -0x1.7c0e360000000p-3, 0x1.6f183e0000000p-6, -0x1.8ee9860000000p-4, 0x1.9ef2740000000p-9, 0x1.c344160000000p-4, 0x1.0bfd100000000p-4, 0x1.8398860000000p-3, 0x1.2fd2f80000000p-3, -0x1.b607580000000p-11, 0x1.ecb6700000000p-5, 0x1.a7d5220000000p-6, 0x1.f6a7680000000p-6, 0x1.43b3a00000000p-4, 0x1.38d2b60000000p-4, -0x1.96dc260000000p-6, 0x1.6b25780000000p-4, -0x1.1ec05c0000000p-5, 0x1.49b11a0000000p-5, 0x1.fb6b8a0000000p-5, 0x1.e368a20000000p-5, 0x1.87288e0000000p-4, 0x1.71992a0000000p-6, -0x1.6494660000000p-6, 0x1.cb5ed40000000p-5, 0x1.4151460000000p-3}
, {-0x1.0a5ac80000000p-5, -0x1.bb7f3c0000000p-5, -0x1.110d500000000p-4, 0x1.1550a20000000p-5, -0x1.1df78e0000000p-3, -0x1.ee58f40000000p-4, 0x1.c40f0c0000000p-6, -0x1.8c64020000000p-4, -0x1.8bf3bc0000000p-5, 0x1.24e47e0000000p-4, -0x1.e7419a0000000p-8, -0x1.e2b0a40000000p-7, 0x1.4b55140000000p-3, 0x1.809e6e0000000p-3, 0x1.6ef9780000000p-8, 0x1.83b0c00000000p-7, 0x1.36e6a80000000p-5, 0x1.a455040000000p-6, -0x1.2256780000000p-4, 0x1.25b1960000000p-3, -0x1.298b480000000p-5, 0x1.0ba6a40000000p-4, -0x1.0703340000000p-8, -0x1.e18cc60000000p-4, 0x1.8ebed20000000p-5, 0x1.29b42c0000000p-3, 0x1.a7ff700000000p-4, -0x1.637ffe0000000p-4, -0x1.be240a0000000p-4, -0x1.3369740000000p-3, -0x1.26e3ae0000000p-5, 0x1.4e71fa0000000p-4}
, {-0x1.fa72380000000p-6, 0x1.3672440000000p-7, -0x1.1db26a0000000p-3, -0x1.7fef7a0000000p-4, -0x1.feba5c0000000p-5, -0x1.19f5ca0000000p-5, -0x1.51ebfe0000000p-5, 0x1.cf1c1a0000000p-7, -0x1.9ec36a0000000p-5, 0x1.d4c6f80000000p-6, -0x1.8bd8820000000p-4, -0x1.182fee0000000p-6, 0x1.d625720000000p-6, -0x1.a42e9a0000000p-5, 0x1.5280440000000p-6, -0x1.ff82520000000p-4, -0x1.f2b3b40000000p-6, -0x1.81f2280000000p-4, -0x1.108f680000000p-4, -0x1.5a28a60000000p-4, -0x1.5083140000000p-4, 0x1.097e9e0000000p-3, -0x1.59d6b20000000p-4, -0x1.3e89340000000p-3, -0x1.44c2160000000p-4, 0x1.2cafd40000000p-7, -0x1.8f06aa0000000p-4, -0x1.02f1b60000000p-4, -0x1.c3373e0000000p-4, -0x1.b2b6940000000p-6, -0x1.b714840000000p-4, -0x1.1e37dc0000000p-3}
}
, {{-0x1.4309440000000p-4, 0x1.03a5b60000000p-6, -0x1.35dbc00000000p-6, 0x1.29c20a0000000p-6, 0x1.0339c00000000p-4, -0x1.592b4e0000000p-4, -0x1.fd7a500000000p-5, -0x1.2275f80000000p-3, -0x1.9e043a0000000p-5, 0x1.b4c8920000000p-9, -0x1.d638480000000p-7, -0x1.94a9880000000p-8, -0x1.a0c2e20000000p-4, -0x1.e7fba00000000p-4, 0x1.cde70e0000000p-4, 0x1.015f880000000p-8, -0x1.bb71fa0000000p-6, 0x1.825eee0000000p-5, -0x1.42e91e0000000p-4, 0x1.690e7e0000000p-4, -0x1.6f278a0000000p-4, -0x1.2661620000000p-5, -0x1.752d100000000p-6, 0x1.6585300000000p-6, 0x1.4318b60000000p-4, 0x1.5284740000000p-4, -0x1.e856be0000000p-4, 0x1.993a020000000p-8, 0x1.4ac84e0000000p-6, 0x1.326ad80000000p-5, -0x1.3682ea0000000p-7, 0x1.b879800000000p-4}
, {-0x1.1057f40000000p-3, -0x1.ec0a520000000p-4, 0x1.f2ce420000000p-7, -0x1.000f300000000p-8, -0x1.90d64a0000000p-4, 0x1.b5e01e0000000p-8, -0x1.cf86180000000p-3, 0x1.6ea5f00000000p-7, 0x1.580cf00000000p-4, -0x1.770b640000000p-6, -0x1.537a6a0000000p-5, 0x1.0f63580000000p-8, 0x1.82e3460000000p-4, 0x1.1f4f120000000p-5, -0x1.3e79ec0000000p-4, 0x1.b52ff60000000p-7, 0x1.b485a60000000p-4, 0x1.a61d6a0000000p-7, -0x1.70eee00000000p-4, -0x1.e859200000000p-6, 0x1.29bd020000000p-7, 0x1.56f67e0000000p-4, 0x1.2c917c0000000p-7, 0x1.2aef340000000p-6, 0x1.7f07e00000000p-6, -0x1.1eaa1e0000000p-5, 0x1.b4091c0000000p-8, -0x1.5e5c740000000p-4, -0x1.3ce54e0000000p-5, -0x1.fce4b20000000p-4, 0x1.df93400000000p-6, -0x1.9450c60000000p-4}
, {-0x1.71eb340000000p-5, -0x1.0757740000000p-7, 0x1.58101c0000000p-4, -0x1.8f12620000000p-5, -0x1.b272620000000p-6, -0x1.b1fb740000000p-5, -0x1.0d93ee0000000p-3, -0x1.e1bdb40000000p-6, 0x1.73f9ee0000000p-11, 0x1.c0e2d00000000p-7, -0x1.d6f18a0000000p-6, 0x1.8ea7620000000p-4, 0x1.90f6dc0000000p-5, 0x1.92b6ea0000000p-5, -0x1.6441380000000p-5, 0x1.1af0660000000p-7, 0x1.e937dc0000000p-5, 0x1.57369c0000000p-6, -0x1.221bea0000000p-3, 0x1.a202860000000p-5, -0x1.f961000000000p-4, -0x1.59c1040000000p-4, 0x1.1fd9320000000p-5, -0x1.ebc53a0000000p-3, 0x1.2065f80000000p-4, 0x1.ef3eb40000000p-4, -0x1.d153680000000p-3, -0x1.37bfda0000000p-4, -0x1.0e661c0000000p-4, -0x1.ff4b620000000p-5, -0x1.307d960000000p-5, -0x1.0679960000000p-4}
}
, {{-0x1.3448340000000p-5, 0x1.8f78e00000000p-6, 0x1.0cc9520000000p-3, -0x1.25b8c20000000p-3, 0x1.39495e0000000p-4, -0x1.1706ea0000000p-4, -0x1.f97fb00000000p-5, -0x1.5e1fa40000000p-4, 0x1.3a7b240000000p-5, -0x1.bf36580000000p-3, 0x1.3c6af40000000p-6, 0x1.35e9100000000p-5, -0x1.ec39a80000000p-6, 0x1.0f922a0000000p-9, 0x1.646fb00000000p-4, 0x1.0ec7c60000000p-3, 0x1.55eeea0000000p-8, -0x1.d61f980000000p-6, -0x1.78b2420000000p-5, -0x1.5836840000000p-9, 0x1.4f220e0000000p-7, -0x1.338c0c0000000p-3, -0x1.7b3a420000000p-5, 0x1.be2b380000000p-9, 0x1.0778c00000000p-5, 0x1.c6e3180000000p-7, 0x1.f0f52c0000000p-10, 0x1.23e0da0000000p-4, 0x1.f960580000000p-4, -0x1.f7256c0000000p-5, -0x1.221a6a0000000p-7, 0x1.acddae0000000p-6}
, {0x1.0238be0000000p-6, 0x1.69b71c0000000p-6, 0x1.ade2640000000p-4, -0x1.16b2ba0000000p-3, 0x1.72d9900000000p-4, 0x1.2b431a0000000p-5, 0x1.fc6e0e0000000p-5, -0x1.600a740000000p-4, 0x1.40ace20000000p-4, -0x1.37ea280000000p-2, 0x1.c10a100000000p-4, 0x1.50c4660000000p-3, -0x1.1df8fe0000000p-4, 0x1.83c29e0000000p-5, 0x1.e26f4c0000000p-4, -0x1.63773e0000000p-6, 0x1.101a600000000p-4, 0x1.547ce20000000p-4, 0x1.49df600000000p-4, 0x1.5db8140000000p-4, 0x1.7fad220000000p-5, -0x1.b82dd40000000p-4, 0x1.1682560000000p-4, 0x1.0264f80000000p-6, 0x1.8fe4120000000p-5, -0x1.95e8000000000p-5, 0x1.cf20f00000000p-7, 0x1.83462a0000000p-5, 0x1.4f20920000000p-4, 0x1.91ef140000000p-4, 0x1.d901080000000p-5, 0x1.00433a0000000p-4}
, {0x1.7a3d880000000p-5, 0x1.958ab80000000p-4, 0x1.a6a14e0000000p-5, -0x1.0b47f20000000p-4, 0x1.dcb6840000000p-6, 0x1.55e6660000000p-4, 0x1.615b3c0000000p-4, -0x1.592c800000000p-3, 0x1.ac88d60000000p-4, -0x1.22f6540000000p-4, -0x1.7c65ca0000000p-5, 0x1.1220e20000000p-3, -0x1.1179a80000000p-3, 0x1.b8ea940000000p-4, 0x1.01bfda0000000p-5, 0x1.100a1c0000000p-4, 0x1.7b0d9e0000000p-6, 0x1.cb6ed20000000p-4, 0x1.1c82aa0000000p-3, -0x1.5194f60000000p-5, 0x1.31fc1a0000000p-6, 0x1.da4aa00000000p-5, 0x1.229d840000000p-4, 0x1.624bf60000000p-5, 0x1.8481fe0000000p-6, 0x1.474b820000000p-4, -0x1.2e61380000000p-4, -0x1.8e13d60000000p-5, 0x1.1d79900000000p-6, 0x1.6a00f60000000p-5, 0x1.eb865a0000000p-4, 0x1.8ad5720000000p-7}
}
}
, {{{0x1.eab9ac0000000p-7, 0x1.43db540000000p-5, -0x1.c78c200000000p-5, 0x1.3f719c0000000p-5, -0x1.a09a5e0000000p-4, -0x1.ab9d620000000p-4, -0x1.299e800000000p-5, 0x1.d333fa0000000p-5, -0x1.3a309a0000000p-3, 0x1.2966ee0000000p-3, -0x1.c580080000000p-4, -0x1.96c3940000000p-5, -0x1.2b81880000000p-3, 0x1.a8276e0000000p-4, -0x1.4d05400000000p-3, -0x1.488e700000000p-4, 0x1.62fb0c0000000p-4, -0x1.7eb12a0000000p-5, -0x1.67e68c0000000p-3, 0x1.f8cc660000000p-6, -0x1.13863a0000000p-2, -0x1.27725c0000000p-3, -0x1.ad078e0000000p-4, -0x1.ca80f80000000p-3, -0x1.bf00ea0000000p-4, -0x1.0e34b20000000p-3, -0x1.2496a00000000p-2, -0x1.fb6ede0000000p-3, -0x1.c407160000000p-5, -0x1.a019860000000p-3, -0x1.311fbc0000000p-3, -0x1.2f83460000000p-4}
, {0x1.3c0cda0000000p-4, -0x1.05ccb80000000p-2, -0x1.12e3320000000p-4, -0x1.e2b0aa0000000p-4, -0x1.a3c6fe0000000p-3, -0x1.4e8f0a0000000p-3, 0x1.6fce140000000p-3, 0x1.d7cef00000000p-3, -0x1.e9112c0000000p-4, 0x1.6b98700000000p-5, -0x1.b25a560000000p-3, -0x1.7f208a0000000p-3, -0x1.02c4000000000p-3, -0x1.13b0c40000000p-6, -0x1.c7d6820000000p-3, -0x1.a11daa0000000p-3, -0x1.1f4ca60000000p-3, -0x1.d1e2620000000p-4, -0x1.5952260000000p-4, -0x1.9c609a0000000p-3, -0x1.3654a80000000p-2, 0x1.ff0e360000000p-8, -0x1.ecf2820000000p-3, -0x1.19e4660000000p-3, -0x1.d367660000000p-3, -0x1.c39a160000000p-3, 0x1.2cc6540000000p-5, -0x1.b136d20000000p-3, -0x1.ee516a0000000p-4, -0x1.ae66a80000000p-3, -0x1.6c7ee40000000p-3, -0x1.54354e0000000p-2}
, {0x1.942a7c0000000p-3, -0x1.d9fca40000000p-4, -0x1.08f93e0000000p-3, -0x1.9c573e0000000p-5, -0x1.061ab20000000p-4, -0x1.dd06b60000000p-5, 0x1.edac400000000p-4, 0x1.b097040000000p-3, -0x1.8ab4c80000000p-6, 0x1.25580e0000000p-4, -0x1.5f3ad60000000p-3, -0x1.f216dc0000000p-4, -0x1.8a9cb80000000p-3, -0x1.5853180000000p-3, -0x1.5c56160000000p-3, -0x1.55bb460000000p-3, -0x1.bd85200000000p-3, -0x1.368c020000000p-3, -0x1.0499fe0000000p-4, -0x1.9e9e0a0000000p-3, 0x1.3422900000000p-6, 0x1.df0fe80000000p-4, -0x1.e17f360000000p-4, -0x1.0efeda0000000p-6, -0x1.66f5a20000000p-4, -0x1.3988740000000p-3, 0x1.d907200000000p-4, -0x1.488bd60000000p-5, -0x1.265b520000000p-4, -0x1.4211260000000p-5, -0x1.ee067a0000000p-5, -0x1.607ec40000000p-2}
}
, {{0x1.7f30860000000p-5, 0x1.2d51420000000p-3, 0x1.d0d8240000000p-4, -0x1.1fb63a0000000p-3, 0x1.6407480000000p-6, 0x1.29c4200000000p-3, 0x1.c3af700000000p-4, 0x1.c25fb00000000p-4, 0x1.1fcdb60000000p-5, -0x1.07f7800000000p-7, 0x1.2427a20000000p-4, 0x1.4b15500000000p-3, -0x1.95b8680000000p-3, -0x1.35cf460000000p-4, 0x1.51953e0000000p-4, 0x1.7016200000000p-4, 0x1.5d6b340000000p-4, 0x1.a5564a0000000p-4, 0x1.257f840000000p-3, 0x1.b01f560000000p-4, 0x1.69b6000000000p-3, 0x1.1cb20e0000000p-5, 0x1.3b51aa0000000p-5, 0x1.d29c6c0000000p-5, -0x1.d06d420000000p-6, 0x1.26005a0000000p-3, 0x1.3d8a6e0000000p-4, 0x1.18f07e0000000p-3, 0x1.98c61c0000000p-4, 0x1.50d8cc0000000p-4, 0x1.0d4d900000000p-6, 0x1.fc72680000000p-4}
, {0x1.69ac2e0000000p-5, 0x1.40d0a20000000p-3, 0x1.d2bd3a0000000p-4, -0x1.b13f800000000p-3, 0x1.83ceb40000000p-5, 0x1.66a20c0000000p-5, -0x1.d91dc20000000p-5, -0x1.069c660000000p-4, -0x1.cbcc360000000p-7, -0x1.2fd78c0000000p-4, 0x1.2ee6160000000p-3, 0x1.05ee0a0000000p-4, -0x1.39a2c60000000p-3, -0x1.c1b3e00000000p-4, 0x1.420b1e0000000p-5, 0x1.5adcee0000000p-3, 0x1.f28b600000000p-4, 0x1.11f2e60000000p-4, -0x1.0cb3a40000000p-13, 0x1.3553d40000000p-4, 0x1.03faa40000000p-4, -0x1.61cb980000000p-4, 0x1.17ff6c0000000p-3, 0x1.73c3420000000p-8, 0x1.b545d20000000p-6, 0x1.f345ea0000000p-6, 0x1.831f6a0000000p-4, 0x1.90661e0000000p-6, 0x1.9c44820000000p-7, -0x1.bfeb700000000p-8, 0x1.6183460000000p-4, 0x1.279f6c0000000p-3}
, {-0x1.9415060000000p-4, 0x1.c98be60000000p-4, -0x1.db19a80000000p-8, -0x1.125aee0000000p-3, -0x1.6161300000000p-7, -0x1.9c1f840000000p-4, -0x1.697e340000000p-5, 0x1.8518040000000p-4, -0x1.a6fb3a0000000p-4, -0x1.af02a20000000p-6, 0x1.f581600000000p-6, 0x1.be04860000000p-5, -0x1.ea086c0000000p-3, 0x1.70fb820000000p-5, 0x1.9f56ea0000000p-8, 0x1.b0576e0000000p-5, -0x1.446fa00000000p-4, 0x1.c2abf20000000p-5, -0x1.5d7dee0000000p-4, 0x1.fffce60000000p-6, -0x1.68e55c0000000p-3, -0x1.89aec00000000p-4, -0x1.33a6ba0000000p-7, -0x1.53383a0000000p-4, 0x1.010a7a0000000p-6, -0x1.29baac0000000p-3, -0x1.f9ef060000000p-4, -0x1.e4792a0000000p-5, -0x1.33be3e0000000p-5, -0x1.07e68a0000000p-4, -0x1.0251880000000p-5, 0x1.b027d60000000p-4}
}
, {{-0x1.bc2f540000000p-7, 0x1.6f77520000000p-6, 0x1.1016e40000000p-6, -0x1.daa7800000000p-10, -0x1.dc470e0000000p-6, 0x1.24b3700000000p-5, 0x1.c885ca0000000p-5, -0x1.2e8a240000000p-7, 0x1.02c0240000000p-5, -0x1.dab6200000000p-4, -0x1.5307080000000p-8, -0x1.ac3a6a0000000p-7, -0x1.c0464e0000000p-5, 0x1.a15b800000000p-6, -0x1.7230140000000p-7, -0x1.3b39900000000p-5, 0x1.4496700000000p-4, -0x1.034ae00000000p-4, 0x1.de50f40000000p-5, -0x1.0ff2760000000p-7, -0x1.ddbff40000000p-5, 0x1.9b51ee0000000p-7, -0x1.2872ae0000000p-4, -0x1.1056a80000000p-6, 0x1.ec8e400000000p-7, 0x1.a14b140000000p-8, 0x1.4e3ff40000000p-6, 0x1.2145980000000p-5, -0x1.1af5200000000p-5, -0x1.33197c0000000p-4, -0x1.75c5580000000p-6, 0x1.adf7760000000p-5}
, {0x1.3ab17a0000000p-3, 0x1.1bf24e0000000p-4, 0x1.e7060a0000000p-6, -0x1.7563760000000p-3, -0x1.d8469c0000000p-5, 0x1.ceca860000000p-5, 0x1.4dba0e0000000p-5, 0x1.69e54a0000000p-3, 0x1.e04c6e0000000p-5, -0x1.e8b5de0000000p-3, 0x1.3350b40000000p-5, 0x1.fb4c3c0000000p-5, 0x1.ebe9200000000p-7, 0x1.0f41380000000p-5, -0x1.eb6ad60000000p-5, 0x1.3f6eb00000000p-5, 0x1.97fc3c0000000p-5, 0x1.d84dda0000000p-6, 0x1.0f56940000000p-6, 0x1.9b81de0000000p-5, 0x1.8079680000000p-4, 0x1.737fb60000000p-4, -0x1.5ce6b60000000p-4, 0x1.3e09fe0000000p-4, 0x1.275f900000000p-3, 0x1.bd5c0c0000000p-4, 0x1.0dfdf80000000p-2, 0x1.6afe340000000p-4, 0x1.d510480000000p-7, -0x1.685d0a0000000p-5, 0x1.5bf6200000000p-5, -0x1.5f10240000000p-9}
, {-0x1.221bf60000000p-4, 0x1.0ff22e0000000p-3, 0x1.52437e0000000p-4, -0x1.31bb440000000p-3, 0x1.6a4a760000000p-5, -0x1.7960300000000p-8, -0x1.4967da0000000p-5, 0x1.943ce40000000p-5, -0x1.9c7a800000000p-7, -0x1.ca8b3a0000000p-5, 0x1.72373c0000000p-7, 0x1.69fd6a0000000p-4, -0x1.fc9ca40000000p-5, -0x1.74159c0000000p-4, -0x1.5c52da0000000p-7, 0x1.cfcf440000000p-4, 0x1.fa75c40000000p-5, -0x1.b79bbe0000000p-7, -0x1.57c33a0000000p-4, 0x1.067d3c0000000p-7, 0x1.81c66c0000000p-8, -0x1.4a61420000000p-5, -0x1.084c220000000p-5, 0x1.f126ca0000000p-7, 0x1.8e5fc20000000p-6, 0x1.f76d260000000p-4, 0x1.c86e4a0000000p-4, 0x1.a335fc0000000p-5, 0x1.717ab80000000p-6, 0x1.07e7c40000000p-3, 0x1.68dff40000000p-4, 0x1.14f18c0000000p-3}
}
}
, {{{-0x1.39a87c0000000p-2, 0x1.4212be0000000p-6, 0x1.4eabc60000000p-5, 0x1.9913860000000p-5, 0x1.1ea4520000000p-6, -0x1.8ea0b60000000p-5, -0x1.b6201c0000000p-4, -0x1.08df660000000p-5, -0x1.cbe23a0000000p-5, 0x1.09e6900000000p-3, 0x1.b5f8c00000000p-5, -0x1.acc8c00000000p-6, 0x1.957cfe0000000p-6, 0x1.fed4400000000p-4, 0x1.7c65a00000000p-6, 0x1.04b56e0000000p-5, 0x1.3f73320000000p-10, 0x1.3cde3c0000000p-4, -0x1.e107e40000000p-4, -0x1.0948f80000000p-5, 0x1.f872d40000000p-6, -0x1.644bb40000000p-3, 0x1.5a2cb80000000p-4, 0x1.75881e0000000p-8, 0x1.e9c85c0000000p-10, 0x1.040e8e0000000p-4, -0x1.0126240000000p-5, 0x1.10dad40000000p-5, -0x1.25ad540000000p-5, 0x1.d636560000000p-8, -0x1.f23f400000000p-6, 0x1.75c2160000000p-5}
, {-0x1.8a37120000000p-3, 0x1.0239c60000000p-6, 0x1.86ed7e0000000p-4, -0x1.e1bcd60000000p-6, -0x1.f489460000000p-5, 0x1.a30bc80000000p-6, -0x1.1debf00000000p-3, 0x1.3f998c0000000p-6, 0x1.cd3b060000000p-6, -0x1.168aa00000000p-7, -0x1.b6ceb40000000p-12, -0x1.46632a0000000p-8, 0x1.20f81a0000000p-5, 0x1.6d97200000000p-3, -0x1.4a28600000000p-4, 0x1.4bff060000000p-6, -0x1.9b1c980000000p-5, -0x1.d86b7e0000000p-6, -0x1.0cdd0a0000000p-5, -0x1.1fe9540000000p-4, 0x1.21c6be0000000p-5, 0x1.3b10060000000p-6, -0x1.813da00000000p-5, -0x1.8b07100000000p-6, -0x1.bb247c0000000p-5, -0x1.5c2b820000000p-5, -0x1.de72080000000p-4, -0x1.ab2b9e0000000p-5, -0x1.81a17a0000000p-7, 0x1.198b5e0000000p-7, -0x1.2379260000000p-3, 0x1.4195040000000p-5}
, {0x1.853cc40000000p-3, -0x1.994b500000000p-7, -0x1.32310c0000000p-4, 0x1.6fab960000000p-3, -0x1.90b38e0000000p-4, -0x1.a9e4340000000p-5, 0x1.80f5b80000000p-3, 0x1.c89f240000000p-5, -0x1.f227240000000p-7, 0x1.053de60000000p-3, -0x1.b6a7920000000p-4, -0x1.25f7720000000p-6, -0x1.ea58d20000000p-6, -0x1.0deef60000000p-5, -0x1.0c8fda0000000p-4, -0x1.7f7e560000000p-5, -0x1.e224e60000000p-4, -0x1.ebadbc0000000p-4, 0x1.fae1600000000p-4, -0x1.fa14680000000p-5, 0x1.6170840000000p-5, 0x1.e7c4180000000p-4, -0x1.c01f840000000p-4, -0x1.54cf160000000p-5, -0x1.665ab80000000p-4, 0x1.049ee20000000p-6, 0x1.e699120000000p-5, 0x1.7a5ff00000000p-6, -0x1.205b3a0000000p-5, -0x1.2bd2820000000p-3, -0x1.84d1220000000p-4, 0x1.543bba0000000p-9}
}
, {{-0x1.b3731c0000000p-5, -0x1.be4f340000000p-5, -0x1.7d203c0000000p-8, -0x1.fdfb760000000p-5, 0x1.b87e4c0000000p-5, 0x1.7f44320000000p-4, 0x1.841c400000000p-4, -0x1.6a01440000000p-4, -0x1.098d660000000p-7, -0x1.acafb00000000p-5, -0x1.29dc400000000p-5, 0x1.f9ba3a0000000p-4, 0x1.5cea360000000p-9, -0x1.5f22560000000p-3, 0x1.80a5e40000000p-4, 0x1.4daa100000000p-4, -0x1.6f70460000000p-4, -0x1.27178e0000000p-6, 0x1.0832ce0000000p-5, 0x1.188d3e0000000p-4, 0x1.0b17ee0000000p-5, 0x1.2176d20000000p-4, 0x1.6aa3540000000p-6, 0x1.54ccf00000000p-6, 0x1.5a9c100000000p-4, -0x1.6618e20000000p-5, 0x1.521a4a0000000p-4, 0x1.59052a0000000p-4, 0x1.0e7c220000000p-5, 0x1.a4f9060000000p-5, 0x1.9450e00000000p-4, 0x1.a539e00000000p-4}
, {-0x1.50b8e80000000p-2, 0x1.e4062c0000000p-4, 0x1.6faace0000000p-5, -0x1.3e34220000000p-3, 0x1.61ee840000000p-4, 0x1.b811620000000p-4, -0x1.43d8d20000000p-3, -0x1.b096720000000p-4, -0x1.7b2f340000000p-4, -0x1.1627f00000000p-2, 0x1.869aa60000000p-6, 0x1.a8a3da0000000p-4, 0x1.ba62b40000000p-4, -0x1.a040a60000000p-4, 0x1.2e0cfa0000000p-3, -0x1.5c21d20000000p-8, 0x1.3f1ae80000000p-3, 0x1.fb4f940000000p-6, -0x1.498aea0000000p-4, -0x1.16d8ba0000000p-4, 0x1.be27ac0000000p-5, 0x1.be48bc0000000p-4, -0x1.c1064e0000000p-8, 0x1.2de0140000000p-6, 0x1.3edf5c0000000p-5, 0x1.a694040000000p-5, -0x1.6c2b260000000p-5, -0x1.3aa1240000000p-4, 0x1.9e311e0000000p-4, 0x1.770afa0000000p-6, 0x1.92b86e0000000p-5, 0x1.5ff4aa0000000p-3}
, {-0x1.900f080000000p-4, 0x1.45ae080000000p-4, -0x1.1483820000000p-3, 0x1.1bfdec0000000p-4, -0x1.0498900000000p-3, -0x1.b497400000000p-4, -0x1.ad92840000000p-4, 0x1.7a8a840000000p-2, -0x1.1810480000000p-3, 0x1.1092ce0000000p-4, -0x1.05ea940000000p-3, -0x1.baece80000000p-7, -0x1.08e1200000000p-2, -0x1.4501c80000000p-3, -0x1.149f260000000p-3, -0x1.7568aa0000000p-4, 0x1.311a7a0000000p-8, -0x1.2d6b9c0000000p-3, -0x1.25e8720000000p-5, -0x1.cafb340000000p-4, -0x1.37229c0000000p-2, 0x1.0fc07e0000000p-4, -0x1.10eb320000000p-2, -0x1.dc9cba0000000p-3, -0x1.81a9b20000000p-3, -0x1.2aedb60000000p-2, -0x1.2cb9c00000000p-3, -0x1.940cd40000000p-3, -0x1.3abdf40000000p-5, -0x1.36cd6e0000000p-3, -0x1.f4c26a0000000p-3, -0x1.b7e5a00000000p-4}
}
, {{-0x1.b8f84a0000000p-6, -0x1.4f73160000000p-5, -0x1.d8a2480000000p-6, -0x1.9009f00000000p-4, 0x1.55b23e0000000p-4, -0x1.a1458e0000000p-5, 0x1.30606a0000000p-5, 0x1.16ace00000000p-3, 0x1.9004340000000p-5, 0x1.0287960000000p-3, -0x1.1008360000000p-4, -0x1.cdd6980000000p-7, 0x1.7d37400000000p-4, 0x1.ce56c40000000p-5, -0x1.64d25a0000000p-6, -0x1.69d0500000000p-4, -0x1.d325680000000p-5, -0x1.c7938c0000000p-6, -0x1.76b67c0000000p-4, 0x1.02c2580000000p-6, -0x1.d0368e0000000p-4, 0x1.5eb4f20000000p-3, -0x1.8725440000000p-4, 0x1.0a129a0000000p-4, -0x1.4657400000000p-5, 0x1.4ad3f60000000p-5, 0x1.44affa0000000p-10, -0x1.b840d00000000p-4, -0x1.f6c2c60000000p-5, -0x1.0594840000000p-3, 0x1.40e2d40000000p-7, 0x1.c473ce0000000p-5}
, {-0x1.e0c8d00000000p-6, 0x1.8558a60000000p-4, 0x1.e648a20000000p-5, -0x1.aa61f80000000p-2, 0x1.2490920000000p-4, 0x1.5d913c0000000p-4, 0x1.8465780000000p-5, -0x1.e6a88c0000000p-8, 0x1.bfb7740000000p-5, -0x1.73a45c0000000p-2, 0x1.a907dc0000000p-4, 0x1.5338140000000p-4, 0x1.24f3ba0000000p-3, -0x1.4858860000000p-3, 0x1.d706900000000p-4, 0x1.0386b40000000p-3, 0x1.44a6240000000p-7, 0x1.fb08960000000p-4, 0x1.846d920000000p-7, 0x1.99a5520000000p-5, 0x1.f445cc0000000p-5, 0x1.5037160000000p-2, 0x1.353a6a0000000p-3, 0x1.d4871e0000000p-4, 0x1.be828a0000000p-4, 0x1.2ba5a20000000p-3, 0x1.b0a9920000000p-3, 0x1.50fdb60000000p-7, 0x1.7b77000000000p-6, 0x1.d6767c0000000p-5, 0x1.6443500000000p-3, 0x1.2e44720000000p-4}
, {-0x1.c380060000000p-3, 0x1.85c8980000000p-3, 0x1.18c6000000000p-6, -0x1.81db7c0000000p-4, 0x1.6ec37a0000000p-5, 0x1.025a9a0000000p-9, -0x1.dca6a60000000p-3, -0x1.7d3e7a0000000p-7, -0x1.eeb2580000000p-7, -0x1.3fbc7e0000000p-2, 0x1.d46db00000000p-6, 0x1.76bdba0000000p-6, -0x1.7af36a0000000p-3, -0x1.249f700000000p-11, 0x1.c04f5a0000000p-5, 0x1.71a7d60000000p-4, 0x1.aa79000000000p-4, 0x1.5625b80000000p-4, -0x1.811da00000000p-5, 0x1.0604060000000p-8, -0x1.1e20040000000p-4, 0x1.6e3f8e0000000p-4, -0x1.4463020000000p-4, -0x1.2b71e40000000p-3, 0x1.1d0d960000000p-8, -0x1.ea08c20000000p-4, -0x1.0e35560000000p-4, -0x1.e3952c0000000p-5, 0x1.8fbe120000000p-7, -0x1.7919520000000p-4, -0x1.9d07fa0000000p-4, 0x1.9caa820000000p-4}
}
}
, {{{-0x1.6cf5800000000p-4, -0x1.396bd60000000p-2, 0x1.1dfabc0000000p-4, 0x1.108d100000000p-5, -0x1.1ca5080000000p-6, 0x1.adf6740000000p-6, 0x1.7490fa0000000p-4, -0x1.34ffea0000000p-8, -0x1.be7f700000000p-5, 0x1.d9f10c0000000p-5, 0x1.387f780000000p-8, -0x1.3978600000000p-4, -0x1.0c64de0000000p-7, 0x1.f168a80000000p-5, -0x1.4e05f20000000p-5, 0x1.3579520000000p-9, 0x1.5acf4e0000000p-4, -0x1.18e2da0000000p-6, -0x1.5691a80000000p-4, 0x1.b8a7f40000000p-5, 0x1.6f6f5a0000000p-4, 0x1.4523b60000000p-3, -0x1.4130fe0000000p-4, 0x1.0099c60000000p-4, -0x1.1feb140000000p-4, -0x1.3dc36e0000000p-9, 0x1.b97a1a0000000p-4, -0x1.5a440e0000000p-4, 0x1.f10c4c0000000p-7, -0x1.70406a0000000p-5, 0x1.fa84380000000p-6, -0x1.f68e4a0000000p-4}
, {-0x1.1f85140000000p-2, 0x1.96e24a0000000p-7, 0x1.ec504e0000000p-6, -0x1.7844440000000p-4, 0x1.f88e720000000p-4, 0x1.c3810a0000000p-4, -0x1.0f5c980000000p-3, -0x1.9989fa0000000p-2, 0x1.4602fe0000000p-3, -0x1.a074b00000000p-3, 0x1.a2c9d20000000p-4, 0x1.df67740000000p-4, 0x1.7d21300000000p-4, -0x1.b1bac20000000p-5, 0x1.990d380000000p-5, 0x1.57b1820000000p-6, -0x1.7903f80000000p-8, 0x1.7091560000000p-5, 0x1.c1d6120000000p-4, 0x1.8fbb300000000p-5, 0x1.06b99c0000000p-4, -0x1.ce5d1e0000000p-4, 0x1.e1b41c0000000p-4, 0x1.dbc3720000000p-5, 0x1.ba17300000000p-4, 0x1.b15f680000000p-4, -0x1.daffec0000000p-4, 0x1.82e1f80000000p-3, 0x1.bf5a040000000p-4, 0x1.56d0ae0000000p-3, 0x1.095f100000000p-6, 0x1.6addf20000000p-4}
, {-0x1.9286f40000000p-4, 0x1.9115920000000p-4, 0x1.fe9e6c0000000p-6, 0x1.2699000000000p-4, -0x1.0cc7c60000000p-6, 0x1.d9044c0000000p-4, -0x1.1a7e100000000p-4, -0x1.a1f20e0000000p-4, 0x1.83ad960000000p-5, 0x1.bab1de0000000p-5, 0x1.1d6bcc0000000p-4, -0x1.b4a30e0000000p-7, -0x1.3587180000000p-2, -0x1.18a9fc0000000p-3, -0x1.21cdc40000000p-4, 0x1.82fcdc0000000p-4, 0x1.b84c640000000p-5, -0x1.54f25c0000000p-5, 0x1.6366060000000p-8, -0x1.1f0fc00000000p-4, 0x1.3a8fb80000000p-3, -0x1.4822620000000p-3, 0x1.58c04e0000000p-5, -0x1.5ad76e0000000p-5, -0x1.02cd5e0000000p-3, -0x1.9e8d200000000p-3, -0x1.0c88900000000p-2, -0x1.934ca20000000p-8, 0x1.67e2480000000p-5, -0x1.e8425e0000000p-6, -0x1.a046540000000p-7, 0x1.2201be0000000p-4}
}
, {{-0x1.47d4be0000000p-8, -0x1.5619ec0000000p-3, -0x1.b57b3e0000000p-4, 0x1.6d8f620000000p-6, -0x1.23c3640000000p-6, -0x1.990efe0000000p-4, 0x1.79d9080000000p-6, -0x1.058e120000000p-3, 0x1.eb74780000000p-7, 0x1.e60cb00000000p-4, -0x1.1d72b60000000p-5, -0x1.25d7da0000000p-4, 0x1.a69b5e0000000p-5, -0x1.abf1820000000p-4, -0x1.99b70c0000000p-3, -0x1.910d5c0000000p-4, -0x1.d7841c0000000p-4, 0x1.0efb700000000p-6, -0x1.f720240000000p-4, -0x1.2d7c360000000p-7, -0x1.d6a5620000000p-5, 0x1.e119480000000p-3, 0x1.0e01e00000000p-6, 0x1.713f120000000p-4, -0x1.60e2320000000p-10, 0x1.ac14d00000000p-7, 0x1.38e76e0000000p-3, -0x1.1918200000000p-3, -0x1.1b0b1a0000000p-3, -0x1.ceb7320000000p-4, -0x1.a2a8aa0000000p-7, -0x1.c673ba0000000p-3}
, {-0x1.59d09a0000000p-2, 0x1.ecec940000000p-4, 0x1.e6d2dc0000000p-4, -0x1.a72e780000000p-4, 0x1.0e7e140000000p-3, 0x1.29a0c20000000p-4, -0x1.0117440000000p-3, -0x1.1605340000000p-1, 0x1.8e1c1a0000000p-5, -0x1.5c98e80000000p-2, 0x1.76016a0000000p-5, 0x1.6f988a0000000p-6, 0x1.51d6920000000p-4, 0x1.9b73620000000p-7, 0x1.a2a3a20000000p-4, 0x1.06f6000000000p-4, -0x1.eb24460000000p-8, 0x1.0279800000000p-4, 0x1.f32eb00000000p-4, 0x1.e6bb980000000p-4, -0x1.14b7fe0000000p-5, -0x1.1a23580000000p-7, 0x1.bb9cee0000000p-5, 0x1.5ed90a0000000p-5, 0x1.0a15680000000p-3, 0x1.89e4760000000p-4, 0x1.d089b00000000p-5, 0x1.9ab54e0000000p-4, 0x1.3f72dc0000000p-6, 0x1.dab26a0000000p-7, 0x1.c560ea0000000p-4, 0x1.fb35840000000p-4}
, {-0x1.e303e60000000p-6, 0x1.0582040000000p-8, -0x1.4696e20000000p-5, 0x1.402fd80000000p-6, -0x1.8887ce0000000p-5, 0x1.a0e7dc0000000p-6, -0x1.96620e0000000p-3, 0x1.4682be0000000p-6, -0x1.9483900000000p-5, 0x1.e7bf8c0000000p-5, -0x1.76dd100000000p-4, -0x1.1955040000000p-7, -0x1.57e7ba0000000p-3, -0x1.0b36b60000000p-2, -0x1.18f99c0000000p-5, 0x1.bf4ef40000000p-9, -0x1.3729d60000000p-4, -0x1.9ea2960000000p-4, 0x1.7a2ede0000000p-4, -0x1.e95ad20000000p-5, -0x1.888de60000000p-5, -0x1.10a3da0000000p-4, -0x1.1ab22a0000000p-4, -0x1.4f6d180000000p-4, -0x1.b3025a0000000p-3, -0x1.f64c8a0000000p-3, -0x1.aa157c0000000p-3, 0x1.414fc20000000p-5, 0x1.8726a00000000p-4, 0x1.7d629e0000000p-4, -0x1.47f61e0000000p-4, -0x1.1fe0660000000p-4}
}
, {{-0x1.3a39b40000000p-3, -0x1.42951c0000000p-2, -0x1.f907fa0000000p-4, -0x1.da8f7a0000000p-6, -0x1.2bd69e0000000p-6, -0x1.5eb1b40000000p-4, -0x1.4f65be0000000p-4, -0x1.07b0460000000p-4, -0x1.dbce780000000p-6, 0x1.86a47a0000000p-3, -0x1.86f2d80000000p-3, -0x1.da50ce0000000p-4, 0x1.db8e4e0000000p-5, -0x1.82a7aa0000000p-3, -0x1.09d9cc0000000p-3, -0x1.0a427c0000000p-3, -0x1.6303f80000000p-7, -0x1.b3fb5a0000000p-4, -0x1.6a49ba0000000p-6, -0x1.2958080000000p-4, -0x1.a068c40000000p-4, 0x1.fccaaa0000000p-3, -0x1.a12d840000000p-4, 0x1.4ae20c0000000p-4, 0x1.06ae8c0000000p-5, 0x1.e2d25a0000000p-4, 0x1.fe2d840000000p-3, -0x1.00c1020000000p-3, -0x1.4bd5e60000000p-3, -0x1.f7eed60000000p-4, 0x1.6c67740000000p-8, -0x1.7950020000000p-3}
, {-0x1.2e028c0000000p-2, 0x1.1a3aa00000000p-3, 0x1.0c50700000000p-4, -0x1.49b11c0000000p-2, 0x1.6b9c6a0000000p-4, -0x1.d0bbd00000000p-5, -0x1.67039e0000000p-4, 0x1.4c8ebe0000000p-4, -0x1.2b5e1e0000000p-6, -0x1.9e9b960000000p-2, 0x1.2e392a0000000p-3, -0x1.c9e4820000000p-7, 0x1.c48ac40000000p-5, -0x1.397b300000000p-2, 0x1.91dbb20000000p-7, 0x1.a3470e0000000p-6, 0x1.c446340000000p-7, 0x1.f143f40000000p-5, 0x1.c0ad560000000p-6, 0x1.4b60540000000p-4, 0x1.009ff60000000p-4, 0x1.04cf580000000p-4, 0x1.66242a0000000p-4, 0x1.b0db200000000p-4, 0x1.df5d6e0000000p-5, -0x1.7789d60000000p-6, 0x1.39b3a80000000p-5, 0x1.a2f98c0000000p-5, 0x1.2d13920000000p-4, -0x1.382d200000000p-6, -0x1.6155180000000p-5, 0x1.4c1e820000000p-3}
