/**
  ******************************************************************************
  * @file    weights/conv2d.cc
  * @author  Pierre-Emmanuel Novac <penovac@unice.fr>, LEAT, CNRS, Université Côte d'Azur, France
  * @version V2.0
  * @date    24 march 2020
  * @brief   Template generating plain C code for the implementation of Convolutional Neural Networks on MCU
  */

#include <stdint.h>

#define INPUT_CHANNELS     32
#define CONV_FILTERS       64
#define CONV_KERNEL_SIZE_Y 3
#define CONV_KERNEL_SIZE_X 3
#define CONV_GROUPS        1


const float conv2d_17_bias[CONV_FILTERS] = {0x1.d88c020000000p-7, -0x1.43b6320000000p-7, -0x1.9e4bc20000000p-5, -0x1.b9d16e0000000p-5, -0x1.879ca40000000p-5, 0x1.ca42ac0000000p-7, -0x1.aabe380000000p-8, 0x1.cd4fee0000000p-7, -0x1.4192320000000p-5, -0x1.a93f120000000p-6, -0x1.25e6740000000p-5, -0x1.d25faa0000000p-6, -0x1.2484140000000p-7, -0x1.404c5e0000000p-6, 0x1.9400ce0000000p-5, 0x1.52b2440000000p-9, 0x1.1cf8de0000000p-4, 0x1.2f52c60000000p-4, 0x1.29c8c20000000p-8, -0x1.5259480000000p-8, -0x1.70c4840000000p-5, 0x1.f7f5640000000p-5, 0x1.4d35c20000000p-5, -0x1.6d487a0000000p-5, -0x1.d303220000000p-6, 0x1.c23d9c0000000p-7, -0x1.2642f00000000p-7, 0x1.1410120000000p-6, -0x1.1157880000000p-6, 0x1.05ca5c0000000p-4, -0x1.2dd4480000000p-10, 0x1.49a7e20000000p-6, -0x1.65a3200000000p-6, 0x1.6d9a000000000p-6, -0x1.04dd7e0000000p-5, 0x1.6c2d400000000p-5, -0x1.9d54a20000000p-8, 0x1.b410660000000p-6, 0x1.ab6ef00000000p-5, 0x1.78cfe40000000p-9, 0x1.f8b27e0000000p-6, 0x1.23755e0000000p-6, 0x1.cb52560000000p-6, 0x1.6b92ea0000000p-8, 0x1.eaeade0000000p-9, -0x1.7ebbba0000000p-6, -0x1.cf2a7e0000000p-6, 0x1.1ed11a0000000p-9, -0x1.622ed20000000p-5, 0x1.70dea80000000p-8, -0x1.c89a7c0000000p-6, -0x1.de889e0000000p-9, 0x1.10f9420000000p-6, 0x1.b2108e0000000p-5, 0x1.48a5300000000p-6, -0x1.56fa9c0000000p-6, -0x1.4341aa0000000p-4, 0x1.217ae00000000p-7, 0x1.13aaec0000000p-4, 0x1.0c26bc0000000p-4, -0x1.04089a0000000p-5, 0x1.fce4bc0000000p-9, 0x1.142c680000000p-6, -0x1.6598660000000p-5}
;


const float conv2d_17_kernel[CONV_FILTERS][CONV_KERNEL_SIZE_Y][CONV_KERNEL_SIZE_X][INPUT_CHANNELS / CONV_GROUPS] = {{{{-0x1.1192680000000p-5, -0x1.b353200000000p-5, -0x1.78507e0000000p-3, 0x1.12f4d20000000p-3, -0x1.76142c0000000p-3, 0x1.2168380000000p-3, -0x1.6f58880000000p-6, 0x1.66e57a0000000p-6, -0x1.4adacc0000000p-4, -0x1.bc23120000000p-4, 0x1.2b8e8a0000000p-4, 0x1.fa2e9c0000000p-10, -0x1.af18740000000p-3, -0x1.06a5b40000000p-4, 0x1.0c4e080000000p-4, -0x1.1d3cd40000000p-6, -0x1.eeef1c0000000p-6, -0x1.35b94e0000000p-5, -0x1.e03f160000000p-6, 0x1.93a0f40000000p-4, 0x1.ab35520000000p-4, 0x1.478eda0000000p-5, -0x1.b271ca0000000p-4, -0x1.bb289e0000000p-3, -0x1.5bebe60000000p-4, -0x1.1a44ba0000000p-3, -0x1.a6af7a0000000p-8, 0x1.8180060000000p-6, 0x1.2900ba0000000p-4, 0x1.6feae80000000p-6, 0x1.155c280000000p-3, -0x1.f74e7e0000000p-5}
, {-0x1.7bc81c0000000p-9, 0x1.4164740000000p-5, -0x1.2d9dfc0000000p-5, -0x1.fcfd380000000p-4, -0x1.6e6ca20000000p-7, -0x1.d42e900000000p-4, -0x1.c28d360000000p-8, -0x1.e69fdc0000000p-4, 0x1.5c615e0000000p-4, 0x1.a9ba160000000p-5, -0x1.9f554a0000000p-3, 0x1.c78f960000000p-5, -0x1.0f9a4c0000000p-5, 0x1.5542d20000000p-4, -0x1.5a14680000000p-3, -0x1.7023a40000000p-4, 0x1.82ac460000000p-4, -0x1.f79cee0000000p-4, -0x1.fe23a60000000p-4, -0x1.af94100000000p-3, 0x1.f3e5300000000p-9, -0x1.74291a0000000p-5, -0x1.53ce520000000p-4, 0x1.1d71be0000000p-7, 0x1.1b289a0000000p-4, 0x1.e7c92a0000000p-6, -0x1.04a0ba0000000p-4, 0x1.bda33a0000000p-8, -0x1.c65a260000000p-4, 0x1.48fe820000000p-5, -0x1.afa55e0000000p-3, -0x1.2954200000000p-3}
, {0x1.5716960000000p-3, -0x1.3dfc680000000p-3, 0x1.37ef7e0000000p-9, 0x1.6c2d2e0000000p-7, -0x1.15eb720000000p-6, 0x1.048a4a0000000p-6, -0x1.68c32a0000000p-4, 0x1.b373e00000000p-8, 0x1.ea19680000000p-8, 0x1.8645640000000p-4, 0x1.f842a20000000p-5, 0x1.d5d16e0000000p-8, 0x1.448b0c0000000p-5, 0x1.58b4980000000p-4, 0x1.10edd20000000p-4, 0x1.6eb84c0000000p-5, 0x1.20cbe80000000p-4, -0x1.475b700000000p-4, 0x1.d5b5b60000000p-8, 0x1.70ccdc0000000p-4, 0x1.7b9c7c0000000p-9, 0x1.84aeee0000000p-6, -0x1.fa13d40000000p-3, 0x1.2421fa0000000p-5, 0x1.8b22320000000p-5, 0x1.b8a6980000000p-4, 0x1.13763a0000000p-4, -0x1.1bc94c0000000p-2, 0x1.01176e0000000p-5, -0x1.0c5da20000000p-3, 0x1.3fac860000000p-3, 0x1.59c6600000000p-4}
}
, {{-0x1.4a94440000000p-4, 0x1.6d03140000000p-4, -0x1.11ed880000000p-3, -0x1.ca70e60000000p-3, -0x1.d007940000000p-4, 0x1.8ceb5c0000000p-4, 0x1.85ede40000000p-6, -0x1.4c1e3a0000000p-3, -0x1.131ca60000000p-4, -0x1.dcec9e0000000p-3, 0x1.03d0220000000p-8, -0x1.229e5a0000000p-4, -0x1.f77b8a0000000p-4, -0x1.cf13fa0000000p-5, 0x1.af95a20000000p-5, -0x1.f3af340000000p-6, -0x1.ec24a20000000p-3, 0x1.9168f80000000p-9, -0x1.e771c40000000p-4, 0x1.251ed00000000p-3, -0x1.b027500000000p-4, -0x1.38d1aa0000000p-3, 0x1.18c8260000000p-4, -0x1.a2b5800000000p-3, -0x1.7e18020000000p-4, -0x1.8efcc60000000p-9, -0x1.b18ce00000000p-4, 0x1.7ec18e0000000p-4, 0x1.4930ae0000000p-4, 0x1.21b49a0000000p-4, -0x1.bb27120000000p-7, -0x1.992fa40000000p-5}
, {-0x1.e4efd20000000p-4, -0x1.2b8c920000000p-2, -0x1.25dd120000000p-4, -0x1.ae0f9e0000000p-3, 0x1.70712c0000000p-4, -0x1.e606720000000p-3, -0x1.410e8a0000000p-3, -0x1.c0e5b40000000p-4, 0x1.1a1b660000000p-4, 0x1.4e94ac0000000p-4, -0x1.0dde0e0000000p-2, -0x1.cf73820000000p-5, 0x1.cc93540000000p-6, 0x1.5c5d780000000p-12, -0x1.5a3bb60000000p-3, -0x1.0dbb300000000p-3, -0x1.39ac4a0000000p-5, -0x1.fa1eae0000000p-5, -0x1.2354c40000000p-7, -0x1.f4c1300000000p-3, -0x1.fa919e0000000p-3, -0x1.2aeec60000000p-4, -0x1.0130760000000p-1, 0x1.10a8c60000000p-6, 0x1.453d1a0000000p-3, 0x1.5529240000000p-3, -0x1.31d6220000000p-4, -0x1.183a6a0000000p-5, -0x1.97e86c0000000p-3, 0x1.0279360000000p-7, -0x1.bdf0760000000p-4, -0x1.ea42600000000p-4}
, {-0x1.c63cc40000000p-4, -0x1.5a4e4c0000000p-2, 0x1.534c6e0000000p-3, 0x1.f310160000000p-5, 0x1.52065e0000000p-3, 0x1.abf1aa0000000p-3, -0x1.18996c0000000p-2, 0x1.b09b8e0000000p-4, 0x1.8acaae0000000p-4, 0x1.0909620000000p-5, 0x1.94208e0000000p-3, 0x1.988b580000000p-6, 0x1.4d1fd40000000p-3, -0x1.871d200000000p-5, 0x1.81967a0000000p-3, -0x1.d292d00000000p-14, 0x1.02db3c0000000p-3, -0x1.75f77a0000000p-2, 0x1.d1ede40000000p-5, 0x1.a54b920000000p-3, 0x1.0c24460000000p-10, -0x1.66f95e0000000p-4, -0x1.a8a1040000000p-2, 0x1.339d220000000p-3, 0x1.0f3a100000000p-4, 0x1.6bfdfa0000000p-3, 0x1.1a8e140000000p-3, -0x1.16af780000000p-1, 0x1.c3365a0000000p-3, -0x1.29c1600000000p-3, 0x1.da81ba0000000p-4, 0x1.808e420000000p-4}
}
, {{-0x1.a81fee0000000p-5, 0x1.a9ae7c0000000p-3, -0x1.8bffaa0000000p-3, -0x1.85aacc0000000p-5, -0x1.7b0a260000000p-4, -0x1.d5353a0000000p-4, 0x1.492f9c0000000p-5, -0x1.08923e0000000p-3, -0x1.07ad360000000p-7, -0x1.9b7e240000000p-3, -0x1.29b6bc0000000p-2, -0x1.11eef20000000p-4, 0x1.83f8fc0000000p-5, -0x1.a4838e0000000p-6, 0x1.0d9fde0000000p-5, -0x1.0b8f120000000p-3, -0x1.ae61b60000000p-3, 0x1.21305c0000000p-3, -0x1.97039a0000000p-4, -0x1.c198fe0000000p-4, -0x1.0c8df40000000p-3, -0x1.131bd80000000p-5, 0x1.e31dfe0000000p-6, -0x1.65ec900000000p-6, -0x1.c93e960000000p-3, 0x1.ce94f60000000p-7, -0x1.aae8440000000p-4, 0x1.2e323c0000000p-3, 0x1.7ab6460000000p-4, 0x1.9a360c0000000p-3, -0x1.6e49dc0000000p-4, -0x1.e3bbd00000000p-4}
, {-0x1.b379ee0000000p-3, -0x1.3e28120000000p-4, -0x1.02d7d40000000p-4, -0x1.2b9ee00000000p-4, -0x1.2c353a0000000p-6, -0x1.d43c440000000p-2, -0x1.b8d96a0000000p-4, -0x1.0ea6860000000p-3, 0x1.9ede5c0000000p-4, -0x1.06cedc0000000p-3, -0x1.07b4040000000p-3, 0x1.82fcf20000000p-4, -0x1.4896820000000p-7, -0x1.e59a4c0000000p-6, -0x1.83b9900000000p-4, 0x1.6ef0b60000000p-7, 0x1.d1702e0000000p-6, 0x1.b3ac580000000p-4, -0x1.12d6da0000000p-4, -0x1.a60d060000000p-3, -0x1.9236bc0000000p-6, 0x1.044d7e0000000p-6, -0x1.c940740000000p-4, 0x1.e498980000000p-6, 0x1.e2a6ea0000000p-5, 0x1.f2f4b60000000p-4, -0x1.82de4a0000000p-3, -0x1.3357b20000000p-3, -0x1.56b0980000000p-3, 0x1.6857d00000000p-5, -0x1.a581cc0000000p-3, -0x1.1f41d60000000p-5}
, {-0x1.4756e80000000p-3, -0x1.50c5280000000p-3, -0x1.b8e09e0000000p-12, 0x1.375f440000000p-5, -0x1.402e6c0000000p-4, 0x1.7d5c560000000p-10, -0x1.1e922c0000000p-3, 0x1.6bfdf40000000p-5, 0x1.b789400000000p-4, 0x1.60a9980000000p-3, 0x1.f1788c0000000p-4, 0x1.af2ab20000000p-3, 0x1.3edf640000000p-5, -0x1.172f340000000p-2, 0x1.1764a20000000p-3, 0x1.09a5740000000p-4, 0x1.228fbc0000000p-3, -0x1.a8f32a0000000p-4, 0x1.13ccb00000000p-3, 0x1.83a23e0000000p-3, 0x1.1bfd1e0000000p-4, 0x1.d7f26e0000000p-5, -0x1.f88e040000000p-4, 0x1.5c27380000000p-3, 0x1.50551c0000000p-4, 0x1.6a26600000000p-17, 0x1.62c2ae0000000p-3, -0x1.e87a6e0000000p-3, 0x1.e1d8160000000p-4, -0x1.a804440000000p-4, 0x1.8c83e40000000p-4, 0x1.67a4580000000p-4}
}
}
, {{{-0x1.9aee440000000p-8, 0x1.216ce20000000p-4, -0x1.f9d5120000000p-7, -0x1.d9c8460000000p-4, 0x1.58ed600000000p-5, -0x1.62ebc60000000p-6, 0x1.9613d40000000p-4, -0x1.6fb8d80000000p-4, 0x1.389db40000000p-4, -0x1.9882dc0000000p-6, -0x1.3da6740000000p-3, 0x1.d197200000000p-4, -0x1.6ae6b60000000p-4, -0x1.11a5360000000p-3, -0x1.ad1f200000000p-4, 0x1.26455a0000000p-5, -0x1.5bdd640000000p-9, 0x1.4aeb180000000p-3, 0x1.61bc5e0000000p-5, -0x1.7dbd440000000p-5, -0x1.7033b60000000p-5, -0x1.19fb840000000p-4, 0x1.0c07820000000p-7, -0x1.e3f2e40000000p-4, 0x1.e035880000000p-5, -0x1.5b42f80000000p-7, -0x1.7283f20000000p-4, -0x1.1175800000000p-5, 0x1.1d215e0000000p-6, 0x1.2de6ec0000000p-6, -0x1.de7e540000000p-4, 0x1.0105600000000p-4}
, {0x1.e324240000000p-8, 0x1.63d9de0000000p-6, -0x1.9473220000000p-7, 0x1.0394080000000p-4, -0x1.665c1e0000000p-3, -0x1.3a0ef20000000p-7, 0x1.8c368e0000000p-3, 0x1.5f78d40000000p-7, 0x1.2bdc320000000p-5, -0x1.5008660000000p-5, 0x1.523ca80000000p-3, 0x1.1ca2f20000000p-3, -0x1.dff6720000000p-4, 0x1.272c1a0000000p-5, 0x1.bab1120000000p-7, 0x1.f5218c0000000p-5, -0x1.4861800000000p-6, -0x1.03f8900000000p-4, -0x1.1c3a240000000p-5, 0x1.2c07a00000000p-3, 0x1.765b8e0000000p-5, -0x1.6b3d9c0000000p-5, 0x1.95cdcc0000000p-3, -0x1.27bbce0000000p-3, -0x1.db6c880000000p-8, -0x1.ff842e0000000p-4, 0x1.1ac3e00000000p-5, -0x1.983e8c0000000p-6, -0x1.8b15880000000p-4, -0x1.786a840000000p-3, 0x1.6ea0a60000000p-5, 0x1.1a721e0000000p-5}
, {-0x1.002fd80000000p-6, -0x1.ff3ef60000000p-4, 0x1.6b63f60000000p-3, -0x1.085c800000000p-3, 0x1.0702320000000p-7, -0x1.df6aee0000000p-3, 0x1.15567a0000000p-5, 0x1.0511f80000000p-8, 0x1.82e6500000000p-3, 0x1.5253500000000p-5, -0x1.e5ebfc0000000p-4, 0x1.f282680000000p-4, 0x1.5175d00000000p-5, 0x1.55d5440000000p-3, 0x1.64a5cc0000000p-7, -0x1.309a3a0000000p-7, 0x1.3916d20000000p-4, -0x1.6acb600000000p-4, 0x1.5470c80000000p-4, -0x1.4c11680000000p-4, -0x1.4aca640000000p-3, -0x1.ecc5060000000p-4, -0x1.35ebd60000000p-4, 0x1.f35ebe0000000p-7, 0x1.3993880000000p-4, 0x1.22290c0000000p-3, 0x1.eadcb00000000p-6, -0x1.3c34760000000p-3, -0x1.4aeb920000000p-5, -0x1.c685980000000p-3, -0x1.4634480000000p-5, 0x1.ccae180000000p-4}
}
, {{-0x1.34be680000000p-4, -0x1.78fe760000000p-5, 0x1.2d6c3a0000000p-4, 0x1.669cb60000000p-14, -0x1.e32dc20000000p-6, -0x1.a9f1ac0000000p-3, -0x1.4153f20000000p-7, -0x1.3c98dc0000000p-5, 0x1.1901380000000p-4, -0x1.1482040000000p-6, -0x1.a213280000000p-5, -0x1.ccb1820000000p-5, -0x1.0c3b2e0000000p-6, -0x1.7605140000000p-6, 0x1.8ecd0c0000000p-4, -0x1.42bf600000000p-5, -0x1.c4d1680000000p-7, 0x1.fa3a6e0000000p-11, -0x1.0359420000000p-5, 0x1.1231b00000000p-4, -0x1.0b07720000000p-4, -0x1.8f5fe60000000p-6, -0x1.4ea1460000000p-4, -0x1.428fbe0000000p-7, -0x1.24ec8c0000000p-4, 0x1.03ba800000000p-4, -0x1.c4fb660000000p-4, -0x1.fdf7fc0000000p-5, -0x1.21b62a0000000p-3, -0x1.1b48a20000000p-3, -0x1.ca11be0000000p-12, -0x1.9a4c7c0000000p-8}
, {0x1.67732e0000000p-4, -0x1.2b28e60000000p-3, 0x1.3ed0d00000000p-3, 0x1.2533c00000000p-5, 0x1.aeb9560000000p-4, -0x1.fe5e880000000p-4, 0x1.109a100000000p-4, 0x1.58e5200000000p-5, -0x1.9cff360000000p-4, -0x1.54e5980000000p-7, 0x1.1766b60000000p-5, -0x1.f54a640000000p-4, 0x1.8083f60000000p-4, -0x1.83aef40000000p-5, -0x1.3314060000000p-4, 0x1.17a36a0000000p-4, 0x1.a797600000000p-6, -0x1.d81a300000000p-4, 0x1.7379520000000p-5, -0x1.260e080000000p-4, -0x1.6b25e00000000p-6, -0x1.10e08c0000000p-6, 0x1.ff7c600000000p-6, 0x1.6f389e0000000p-4, 0x1.16593c0000000p-6, 0x1.cc211a0000000p-5, 0x1.0a2f500000000p-3, -0x1.a089400000000p-9, -0x1.0f97d80000000p-3, -0x1.9a07a40000000p-4, 0x1.0d09520000000p-4, 0x1.419cd00000000p-5}
, {-0x1.c86d3c0000000p-4, 0x1.0505100000000p-4, -0x1.1109280000000p-7, 0x1.0612c20000000p-3, 0x1.c338c80000000p-4, -0x1.b64e0e0000000p-4, 0x1.828f1e0000000p-3, 0x1.2a61140000000p-4, 0x1.232abc0000000p-3, 0x1.3482d00000000p-3, -0x1.5aa7240000000p-6, 0x1.1dc0b40000000p-3, 0x1.5780b80000000p-5, -0x1.0c20420000000p-2, -0x1.142b0e0000000p-3, 0x1.d6bac00000000p-4, 0x1.10a0640000000p-3, -0x1.e3a8940000000p-3, 0x1.130d580000000p-3, -0x1.9fb2ee0000000p-8, 0x1.7c7ede0000000p-4, 0x1.3fab8e0000000p-3, 0x1.b6318c0000000p-3, 0x1.5622ca0000000p-4, 0x1.fd54d00000000p-4, 0x1.95a52c0000000p-5, -0x1.2aa9640000000p-6, 0x1.46fa620000000p-4, -0x1.db24940000000p-4, -0x1.4787bc0000000p-2, 0x1.8e34c60000000p-6, 0x1.1a4dd80000000p-5}
}
, {{-0x1.87b1200000000p-5, 0x1.d1fa3a0000000p-4, 0x1.98f54a0000000p-5, 0x1.9046980000000p-4, 0x1.4b68560000000p-6, -0x1.c42b000000000p-5, 0x1.860b360000000p-4, 0x1.5685380000000p-6, 0x1.cf72b20000000p-5, 0x1.bd9f420000000p-4, -0x1.0608500000000p-7, -0x1.0f37fa0000000p-3, -0x1.30f3820000000p-4, -0x1.ad881e0000000p-7, -0x1.b669c40000000p-3, 0x1.b27a420000000p-5, 0x1.78666e0000000p-5, -0x1.ea22760000000p-4, 0x1.cad33e0000000p-6, -0x1.1669840000000p-3, 0x1.e2d95e0000000p-5, 0x1.5c1f800000000p-5, 0x1.dae3280000000p-4, 0x1.3d5ea60000000p-4, 0x1.4f32260000000p-5, -0x1.84f3dc0000000p-4, -0x1.f5948e0000000p-5, 0x1.1065860000000p-4, -0x1.baf1400000000p-3, 0x1.7dbe860000000p-6, 0x1.19afc00000000p-4, 0x1.b545140000000p-5}
, {-0x1.c0d0d00000000p-2, 0x1.34bfa80000000p-4, -0x1.3b08e40000000p-2, 0x1.3add780000000p-13, -0x1.8e2f500000000p-3, 0x1.6c0ad20000000p-4, 0x1.d665360000000p-4, -0x1.9195fa0000000p-5, -0x1.d4a96a0000000p-4, -0x1.52b1b80000000p-5, 0x1.8529d20000000p-5, -0x1.a1e03e0000000p-4, -0x1.4d30060000000p-2, -0x1.a081180000000p-6, -0x1.8366c80000000p-2, 0x1.13b35e0000000p-4, -0x1.21ce500000000p-3, -0x1.39e5d20000000p-3, -0x1.60e1580000000p-3, -0x1.df27980000000p-6, -0x1.fcb2fe0000000p-8, 0x1.20d4780000000p-5, 0x1.1f34940000000p-3, -0x1.9dde540000000p-3, -0x1.6341420000000p-3, -0x1.9f3ae00000000p-3, -0x1.b67b320000000p-3, -0x1.2c0f660000000p-8, -0x1.15ea000000000p-4, 0x1.d544fc0000000p-4, -0x1.f7fb100000000p-5, -0x1.c79d320000000p-3}
, {0x1.d0862c0000000p-4, 0x1.370f2c0000000p-4, -0x1.aa192a0000000p-3, -0x1.d4e6d80000000p-3, 0x1.09e7f20000000p-7, 0x1.adab8a0000000p-6, 0x1.5cec200000000p-3, -0x1.0b75780000000p-3, 0x1.5e69440000000p-3, -0x1.c7ac480000000p-4, -0x1.6830da0000000p-3, 0x1.44f79c0000000p-4, -0x1.33fe780000000p-2, 0x1.037cbe0000000p-3, -0x1.ad8b560000000p-4, 0x1.ec90de0000000p-5, -0x1.04d2b40000000p-3, 0x1.b7d3c20000000p-6, -0x1.8838160000000p-4, -0x1.9bbfa60000000p-7, 0x1.78f7fe0000000p-5, -0x1.153a720000000p-4, 0x1.761bd80000000p-4, -0x1.7b284a0000000p-4, -0x1.b03e820000000p-4, 0x1.1f04c80000000p-6, -0x1.08b9940000000p-3, -0x1.1184a00000000p-9, 0x1.31790e0000000p-4, -0x1.560f6e0000000p-7, -0x1.46ef3a0000000p-3, -0x1.889e7a0000000p-3}
}
}
, {{{-0x1.29dcec0000000p-5, -0x1.ce16ca0000000p-4, -0x1.efe0740000000p-5, -0x1.53f4e40000000p-4, 0x1.a6777a0000000p-5, 0x1.e21df60000000p-9, -0x1.46baa80000000p-6, 0x1.28020e0000000p-5, 0x1.3d98dc0000000p-8, 0x1.c538020000000p-5, -0x1.4ec6820000000p-5, 0x1.3cde3c0000000p-7, -0x1.1a4ea80000000p-6, -0x1.a6d3dc0000000p-3, -0x1.a21cbc0000000p-5, -0x1.95c0a20000000p-4, -0x1.17020a0000000p-3, 0x1.de3e660000000p-6, -0x1.f084760000000p-7, 0x1.faf71a0000000p-6, -0x1.decf5e0000000p-4, -0x1.bb61900000000p-8, -0x1.6a4c740000000p-4, -0x1.0afcee0000000p-5, -0x1.cdc4d20000000p-5, -0x1.ca3fe00000000p-4, -0x1.4cd67a0000000p-4, 0x1.605d560000000p-6, -0x1.90232e0000000p-5, 0x1.0bf02a0000000p-4, 0x1.58c9ec0000000p-5, 0x1.4e2f320000000p-4}
, {0x1.321e980000000p-5, 0x1.b66bd20000000p-6, -0x1.ee9dd80000000p-5, -0x1.4bb02e0000000p-4, -0x1.08a0bc0000000p-5, 0x1.c19bd20000000p-7, 0x1.38a2180000000p-4, -0x1.1261c40000000p-3, 0x1.0735760000000p-6, -0x1.c9360a0000000p-5, -0x1.aadd4c0000000p-4, 0x1.567bf00000000p-3, -0x1.c27fe40000000p-11, 0x1.cd8ace0000000p-4, 0x1.e7fb8e0000000p-5, 0x1.577b6c0000000p-7, 0x1.d044280000000p-5, -0x1.07942c0000000p-5, -0x1.791d9c0000000p-4, 0x1.a1dff20000000p-3, -0x1.3f16a60000000p-3, -0x1.add6a00000000p-4, -0x1.7eae0e0000000p-4, -0x1.15a5e40000000p-6, 0x1.c8723a0000000p-5, -0x1.5aa67c0000000p-5, -0x1.899ee00000000p-8, -0x1.e466aa0000000p-3, 0x1.05ff260000000p-5, -0x1.f4e6f80000000p-6, -0x1.da895a0000000p-4, -0x1.2da1640000000p-4}
, {-0x1.6b26640000000p-5, 0x1.8a58300000000p-6, 0x1.888e0a0000000p-12, 0x1.9f8b3c0000000p-5, 0x1.15cb340000000p-4, -0x1.6173660000000p-3, -0x1.245e220000000p-4, -0x1.05be860000000p-6, -0x1.a7ab4e0000000p-3, 0x1.2b9e780000000p-4, 0x1.a353600000000p-6, -0x1.332f3c0000000p-2, -0x1.20735e0000000p-7, 0x1.1613440000000p-6, -0x1.e157560000000p-5, -0x1.858bda0000000p-3, -0x1.e069e40000000p-4, -0x1.c3590a0000000p-4, 0x1.d6c46e0000000p-5, 0x1.239f320000000p-3, -0x1.2b49a20000000p-3, 0x1.56c1c00000000p-5, -0x1.405cc40000000p-3, 0x1.da29120000000p-4, -0x1.ae9c0a0000000p-5, 0x1.7523560000000p-3, -0x1.a38ff80000000p-5, -0x1.0d1e7c0000000p-3, -0x1.6008180000000p-5, -0x1.8d9c320000000p-10, 0x1.b065ee0000000p-8, 0x1.11ae4e0000000p-4}
}
, {{-0x1.107eea0000000p-4, 0x1.12315e0000000p-4, 0x1.2fdf8a0000000p-8, 0x1.5ad0ee0000000p-4, 0x1.5fcf820000000p-5, -0x1.ab54e80000000p-5, 0x1.5cfbb80000000p-3, 0x1.2b02dc0000000p-4, -0x1.11e7b80000000p-3, 0x1.df8c280000000p-4, 0x1.5a4e200000000p-7, -0x1.8c08d20000000p-4, -0x1.121f420000000p-6, 0x1.4c40160000000p-7, -0x1.71c94a0000000p-6, 0x1.2b71ce0000000p-5, -0x1.5b5ada0000000p-6, -0x1.6ff9ee0000000p-4, 0x1.bcd13e0000000p-4, 0x1.09d3d20000000p-3, 0x1.72c1660000000p-5, 0x1.4cbe360000000p-7, 0x1.e97bc40000000p-4, 0x1.b023f00000000p-7, -0x1.5434520000000p-4, -0x1.48e2f40000000p-4, 0x1.4fec940000000p-6, 0x1.446cb20000000p-4, -0x1.6762600000000p-3, -0x1.0aade80000000p-8, 0x1.d7674c0000000p-4, 0x1.6c46f20000000p-5}
, {0x1.b1984a0000000p-6, 0x1.1de2760000000p-5, 0x1.e589680000000p-4, 0x1.fb27c60000000p-4, 0x1.6253fa0000000p-3, -0x1.dd1a9e0000000p-7, -0x1.86d22c0000000p-5, 0x1.43bf520000000p-4, -0x1.6610100000000p-5, 0x1.0892b40000000p-4, 0x1.6c076a0000000p-4, 0x1.3494480000000p-9, 0x1.2e42fc0000000p-4, -0x1.4410600000000p-4, 0x1.f4638e0000000p-6, 0x1.c9cb1e0000000p-5, 0x1.ed5b9e0000000p-4, -0x1.750e7e0000000p-4, 0x1.d3848a0000000p-5, -0x1.45cfb20000000p-6, 0x1.84311a0000000p-4, 0x1.4c45840000000p-3, 0x1.8228520000000p-4, -0x1.3595180000000p-4, 0x1.cce2d20000000p-4, 0x1.b12f0a0000000p-4, 0x1.3545520000000p-6, -0x1.64bc700000000p-4, -0x1.bbfd7c0000000p-4, -0x1.83f6fa0000000p-2, 0x1.ea5fd00000000p-5, -0x1.05253e0000000p-5}
, {-0x1.5292300000000p-3, 0x1.826b1e0000000p-4, -0x1.0bdb3c0000000p-3, 0x1.6a2a6a0000000p-4, -0x1.4fde680000000p-4, 0x1.f0b3c80000000p-4, 0x1.70468c0000000p-4, 0x1.050b680000000p-3, -0x1.eeb0500000000p-4, -0x1.a436f60000000p-5, 0x1.d7fd3c0000000p-4, 0x1.6045ae0000000p-9, -0x1.a59f1e0000000p-3, -0x1.95b1e80000000p-2, -0x1.b63fd20000000p-4, 0x1.3b17760000000p-4, 0x1.becbda0000000p-5, 0x1.e2cff00000000p-4, 0x1.5b69920000000p-4, 0x1.e05a7c0000000p-6, 0x1.c154d80000000p-4, 0x1.0d7a220000000p-4, 0x1.3b61560000000p-3, -0x1.a221e40000000p-4, 0x1.75c5aa0000000p-4, -0x1.cce1a40000000p-3, -0x1.46ad7a0000000p-6, 0x1.4f546a0000000p-5, 0x1.d0317e0000000p-4, -0x1.69fdcc0000000p-5, 0x1.70a8500000000p-5, -0x1.86722c0000000p-5}
}
, {{-0x1.761bba0000000p-3, 0x1.85e4680000000p-4, -0x1.abab240000000p-3, -0x1.6f16e20000000p-5, -0x1.2e80d60000000p-3, 0x1.5f03bc0000000p-4, 0x1.37fa380000000p-4, -0x1.1f7dce0000000p-4, 0x1.0101420000000p-9, -0x1.2a6b920000000p-5, 0x1.0ec2c80000000p-8, 0x1.7ab0e20000000p-4, -0x1.ff41040000000p-3, -0x1.22e9de0000000p-3, -0x1.a408320000000p-8, 0x1.3175a80000000p-3, 0x1.e826880000000p-14, 0x1.77d9540000000p-4, -0x1.e085ac0000000p-4, 0x1.6028fe0000000p-6, 0x1.eb8daa0000000p-5, 0x1.8ca1300000000p-4, -0x1.e57ade0000000p-8, -0x1.e44ed80000000p-4, 0x1.785b7e0000000p-4, -0x1.9ef2140000000p-3, -0x1.ac21f60000000p-5, 0x1.2a97440000000p-6, 0x1.93a6520000000p-6, 0x1.d1b1700000000p-5, -0x1.0efce60000000p-4, -0x1.00e35a0000000p-3}
, {0x1.2f30de0000000p-2, 0x1.c995960000000p-4, -0x1.3e3e580000000p-2, -0x1.a826dc0000000p-6, -0x1.04049c0000000p-3, 0x1.9c29b20000000p-9, 0x1.6f36a40000000p-3, -0x1.9d9ba40000000p-4, 0x1.10ffea0000000p-4, -0x1.a772ae0000000p-5, 0x1.d7fd9c0000000p-5, 0x1.bc39a00000000p-3, -0x1.38bde00000000p-2, -0x1.107f720000000p-2, -0x1.e81b080000000p-5, 0x1.caeafa0000000p-4, 0x1.a62ce60000000p-6, 0x1.33203a0000000p-4, 0x1.7167c20000000p-7, -0x1.bcaecc0000000p-5, 0x1.71b3c80000000p-4, -0x1.4e95800000000p-6, 0x1.2634ca0000000p-2, -0x1.29d5a00000000p-2, -0x1.74bec20000000p-7, -0x1.9310c40000000p-4, -0x1.a5ac000000000p-5, 0x1.f5c6fe0000000p-4, -0x1.0cdb480000000p-6, -0x1.900cbe0000000p-3, -0x1.d1be140000000p-4, -0x1.dfb83c0000000p-5}
, {0x1.a9490a0000000p-3, -0x1.d88ff00000000p-5, -0x1.2880820000000p-7, -0x1.c425280000000p-6, -0x1.24b1760000000p-9, -0x1.8dfd7a0000000p-4, 0x1.ea27a80000000p-6, -0x1.24eb6e0000000p-4, 0x1.1d2c3e0000000p-5, -0x1.63839a0000000p-4, -0x1.339d8e0000000p-6, 0x1.98fec60000000p-6, -0x1.7b22500000000p-5, -0x1.da2bbc0000000p-5, 0x1.21372a0000000p-4, -0x1.a975f20000000p-4, 0x1.af40f60000000p-5, -0x1.d2a10e0000000p-5, -0x1.bf8fcc0000000p-5, -0x1.398fa00000000p-16, 0x1.427ddc0000000p-7, -0x1.e7a4780000000p-7, -0x1.ed3d100000000p-6, -0x1.3d6c660000000p-6, 0x1.ddf50a0000000p-6, -0x1.127acc0000000p-4, 0x1.0d66120000000p-3, 0x1.5887120000000p-7, 0x1.909a440000000p-6, -0x1.3306a00000000p-5, -0x1.d4c3d80000000p-10, -0x1.932ec20000000p-9}
}
}
, {{{0x1.4a57fe0000000p-4, 0x1.bf3b980000000p-4, 0x1.72dc640000000p-5, -0x1.11ed5a0000000p-6, -0x1.7185520000000p-3, 0x1.3417d40000000p-5, 0x1.7b84e80000000p-3, -0x1.887bd80000000p-3, 0x1.2258cc0000000p-3, -0x1.f470ae0000000p-5, 0x1.f10d160000000p-6, 0x1.2645300000000p-5, -0x1.6ed64a0000000p-4, 0x1.de6d940000000p-5, 0x1.3cfcfe0000000p-4, -0x1.300d4e0000000p-12, 0x1.e34c240000000p-4, -0x1.bd1f960000000p-7, -0x1.91b6b80000000p-5, -0x1.20e67a0000000p-4, 0x1.938a460000000p-4, -0x1.c2b8800000000p-5, -0x1.1b30820000000p-5, -0x1.169f240000000p-4, 0x1.4c80580000000p-4, -0x1.3e649c0000000p-4, 0x1.4d60940000000p-4, 0x1.88fd380000000p-6, 0x1.a4ed6c0000000p-5, -0x1.555cf40000000p-5, -0x1.708a8c0000000p-4, -0x1.c3e7d80000000p-6}
, {0x1.82dc240000000p-4, -0x1.454e9e0000000p-3, 0x1.50a6e80000000p-5, -0x1.1eb3840000000p-5, -0x1.1f2eec0000000p-8, -0x1.5c0eca0000000p-4, -0x1.b06e560000000p-6, -0x1.4f16560000000p-4, 0x1.2712f60000000p-3, 0x1.e9b6e40000000p-5, 0x1.ab46760000000p-7, 0x1.687e780000000p-3, 0x1.1ae8b00000000p-5, -0x1.1203de0000000p-4, 0x1.95642e0000000p-4, -0x1.121b9a0000000p-2, 0x1.37d9fe0000000p-4, 0x1.c7af1e0000000p-7, 0x1.0ae1400000000p-6, 0x1.2e2ef00000000p-4, -0x1.193f120000000p-3, -0x1.c5a5e60000000p-5, -0x1.cb3a000000000p-5, 0x1.3d76d60000000p-4, -0x1.8db4060000000p-9, 0x1.32b68a0000000p-5, 0x1.5f4dd20000000p-6, -0x1.04fa1a0000000p-2, 0x1.08dcae0000000p-4, -0x1.7abbfe0000000p-3, 0x1.425fd80000000p-5, 0x1.2465b00000000p-4}
, {0x1.70dfe40000000p-6, 0x1.0b87960000000p-5, -0x1.e5d6820000000p-8, 0x1.53834e0000000p-4, 0x1.1525440000000p-7, -0x1.d3dcd80000000p-5, -0x1.8294bc0000000p-4, -0x1.3e62060000000p-6, -0x1.bb60460000000p-4, 0x1.63ae160000000p-4, -0x1.fc88fe0000000p-9, -0x1.5b2ac80000000p-5, -0x1.e5fc020000000p-5, 0x1.e955c00000000p-4, 0x1.29b72e0000000p-5, -0x1.703ad60000000p-5, -0x1.2682580000000p-4, -0x1.5c5a0a0000000p-3, -0x1.9275420000000p-7, -0x1.4a1d480000000p-4, 0x1.ed07e40000000p-4, -0x1.af03b00000000p-7, 0x1.a1eb3e0000000p-4, 0x1.7138ba0000000p-5, 0x1.20775c0000000p-5, 0x1.3d6e1c0000000p-6, 0x1.5b14ae0000000p-4, -0x1.13069a0000000p-4, -0x1.af45fc0000000p-8, -0x1.f270560000000p-6, -0x1.1450e20000000p-7, -0x1.e3123e0000000p-5}
}
, {{0x1.0a45dc0000000p-6, -0x1.9bf8a60000000p-3, 0x1.acedd00000000p-5, -0x1.1396f00000000p-4, 0x1.1a45940000000p-3, 0x1.3518de0000000p-6, -0x1.72c1560000000p-4, 0x1.565ec80000000p-4, -0x1.e2e3ea0000000p-5, 0x1.22b76e0000000p-4, -0x1.dbdc640000000p-4, -0x1.359be60000000p-3, 0x1.6c1fce0000000p-3, -0x1.aeb57a0000000p-4, 0x1.e837a40000000p-6, -0x1.1b7fbc0000000p-3, -0x1.bb94f00000000p-4, -0x1.f590a60000000p-3, 0x1.f31b0a0000000p-6, -0x1.76fd740000000p-4, -0x1.5df0780000000p-6, 0x1.e9c5280000000p-5, -0x1.9826f20000000p-9, 0x1.ae440a0000000p-4, 0x1.eefbf00000000p-8, 0x1.e455240000000p-4, 0x1.418c9e0000000p-5, -0x1.7364600000000p-4, -0x1.8999040000000p-4, -0x1.fdaeac0000000p-3, 0x1.0af1de0000000p-4, 0x1.11ac640000000p-4}
, {0x1.68c1600000000p-6, 0x1.5486160000000p-4, 0x1.aecab80000000p-5, 0x1.48b8d20000000p-4, 0x1.8606380000000p-5, 0x1.3e87b60000000p-4, 0x1.79fae80000000p-10, 0x1.a60fca0000000p-5, -0x1.66b7960000000p-10, 0x1.15c5780000000p-3, 0x1.af90660000000p-4, -0x1.7cb50a0000000p-3, -0x1.8344960000000p-5, 0x1.8acb8e0000000p-5, -0x1.55a66e0000000p-6, -0x1.203fe00000000p-8, 0x1.2031b00000000p-7, -0x1.774b060000000p-2, 0x1.5bf3a20000000p-5, 0x1.6a30b20000000p-5, 0x1.1185360000000p-5, 0x1.75ba520000000p-4, 0x1.a88bdc0000000p-3, 0x1.03793e0000000p-4, -0x1.dca4a20000000p-7, 0x1.aa473c0000000p-6, -0x1.1f48640000000p-4, -0x1.e0d3980000000p-6, 0x1.6dd8b40000000p-6, 0x1.035dee0000000p-3, 0x1.99c8dc0000000p-4, 0x1.532d5c0000000p-8}
, {-0x1.0372540000000p-8, 0x1.7e826a0000000p-7, -0x1.4857c40000000p-4, -0x1.75f9b60000000p-5, -0x1.0bd0740000000p-3, -0x1.52b3bc0000000p-6, 0x1.fa72e00000000p-6, 0x1.881e900000000p-4, -0x1.694a740000000p-3, 0x1.9509b20000000p-7, 0x1.9b4de20000000p-6, -0x1.cfb8880000000p-3, -0x1.8511280000000p-3, 0x1.1c82820000000p-5, -0x1.3b6dc40000000p-4, 0x1.37e9280000000p-6, 0x1.1ccfaa0000000p-4, -0x1.7e65480000000p-3, 0x1.4894d00000000p-3, 0x1.b350160000000p-4, 0x1.8cbf7e0000000p-5, 0x1.143b360000000p-4, 0x1.41f2b40000000p-3, -0x1.e6403e0000000p-5, -0x1.27afae0000000p-6, -0x1.196b2a0000000p-3, 0x1.d9d4ba0000000p-6, 0x1.0ab2e20000000p-5, 0x1.00a6320000000p-4, 0x1.ba1bc80000000p-5, -0x1.f193300000000p-5, -0x1.d1472e0000000p-4}
}
, {{-0x1.50b9b80000000p-3, 0x1.a4fdb20000000p-6, -0x1.b70f680000000p-6, -0x1.fe84dc0000000p-6, 0x1.f19dea0000000p-7, 0x1.1fb8300000000p-4, 0x1.0e666c0000000p-4, 0x1.1b36500000000p-8, -0x1.ffdb8e0000000p-4, 0x1.ed4d720000000p-11, 0x1.878bc40000000p-5, -0x1.65827c0000000p-3, 0x1.97a49a0000000p-4, -0x1.531a640000000p-3, -0x1.5b42080000000p-4, 0x1.86a08e0000000p-4, 0x1.412d440000000p-4, -0x1.f8140c0000000p-4, 0x1.36e5680000000p-5, 0x1.79c7360000000p-7, 0x1.068b080000000p-3, 0x1.fbc1020000000p-6, 0x1.0af5ca0000000p-3, -0x1.1f87fe0000000p-6, -0x1.9fab5c0000000p-6, -0x1.296b7a0000000p-3, -0x1.64aa5e0000000p-8, -0x1.b5746c0000000p-7, 0x1.caaafc0000000p-5, 0x1.d18b600000000p-4, 0x1.af66dc0000000p-4, -0x1.2fb8020000000p-5}
, {0x1.4adfb60000000p-6, 0x1.db69840000000p-4, -0x1.1943f80000000p-3, -0x1.1d37ac0000000p-8, -0x1.6f68660000000p-4, 0x1.3670540000000p-6, 0x1.56bafc0000000p-4, 0x1.eb4f720000000p-6, -0x1.f98c560000000p-4, -0x1.0ecb0e0000000p-3, -0x1.e6b4c00000000p-6, -0x1.fc002c0000000p-6, -0x1.cd8d6e0000000p-3, -0x1.3c0db00000000p-5, -0x1.059fe20000000p-8, 0x1.4bc6380000000p-4, -0x1.abb2100000000p-4, -0x1.9874400000000p-3, -0x1.9073a20000000p-10, -0x1.41745e0000000p-11, 0x1.9953fa0000000p-4, -0x1.fc4ea20000000p-7, 0x1.7154be0000000p-8, -0x1.6378520000000p-3, -0x1.1a49400000000p-5, -0x1.65c7580000000p-2, -0x1.e096500000000p-5, -0x1.18e4980000000p-6, 0x1.092de80000000p-7, 0x1.5593700000000p-5, 0x1.e378fe0000000p-6, -0x1.d9272a0000000p-7}
, {0x1.cb9f0e0000000p-6, 0x1.0715020000000p-3, -0x1.02f6d00000000p-2, -0x1.fc13aa0000000p-4, -0x1.7274fa0000000p-2, 0x1.383f080000000p-4, 0x1.da72500000000p-5, -0x1.c195d60000000p-4, -0x1.6e5dc40000000p-3, -0x1.ee70940000000p-5, 0x1.9d75420000000p-6, 0x1.2dcde80000000p-4, -0x1.b3abce0000000p-4, -0x1.b9d28a0000000p-4, 0x1.d0cb420000000p-5, -0x1.9689da0000000p-4, -0x1.b6ace40000000p-5, 0x1.61f9520000000p-3, -0x1.49da980000000p-5, 0x1.095eb80000000p-4, -0x1.4d57a60000000p-6, -0x1.967c0e0000000p-3, -0x1.2da6d20000000p-5, -0x1.aca42e0000000p-4, -0x1.7661cc0000000p-3, -0x1.9f9d560000000p-2, -0x1.6f00160000000p-4, 0x1.6283d80000000p-3, 0x1.0dba960000000p-6, 0x1.cd70f80000000p-5, -0x1.0925e60000000p-5, -0x1.4b5d9c0000000p-4}
}
}
, {{{0x1.5865180000000p-4, 0x1.2769460000000p-4, -0x1.df04640000000p-4, -0x1.41849e0000000p-4, 0x1.523c340000000p-7, -0x1.76ffc00000000p-3, 0x1.a0c1580000000p-3, -0x1.525eaa0000000p-4, 0x1.6c6aa60000000p-4, 0x1.0e128e0000000p-5, 0x1.143c260000000p-7, 0x1.b587440000000p-4, -0x1.7c47a60000000p-4, -0x1.0c45cc0000000p-5, 0x1.1fd6cc0000000p-4, 0x1.a832bc0000000p-6, 0x1.9911820000000p-5, -0x1.87aeea0000000p-5, 0x1.c922360000000p-6, 0x1.1811660000000p-3, 0x1.a07b1a0000000p-4, 0x1.99998c0000000p-4, 0x1.2e868c0000000p-3, -0x1.09aef60000000p-4, 0x1.5a05040000000p-4, -0x1.2b06b60000000p-4, 0x1.02ac4a0000000p-3, 0x1.3c912c0000000p-8, -0x1.8b57780000000p-3, -0x1.779de40000000p-2, -0x1.21d6b20000000p-4, -0x1.289b820000000p-7}
, {0x1.7280dc0000000p-3, -0x1.3dee560000000p-4, 0x1.86223c0000000p-5, -0x1.f4a9de0000000p-4, 0x1.d4065e0000000p-7, -0x1.09d1ea0000000p-2, 0x1.a326c00000000p-4, 0x1.7db3f20000000p-4, 0x1.3ef90c0000000p-4, 0x1.bfd1320000000p-5, -0x1.8f0c000000000p-6, 0x1.fb1b8a0000000p-6, 0x1.3d90980000000p-6, 0x1.d7ca120000000p-5, 0x1.440aac0000000p-3, 0x1.0e84060000000p-4, 0x1.2c4e7c0000000p-3, 0x1.622a020000000p-2, -0x1.dcb5920000000p-7, 0x1.4291e60000000p-8, -0x1.7299400000000p-4, -0x1.0e9c760000000p-6, -0x1.1e96780000000p-9, -0x1.388b440000000p-6, 0x1.1b40be0000000p-4, -0x1.a7e8f00000000p-5, 0x1.5110fa0000000p-4, -0x1.8be2500000000p-3, 0x1.5361b60000000p-6, -0x1.38dccc0000000p-1, -0x1.5e68580000000p-4, 0x1.a0b1a80000000p-5}
, {0x1.12b9c20000000p-4, -0x1.efba7e0000000p-3, -0x1.bedf5c0000000p-9, -0x1.401e840000000p-3, -0x1.9995d40000000p-4, -0x1.dc35e20000000p-4, -0x1.3744d00000000p-2, 0x1.3fb5cc0000000p-5, -0x1.3ca1d80000000p-2, -0x1.7b57f40000000p-5, -0x1.811dac0000000p-5, -0x1.90b54a0000000p-2, 0x1.8dddce0000000p-4, -0x1.2579140000000p-4, 0x1.3311e00000000p-3, -0x1.be910c0000000p-3, -0x1.32bbb60000000p-3, 0x1.38a2fa0000000p-2, -0x1.5fa1f00000000p-4, -0x1.b2ff160000000p-6, -0x1.26d9100000000p-2, -0x1.9255660000000p-4, -0x1.10aa6e0000000p-2, 0x1.7393c80000000p-4, -0x1.1431900000000p-2, -0x1.aa15da0000000p-4, 0x1.5e61800000000p-5, -0x1.3a09c00000000p-1, -0x1.6bbd620000000p-8, -0x1.c816da0000000p-2, -0x1.efe94a0000000p-6, -0x1.3364800000000p-7}
}
, {{0x1.6f93140000000p-3, 0x1.1841900000000p-3, -0x1.6d6e320000000p-5, -0x1.2fc0720000000p-4, -0x1.11665a0000000p-6, 0x1.cbe5140000000p-6, 0x1.932d7c0000000p-3, -0x1.26288e0000000p-5, -0x1.1f12240000000p-4, -0x1.0a16ca0000000p-5, -0x1.6dce240000000p-3, 0x1.af09000000000p-4, 0x1.7dad140000000p-7, 0x1.187dd20000000p-4, -0x1.b32ab00000000p-6, -0x1.01323c0000000p-5, -0x1.3ef0240000000p-3, -0x1.7326180000000p-4, -0x1.34fb3c0000000p-5, 0x1.e1e8b60000000p-8, 0x1.7362ee0000000p-5, -0x1.a948660000000p-5, 0x1.3581860000000p-4, -0x1.0fcea60000000p-5, -0x1.6634260000000p-4, 0x1.479ee60000000p-4, -0x1.7b77660000000p-4, -0x1.1332080000000p-7, -0x1.5204f40000000p-6, -0x1.b133d00000000p-4, -0x1.08760e0000000p-3, -0x1.d98ed60000000p-6}
, {-0x1.5126c00000000p-2, 0x1.57987a0000000p-3, -0x1.c95b0c0000000p-4, 0x1.aba4ee0000000p-4, -0x1.dd17dc0000000p-6, 0x1.20c5040000000p-4, 0x1.299fa40000000p-2, 0x1.41845a0000000p-5, 0x1.f89e840000000p-6, -0x1.f2d8160000000p-5, -0x1.856ed80000000p-9, 0x1.89b9760000000p-3, -0x1.81743c0000000p-3, -0x1.d1afd60000000p-2, -0x1.68494e0000000p-3, 0x1.54ff940000000p-4, 0x1.ae37880000000p-5, -0x1.689e080000000p-2, -0x1.71df1e0000000p-5, -0x1.0c60200000000p-4, 0x1.fdc5060000000p-4, 0x1.e95c080000000p-4, 0x1.88c7020000000p-3, -0x1.48b8da0000000p-5, 0x1.0d15980000000p-5, -0x1.857b800000000p-6, -0x1.0224120000000p-6, 0x1.88eae20000000p-4, -0x1.a0e1f00000000p-3, -0x1.18351c0000000p-2, -0x1.e0342c0000000p-6, -0x1.af0ef00000000p-6}
, {0x1.bcdd2a0000000p-3, 0x1.098b380000000p-4, 0x1.c829400000000p-4, 0x1.93a5e40000000p-4, 0x1.435ed80000000p-3, 0x1.17c0ba0000000p-5, 0x1.16a63c0000000p-3, 0x1.1250ea0000000p-5, 0x1.d5fcec0000000p-3, 0x1.7a89740000000p-7, 0x1.22394e0000000p-4, 0x1.594efc0000000p-3, 0x1.2170cc0000000p-4, -0x1.02a52c0000000p-1, -0x1.7611fe0000000p-9, 0x1.ab1e0c0000000p-3, 0x1.565a9a0000000p-3, 0x1.1d06100000000p-8, 0x1.1543220000000p-3, 0x1.b70d880000000p-6, 0x1.4525ae0000000p-3, 0x1.24db100000000p-4, 0x1.fe77900000000p-5, 0x1.a04c600000000p-5, 0x1.453fe20000000p-3, -0x1.0d9b7e0000000p-3, 0x1.2c3a5a0000000p-2, -0x1.82fc460000000p-4, -0x1.8a6b980000000p-5, -0x1.1b12e80000000p-2, 0x1.0ce3ea0000000p-3, 0x1.70bedc0000000p-4}
}
, {{0x1.a8f4f40000000p-3, 0x1.62d31c0000000p-6, 0x1.d654140000000p-6, -0x1.4bd44c0000000p-4, 0x1.406daa0000000p-5, 0x1.4755980000000p-3, -0x1.2da20c0000000p-3, -0x1.03d0e40000000p-5, -0x1.7b20e00000000p-5, -0x1.5084960000000p-5, 0x1.13a6520000000p-4, -0x1.76df960000000p-3, 0x1.96161a0000000p-4, 0x1.6dd5e80000000p-3, 0x1.9279700000000p-7, -0x1.d0e24a0000000p-8, -0x1.ee6fe80000000p-4, -0x1.f7473c0000000p-4, -0x1.1df2f80000000p-5, 0x1.7ebce20000000p-4, -0x1.240c640000000p-7, -0x1.ac98aa0000000p-7, -0x1.ebbadc0000000p-8, 0x1.01aeac0000000p-5, -0x1.0ecbcc0000000p-4, 0x1.18dbcc0000000p-3, 0x1.e6dc560000000p-6, -0x1.93f4a40000000p-3, 0x1.d3a8200000000p-4, -0x1.e792480000000p-6, 0x1.fc53200000000p-5, -0x1.1c291a0000000p-5}
, {0x1.60dafa0000000p-4, -0x1.d875ea0000000p-3, -0x1.8b12300000000p-6, -0x1.5d974c0000000p-6, -0x1.8c989c0000000p-4, 0x1.ad2a360000000p-5, -0x1.0c39c00000000p-2, -0x1.b3dbde0000000p-4, -0x1.28e62a0000000p-3, -0x1.92d01c0000000p-4, -0x1.e594d00000000p-3, -0x1.9bc88c0000000p-2, 0x1.05bab00000000p-3, 0x1.2e766c0000000p-2, -0x1.4f78ea0000000p-5, -0x1.4f66060000000p-2, -0x1.0769100000000p-3, -0x1.06bcf00000000p-3, -0x1.0b17ce0000000p-3, -0x1.8b15300000000p-6, -0x1.0becc20000000p-3, -0x1.a60f6e0000000p-3, -0x1.f24c5c0000000p-4, -0x1.9cf5220000000p-5, -0x1.f8fb6a0000000p-3, 0x1.8bd8220000000p-4, -0x1.90cef60000000p-3, -0x1.b3a5e40000000p-3, -0x1.543ee20000000p-5, 0x1.61e2000000000p-4, -0x1.b296ea0000000p-4, -0x1.cc32300000000p-7}
, {-0x1.2e71c40000000p-2, 0x1.4e47260000000p-4, -0x1.064ae40000000p-3, -0x1.7df56a0000000p-7, -0x1.61f7420000000p-4, 0x1.42ee780000000p-3, 0x1.0329e00000000p-3, -0x1.7117100000000p-3, 0x1.50f6540000000p-3, -0x1.846e740000000p-5, -0x1.58e3980000000p-5, 0x1.ff419c0000000p-6, -0x1.bcf9de0000000p-5, -0x1.7793ca0000000p-3, -0x1.adc4620000000p-8, -0x1.cfff740000000p-3, -0x1.e52b220000000p-3, -0x1.6d91160000000p-2, -0x1.209dec0000000p-8, -0x1.1ca49c0000000p-4, -0x1.33e0120000000p-3, -0x1.db1e9c0000000p-4, 0x1.dc34d80000000p-5, -0x1.2f57f20000000p-5, 0x1.2b692e0000000p-8, 0x1.c7aae00000000p-3, -0x1.683a100000000p-3, -0x1.b72bf20000000p-3, 0x1.0c912e0000000p-5, 0x1.1788ce0000000p-3, 0x1.b8b1e40000000p-4, -0x1.8fe8e80000000p-5}
}
}
, {{{0x1.27a0840000000p-3, 0x1.b6d3520000000p-8, 0x1.b925220000000p-5, 0x1.03a13a0000000p-3, -0x1.74459e0000000p-5, 0x1.1d50aa0000000p-3, 0x1.1242380000000p-3, 0x1.e1b6000000000p-5, -0x1.8623b20000000p-3, 0x1.a3134e0000000p-4, 0x1.d3dcae0000000p-4, -0x1.54861a0000000p-11, 0x1.a4b35a0000000p-4, -0x1.012ece0000000p-3, 0x1.ccb6cc0000000p-4, 0x1.6c65cc0000000p-5, 0x1.3e94b00000000p-7, 0x1.d4171c0000000p-4, 0x1.a85d060000000p-4, 0x1.33f77e0000000p-3, 0x1.39e1980000000p-7, 0x1.9b42220000000p-4, -0x1.1d03e60000000p-8, 0x1.d84bda0000000p-4, -0x1.1247b60000000p-6, -0x1.a953820000000p-4, 0x1.49dae60000000p-6, 0x1.20a6bc0000000p-5, 0x1.4b0fea0000000p-4, -0x1.23f67c0000000p-5, 0x1.3b65860000000p-3, 0x1.3a322c0000000p-4}
, {-0x1.f1b5e00000000p-4, 0x1.370c780000000p-3, -0x1.cb432c0000000p-5, 0x1.6c6e220000000p-4, 0x1.63fa740000000p-5, -0x1.a73e4a0000000p-6, 0x1.c40dd00000000p-4, 0x1.f0b9500000000p-4, -0x1.64279c0000000p-4, 0x1.d98e940000000p-4, -0x1.4925b80000000p-5, 0x1.5ceb280000000p-4, -0x1.e312fc0000000p-5, -0x1.2951880000000p-4, -0x1.6b3c0a0000000p-3, 0x1.1458a00000000p-5, -0x1.b06d0a0000000p-7, -0x1.2fbc980000000p-5, 0x1.fc9c360000000p-6, -0x1.4871460000000p-6, 0x1.5d80d80000000p-4, 0x1.ca7cc40000000p-6, 0x1.7e6a2e0000000p-4, -0x1.bfee840000000p-6, 0x1.88dfd40000000p-5, 0x1.771b580000000p-6, -0x1.de2e280000000p-6, 0x1.90b8b00000000p-5, -0x1.5bd4de0000000p-3, 0x1.3617860000000p-3, -0x1.c97ed80000000p-6, -0x1.3a6b080000000p-4}
, {0x1.a0effe0000000p-5, -0x1.2c396a0000000p-5, 0x1.30c2100000000p-4, 0x1.9ceb5a0000000p-7, 0x1.2092880000000p-5, -0x1.a738200000000p-3, 0x1.a2e81a0000000p-7, 0x1.654a280000000p-8, 0x1.756e900000000p-3, 0x1.332b500000000p-4, -0x1.d9b7dc0000000p-11, 0x1.2b816c0000000p-5, 0x1.d9bf700000000p-10, -0x1.3f0ce20000000p-6, -0x1.d630de0000000p-5, -0x1.38d52c0000000p-9, 0x1.c9eeea0000000p-4, -0x1.648fe60000000p-4, 0x1.71f2be0000000p-5, 0x1.ee5d4e0000000p-4, 0x1.dc46840000000p-5, 0x1.49b0d60000000p-5, -0x1.fc1b3a0000000p-6, 0x1.c477e80000000p-4, 0x1.23341a0000000p-3, -0x1.61ad3a0000000p-4, -0x1.beb08c0000000p-5, -0x1.79a4620000000p-3, -0x1.51893e0000000p-3, -0x1.6070820000000p-4, 0x1.ce0dda0000000p-4, 0x1.04bfe60000000p-4}
}
, {{-0x1.05ebda0000000p-3, 0x1.6f37ae0000000p-3, -0x1.5be2e20000000p-3, 0x1.97141a0000000p-8, -0x1.8d0fa80000000p-4, 0x1.f230960000000p-4, 0x1.430d220000000p-3, -0x1.382e140000000p-5, -0x1.56867a0000000p-3, -0x1.1fae8e0000000p-2, 0x1.8ada860000000p-3, -0x1.77ebde0000000p-6, -0x1.a4d7700000000p-3, -0x1.862b260000000p-4, 0x1.7e285e0000000p-3, 0x1.341c340000000p-4, 0x1.074ef40000000p-5, 0x1.71e66c0000000p-6, 0x1.a728a60000000p-5, 0x1.4ca2860000000p-4, 0x1.5cd4120000000p-5, -0x1.f553e60000000p-6, 0x1.de20700000000p-3, -0x1.40d5a40000000p-2, -0x1.eba03c0000000p-5, -0x1.6ae3f00000000p-3, 0x1.c2c72c0000000p-7, 0x1.b3bb3a0000000p-7, 0x1.f60db60000000p-4, 0x1.c06e860000000p-4, 0x1.ddb8ac0000000p-4, -0x1.ffc1fe0000000p-5}
, {-0x1.82b54e0000000p-3, -0x1.971de00000000p-4, -0x1.3273300000000p-7, -0x1.6c9bd40000000p-3, 0x1.c2388a0000000p-7, -0x1.4f90320000000p-4, -0x1.d14ae40000000p-5, -0x1.0f87a00000000p-3, 0x1.1c38720000000p-4, -0x1.d172c60000000p-5, -0x1.c79ebe0000000p-3, 0x1.759f180000000p-4, -0x1.bea9c40000000p-5, -0x1.b7232c0000000p-8, -0x1.2fe15c0000000p-3, -0x1.f357fc0000000p-5, -0x1.5ef2480000000p-8, 0x1.07a3f60000000p-4, -0x1.3c86ee0000000p-3, -0x1.08ff700000000p-3, -0x1.1d54f00000000p-2, -0x1.0657fc0000000p-2, -0x1.35b9e00000000p-2, -0x1.3d2d1c0000000p-5, -0x1.b404e20000000p-6, 0x1.95b02a0000000p-6, -0x1.f3f1100000000p-3, 0x1.944f640000000p-6, -0x1.3fd17c0000000p-8, 0x1.f338620000000p-4, -0x1.984b8a0000000p-3, -0x1.17e22e0000000p-3}
, {-0x1.4c491e0000000p-3, -0x1.471a0e0000000p-2, 0x1.717e2a0000000p-4, -0x1.781c580000000p-5, 0x1.12e7120000000p-4, -0x1.1410be0000000p-5, -0x1.7a50ee0000000p-3, 0x1.72427e0000000p-6, 0x1.02913a0000000p-3, 0x1.54a32e0000000p-5, 0x1.9525ce0000000p-5, 0x1.f92d960000000p-5, 0x1.e50c4a0000000p-4, 0x1.1a64620000000p-6, -0x1.e8994c0000000p-4, -0x1.1395200000000p-4, 0x1.04ce080000000p-3, -0x1.549df00000000p-2, 0x1.1e088a0000000p-4, 0x1.05b1b40000000p-3, 0x1.61bc000000000p-4, 0x1.36534c0000000p-4, -0x1.7344780000000p-2, 0x1.41b2800000000p-5, 0x1.1f9e5a0000000p-3, 0x1.63808a0000000p-3, 0x1.afb5640000000p-10, -0x1.13cd240000000p-1, -0x1.b870220000000p-3, -0x1.11653e0000000p-2, 0x1.963ef40000000p-4, 0x1.2c78460000000p-4}
}
, {{-0x1.3b983c0000000p-5, 0x1.9033500000000p-3, -0x1.9da64c0000000p-4, -0x1.fce9fa0000000p-3, -0x1.3510500000000p-4, -0x1.012cfa0000000p-3, 0x1.23133a0000000p-3, -0x1.1a3d620000000p-2, -0x1.1baa3e0000000p-4, -0x1.14deaa0000000p-2, -0x1.4aad480000000p-2, -0x1.4707420000000p-3, -0x1.07f5b00000000p-4, 0x1.e69b640000000p-6, -0x1.92800a0000000p-4, -0x1.8cdd4e0000000p-4, -0x1.a075c40000000p-4, -0x1.7bc0420000000p-6, -0x1.5127f20000000p-3, -0x1.5769920000000p-3, -0x1.7933700000000p-3, -0x1.1935bc0000000p-2, 0x1.797dfc0000000p-4, -0x1.165ad00000000p-3, -0x1.1b9ac60000000p-3, -0x1.4fc5c60000000p-5, -0x1.6d553c0000000p-3, 0x1.9105d20000000p-3, -0x1.20854e0000000p-3, 0x1.6c773e0000000p-3, -0x1.0028440000000p-2, -0x1.66e8260000000p-3}
, {0x1.6e61500000000p-6, -0x1.ebff4c0000000p-2, 0x1.07bc320000000p-4, 0x1.91ffd00000000p-9, -0x1.a0506c0000000p-9, -0x1.50dda80000000p-2, -0x1.680b4c0000000p-2, 0x1.19e70e0000000p-4, 0x1.62cb000000000p-3, -0x1.5935dc0000000p-4, -0x1.71061c0000000p-3, -0x1.844acc0000000p-5, 0x1.df38fc0000000p-5, 0x1.48460a0000000p-6, -0x1.1c3d300000000p-2, -0x1.9bad460000000p-5, 0x1.3dc9060000000p-3, -0x1.7cbeba0000000p-3, -0x1.06693e0000000p-3, -0x1.ccfa620000000p-4, -0x1.4350da0000000p-3, 0x1.0c7ae20000000p-3, -0x1.11e5980000000p-1, 0x1.1f69fe0000000p-3, 0x1.83278a0000000p-4, 0x1.4d9b1a0000000p-3, -0x1.3b6d0c0000000p-4, -0x1.b893040000000p-3, -0x1.39ad9c0000000p-2, 0x1.cdc8040000000p-5, -0x1.c408d60000000p-3, -0x1.204ee00000000p-4}
, {-0x1.cdcf660000000p-4, -0x1.def30e0000000p-7, 0x1.18e9de0000000p-5, 0x1.67e1620000000p-3, 0x1.bad0b20000000p-4, 0x1.01370c0000000p-2, -0x1.bc17580000000p-4, 0x1.d081c20000000p-5, 0x1.7979ca0000000p-4, 0x1.2d527a0000000p-3, 0x1.6963980000000p-6, 0x1.fd82560000000p-6, 0x1.9ac4ac0000000p-4, 0x1.2d2d2c0000000p-4, -0x1.1a05d80000000p-5, -0x1.a8d0940000000p-7, 0x1.e342a00000000p-8, -0x1.06f72a0000000p-2, 0x1.1d83300000000p-5, 0x1.d9f55e0000000p-4, 0x1.78fe2e0000000p-5, 0x1.1aa8280000000p-4, 0x1.60965e0000000p-5, 0x1.a13dda0000000p-4, -0x1.2c14500000000p-4, 0x1.cce40c0000000p-3, -0x1.7ef7700000000p-4, -0x1.1224c00000000p-2, 0x1.2bf9ba0000000p-2, -0x1.7c45340000000p-4, 0x1.593fc00000000p-4, 0x1.6009f60000000p-6}
}
}
, {{{-0x1.4c3a140000000p-7, -0x1.a44df80000000p-6, 0x1.517b840000000p-4, 0x1.79c38e0000000p-5, -0x1.e179200000000p-6, -0x1.3303500000000p-8, 0x1.e57bde0000000p-4, 0x1.0325400000000p-3, 0x1.a07c600000000p-3, 0x1.29d6700000000p-4, 0x1.6292f80000000p-7, 0x1.96f61a0000000p-4, -0x1.0674760000000p-5, 0x1.1910960000000p-3, -0x1.4944f20000000p-4, 0x1.9f767c0000000p-5, 0x1.1359700000000p-4, -0x1.a85d120000000p-3, 0x1.2cbecc0000000p-12, 0x1.1301ce0000000p-4, 0x1.cc03ee0000000p-3, 0x1.9b9db20000000p-4, 0x1.bc077e0000000p-4, 0x1.2ce7640000000p-4, 0x1.1b97c20000000p-7, 0x1.216c480000000p-7, -0x1.1762f60000000p-5, -0x1.0a5c520000000p-4, -0x1.348a960000000p-3, -0x1.0bdb5c0000000p-2, 0x1.a50f020000000p-5, 0x1.5130fc0000000p-7}
, {-0x1.9a3a4c0000000p-3, 0x1.fa50620000000p-6, 0x1.04bc580000000p-3, 0x1.1654360000000p-3, -0x1.a2eb920000000p-6, 0x1.0be54c0000000p-4, 0x1.376b420000000p-6, 0x1.cebe2c0000000p-4, 0x1.76d55a0000000p-3, 0x1.906afe0000000p-4, 0x1.2656420000000p-3, 0x1.7239840000000p-5, 0x1.607c4e0000000p-5, -0x1.16bf2c0000000p-2, -0x1.e38cec0000000p-5, 0x1.c652e80000000p-4, 0x1.a389be0000000p-3, -0x1.d3144c0000000p-3, 0x1.e54e640000000p-4, 0x1.dc719e0000000p-3, -0x1.d358360000000p-8, 0x1.9969640000000p-4, 0x1.2c3be80000000p-6, 0x1.a945c20000000p-4, 0x1.16c5f40000000p-3, 0x1.614dac0000000p-5, 0x1.3501e60000000p-5, 0x1.5e63660000000p-5, 0x1.41ccc80000000p-4, 0x1.8820cc0000000p-3, 0x1.1267820000000p-4, 0x1.d8df620000000p-4}
, {-0x1.fe5ada0000000p-2, 0x1.e13e500000000p-6, -0x1.49ce5c0000000p-3, 0x1.082e2c0000000p-3, -0x1.3cf59c0000000p-5, 0x1.d88c000000000p-3, 0x1.aeba4e0000000p-6, 0x1.25e5480000000p-3, -0x1.61ac2c0000000p-4, 0x1.67aff40000000p-5, 0x1.3098c60000000p-4, -0x1.1931220000000p-6, -0x1.29b8820000000p-2, -0x1.010ad60000000p-3, 0x1.8deb000000000p-10, 0x1.7774de0000000p-5, -0x1.b27e480000000p-4, 0x1.bb61c80000000p-7, 0x1.416aea0000000p-5, 0x1.fbf2580000000p-3, 0x1.565f300000000p-5, 0x1.4997240000000p-4, 0x1.2fbd6c0000000p-6, -0x1.2975f60000000p-3, 0x1.e7a2300000000p-10, -0x1.2b618c0000000p-2, -0x1.99fd600000000p-5, -0x1.d152f80000000p-4, 0x1.c5864e0000000p-4, 0x1.8bde260000000p-4, 0x1.8b69e60000000p-5, -0x1.2868420000000p-4}
}
, {{-0x1.e24d860000000p-3, 0x1.9498860000000p-4, 0x1.42f0d60000000p-5, 0x1.9967e00000000p-5, 0x1.56a73e0000000p-4, 0x1.cbe9500000000p-5, -0x1.420a200000000p-6, -0x1.f6d89a0000000p-6, 0x1.38c6260000000p-3, 0x1.42b6620000000p-4, 0x1.59b39c0000000p-5, 0x1.2e19c60000000p-3, -0x1.05ba180000000p-4, 0x1.cf04700000000p-5, -0x1.73c3d40000000p-6, 0x1.5e3c920000000p-6, 0x1.565f820000000p-5, -0x1.c9938e0000000p-2, -0x1.9a3c740000000p-6, 0x1.0714e20000000p-4, 0x1.7643540000000p-4, 0x1.832fc80000000p-5, 0x1.6adb520000000p-4, 0x1.e3f3e40000000p-5, 0x1.f800820000000p-4, 0x1.cecabc0000000p-3, -0x1.169b520000000p-5, 0x1.fc191c0000000p-4, 0x1.5000a60000000p-5, 0x1.ddf5720000000p-4, 0x1.4b9c7c0000000p-4, -0x1.0bca940000000p-4}
, {-0x1.1372020000000p-1, 0x1.512ac00000000p-3, -0x1.24d5bc0000000p-3, 0x1.7f04660000000p-7, -0x1.16db560000000p-9, 0x1.1f03620000000p-4, 0x1.0b8b340000000p-3, -0x1.1c646e0000000p-9, -0x1.5c387c0000000p-4, 0x1.4da18e0000000p-4, 0x1.ae9cc20000000p-4, 0x1.2b85e20000000p-4, -0x1.082c920000000p-2, 0x1.38aa7e0000000p-8, -0x1.6a22160000000p-3, 0x1.42ec620000000p-3, -0x1.c3d87c0000000p-7, -0x1.0d455a0000000p-3, -0x1.665d320000000p-6, 0x1.8e1b700000000p-5, 0x1.ddb3820000000p-4, 0x1.bebc880000000p-4, 0x1.45a9de0000000p-3, 0x1.9abb980000000p-6, 0x1.40c2220000000p-8, -0x1.25baf80000000p-3, -0x1.aeffc60000000p-5, -0x1.5020800000000p-5, 0x1.498d080000000p-4, 0x1.3921260000000p-3, -0x1.5914840000000p-4, 0x1.5665d20000000p-7}
, {-0x1.c5637e0000000p-2, 0x1.58f1ea0000000p-5, -0x1.2206520000000p-1, -0x1.ed4f400000000p-3, -0x1.b0138e0000000p-2, 0x1.00aa380000000p-3, -0x1.a7da520000000p-6, -0x1.14a5be0000000p-2, -0x1.aa0b5e0000000p-2, -0x1.9b32b40000000p-2, -0x1.eb26940000000p-6, -0x1.5dfb1a0000000p-2, -0x1.9a469e0000000p-2, 0x1.636f720000000p-3, 0x1.ab3ace0000000p-4, -0x1.99d0b20000000p-4, -0x1.ba9c960000000p-3, -0x1.4e7d7a0000000p-4, -0x1.14769e0000000p-4, 0x1.7db1640000000p-6, -0x1.8a280e0000000p-3, -0x1.0f00380000000p-2, -0x1.0eb75a0000000p-3, -0x1.04c1be0000000p-1, -0x1.ec01280000000p-3, -0x1.014d640000000p-2, -0x1.dd6ae40000000p-3, -0x1.6ec4020000000p-5, 0x1.da741a0000000p-3, 0x1.c445760000000p-3, -0x1.f545160000000p-4, -0x1.0f20e60000000p-2}
}
, {{-0x1.7a63160000000p-2, 0x1.e3b2ec0000000p-3, -0x1.5d4d980000000p-3, 0x1.05fcda0000000p-6, -0x1.6d10f60000000p-5, 0x1.642d020000000p-6, 0x1.b3a8040000000p-4, -0x1.7585300000000p-4, -0x1.2ba6d60000000p-7, -0x1.7359b40000000p-7, 0x1.f2bf2a0000000p-6, 0x1.39e0860000000p-4, -0x1.5a49f00000000p-3, -0x1.3bdbda0000000p-4, -0x1.5319880000000p-4, -0x1.422d5e0000000p-4, -0x1.c0c3dc0000000p-4, -0x1.cbabf20000000p-4, -0x1.06484c0000000p-3, -0x1.0032c00000000p-6, 0x1.5170960000000p-4, -0x1.415ace0000000p-5, 0x1.1f59720000000p-2, 0x1.7b90f20000000p-10, 0x1.7432b20000000p-6, -0x1.5969360000000p-3, -0x1.cb55700000000p-5, 0x1.67134a0000000p-3, -0x1.1c1a8e0000000p-4, 0x1.95cfac0000000p-4, -0x1.7a07220000000p-5, -0x1.ea07be0000000p-4}
, {-0x1.551c020000000p-3, 0x1.aa07980000000p-3, -0x1.4315920000000p-2, -0x1.4432000000000p-3, -0x1.4052e60000000p-2, -0x1.c276d60000000p-3, 0x1.393cb20000000p-3, -0x1.a0887c0000000p-3, -0x1.b68aa60000000p-3, -0x1.d4a8da0000000p-3, -0x1.e0f8f20000000p-3, 0x1.74bf380000000p-4, -0x1.6b076a0000000p-4, 0x1.75f99a0000000p-3, -0x1.86d1920000000p-4, -0x1.3567f00000000p-10, -0x1.edc4760000000p-6, -0x1.2e45100000000p-3, -0x1.53041c0000000p-2, -0x1.ba4bf60000000p-4, -0x1.663f340000000p-6, -0x1.3f59480000000p-3, 0x1.b5b1ae0000000p-5, -0x1.00e3ba0000000p-2, -0x1.40f5120000000p-3, -0x1.2e38e40000000p-5, -0x1.411a4e0000000p-3, 0x1.2c0b520000000p-4, -0x1.e737f20000000p-5, 0x1.3eefd60000000p-3, -0x1.81fdec0000000p-3, -0x1.4e9f660000000p-3}
, {-0x1.1f058c0000000p-3, -0x1.fe48280000000p-3, -0x1.9482660000000p-3, -0x1.c504b40000000p-4, -0x1.cec9620000000p-4, -0x1.3ba9460000000p-2, -0x1.2efd2a0000000p-2, -0x1.6da0d00000000p-5, -0x1.935a800000000p-2, -0x1.7e83d40000000p-4, -0x1.4a63f00000000p-2, -0x1.5180ac0000000p-2, -0x1.4d44740000000p-4, -0x1.4f20f80000000p-3, -0x1.f857560000000p-4, -0x1.2733c00000000p-2, -0x1.17752c0000000p-2, 0x1.4ed94e0000000p-3, -0x1.b241500000000p-4, -0x1.5ce08c0000000p-2, -0x1.80ed580000000p-2, -0x1.941d180000000p-4, -0x1.ecdf3e0000000p-2, -0x1.8bf6760000000p-3, -0x1.bc431e0000000p-3, -0x1.1fd4340000000p-3, -0x1.2dd9c80000000p-2, -0x1.5eb6860000000p-7, -0x1.4ce3440000000p-5, 0x1.b514860000000p-4, -0x1.3e8c8e0000000p-4, -0x1.1c5c920000000p-2}
}
}
, {{{0x1.22ba960000000p-3, 0x1.8a680a0000000p-3, -0x1.5328000000000p-5, -0x1.4a9fa20000000p-5, -0x1.f53a7c0000000p-5, -0x1.60ab140000000p-3, 0x1.8d0e160000000p-3, -0x1.bcb2c20000000p-5, 0x1.124f5e0000000p-3, 0x1.4be0c80000000p-8, -0x1.7eeeea0000000p-4, 0x1.5caf500000000p-5, 0x1.bcf85c0000000p-4, 0x1.dedde40000000p-5, -0x1.0d222a0000000p-3, 0x1.5dfd880000000p-4, -0x1.dea5c80000000p-4, -0x1.cd260a0000000p-4, -0x1.6b59100000000p-4, -0x1.199fea0000000p-4, 0x1.fcf6040000000p-6, -0x1.50f8160000000p-4, 0x1.5701a40000000p-4, 0x1.1cb4820000000p-4, 0x1.f4c0ba0000000p-5, 0x1.01bdde0000000p-4, 0x1.f93c5c0000000p-6, 0x1.bc5e0e0000000p-3, -0x1.5b42b00000000p-2, -0x1.b9f7820000000p-5, -0x1.4feaf20000000p-3, 0x1.9b33820000000p-5}
, {0x1.2de02c0000000p-4, -0x1.60a9f80000000p-3, 0x1.2cfeae0000000p-3, -0x1.23ddc20000000p-5, 0x1.0ef4f80000000p-7, -0x1.5a1d680000000p-3, -0x1.c9d5380000000p-4, 0x1.8cf8a20000000p-4, -0x1.ec67f60000000p-5, 0x1.1aaf260000000p-3, 0x1.d51ad00000000p-9, -0x1.262c320000000p-4, 0x1.65b2c60000000p-3, -0x1.145e920000000p-4, -0x1.9fe5f20000000p-9, 0x1.3edd840000000p-4, 0x1.5e4a4e0000000p-3, -0x1.6ae0680000000p-6, 0x1.2aa71c0000000p-4, -0x1.2514f60000000p-4, -0x1.4744360000000p-4, 0x1.380c600000000p-5, -0x1.2f62780000000p-2, 0x1.ae30bc0000000p-4, 0x1.4162180000000p-3, 0x1.5788d00000000p-4, 0x1.77c4540000000p-5, -0x1.2e60b80000000p-2, -0x1.646b420000000p-4, -0x1.25cad40000000p-3, 0x1.985a680000000p-4, 0x1.e5988e0000000p-4}
, {-0x1.36c46e0000000p-6, -0x1.cfa6940000000p-3, -0x1.8bf1f80000000p-5, 0x1.58d1d00000000p-6, -0x1.ba09e80000000p-8, 0x1.b9befc0000000p-4, -0x1.e973840000000p-4, 0x1.987d580000000p-4, -0x1.64c4fc0000000p-4, -0x1.8e687a0000000p-5, 0x1.e5258c0000000p-6, -0x1.3204ca0000000p-4, -0x1.077f560000000p-5, -0x1.2ca1d00000000p-3, -0x1.8ffc8e0000000p-6, 0x1.59b2560000000p-4, -0x1.175a860000000p-10, 0x1.132eb20000000p-2, 0x1.54e0840000000p-6, -0x1.a45d060000000p-4, -0x1.4c4a9e0000000p-5, 0x1.65b5840000000p-5, -0x1.84010c0000000p-4, -0x1.83d0e60000000p-4, 0x1.c0fc060000000p-6, -0x1.86ea700000000p-3, -0x1.d994460000000p-4, -0x1.fa11ec0000000p-5, -0x1.74be120000000p-6, -0x1.49da480000000p-3, -0x1.b806be0000000p-7, -0x1.047a8a0000000p-11}
}
, {{-0x1.36e81c0000000p-6, -0x1.2e4e5c0000000p-7, 0x1.130a940000000p-4, 0x1.4863e00000000p-5, 0x1.113a760000000p-4, -0x1.4d6f8c0000000p-3, -0x1.792aa60000000p-6, 0x1.085b400000000p-3, -0x1.37dbb60000000p-5, 0x1.03b18e0000000p-3, 0x1.3110040000000p-7, -0x1.6801780000000p-5, 0x1.29431c0000000p-3, -0x1.472a060000000p-3, 0x1.efb2760000000p-6, -0x1.08e99a0000000p-8, 0x1.9e01380000000p-15, -0x1.2a1e500000000p-3, 0x1.1aecda0000000p-3, -0x1.32113a0000000p-5, 0x1.205f4e0000000p-5, 0x1.29a58a0000000p-4, 0x1.66cc600000000p-4, 0x1.6e03080000000p-3, -0x1.2798d20000000p-6, 0x1.81ad460000000p-6, -0x1.a0911c0000000p-5, -0x1.3539e40000000p-5, -0x1.2a78d60000000p-3, 0x1.6bc8d40000000p-6, -0x1.41112e0000000p-5, 0x1.caf2c20000000p-5}
, {-0x1.3367220000000p-4, -0x1.23a1ee0000000p-3, 0x1.44bec00000000p-5, 0x1.e0d2320000000p-4, 0x1.06da780000000p-3, -0x1.2745da0000000p-2, -0x1.e579dc0000000p-5, -0x1.ba310e0000000p-7, -0x1.5e3b100000000p-6, 0x1.1474820000000p-5, 0x1.96500a0000000p-5, 0x1.fdf0860000000p-4, 0x1.5a1eee0000000p-4, -0x1.55eff20000000p-4, -0x1.4334580000000p-4, 0x1.3f4a720000000p-6, 0x1.172c7a0000000p-3, -0x1.2f3e420000000p-3, 0x1.7b86460000000p-5, -0x1.8267ac0000000p-5, 0x1.c3160e0000000p-5, 0x1.3151ba0000000p-4, -0x1.63f7c20000000p-3, 0x1.8acb760000000p-4, 0x1.147a600000000p-7, 0x1.dd6f880000000p-7, 0x1.49f0560000000p-4, -0x1.0f18ba0000000p-3, -0x1.6183880000000p-3, -0x1.b688940000000p-2, 0x1.db5e320000000p-4, 0x1.84471a0000000p-4}
, {0x1.0beb740000000p-3, -0x1.1936c60000000p-2, 0x1.11ef440000000p-3, 0x1.17e17e0000000p-4, -0x1.8e3b6c0000000p-6, -0x1.40497c0000000p-4, -0x1.e9f1860000000p-3, 0x1.fc91100000000p-5, -0x1.9bfe000000000p-3, 0x1.c4a8b80000000p-4, -0x1.cbb1580000000p-5, -0x1.59e7880000000p-3, 0x1.d2e2000000000p-6, -0x1.d33a720000000p-3, 0x1.1619c40000000p-4, 0x1.3cd2200000000p-8, 0x1.f0cc460000000p-5, 0x1.5822ce0000000p-8, 0x1.fa61a60000000p-4, -0x1.4ba0520000000p-8, -0x1.76a7040000000p-5, -0x1.05ec580000000p-5, -0x1.99b8a60000000p-3, 0x1.85b81a0000000p-6, -0x1.5276060000000p-7, -0x1.3d681a0000000p-4, 0x1.9517b60000000p-4, -0x1.d3686e0000000p-3, -0x1.1529900000000p-7, -0x1.3724f60000000p-3, 0x1.8524860000000p-4, 0x1.5154ec0000000p-4}
}
, {{-0x1.51bab80000000p-3, -0x1.d92a440000000p-7, -0x1.3cbe300000000p-7, -0x1.611de20000000p-9, 0x1.53135c0000000p-5, -0x1.f93cb20000000p-4, 0x1.fea7100000000p-4, 0x1.c545620000000p-6, 0x1.490a9a0000000p-4, 0x1.518a100000000p-5, -0x1.7325300000000p-4, -0x1.0bf86c0000000p-4, 0x1.ed2aa00000000p-5, 0x1.ed44dc0000000p-6, -0x1.60a95a0000000p-3, -0x1.bc17500000000p-7, -0x1.1fe0c20000000p-5, -0x1.eaa5560000000p-5, 0x1.ee8eec0000000p-9, 0x1.f82c7e0000000p-6, -0x1.8837a00000000p-6, 0x1.594f0a0000000p-6, 0x1.14c9960000000p-7, 0x1.2ef1780000000p-6, 0x1.4533f20000000p-3, -0x1.3cae3e0000000p-4, 0x1.01b33e0000000p-7, -0x1.7e9de40000000p-6, -0x1.f8efe00000000p-4, 0x1.2ec0700000000p-3, -0x1.8c3dcc0000000p-4, 0x1.9275100000000p-6}
, {-0x1.5717080000000p-2, -0x1.be8cc80000000p-3, -0x1.a0f9c00000000p-4, 0x1.1a4dfc0000000p-6, 0x1.7f57580000000p-3, 0x1.4777540000000p-7, -0x1.d6ffe20000000p-4, 0x1.312c360000000p-4, 0x1.912b9e0000000p-5, 0x1.2629280000000p-4, 0x1.bcc36c0000000p-4, 0x1.16d1180000000p-6, -0x1.a274ea0000000p-5, -0x1.3a7b720000000p-3, -0x1.ff29ba0000000p-3, 0x1.a852520000000p-6, -0x1.3333760000000p-5, -0x1.f91bb80000000p-3, 0x1.f7ea220000000p-5, 0x1.3da75c0000000p-12, -0x1.cccb6c0000000p-5, -0x1.8cfd9a0000000p-10, -0x1.f1ea8e0000000p-4, -0x1.74f75e0000000p-5, 0x1.1a934c0000000p-3, 0x1.14ade00000000p-6, 0x1.0caa2e0000000p-7, -0x1.20d3520000000p-2, -0x1.665cc80000000p-3, -0x1.4be3ba0000000p-2, 0x1.5bf1dc0000000p-8, 0x1.0f0f820000000p-5}
, {-0x1.1055220000000p-2, -0x1.ad4bb80000000p-3, 0x1.2523a20000000p-5, -0x1.e834640000000p-8, -0x1.9fa3380000000p-7, 0x1.cfa8400000000p-5, -0x1.2b2ee40000000p-3, 0x1.3bb45c0000000p-4, -0x1.47de5a0000000p-3, 0x1.4438d20000000p-3, 0x1.7dc3500000000p-6, -0x1.90141c0000000p-3, -0x1.9d7a080000000p-3, -0x1.5c4a960000000p-2, -0x1.270c2c0000000p-3, 0x1.725ed80000000p-4, -0x1.33ffe80000000p-4, -0x1.691c800000000p-4, 0x1.8eeede0000000p-4, 0x1.a6901e0000000p-3, -0x1.a8e0960000000p-6, 0x1.fb9eaa0000000p-4, -0x1.40bf700000000p-4, 0x1.0f40260000000p-4, -0x1.0daca00000000p-7, -0x1.e137140000000p-2, 0x1.662c3a0000000p-4, -0x1.c09cdc0000000p-3, 0x1.1ffc560000000p-8, 0x1.3381ea0000000p-5, 0x1.5b88740000000p-5, 0x1.0e419e0000000p-3}
}
}
, {{{-0x1.3187260000000p-3, -0x1.11d6380000000p-3, 0x1.0df3c80000000p-5, 0x1.76e28c0000000p-4, 0x1.0d24860000000p-4, -0x1.4f818a0000000p-3, -0x1.cafa440000000p-3, 0x1.67cd660000000p-4, -0x1.d16a3c0000000p-7, 0x1.5867420000000p-3, -0x1.fe061c0000000p-6, 0x1.066c440000000p-9, 0x1.5689dc0000000p-4, -0x1.d43d8a0000000p-4, 0x1.2c1fe80000000p-3, 0x1.44325c0000000p-5, -0x1.6a53560000000p-6, -0x1.29fe700000000p-3, 0x1.110c880000000p-5, 0x1.1658600000000p-4, 0x1.c6de520000000p-4, 0x1.1bd9400000000p-4, -0x1.1d2f420000000p-2, -0x1.2a07860000000p-4, 0x1.425f700000000p-9, 0x1.dd0a340000000p-11, -0x1.a2df7e0000000p-5, -0x1.6f32760000000p-3, -0x1.3906880000000p-5, 0x1.5f12da0000000p-3, 0x1.25f0d00000000p-5, 0x1.5eb7800000000p-4}
, {0x1.1a4d320000000p-3, 0x1.df86d80000000p-7, 0x1.a324500000000p-5, 0x1.dd75dc0000000p-5, -0x1.6842320000000p-5, 0x1.4b21d00000000p-3, -0x1.9e24140000000p-3, 0x1.a6a06e0000000p-5, -0x1.90b10c0000000p-4, 0x1.ffeebc0000000p-11, 0x1.e9733e0000000p-5, -0x1.5073660000000p-4, 0x1.378b980000000p-4, 0x1.1546cc0000000p-4, -0x1.7cb5280000000p-5, 0x1.8610d40000000p-4, -0x1.2050760000000p-4, -0x1.3ee4520000000p-5, 0x1.0f9efe0000000p-4, 0x1.4e49c00000000p-4, -0x1.3e7fcc0000000p-4, -0x1.3f11940000000p-5, -0x1.2661560000000p-5, 0x1.01f1080000000p-4, -0x1.ee60c80000000p-6, 0x1.1525740000000p-3, 0x1.ad43740000000p-9, -0x1.19f3ac0000000p-3, 0x1.051cf20000000p-5, 0x1.c43e740000000p-6, 0x1.0442620000000p-3, 0x1.6011aa0000000p-4}
, {-0x1.1f64860000000p-4, 0x1.ed16a80000000p-5, -0x1.374e840000000p-3, -0x1.55f8160000000p-5, -0x1.ec5a0c0000000p-4, 0x1.1bc9360000000p-3, -0x1.affff00000000p-6, -0x1.abf8900000000p-4, -0x1.72bdd20000000p-2, -0x1.d17a600000000p-3, 0x1.8576640000000p-4, -0x1.a4bd660000000p-3, -0x1.2b55520000000p-3, -0x1.5e95100000000p-6, 0x1.1cb8880000000p-5, 0x1.290f600000000p-5, -0x1.5d18e40000000p-2, -0x1.9aa9900000000p-3, -0x1.a13a7a0000000p-4, 0x1.cb8ae60000000p-4, 0x1.a5d06c0000000p-4, -0x1.d12ebc0000000p-6, 0x1.0728920000000p-4, -0x1.9826b60000000p-3, -0x1.5137ac0000000p-3, -0x1.c630ce0000000p-3, -0x1.1c24380000000p-3, -0x1.3589a00000000p-5, 0x1.3ce2c60000000p-4, 0x1.8e183e0000000p-4, 0x1.d5f9f20000000p-5, -0x1.23b7980000000p-5}
}
, {{-0x1.73a6800000000p-3, -0x1.cfd34c0000000p-3, -0x1.3eeada0000000p-5, 0x1.154f720000000p-3, 0x1.9c3cc60000000p-5, -0x1.b701780000000p-3, -0x1.3c24b00000000p-3, 0x1.0594840000000p-3, -0x1.34d85a0000000p-3, 0x1.9ddf380000000p-8, 0x1.293c520000000p-4, -0x1.51c18a0000000p-3, -0x1.0842d60000000p-6, -0x1.bedb900000000p-3, -0x1.99f7a60000000p-4, 0x1.3435060000000p-3, -0x1.bf447a0000000p-6, 0x1.04a3fc0000000p-4, 0x1.480ef20000000p-4, 0x1.f052680000000p-5, 0x1.5d66c80000000p-5, 0x1.3f8d060000000p-5, -0x1.3a14620000000p-3, 0x1.83f9f20000000p-6, -0x1.244f7e0000000p-4, -0x1.05db400000000p-4, 0x1.f9f0540000000p-5, -0x1.11afb20000000p-3, 0x1.e3097c0000000p-7, -0x1.adc6a20000000p-3, 0x1.175c520000000p-4, 0x1.532aaa0000000p-5}
, {-0x1.4638c60000000p-5, -0x1.c40b780000000p-4, 0x1.746f900000000p-4, 0x1.c9b88e0000000p-8, -0x1.42f8cc0000000p-5, 0x1.eba4760000000p-5, -0x1.33d9be0000000p-5, -0x1.6671a60000000p-6, -0x1.2f2d540000000p-6, -0x1.6a8c720000000p-5, 0x1.00e9860000000p-3, 0x1.257ebc0000000p-6, -0x1.873a700000000p-8, -0x1.24b0c40000000p-2, 0x1.3fc0fc0000000p-4, 0x1.0473d40000000p-3, 0x1.e10dea0000000p-4, -0x1.afe66e0000000p-9, 0x1.85da460000000p-5, 0x1.4789920000000p-3, 0x1.1c2ba40000000p-5, 0x1.2bb6fc0000000p-5, -0x1.98989e0000000p-5, 0x1.fc4a5a0000000p-8, 0x1.78c72e0000000p-4, -0x1.5910220000000p-4, 0x1.45ea0a0000000p-6, -0x1.af8c980000000p-3, 0x1.6eb4b60000000p-6, -0x1.a4099a0000000p-3, 0x1.6d34980000000p-6, 0x1.b6a1940000000p-4}
, {0x1.ce1d260000000p-3, -0x1.28a59c0000000p-6, 0x1.0ccdbc0000000p-4, -0x1.8570c80000000p-3, -0x1.87a56c0000000p-4, -0x1.11bd7e0000000p-7, 0x1.2ec9480000000p-7, -0x1.8af4be0000000p-5, -0x1.657f340000000p-2, -0x1.26a6960000000p-4, -0x1.95501e0000000p-5, -0x1.c347ea0000000p-6, -0x1.905bfe0000000p-4, -0x1.60bca80000000p-5, 0x1.6966220000000p-3, -0x1.13ab920000000p-3, -0x1.a13cda0000000p-5, 0x1.f25a760000000p-3, 0x1.38e80a0000000p-6, 0x1.884f280000000p-5, -0x1.8e8d700000000p-3, -0x1.0893480000000p-2, -0x1.d718680000000p-3, -0x1.e956000000000p-4, -0x1.9ecb540000000p-5, -0x1.65bbd80000000p-9, -0x1.6cc81a0000000p-5, -0x1.ba98a80000000p-4, 0x1.ad7b6e0000000p-3, -0x1.28a5dc0000000p-3, -0x1.c023cc0000000p-6, 0x1.f56e8a0000000p-9}
}
, {{-0x1.c2c1820000000p-3, -0x1.2d16340000000p-4, -0x1.95f92a0000000p-6, 0x1.f54e580000000p-6, -0x1.fae7d20000000p-6, -0x1.18f8c60000000p-5, -0x1.b865c60000000p-4, -0x1.e9a08c0000000p-7, 0x1.4d1dd80000000p-5, 0x1.201a920000000p-7, -0x1.04c72c0000000p-6, -0x1.e7043c0000000p-4, -0x1.ba84400000000p-4, -0x1.06df280000000p-3, -0x1.f150200000000p-5, 0x1.1958500000000p-3, 0x1.b0751a0000000p-4, 0x1.f836d40000000p-5, 0x1.a875ec0000000p-5, 0x1.baac540000000p-4, 0x1.4082d00000000p-5, 0x1.9dd30c0000000p-4, -0x1.89dd700000000p-7, -0x1.42fabe0000000p-4, 0x1.1b5ec20000000p-4, -0x1.c09e700000000p-4, 0x1.b986d00000000p-8, -0x1.81351e0000000p-3, 0x1.781e6e0000000p-4, 0x1.c76f760000000p-7, 0x1.e290c40000000p-5, -0x1.bd794a0000000p-4}
, {0x1.edb2e40000000p-6, -0x1.03425c0000000p-4, -0x1.7c0d220000000p-5, -0x1.d58fb20000000p-6, 0x1.7cfdc60000000p-6, -0x1.c76ae00000000p-4, 0x1.cafb700000000p-8, 0x1.dd7cb40000000p-7, 0x1.68f6580000000p-5, 0x1.c3970a0000000p-4, -0x1.65a1da0000000p-5, 0x1.e465cc0000000p-5, 0x1.fca7240000000p-8, -0x1.b2f2bc0000000p-2, -0x1.82350c0000000p-4, -0x1.c3b7ae0000000p-6, 0x1.44e2a00000000p-4, 0x1.73c4560000000p-3, 0x1.1f08420000000p-4, -0x1.506fbc0000000p-5, 0x1.31f0ae0000000p-7, 0x1.9644300000000p-4, -0x1.d6098c0000000p-4, -0x1.deaef20000000p-4, 0x1.9b44b20000000p-5, -0x1.8385320000000p-4, -0x1.9b0a4c0000000p-7, -0x1.f18f4c0000000p-8, -0x1.7496e20000000p-6, -0x1.29f2680000000p-2, 0x1.62fdf00000000p-5, 0x1.ad498a0000000p-5}
, {0x1.3d6a200000000p-3, 0x1.3925760000000p-4, 0x1.00482c0000000p-4, -0x1.04839e0000000p-6, 0x1.50af600000000p-5, -0x1.c4a1340000000p-4, 0x1.43dbb20000000p-3, 0x1.dac5bc0000000p-4, 0x1.0058020000000p-3, 0x1.a320da0000000p-4, 0x1.4508240000000p-4, 0x1.7b75900000000p-3, 0x1.3ede600000000p-4, -0x1.5f74600000000p-2, 0x1.31a6740000000p-4, 0x1.2700a80000000p-4, 0x1.40c9ec0000000p-4, -0x1.fa4d9e0000000p-6, 0x1.ca67320000000p-5, 0x1.1494b00000000p-5, 0x1.0ae2bc0000000p-4, 0x1.f2106e0000000p-4, -0x1.dd85d00000000p-7, 0x1.363c8e0000000p-5, -0x1.286f1e0000000p-6, -0x1.e5bc220000000p-3, 0x1.b808aa0000000p-3, 0x1.8062540000000p-7, -0x1.9c12040000000p-3, -0x1.6aea700000000p-2, -0x1.6dc0620000000p-7, 0x1.a4059e0000000p-4}
}
}
, {{{-0x1.5995820000000p-6, -0x1.4bfaba0000000p-4, 0x1.1ad5c40000000p-7, 0x1.1b37120000000p-3, 0x1.a298c80000000p-5, -0x1.475b4e0000000p-3, -0x1.fab48e0000000p-6, 0x1.93e5ec0000000p-5, -0x1.38f3c80000000p-4, 0x1.01f7bc0000000p-4, -0x1.27ab8e0000000p-4, -0x1.02c0c00000000p-3, 0x1.bf91300000000p-3, 0x1.4b33480000000p-3, 0x1.5cc92e0000000p-6, -0x1.cc79680000000p-6, 0x1.958f200000000p-4, -0x1.fc95760000000p-5, 0x1.8a87400000000p-4, -0x1.c5aeae0000000p-4, -0x1.307f2a0000000p-6, 0x1.6aa4c40000000p-4, -0x1.70c2a40000000p-6, 0x1.7609960000000p-4, 0x1.23bcfe0000000p-5, 0x1.8867ce0000000p-4, 0x1.66e5620000000p-5, -0x1.43fc200000000p-7, -0x1.4b6f0e0000000p-2, -0x1.d7f2ca0000000p-3, -0x1.cacfb80000000p-5, 0x1.ba42280000000p-4}
, {0x1.ff02460000000p-6, -0x1.71eb440000000p-6, 0x1.ca7cbe0000000p-5, 0x1.e5c9d80000000p-6, 0x1.0d176a0000000p-4, -0x1.7a73d40000000p-4, 0x1.3c64f20000000p-5, 0x1.6244400000000p-7, -0x1.c8138e0000000p-4, -0x1.9cc6a60000000p-7, 0x1.3f478e0000000p-4, -0x1.50e4500000000p-6, 0x1.0f9f1a0000000p-3, -0x1.67e78c0000000p-3, 0x1.c4bf520000000p-4, -0x1.91b8be0000000p-4, 0x1.658a2a0000000p-5, 0x1.ea5b740000000p-4, 0x1.ed70cc0000000p-5, -0x1.1f29560000000p-3, -0x1.b82c800000000p-9, 0x1.96bc300000000p-5, 0x1.619d240000000p-3, 0x1.5e5f520000000p-5, -0x1.685fea0000000p-6, 0x1.489d7e0000000p-5, 0x1.c450500000000p-3, 0x1.5679a00000000p-12, -0x1.7d5bde0000000p-4, -0x1.5cfb380000000p-4, 0x1.a57a340000000p-4, 0x1.4b8a3a0000000p-5}
, {0x1.0e2e120000000p-5, 0x1.43a3000000000p-5, -0x1.516e1a0000000p-6, -0x1.681aac0000000p-4, 0x1.2425e20000000p-6, -0x1.3315060000000p-4, 0x1.12d87a0000000p-3, -0x1.82e2da0000000p-5, -0x1.70b8a60000000p-4, -0x1.35d8160000000p-6, -0x1.eb4e380000000p-4, 0x1.4a81bc0000000p-3, 0x1.01cbba0000000p-3, -0x1.ca9b240000000p-4, -0x1.abd5fa0000000p-6, -0x1.5642f40000000p-4, -0x1.a2f43e0000000p-4, 0x1.7949ae0000000p-3, -0x1.56c4f20000000p-6, -0x1.8908c60000000p-4, -0x1.16d2600000000p-3, -0x1.5d8c6a0000000p-4, 0x1.55d6ec0000000p-7, 0x1.7acdb00000000p-5, 0x1.1c08f80000000p-8, -0x1.4f799e0000000p-5, 0x1.7918460000000p-6, 0x1.f91b700000000p-4, -0x1.5543c40000000p-3, -0x1.15d7900000000p-3, -0x1.1762f00000000p-6, 0x1.5c48ba0000000p-5}
}
, {{-0x1.12c2ac0000000p-3, 0x1.0612760000000p-3, -0x1.1f57e60000000p-3, -0x1.bad4a00000000p-3, -0x1.91b6040000000p-5, -0x1.0299c00000000p-2, 0x1.2f5f7c0000000p-3, -0x1.9eb34a0000000p-3, 0x1.2f0c560000000p-4, -0x1.6a36900000000p-6, -0x1.c2f4960000000p-3, 0x1.964eb60000000p-3, -0x1.4e8df20000000p-2, -0x1.7b56040000000p-5, -0x1.26fefc0000000p-2, 0x1.2707060000000p-8, -0x1.1403d00000000p-5, 0x1.7fac5e0000000p-5, -0x1.fa72ec0000000p-5, -0x1.02b39c0000000p-4, 0x1.f8f2900000000p-4, -0x1.1bc4e80000000p-3, -0x1.4b8a960000000p-4, -0x1.13dcb80000000p-3, 0x1.00116a0000000p-7, -0x1.c8994e0000000p-3, -0x1.6855b40000000p-3, 0x1.ad63f20000000p-5, -0x1.6418ce0000000p-2, -0x1.3a28340000000p-5, -0x1.71e72a0000000p-3, -0x1.18f0780000000p-3}
, {0x1.2006720000000p-4, 0x1.8e37820000000p-4, -0x1.d9b59e0000000p-8, -0x1.8863620000000p-4, 0x1.2d6b400000000p-4, -0x1.31791a0000000p-2, 0x1.c63be80000000p-3, -0x1.5c2a900000000p-3, 0x1.7cfc040000000p-3, 0x1.167b520000000p-5, -0x1.85894e0000000p-4, 0x1.2e9c640000000p-3, 0x1.6c8ef20000000p-5, 0x1.361c5e0000000p-6, 0x1.9900140000000p-5, -0x1.1f8fa00000000p-4, 0x1.8ed5900000000p-5, -0x1.12687c0000000p-3, -0x1.8bf67e0000000p-7, 0x1.9321e80000000p-5, -0x1.55b27e0000000p-3, -0x1.1d8f040000000p-4, -0x1.13f9ec0000000p-4, 0x1.33a62a0000000p-4, 0x1.1906f40000000p-4, 0x1.6878820000000p-9, 0x1.a69a960000000p-8, 0x1.22ed820000000p-3, -0x1.655f920000000p-3, -0x1.03b2f40000000p-3, -0x1.1fec980000000p-3, 0x1.fbae220000000p-5}
, {0x1.ab4b3c0000000p-5, -0x1.8bfaa40000000p-3, 0x1.22452c0000000p-3, -0x1.fbe46e0000000p-6, 0x1.b0097e0000000p-4, -0x1.90c3520000000p-4, -0x1.3cf6f80000000p-3, 0x1.5013160000000p-4, 0x1.948b560000000p-4, 0x1.6c98bc0000000p-3, 0x1.e39f6e0000000p-6, 0x1.7d1da40000000p-4, 0x1.1052a80000000p-3, -0x1.a009780000000p-5, 0x1.ed01820000000p-4, 0x1.af5b820000000p-5, 0x1.b5af480000000p-5, -0x1.1c915e0000000p-3, 0x1.e9f9140000000p-5, 0x1.6acab00000000p-4, -0x1.f8e3760000000p-4, 0x1.9f24c20000000p-7, -0x1.b18e980000000p-3, 0x1.7036420000000p-4, 0x1.85a5f80000000p-4, 0x1.eb6c800000000p-4, 0x1.ad97660000000p-5, -0x1.8d16400000000p-2, -0x1.d4ff560000000p-6, -0x1.2f63e00000000p-2, -0x1.84f4300000000p-4, 0x1.27755e0000000p-3}
}
, {{0x1.2ab81e0000000p-3, -0x1.aaa3ea0000000p-2, 0x1.b1ace20000000p-4, -0x1.d5d5440000000p-5, -0x1.2fa0fc0000000p-5, -0x1.0f95200000000p-1, -0x1.da33d40000000p-3, -0x1.7b392a0000000p-3, 0x1.a173840000000p-4, 0x1.093d060000000p-3, -0x1.638bf40000000p-3, -0x1.90028c0000000p-3, 0x1.97b1420000000p-4, 0x1.fa233e0000000p-4, -0x1.2b256c0000000p-2, -0x1.bf7bca0000000p-3, 0x1.7990c40000000p-7, -0x1.165ed00000000p-2, -0x1.67d2ae0000000p-4, -0x1.e0b81c0000000p-3, -0x1.49d0c80000000p-3, -0x1.0bf1360000000p-3, -0x1.e9554a0000000p-3, 0x1.4af14a0000000p-4, 0x1.9b671e0000000p-8, 0x1.0c52f00000000p-4, -0x1.df39ca0000000p-5, -0x1.216cc80000000p-3, -0x1.3cd5180000000p-1, 0x1.f81d600000000p-5, -0x1.5c119e0000000p-3, -0x1.bc491e0000000p-5}
, {-0x1.47e9800000000p-6, -0x1.9736d60000000p-2, 0x1.49d69e0000000p-4, 0x1.9459b00000000p-4, 0x1.93129c0000000p-4, 0x1.0227540000000p-5, -0x1.0246d00000000p-2, 0x1.40cda60000000p-3, 0x1.5a49180000000p-4, 0x1.06e1ea0000000p-4, 0x1.e66f9c0000000p-4, -0x1.03111a0000000p-2, 0x1.a8a8ec0000000p-5, 0x1.c504280000000p-3, -0x1.3c49700000000p-2, -0x1.5b59e00000000p-7, -0x1.3d008a0000000p-6, -0x1.b3e70a0000000p-2, 0x1.06a4f60000000p-3, -0x1.f7ad520000000p-6, 0x1.8dc9ca0000000p-5, 0x1.3a9c560000000p-3, 0x1.394e000000000p-6, 0x1.9e6fc60000000p-4, 0x1.5391d80000000p-6, 0x1.44883a0000000p-3, 0x1.0f36700000000p-4, -0x1.4eb43a0000000p-2, -0x1.7523640000000p-3, -0x1.83ab240000000p-2, 0x1.ef6b3e0000000p-4, 0x1.d05c3a0000000p-4}
, {-0x1.51f2820000000p-2, 0x1.1d98ba0000000p-4, -0x1.ba1eaa0000000p-4, 0x1.a21d1c0000000p-4, -0x1.8f16200000000p-6, 0x1.1551fe0000000p-3, 0x1.16dd980000000p-8, 0x1.f0bac20000000p-5, -0x1.828c120000000p-6, -0x1.819c260000000p-5, 0x1.9110140000000p-5, -0x1.f231700000000p-4, -0x1.5e96340000000p-3, -0x1.53ef440000000p-4, -0x1.20a6900000000p-8, 0x1.50e8c60000000p-6, -0x1.828ab20000000p-6, -0x1.75bb020000000p-3, -0x1.bdd61a0000000p-6, 0x1.8f162e0000000p-3, 0x1.55f1000000000p-5, 0x1.5d1efc0000000p-8, 0x1.d809ca0000000p-5, -0x1.be2f4a0000000p-4, -0x1.5c57860000000p-4, -0x1.b9e0b20000000p-5, -0x1.5528140000000p-5, -0x1.4b0ede0000000p-4, 0x1.5981740000000p-4, 0x1.58e0ce0000000p-3, -0x1.87f3100000000p-6, -0x1.024d100000000p-4}
}
}
, {{{0x1.5aaa2a0000000p-4, -0x1.d1bf980000000p-3, 0x1.2426f20000000p-5, -0x1.77fc380000000p-5, 0x1.53fc1c0000000p-6, 0x1.5c311c0000000p-4, -0x1.c66a7a0000000p-2, -0x1.ebcb780000000p-6, 0x1.b7ac160000000p-11, 0x1.a326360000000p-5, 0x1.7bfa540000000p-5, -0x1.e0bb8a0000000p-3, 0x1.0b83fc0000000p-3, 0x1.f7b25a0000000p-3, -0x1.3f05300000000p-3, -0x1.2d65000000000p-5, -0x1.8b48560000000p-6, -0x1.7b3fbe0000000p-3, 0x1.ed72280000000p-5, 0x1.6a337c0000000p-4, -0x1.6eac1a0000000p-7, -0x1.47618a0000000p-7, -0x1.17fe420000000p-3, 0x1.cc4e700000000p-5, 0x1.b4f3180000000p-5, 0x1.2a90ac0000000p-3, -0x1.0aa3760000000p-5, -0x1.0217700000000p-1, 0x1.0e569c0000000p-4, -0x1.b286860000000p-3, 0x1.a2d9d20000000p-5, 0x1.125b740000000p-4}
, {-0x1.bf339a0000000p-5, 0x1.c261260000000p-4, -0x1.ea9b760000000p-5, 0x1.d8d72c0000000p-4, -0x1.37f3380000000p-3, 0x1.012d4c0000000p-2, 0x1.2119ca0000000p-4, 0x1.a003200000000p-5, -0x1.2877c40000000p-2, 0x1.538d4e0000000p-4, 0x1.7165e00000000p-4, -0x1.1c1e720000000p-3, -0x1.6f912a0000000p-4, -0x1.58ef700000000p-3, -0x1.7654e80000000p-5, -0x1.5130600000000p-4, -0x1.ccd62a0000000p-4, 0x1.c740b80000000p-5, -0x1.9ac61e0000000p-5, 0x1.f4ec440000000p-4, 0x1.dbe6580000000p-5, 0x1.1c8a080000000p-3, 0x1.49012a0000000p-4, -0x1.9dc8e20000000p-5, 0x1.00cdfa0000000p-4, -0x1.3a69920000000p-4, 0x1.3a62500000000p-4, -0x1.365f8c0000000p-4, 0x1.7ce04e0000000p-4, 0x1.b3cc540000000p-4, 0x1.001aac0000000p-3, -0x1.789ed00000000p-5}
, {-0x1.2426f80000000p-5, 0x1.5555540000000p-5, -0x1.55b1780000000p-3, -0x1.5340120000000p-5, -0x1.7dff8c0000000p-4, -0x1.8e4e800000000p-3, 0x1.78ba8a0000000p-4, -0x1.7838c00000000p-6, -0x1.7486cc0000000p-10, -0x1.3a445a0000000p-5, -0x1.5dbd620000000p-3, -0x1.bfe6e60000000p-5, -0x1.185aa00000000p-3, 0x1.9d9ade0000000p-3, -0x1.e385540000000p-13, 0x1.0080380000000p-4, 0x1.45516a0000000p-6, -0x1.ebc2500000000p-3, -0x1.f045660000000p-6, 0x1.41155a0000000p-5, -0x1.651d8e0000000p-4, -0x1.8206240000000p-5, 0x1.8dd9bc0000000p-3, -0x1.5363f20000000p-3, -0x1.d11fc00000000p-6, -0x1.86813a0000000p-5, -0x1.3b27da0000000p-5, 0x1.bc18ce0000000p-8, -0x1.2626160000000p-5, 0x1.63fccc0000000p-4, -0x1.ba0efa0000000p-4, -0x1.38e4060000000p-4}
}
, {{-0x1.d027740000000p-3, -0x1.9a5c3e0000000p-4, 0x1.5b0dca0000000p-4, 0x1.8a0fe00000000p-4, 0x1.be86080000000p-3, 0x1.a72ac40000000p-4, -0x1.c2bd480000000p-2, 0x1.3b86580000000p-3, -0x1.80ae940000000p-3, 0x1.da1c260000000p-5, 0x1.ac35760000000p-6, -0x1.78fdae0000000p-2, 0x1.2e5ef40000000p-5, -0x1.ecf5840000000p-7, 0x1.0e95ce0000000p-3, 0x1.d01faa0000000p-6, -0x1.03f3340000000p-4, -0x1.3f1f920000000p-2, 0x1.41b4e40000000p-3, 0x1.403a160000000p-3, 0x1.1f09ca0000000p-4, 0x1.adb1900000000p-4, -0x1.e95e120000000p-3, 0x1.1f54920000000p-4, 0x1.1a03420000000p-5, 0x1.644c300000000p-3, 0x1.50513a0000000p-3, -0x1.8503880000000p-2, 0x1.4951d00000000p-3, 0x1.92b6380000000p-5, 0x1.84bc7a0000000p-3, 0x1.ae152e0000000p-4}
, {0x1.4ec44a0000000p-8, 0x1.3681ca0000000p-3, -0x1.c9a85a0000000p-8, -0x1.54ac440000000p-4, -0x1.2702c00000000p-3, 0x1.dcfa260000000p-5, 0x1.27d4900000000p-8, -0x1.db7d980000000p-4, -0x1.7342d20000000p-2, -0x1.58ebfc0000000p-3, 0x1.25ba0c0000000p-5, -0x1.a10c400000000p-4, -0x1.ecb00a0000000p-6, 0x1.dbdf540000000p-4, 0x1.3933ac0000000p-3, 0x1.45890e0000000p-8, -0x1.2bc64e0000000p-3, -0x1.8a138c0000000p-5, -0x1.bcd6580000000p-7, 0x1.1d81d60000000p-4, -0x1.a84fba0000000p-3, -0x1.4ca4880000000p-4, 0x1.89bcca0000000p-4, -0x1.67a5340000000p-3, -0x1.642ffa0000000p-3, -0x1.b5290a0000000p-4, -0x1.b247200000000p-4, 0x1.67ec680000000p-4, 0x1.106b1a0000000p-3, 0x1.86a2ca0000000p-3, -0x1.426bf60000000p-4, -0x1.9ba33e0000000p-4}
, {0x1.20ca020000000p-4, -0x1.7fbee00000000p-4, -0x1.004b9e0000000p-5, -0x1.ecb12c0000000p-4, -0x1.feff540000000p-5, -0x1.bd3b8a0000000p-2, -0x1.c56d920000000p-5, -0x1.7c30100000000p-5, 0x1.f8fb080000000p-5, -0x1.f8a8260000000p-4, -0x1.68981c0000000p-2, 0x1.41f38a0000000p-3, 0x1.0edfde0000000p-4, 0x1.01eb480000000p-3, -0x1.57612e0000000p-7, -0x1.c4787e0000000p-4, -0x1.d30f980000000p-4, 0x1.1ecae20000000p-4, -0x1.89beb40000000p-3, -0x1.2040bc0000000p-2, 0x1.afdbf20000000p-5, 0x1.c3894e0000000p-6, 0x1.38c0640000000p-3, -0x1.778bea0000000p-8, -0x1.d665e60000000p-4, 0x1.81617a0000000p-3, -0x1.9918200000000p-3, 0x1.bd033e0000000p-4, -0x1.12dd760000000p-2, -0x1.6aeeca0000000p-4, -0x1.799c8a0000000p-3, -0x1.3867a00000000p-4}
}
, {{-0x1.25df280000000p-3, 0x1.024f5e0000000p-3, 0x1.9ad45a0000000p-7, -0x1.4a44600000000p-5, -0x1.7cd5fa0000000p-4, 0x1.8ca2a40000000p-4, -0x1.92e1980000000p-3, -0x1.e275900000000p-5, -0x1.3a07f60000000p-4, -0x1.714b0c0000000p-5, 0x1.15a1340000000p-3, -0x1.0d444e0000000p-2, -0x1.9b389a0000000p-3, -0x1.0d9b980000000p-2, 0x1.7055800000000p-4, 0x1.c3fad40000000p-3, 0x1.b9ae440000000p-5, -0x1.0998280000000p-2, 0x1.65b4120000000p-8, 0x1.f082b40000000p-4, 0x1.66f8180000000p-5, -0x1.37833a0000000p-5, -0x1.30764c0000000p-5, 0x1.d7978c0000000p-7, 0x1.e3b3580000000p-5, -0x1.13df0a0000000p-2, 0x1.23ddec0000000p-5, -0x1.b7de4c0000000p-7, 0x1.78e9660000000p-3, 0x1.b333540000000p-4, 0x1.2764ec0000000p-4, 0x1.9eec140000000p-4}
, {0x1.0d53880000000p-4, 0x1.d47b3c0000000p-5, 0x1.29df780000000p-5, -0x1.e53bf00000000p-4, -0x1.22274a0000000p-4, -0x1.bfdbc60000000p-4, 0x1.31dcfe0000000p-6, -0x1.fbe0820000000p-4, -0x1.d499360000000p-3, -0x1.755cd00000000p-4, -0x1.36c10a0000000p-3, 0x1.4f3aee0000000p-5, -0x1.12d05a0000000p-6, 0x1.8443100000000p-5, -0x1.a282ea0000000p-9, -0x1.a2c9e40000000p-4, -0x1.354e840000000p-3, 0x1.6277e40000000p-3, -0x1.1737dc0000000p-5, -0x1.0fafe80000000p-3, -0x1.07690c0000000p-2, -0x1.dfa0040000000p-4, 0x1.8008ee0000000p-6, -0x1.b12f200000000p-4, -0x1.1c671a0000000p-3, -0x1.7e52300000000p-5, -0x1.edf4e80000000p-4, 0x1.b820d00000000p-5, -0x1.40bf0e0000000p-4, 0x1.0821580000000p-5, -0x1.6b13de0000000p-5, -0x1.09717e0000000p-3}
, {-0x1.0d60d00000000p-3, 0x1.756ba80000000p-4, -0x1.1701b20000000p-5, 0x1.0865b40000000p-6, 0x1.a5739a0000000p-4, -0x1.09c4fc0000000p-3, 0x1.0c2aee0000000p-3, 0x1.4c837c0000000p-5, 0x1.6a0d8c0000000p-7, -0x1.e7391a0000000p-6, -0x1.8bf0400000000p-5, 0x1.f5c1a40000000p-5, -0x1.430e700000000p-3, 0x1.de44580000000p-6, -0x1.dea2540000000p-4, 0x1.11f9980000000p-4, 0x1.92f6b60000000p-5, -0x1.be60c00000000p-4, -0x1.d7ed020000000p-6, -0x1.7301540000000p-3, 0x1.d7bcb00000000p-6, 0x1.256d200000000p-3, 0x1.ad77c40000000p-5, -0x1.bee6880000000p-4, 0x1.977f060000000p-7, -0x1.05f0c80000000p-4, -0x1.dc67f40000000p-8, 0x1.8225900000000p-3, -0x1.3104fc0000000p-2, -0x1.beb1100000000p-4, -0x1.37a9ac0000000p-6, -0x1.df31ba0000000p-5}
}
}
, {{{-0x1.2f11aa0000000p-3, -0x1.67310a0000000p-3, -0x1.f24a1e0000000p-6, 0x1.7a610a0000000p-5, 0x1.6c2d9a0000000p-6, -0x1.4f310c0000000p-3, -0x1.b341a80000000p-4, 0x1.fd410c0000000p-4, 0x1.02e3c60000000p-5, 0x1.0195120000000p-3, -0x1.76efde0000000p-5, 0x1.3022e00000000p-9, -0x1.6745b40000000p-5, -0x1.b8e5820000000p-3, -0x1.e424f80000000p-5, 0x1.72ee2e0000000p-7, 0x1.7fde760000000p-7, 0x1.d9292c0000000p-6, 0x1.57b0260000000p-3, 0x1.dd10060000000p-5, -0x1.38171c0000000p-5, -0x1.f284820000000p-7, -0x1.d293f20000000p-3, 0x1.b2fba40000000p-5, 0x1.f370520000000p-6, -0x1.ae8cee0000000p-5, 0x1.5d8fae0000000p-3, -0x1.fc4bd00000000p-4, -0x1.4fdb4e0000000p-3, -0x1.6087200000000p-5, 0x1.43bb280000000p-5, 0x1.07414e0000000p-3}
, {-0x1.fc515a0000000p-3, -0x1.fa05220000000p-5, 0x1.0242f00000000p-3, 0x1.bcfcd40000000p-4, 0x1.50f8440000000p-6, -0x1.53481a0000000p-4, -0x1.211e2c0000000p-4, 0x1.39d2e60000000p-6, -0x1.7871220000000p-4, 0x1.dca1bc0000000p-4, 0x1.4eacce0000000p-4, -0x1.7054ee0000000p-4, -0x1.ce06d80000000p-9, -0x1.130d900000000p-4, -0x1.1427ea0000000p-3, -0x1.cb6cc80000000p-6, 0x1.00184e0000000p-3, -0x1.e0114e0000000p-4, 0x1.1ce54a0000000p-4, 0x1.316d6c0000000p-3, -0x1.09cc2c0000000p-9, 0x1.7b7aee0000000p-4, -0x1.704d0e0000000p-4, 0x1.7ccac60000000p-4, -0x1.7352dc0000000p-10, 0x1.567f460000000p-8, 0x1.e8c75a0000000p-5, 0x1.b85f7c0000000p-7, -0x1.92ca220000000p-5, -0x1.b6ad200000000p-4, 0x1.d7850a0000000p-6, 0x1.b596080000000p-4}
, {-0x1.33a7b60000000p-4, -0x1.7d2d880000000p-5, 0x1.055ee80000000p-4, 0x1.1f48c00000000p-8, 0x1.6d55dc0000000p-4, -0x1.2b28b40000000p-4, -0x1.fe246c0000000p-7, 0x1.58d7fa0000000p-3, -0x1.22d12c0000000p-4, 0x1.3968c00000000p-4, -0x1.1be6760000000p-6, -0x1.3ac48c0000000p-3, 0x1.2cce520000000p-5, 0x1.cd92c40000000p-6, -0x1.f558a00000000p-5, 0x1.48f3e20000000p-3, -0x1.6002400000000p-6, -0x1.97656a0000000p-3, 0x1.c4a0a80000000p-4, -0x1.9392ac0000000p-5, 0x1.5d712c0000000p-4, 0x1.ebcad20000000p-3, 0x1.3eb3b40000000p-4, -0x1.80c2e80000000p-5, 0x1.047ef40000000p-4, -0x1.05157a0000000p-4, -0x1.ec2afc0000000p-10, -0x1.36ba8e0000000p-3, -0x1.2b28900000000p-5, -0x1.8bb15e0000000p-4, 0x1.c704d20000000p-4, 0x1.3cff220000000p-5}
}
, {{-0x1.2468060000000p-3, -0x1.58ee4a0000000p-7, -0x1.1155100000000p-4, 0x1.c70d440000000p-4, -0x1.4bd1960000000p-6, 0x1.dcd4f60000000p-4, -0x1.7de3040000000p-4, 0x1.b02b060000000p-4, -0x1.3be4980000000p-3, 0x1.3de9380000000p-4, 0x1.10da2c0000000p-12, -0x1.81501a0000000p-3, 0x1.a303a20000000p-5, -0x1.70dac60000000p-7, -0x1.45e6b80000000p-8, 0x1.b5b9be0000000p-4, 0x1.0b2a800000000p-3, 0x1.155fd60000000p-5, 0x1.e66ee60000000p-4, 0x1.37b6da0000000p-4, -0x1.2864740000000p-5, -0x1.5d6b040000000p-4, 0x1.2d8a3e0000000p-4, 0x1.4da80c0000000p-5, -0x1.57ef040000000p-7, -0x1.1cc7140000000p-6, 0x1.6b9cf00000000p-4, -0x1.41110c0000000p-5, -0x1.aa1fb60000000p-7, -0x1.ab372c0000000p-6, 0x1.94ab940000000p-4, 0x1.a475580000000p-5}
, {-0x1.a525720000000p-3, 0x1.0e9c540000000p-3, -0x1.2876d20000000p-5, 0x1.d1b9280000000p-4, 0x1.2940300000000p-4, 0x1.4d33440000000p-4, 0x1.81556c0000000p-7, 0x1.063d8c0000000p-5, -0x1.754d300000000p-4, 0x1.0139940000000p-3, 0x1.508a740000000p-6, -0x1.6cf36c0000000p-6, 0x1.a6c5ae0000000p-5, -0x1.32a1040000000p-3, -0x1.15bd840000000p-3, 0x1.452d8a0000000p-4, 0x1.05a9dc0000000p-5, -0x1.1973da0000000p-3, 0x1.f3b3da0000000p-8, 0x1.2fab680000000p-3, 0x1.afffa20000000p-8, 0x1.d1d5c80000000p-5, 0x1.1f2fc40000000p-3, 0x1.4785360000000p-7, 0x1.0672f20000000p-4, -0x1.cbcd2e0000000p-3, 0x1.7434b80000000p-3, -0x1.6a1d4a0000000p-10, -0x1.75fe9e0000000p-6, -0x1.be9da40000000p-4, 0x1.ef77ee0000000p-6, 0x1.a71f4e0000000p-5}
, {-0x1.200d820000000p-4, 0x1.0076f80000000p-3, -0x1.6aae580000000p-4, -0x1.f039fc0000000p-5, 0x1.8ef0920000000p-6, -0x1.935ed80000000p-8, 0x1.8e41820000000p-8, 0x1.efae840000000p-5, 0x1.2958420000000p-3, -0x1.54a7840000000p-5, -0x1.9c91b00000000p-5, 0x1.379c8e0000000p-7, -0x1.6038200000000p-3, -0x1.ec2e260000000p-3, -0x1.02f3ee0000000p-6, 0x1.e9766a0000000p-5, 0x1.6775200000000p-4, -0x1.0b8f0e0000000p-4, -0x1.1a66860000000p-5, 0x1.3899860000000p-4, 0x1.dadda00000000p-7, 0x1.730fc60000000p-6, 0x1.be3cbc0000000p-4, -0x1.90a4300000000p-4, 0x1.3f2b480000000p-4, -0x1.b468ba0000000p-3, -0x1.3ebfec0000000p-4, -0x1.918e480000000p-4, 0x1.22af060000000p-11, -0x1.21706c0000000p-3, 0x1.4ecab20000000p-7, -0x1.43bf4a0000000p-4}
}
, {{-0x1.0c180a0000000p-2, 0x1.3b00e20000000p-5, -0x1.59e1ae0000000p-4, -0x1.8758480000000p-3, -0x1.f2e0b60000000p-4, 0x1.4e45a00000000p-5, 0x1.b0ea560000000p-4, 0x1.1aabae0000000p-4, 0x1.27a1200000000p-5, -0x1.93b0cc0000000p-6, 0x1.7495e80000000p-4, -0x1.7b4b240000000p-11, -0x1.3b5b040000000p-2, -0x1.a20d860000000p-4, -0x1.e092c60000000p-5, 0x1.1531a40000000p-3, 0x1.0621ca0000000p-4, 0x1.46bb3c0000000p-12, -0x1.0e5eac0000000p-8, 0x1.5139800000000p-3, 0x1.e574940000000p-5, 0x1.988b400000000p-5, -0x1.48e0280000000p-7, -0x1.0757ca0000000p-3, -0x1.5476360000000p-9, -0x1.40065c0000000p-4, -0x1.b742720000000p-5, -0x1.bde7940000000p-5, 0x1.0641620000000p-4, 0x1.e41b1e0000000p-5, -0x1.1bfd520000000p-3, -0x1.a8b66a0000000p-4}
, {0x1.6945dc0000000p-5, 0x1.07dfd80000000p-9, -0x1.e6bf100000000p-4, 0x1.33634a0000000p-7, -0x1.b81a0e0000000p-4, -0x1.f90dbe0000000p-4, 0x1.affaaa0000000p-3, 0x1.7bba640000000p-5, 0x1.698ef20000000p-4, -0x1.93eb040000000p-4, 0x1.4a26f60000000p-7, 0x1.e797680000000p-3, -0x1.966ac80000000p-3, -0x1.8edb420000000p-2, 0x1.50aa860000000p-4, 0x1.e859c00000000p-4, 0x1.c0fb380000000p-4, 0x1.2be0da0000000p-3, 0x1.d371fa0000000p-7, -0x1.b5bf800000000p-6, 0x1.e8f9d20000000p-4, -0x1.d208f80000000p-7, 0x1.2a4bdc0000000p-4, -0x1.8c852e0000000p-3, 0x1.3436ac0000000p-6, -0x1.3d8dc20000000p-2, 0x1.067d480000000p-7, 0x1.7eefc40000000p-4, -0x1.a1c1f40000000p-5, -0x1.de41c00000000p-5, -0x1.9ee7680000000p-6, -0x1.3934fa0000000p-4}
, {0x1.9caf400000000p-4, 0x1.a2f69e0000000p-4, -0x1.3ee8580000000p-4, -0x1.4af2460000000p-5, -0x1.081e320000000p-2, 0x1.2f313a0000000p-11, 0x1.cbd9ec0000000p-4, -0x1.10fa020000000p-3, -0x1.124d7c0000000p-6, -0x1.c2abb40000000p-3, -0x1.4cec980000000p-5, 0x1.eec1400000000p-4, -0x1.7372440000000p-5, -0x1.e797240000000p-3, 0x1.24368c0000000p-3, -0x1.3116200000000p-3, -0x1.6311800000000p-5, 0x1.943c480000000p-4, -0x1.3edbce0000000p-4, -0x1.20ad920000000p-5, -0x1.d4f5be0000000p-4, -0x1.39f1a80000000p-3, 0x1.8df3000000000p-7, -0x1.6ceb920000000p-3, -0x1.e4cbb20000000p-4, -0x1.2c22940000000p-3, -0x1.57ece20000000p-6, 0x1.db1de80000000p-6, 0x1.28da6a0000000p-3, -0x1.a1af440000000p-6, -0x1.0b8e940000000p-10, -0x1.4a46340000000p-3}
}
}
, {{{0x1.ef6e3c0000000p-6, -0x1.fbe6700000000p-5, 0x1.e4235e0000000p-6, 0x1.165cfe0000000p-4, 0x1.e04ff40000000p-8, -0x1.8254560000000p-4, -0x1.fcf5920000000p-6, 0x1.e0ab3a0000000p-5, -0x1.d9b5c60000000p-4, 0x1.a3c9800000000p-5, 0x1.44cf2e0000000p-4, -0x1.08c7100000000p-5, -0x1.1af4e80000000p-4, -0x1.136f3a0000000p-8, 0x1.38c0240000000p-3, 0x1.deb9780000000p-4, -0x1.3bdff40000000p-8, 0x1.47b17e0000000p-4, -0x1.ec6b0a0000000p-6, 0x1.d267be0000000p-5, 0x1.14415a0000000p-4, 0x1.4c49060000000p-4, 0x1.486baa0000000p-5, -0x1.38558c0000000p-5, 0x1.99d2e00000000p-5, -0x1.3ea06a0000000p-3, -0x1.bc1ed80000000p-5, -0x1.5280820000000p-5, -0x1.8ab7e80000000p-5, -0x1.06dfdc0000000p-3, 0x1.1247700000000p-5, 0x1.dba6b40000000p-4}
, {0x1.127b180000000p-4, -0x1.1911840000000p-2, -0x1.f389480000000p-7, 0x1.d9f7840000000p-7, 0x1.fde8280000000p-8, -0x1.f0b0fa0000000p-3, 0x1.ca74420000000p-8, 0x1.30ed380000000p-4, -0x1.461a280000000p-4, 0x1.d293140000000p-5, -0x1.7e838a0000000p-6, -0x1.2a3f380000000p-5, 0x1.0ccf5c0000000p-3, -0x1.6f9f3e0000000p-4, -0x1.45ac880000000p-6, -0x1.6506dc0000000p-4, 0x1.5d12be0000000p-5, 0x1.fffc920000000p-4, 0x1.3d50460000000p-5, -0x1.6ce0a00000000p-3, -0x1.5794220000000p-5, -0x1.acc37a0000000p-5, -0x1.6edaca0000000p-7, -0x1.7a10140000000p-5, 0x1.36df0c0000000p-4, 0x1.36c7980000000p-3, 0x1.9927640000000p-5, -0x1.2d59500000000p-3, 0x1.5d6af40000000p-4, -0x1.6f04480000000p-4, -0x1.9fa4d00000000p-5, 0x1.744a280000000p-5}
, {0x1.3507aa0000000p-3, -0x1.3054260000000p-2, 0x1.12a0040000000p-3, 0x1.110ec20000000p-4, 0x1.c970200000000p-5, -0x1.5e14340000000p-4, -0x1.3181480000000p-2, 0x1.2d48860000000p-3, -0x1.6b75ae0000000p-5, 0x1.95f44e0000000p-4, 0x1.dec7ca0000000p-6, -0x1.48c5980000000p-3, 0x1.b56b180000000p-4, 0x1.fe5cbe0000000p-4, 0x1.b592840000000p-8, 0x1.379b9c0000000p-4, 0x1.6d8b080000000p-5, -0x1.19c3700000000p-9, 0x1.5a496c0000000p-6, -0x1.2663b60000000p-4, 0x1.e628b80000000p-6, -0x1.c5e09c0000000p-8, -0x1.cd16b80000000p-5, 0x1.09689a0000000p-3, 0x1.1b5f900000000p-5, 0x1.1397ec0000000p-5, 0x1.f457520000000p-6, -0x1.cd77bc0000000p-3, -0x1.9e7dee0000000p-3, -0x1.c793200000000p-2, 0x1.68d06e0000000p-7, 0x1.86efa00000000p-4}
}
, {{-0x1.30c9ec0000000p-4, 0x1.75c2a40000000p-7, -0x1.56ce920000000p-4, 0x1.35902e0000000p-4, -0x1.14ec900000000p-5, 0x1.4ede340000000p-4, -0x1.f271440000000p-10, -0x1.eab8a40000000p-6, 0x1.3f81440000000p-4, -0x1.56b83c0000000p-4, -0x1.2d22480000000p-7, -0x1.43e8560000000p-4, -0x1.4231c00000000p-6, 0x1.3d66e20000000p-7, -0x1.59f3dc0000000p-8, 0x1.60f7fa0000000p-5, 0x1.cd0c220000000p-5, 0x1.82f0600000000p-4, 0x1.55aed00000000p-5, 0x1.390f1c0000000p-5, 0x1.b9880e0000000p-8, 0x1.21caea0000000p-4, 0x1.e247240000000p-5, 0x1.2f715c0000000p-7, 0x1.cf0bfe0000000p-4, -0x1.e3a3c60000000p-4, 0x1.5810a60000000p-5, 0x1.552b760000000p-4, -0x1.d9c0060000000p-4, -0x1.3353b20000000p-3, -0x1.bfdb1e0000000p-5, -0x1.ab58860000000p-5}
, {-0x1.f6a51e0000000p-4, 0x1.37c4040000000p-5, 0x1.4b526e0000000p-3, 0x1.822cec0000000p-4, 0x1.7897c40000000p-4, -0x1.00308c0000000p-5, 0x1.2763260000000p-4, 0x1.024c500000000p-3, 0x1.8ff3ca0000000p-7, 0x1.2914b20000000p-5, -0x1.100d720000000p-6, 0x1.46509e0000000p-3, -0x1.2448340000000p-5, -0x1.2eb4320000000p-2, -0x1.9a11420000000p-3, 0x1.ba34600000000p-4, 0x1.566c860000000p-5, -0x1.4ec8ae0000000p-4, 0x1.3921660000000p-4, 0x1.388a940000000p-6, 0x1.a02b960000000p-6, 0x1.827d0a0000000p-4, 0x1.cfd6480000000p-5, 0x1.265df60000000p-4, -0x1.efc6e40000000p-5, -0x1.69fb860000000p-3, 0x1.95993c0000000p-4, 0x1.024c680000000p-2, -0x1.012bce0000000p-2, -0x1.487d9a0000000p-4, -0x1.1085dc0000000p-5, 0x1.5355b80000000p-4}
, {-0x1.6a7a960000000p-2, 0x1.f083060000000p-4, -0x1.1facc80000000p-4, 0x1.08bfb00000000p-3, 0x1.465da40000000p-5, 0x1.02fa500000000p-4, 0x1.65c0d00000000p-3, 0x1.be63220000000p-5, 0x1.55d4500000000p-3, 0x1.5e80ce0000000p-5, 0x1.c017280000000p-4, 0x1.1677500000000p-3, -0x1.3e073c0000000p-2, 0x1.099a4a0000000p-7, -0x1.95de220000000p-2, 0x1.df61fc0000000p-3, 0x1.0e5f940000000p-6, -0x1.bf37c60000000p-3, 0x1.013cec0000000p-5, 0x1.561cd40000000p-3, 0x1.3d21880000000p-3, 0x1.12b8060000000p-3, 0x1.73a2b40000000p-3, -0x1.d62b3e0000000p-8, 0x1.a242840000000p-4, -0x1.92ee040000000p-3, -0x1.78640c0000000p-6, 0x1.0e3c0e0000000p-3, -0x1.e835ba0000000p-3, -0x1.108aea0000000p-6, 0x1.1f07640000000p-4, 0x1.b8a5c40000000p-5}
}
, {{0x1.70a3ae0000000p-7, 0x1.22e8580000000p-5, -0x1.d33f840000000p-4, -0x1.3dc6960000000p-3, -0x1.2c831c0000000p-3, -0x1.efefe60000000p-8, 0x1.b073f00000000p-3, -0x1.6cd58e0000000p-7, 0x1.083e060000000p-3, -0x1.c2d40c0000000p-4, -0x1.2e95f00000000p-3, 0x1.77a5f60000000p-2, -0x1.66031e0000000p-3, -0x1.b9b73c0000000p-5, 0x1.415bba0000000p-4, -0x1.92c35e0000000p-3, -0x1.5561500000000p-5, 0x1.0482420000000p-3, -0x1.bff5180000000p-4, -0x1.beb0260000000p-5, -0x1.5fe5ce0000000p-6, -0x1.b8c7fc0000000p-4, -0x1.0970000000000p-5, -0x1.49208e0000000p-3, -0x1.3546820000000p-4, -0x1.5d1c0e0000000p-5, -0x1.2988f20000000p-3, 0x1.4c8a160000000p-4, 0x1.51f6800000000p-9, -0x1.d427320000000p-4, -0x1.5e37da0000000p-4, -0x1.5dbeee0000000p-5}
, {0x1.9acc140000000p-3, 0x1.37d5e80000000p-4, -0x1.884ba60000000p-8, -0x1.3567ea0000000p-3, -0x1.0832d40000000p-2, -0x1.03ce1a0000000p-4, 0x1.0a28460000000p-6, -0x1.a9656a0000000p-3, 0x1.d95af00000000p-4, -0x1.d523f20000000p-3, -0x1.72cc600000000p-4, 0x1.284b3c0000000p-4, -0x1.1388d80000000p-5, 0x1.7f361c0000000p-3, -0x1.b684a60000000p-4, -0x1.01a1b40000000p-3, -0x1.83c4900000000p-5, 0x1.35be6c0000000p-3, -0x1.c160620000000p-4, 0x1.b3c2720000000p-5, -0x1.19141e0000000p-5, -0x1.fdc4560000000p-3, 0x1.9463480000000p-7, -0x1.f24cdc0000000p-5, -0x1.842c4c0000000p-4, -0x1.484cfa0000000p-3, -0x1.52688c0000000p-3, 0x1.d74eac0000000p-7, -0x1.a1d4f40000000p-6, 0x1.37cf6a0000000p-5, -0x1.20f41c0000000p-3, -0x1.38b5b80000000p-4}
, {0x1.83f69e0000000p-4, 0x1.c2dda60000000p-4, -0x1.8adc4e0000000p-6, -0x1.2884020000000p-3, -0x1.ff33960000000p-4, 0x1.004a5c0000000p-6, -0x1.96fe200000000p-6, -0x1.cf4cf40000000p-4, -0x1.3f90d60000000p-5, -0x1.2372a20000000p-3, -0x1.f3d4740000000p-6, -0x1.14247a0000000p-4, -0x1.10cee80000000p-5, 0x1.2a91ee0000000p-3, -0x1.52bd5e0000000p-4, -0x1.675a700000000p-4, -0x1.22ae4e0000000p-2, -0x1.4213e20000000p-4, -0x1.46383a0000000p-4, 0x1.0a229a0000000p-5, -0x1.a87bcc0000000p-3, -0x1.f71b700000000p-3, -0x1.498b480000000p-3, -0x1.aaf1c40000000p-5, -0x1.d160100000000p-4, 0x1.1e7d2e0000000p-4, -0x1.b16c520000000p-4, 0x1.a582b60000000p-4, -0x1.1551fc0000000p-3, 0x1.2b10f00000000p-4, -0x1.60d40c0000000p-4, -0x1.77e7a60000000p-4}
}
}
, {{{0x1.9badea0000000p-6, 0x1.4878860000000p-6, -0x1.7b2b340000000p-5, 0x1.111a340000000p-4, 0x1.3a23de0000000p-5, 0x1.fc88b60000000p-8, -0x1.f278020000000p-5, 0x1.4ce35e0000000p-4, -0x1.65572c0000000p-6, 0x1.b09bc00000000p-5, -0x1.653c220000000p-9, 0x1.b857c20000000p-5, 0x1.8cb5e80000000p-5, 0x1.2aa32a0000000p-4, -0x1.04ade80000000p-5, 0x1.5ca5540000000p-4, -0x1.71b0f60000000p-4, 0x1.e1919e0000000p-6, 0x1.7474500000000p-5, -0x1.a621780000000p-7, -0x1.3825420000000p-6, -0x1.1859fa0000000p-6, -0x1.01abea0000000p-3, -0x1.117be20000000p-4, -0x1.ef47420000000p-5, -0x1.1927d60000000p-4, 0x1.2a994a0000000p-5, -0x1.800c340000000p-2, 0x1.2fab500000000p-9, -0x1.bbb0720000000p-3, 0x1.2ef1a20000000p-6, 0x1.bd3b8c0000000p-4}
, {0x1.9dfe700000000p-5, 0x1.4cdaaa0000000p-6, -0x1.e978720000000p-6, -0x1.43caee0000000p-3, -0x1.f6d5320000000p-4, 0x1.13fe000000000p-5, -0x1.39442c0000000p-4, 0x1.06f6240000000p-5, -0x1.a693d20000000p-4, -0x1.a97cf60000000p-4, -0x1.863d180000000p-6, 0x1.15c6f60000000p-7, 0x1.141d640000000p-4, -0x1.4282620000000p-4, 0x1.1aff0e0000000p-3, 0x1.4411820000000p-4, -0x1.00ec6e0000000p-5, 0x1.1bc30c0000000p-2, -0x1.471ca00000000p-4, 0x1.bcec460000000p-6, -0x1.53c7d60000000p-5, -0x1.30bf520000000p-4, -0x1.b178920000000p-6, -0x1.90d3220000000p-5, -0x1.42c6880000000p-4, -0x1.56119e0000000p-4, -0x1.6f11ac0000000p-4, -0x1.46ae060000000p-2, 0x1.1ecbc40000000p-3, 0x1.1e2d540000000p-8, 0x1.9aada80000000p-7, 0x1.ff7ad00000000p-7}
, {-0x1.e9cfa00000000p-8, 0x1.6735400000000p-4, -0x1.a5f1780000000p-3, -0x1.ddd4e60000000p-3, -0x1.4512580000000p-4, 0x1.04bb2c0000000p-5, 0x1.27e0540000000p-3, -0x1.c163900000000p-3, 0x1.2d202c0000000p-6, -0x1.a654da0000000p-3, -0x1.36e0e60000000p-4, 0x1.efc7780000000p-6, -0x1.ecf0100000000p-4, -0x1.05a5a60000000p-3, 0x1.8b564a0000000p-3, -0x1.09421e0000000p-2, -0x1.b8d7e40000000p-3, 0x1.0010040000000p-3, -0x1.21a10c0000000p-2, 0x1.0987340000000p-7, -0x1.f0372c0000000p-3, -0x1.d3a0260000000p-3, -0x1.3b45700000000p-4, -0x1.86b4960000000p-3, -0x1.a4068e0000000p-3, 0x1.2451640000000p-6, -0x1.c7c8820000000p-3, -0x1.324c4a0000000p-5, 0x1.3cb6e20000000p-4, -0x1.20a8b80000000p-5, -0x1.6656ec0000000p-4, -0x1.75a76e0000000p-3}
}
, {{-0x1.450c560000000p-3, 0x1.cb2b680000000p-5, 0x1.aedc380000000p-5, 0x1.8c54300000000p-5, 0x1.04bc3a0000000p-5, -0x1.9d7d220000000p-3, 0x1.0e55800000000p-5, 0x1.03f98e0000000p-3, 0x1.b78b6a0000000p-6, 0x1.d51e980000000p-7, 0x1.b17cca0000000p-4, 0x1.c2d66a0000000p-4, -0x1.ebfc540000000p-4, -0x1.a740ae0000000p-3, 0x1.b372e80000000p-5, 0x1.65e2a40000000p-7, 0x1.e739200000000p-4, -0x1.6f197e0000000p-5, 0x1.2b0a260000000p-5, 0x1.837a4a0000000p-4, 0x1.94011c0000000p-5, 0x1.256e160000000p-3, -0x1.9cac3e0000000p-7, 0x1.7f22180000000p-5, 0x1.2a84d80000000p-4, 0x1.8bc4a00000000p-5, 0x1.3229580000000p-4, -0x1.08296a0000000p-3, -0x1.00b9820000000p-6, -0x1.96239a0000000p-4, 0x1.d6d1ea0000000p-7, -0x1.e9c3c20000000p-7}
, {0x1.6e35200000000p-3, -0x1.d583220000000p-4, 0x1.da61e80000000p-6, 0x1.895fcc0000000p-5, 0x1.247fdc0000000p-5, -0x1.744a360000000p-3, -0x1.b203680000000p-5, 0x1.fe83e80000000p-4, 0x1.0ada0a0000000p-3, 0x1.f4e89a0000000p-7, 0x1.69046a0000000p-3, 0x1.fce6740000000p-3, 0x1.5175240000000p-4, -0x1.5647820000000p-2, 0x1.2c8c380000000p-3, 0x1.00c8300000000p-3, 0x1.8f5bcc0000000p-3, 0x1.ac2d920000000p-3, 0x1.3352800000000p-5, -0x1.be4e2e0000000p-4, 0x1.6569120000000p-4, 0x1.425d120000000p-3, 0x1.c54c640000000p-10, 0x1.9d93f60000000p-5, 0x1.0ff3640000000p-3, -0x1.d8e6360000000p-4, 0x1.9518d40000000p-4, -0x1.3bdb5e0000000p-3, 0x1.331bfc0000000p-5, -0x1.b0d7c40000000p-2, 0x1.b9d1ca0000000p-5, 0x1.2dca020000000p-4}
, {0x1.5906920000000p-5, -0x1.173bd80000000p-1, 0x1.18fd6c0000000p-3, -0x1.5850ec0000000p-4, 0x1.3801960000000p-4, 0x1.682fb60000000p-9, -0x1.5cedfe0000000p-2, 0x1.fd608e0000000p-4, -0x1.8191280000000p-3, -0x1.6af9720000000p-5, 0x1.1e5bfa0000000p-6, -0x1.239d6a0000000p-2, 0x1.944fee0000000p-3, -0x1.29eb700000000p-2, 0x1.3503960000000p-3, -0x1.b8193c0000000p-4, 0x1.0034240000000p-6, 0x1.db123c0000000p-3, 0x1.0c40920000000p-3, -0x1.8be2ee0000000p-3, -0x1.e39f2a0000000p-6, 0x1.1f16f60000000p-4, -0x1.3d25da0000000p-4, 0x1.8b068c0000000p-5, 0x1.5e239e0000000p-7, 0x1.691ebe0000000p-10, 0x1.b749a80000000p-3, -0x1.829da20000000p-2, 0x1.3000ee0000000p-4, -0x1.76feb40000000p-2, 0x1.f1b5060000000p-8, 0x1.bce3d20000000p-5}
}
, {{-0x1.344b4a0000000p-2, -0x1.9874e40000000p-5, -0x1.671e180000000p-5, -0x1.21a7100000000p-4, -0x1.a9d6b00000000p-6, -0x1.9134320000000p-3, -0x1.2af22c0000000p-5, -0x1.503e340000000p-3, 0x1.4cc2980000000p-5, -0x1.88d75e0000000p-4, -0x1.741f300000000p-5, 0x1.994d860000000p-5, -0x1.8fee540000000p-4, -0x1.c507880000000p-4, -0x1.da56940000000p-3, -0x1.4187400000000p-3, -0x1.30754e0000000p-5, 0x1.ce56040000000p-4, -0x1.9b04b20000000p-5, -0x1.7c1ac60000000p-3, -0x1.0fffdc0000000p-3, 0x1.3bc14a0000000p-4, -0x1.8244bc0000000p-3, -0x1.44096c0000000p-4, -0x1.6ca7ec0000000p-9, -0x1.a9cb0a0000000p-5, -0x1.1d44760000000p-3, 0x1.cc5f4c0000000p-5, -0x1.077f840000000p-2, -0x1.2a1ac00000000p-14, -0x1.ad319a0000000p-4, -0x1.4503200000000p-3}
, {0x1.7339ea0000000p-4, 0x1.07844c0000000p-4, -0x1.23b88c0000000p-4, 0x1.f925ee0000000p-4, -0x1.c270aa0000000p-7, 0x1.d8898a0000000p-6, 0x1.8c6a340000000p-4, 0x1.3d38d60000000p-6, 0x1.3ea5a60000000p-3, 0x1.2b273a0000000p-4, -0x1.2cf8620000000p-6, 0x1.785b5a0000000p-4, -0x1.aacdda0000000p-5, -0x1.0e2c080000000p-2, 0x1.7bf8620000000p-6, 0x1.6713a00000000p-5, 0x1.0b2acc0000000p-6, -0x1.ae591c0000000p-4, 0x1.e742f80000000p-6, 0x1.984e520000000p-5, 0x1.5156620000000p-7, -0x1.c74e020000000p-7, 0x1.d2fc0a0000000p-4, 0x1.ba20440000000p-9, 0x1.12e6ac0000000p-4, 0x1.e3c26a0000000p-5, -0x1.0b8efa0000000p-7, -0x1.7c40f60000000p-5, -0x1.d97fa20000000p-6, -0x1.6823da0000000p-2, 0x1.7f994c0000000p-5, -0x1.2486fa0000000p-4}
, {0x1.153c400000000p-5, 0x1.b76e9a0000000p-5, 0x1.2cca280000000p-6, 0x1.4f8e5e0000000p-7, 0x1.0982200000000p-3, -0x1.5286ae0000000p-4, -0x1.5204120000000p-7, -0x1.884db20000000p-7, -0x1.d8e6920000000p-6, 0x1.2c7daa0000000p-3, 0x1.f14cce0000000p-6, 0x1.a995800000000p-4, -0x1.30132a0000000p-4, -0x1.a3c0820000000p-3, 0x1.d6db740000000p-6, 0x1.b318aa0000000p-5, 0x1.d15e840000000p-3, -0x1.54a18c0000000p-2, 0x1.2086a20000000p-3, -0x1.680dc60000000p-6, 0x1.53d7c60000000p-6, 0x1.0f28dc0000000p-4, -0x1.2a9f9c0000000p-5, 0x1.9d48000000000p-4, 0x1.0b86200000000p-5, -0x1.d1ce220000000p-5, 0x1.ae0f6a0000000p-4, 0x1.0c627c0000000p-7, 0x1.fec03c0000000p-6, -0x1.29609e0000000p-3, 0x1.14a94c0000000p-6, 0x1.c173940000000p-4}
}
}
, {{{-0x1.0c13ca0000000p-3, 0x1.b89c040000000p-4, 0x1.db0ce00000000p-5, -0x1.ef561c0000000p-5, -0x1.99b2660000000p-5, -0x1.1958180000000p-4, 0x1.d771380000000p-4, -0x1.f661940000000p-7, -0x1.cc7db40000000p-5, 0x1.7b59180000000p-5, -0x1.04c9880000000p-6, 0x1.34b4360000000p-4, -0x1.a3ee520000000p-6, 0x1.f137700000000p-6, -0x1.4959300000000p-4, 0x1.12f1560000000p-4, -0x1.b8361c0000000p-5, -0x1.5d79f60000000p-3, 0x1.de93140000000p-6, -0x1.1c5fb80000000p-4, -0x1.ef77040000000p-6, -0x1.8198320000000p-7, 0x1.4f098e0000000p-4, 0x1.aa3e220000000p-5, 0x1.bf151e0000000p-8, 0x1.17c0060000000p-4, 0x1.9ff7280000000p-7, 0x1.0226b00000000p-4, -0x1.b5962a0000000p-3, 0x1.4f23c20000000p-3, 0x1.3d9e8a0000000p-7, -0x1.d9511a0000000p-8}
, {0x1.eb48d40000000p-7, -0x1.8e17200000000p-4, 0x1.5affce0000000p-3, -0x1.bbd1dc0000000p-6, 0x1.cb23740000000p-4, -0x1.65a5720000000p-4, -0x1.824e080000000p-4, 0x1.987fb20000000p-4, 0x1.b308880000000p-6, 0x1.3980d40000000p-3, 0x1.5e09540000000p-5, 0x1.69b4300000000p-7, 0x1.4e33920000000p-3, 0x1.549a840000000p-5, -0x1.3adfc20000000p-4, -0x1.6631c80000000p-5, 0x1.d008920000000p-3, -0x1.41285c0000000p-3, 0x1.a0126c0000000p-5, 0x1.c3a37c0000000p-4, -0x1.e1ec7e0000000p-6, 0x1.74b39c0000000p-4, -0x1.5010540000000p-2, 0x1.cb053c0000000p-4, 0x1.0879b80000000p-3, -0x1.dd352c0000000p-5, 0x1.618a140000000p-3, -0x1.2e76960000000p-2, -0x1.1db8a40000000p-3, -0x1.4e9b260000000p-4, 0x1.ac4b5e0000000p-4, 0x1.cb68120000000p-4}
, {-0x1.e017dc0000000p-4, -0x1.ecb41c0000000p-9, 0x1.be63c80000000p-8, 0x1.8f63420000000p-4, -0x1.eebdd80000000p-5, 0x1.d6a2260000000p-6, 0x1.a360b20000000p-6, 0x1.1594a00000000p-4, -0x1.db81340000000p-4, -0x1.1410240000000p-5, 0x1.7d29aa0000000p-6, 0x1.74b9780000000p-7, -0x1.e5aaee0000000p-5, -0x1.2bff480000000p-3, -0x1.69a1140000000p-6, -0x1.95a9460000000p-13, -0x1.46ee660000000p-7, 0x1.9ddbb60000000p-3, -0x1.4ee6500000000p-5, 0x1.3dc3a60000000p-6, 0x1.243aba0000000p-4, 0x1.7e22100000000p-4, -0x1.d359060000000p-6, -0x1.a723400000000p-4, -0x1.a8eb8e0000000p-4, -0x1.fad5a20000000p-4, -0x1.f9be760000000p-5, 0x1.d001060000000p-4, -0x1.0400660000000p-6, -0x1.37d2c00000000p-6, 0x1.15f69a0000000p-4, 0x1.7ffad00000000p-6}
}
, {{-0x1.b5471c0000000p-5, 0x1.22058e0000000p-6, 0x1.7c887c0000000p-6, -0x1.a053600000000p-3, 0x1.e539da0000000p-5, -0x1.c27d0c0000000p-3, -0x1.ea885e0000000p-5, -0x1.465b060000000p-3, 0x1.bb577a0000000p-4, -0x1.10c9da0000000p-5, -0x1.ee75f80000000p-3, 0x1.beedfc0000000p-6, -0x1.bcd59a0000000p-4, 0x1.2d1e3e0000000p-5, -0x1.01636e0000000p-2, -0x1.f1363c0000000p-6, -0x1.0ac5f00000000p-5, -0x1.6435500000000p-7, -0x1.64740e0000000p-4, -0x1.4954860000000p-3, -0x1.3085c60000000p-3, -0x1.26e03c0000000p-3, -0x1.e3eeba0000000p-3, 0x1.37ffa00000000p-8, 0x1.1788400000000p-4, -0x1.c0d75e0000000p-8, -0x1.0ba2a80000000p-3, -0x1.07cba40000000p-8, -0x1.4387d20000000p-2, 0x1.e09c120000000p-3, -0x1.15b2980000000p-2, -0x1.e0b5880000000p-6}
, {-0x1.0bf4a80000000p-4, -0x1.1582fa0000000p-2, 0x1.4004640000000p-3, 0x1.f91a540000000p-4, 0x1.3b45ce0000000p-3, 0x1.9f2ffc0000000p-3, -0x1.7230b20000000p-2, 0x1.9d2d100000000p-4, 0x1.27c6d00000000p-2, 0x1.59e77a0000000p-3, 0x1.0d0a9a0000000p-6, -0x1.ae9d000000000p-7, -0x1.b35fd00000000p-7, 0x1.9f67680000000p-3, 0x1.2d39100000000p-4, 0x1.b37af20000000p-5, 0x1.54c6be0000000p-3, -0x1.9ae48a0000000p-4, 0x1.76092a0000000p-5, 0x1.3317000000000p-3, 0x1.d38bba0000000p-4, 0x1.a379ea0000000p-5, -0x1.7b3e980000000p-2, 0x1.d57fa60000000p-4, 0x1.95bc1e0000000p-5, 0x1.10466e0000000p-3, 0x1.d4e35e0000000p-4, -0x1.5645d20000000p-1, 0x1.c1da1a0000000p-3, 0x1.5a2f580000000p-5, 0x1.b284220000000p-6, 0x1.b1222c0000000p-5}
, {-0x1.6c726c0000000p-4, 0x1.ae3b660000000p-5, -0x1.8e2fbc0000000p-4, 0x1.47d2020000000p-4, -0x1.816e360000000p-3, 0x1.9ae7240000000p-3, -0x1.0d02e80000000p-3, 0x1.080c940000000p-4, -0x1.e723000000000p-2, -0x1.2151720000000p-3, 0x1.8c5f5a0000000p-4, -0x1.596c5c0000000p-2, -0x1.7e5c460000000p-3, -0x1.4f2f000000000p-7, 0x1.cfe6100000000p-3, -0x1.83a5d20000000p-6, -0x1.544ce40000000p-3, 0x1.bbccd20000000p-5, -0x1.f069320000000p-5, 0x1.29bff40000000p-4, -0x1.34042c0000000p-5, -0x1.de73960000000p-4, 0x1.4045a60000000p-7, -0x1.7c32520000000p-3, -0x1.2d6aac0000000p-6, -0x1.ed8abc0000000p-2, -0x1.0bd4160000000p-7, -0x1.7d0f200000000p-3, 0x1.4fc64a0000000p-5, 0x1.f674860000000p-6, 0x1.2a283e0000000p-5, 0x1.3570c00000000p-6}
}
, {{-0x1.b61f3e0000000p-4, -0x1.7a1eb40000000p-3, 0x1.f75bb00000000p-8, 0x1.a4d5a60000000p-6, -0x1.8a54a00000000p-7, -0x1.c409980000000p-3, -0x1.71678e0000000p-3, -0x1.a520520000000p-5, 0x1.30dd380000000p-6, -0x1.9614740000000p-5, -0x1.86795c0000000p-6, -0x1.7f7ffa0000000p-4, 0x1.69d9700000000p-4, 0x1.e5afec0000000p-3, -0x1.b4a5d00000000p-2, -0x1.c5faf60000000p-7, -0x1.1183da0000000p-3, -0x1.2122980000000p-4, 0x1.96fa820000000p-5, -0x1.c6eeda0000000p-4, -0x1.43929c0000000p-4, -0x1.56064a0000000p-8, -0x1.57c7920000000p-3, 0x1.47db800000000p-5, -0x1.423eca0000000p-6, 0x1.fa625e0000000p-4, -0x1.4557400000000p-4, -0x1.ebc72e0000000p-3, -0x1.97d8980000000p-2, -0x1.14a4e80000000p-3, 0x1.0b74f40000000p-5, -0x1.bc2b5c0000000p-5}
, {-0x1.10d80c0000000p-2, -0x1.f4f7cc0000000p-5, -0x1.4c8d2a0000000p-9, 0x1.3c39200000000p-4, -0x1.0ba2980000000p-10, 0x1.0b3ddc0000000p-3, -0x1.58869a0000000p-4, -0x1.96f1600000000p-7, 0x1.a007ae0000000p-6, 0x1.fff2b00000000p-6, 0x1.ccd5f40000000p-4, -0x1.8737660000000p-7, 0x1.878aee0000000p-6, -0x1.2638bc0000000p-2, 0x1.298f6a0000000p-4, 0x1.6b82a80000000p-4, 0x1.b0942c0000000p-6, -0x1.8c242a0000000p-3, -0x1.d8228c0000000p-10, 0x1.f06c880000000p-5, 0x1.58671e0000000p-4, 0x1.04fcaa0000000p-4, -0x1.c063740000000p-4, 0x1.542b580000000p-3, -0x1.49ea020000000p-5, 0x1.ca842a0000000p-5, 0x1.fb1ede0000000p-7, -0x1.bb77be0000000p-3, 0x1.37997e0000000p-4, 0x1.0b1e8c0000000p-2, 0x1.7bde5c0000000p-4, 0x1.27b6860000000p-4}
