/**
  ******************************************************************************
  * @file    weights/conv2d.cc
  * @author  Pierre-Emmanuel Novac <penovac@unice.fr>, LEAT, CNRS, Université Côte d'Azur, France
  * @version V2.0
  * @date    24 march 2020
  * @brief   Template generating plain C code for the implementation of Convolutional Neural Networks on MCU
  */

#include <stdint.h>

#define INPUT_CHANNELS     64
#define CONV_FILTERS       128
#define CONV_KERNEL_SIZE_Y 3
#define CONV_KERNEL_SIZE_X 3
#define CONV_GROUPS        1


const float conv2d_2_bias[CONV_FILTERS] = {0x1.7e68fc0000000p-5, -0x1.e72a800000000p-6, 0x1.a0aeb80000000p-7, -0x1.0df4d20000000p-4, -0x1.fa3c520000000p-6, 0x1.7e56d60000000p-6, -0x1.563b060000000p-5, 0x1.97da4e0000000p-7, -0x1.0faca00000000p-5, -0x1.dab18c0000000p-9, 0x1.f51d320000000p-6, 0x1.c99ece0000000p-7, 0x1.3a4e960000000p-5, 0x1.0b18720000000p-6, 0x1.d1ae2a0000000p-6, 0x1.8f61300000000p-7, -0x1.281e220000000p-5, -0x1.1f48c20000000p-6, 0x1.883b700000000p-7, -0x1.64b9440000000p-8, -0x1.017da00000000p-7, -0x1.ef2b860000000p-7, 0x1.6b4cfc0000000p-6, -0x1.005b820000000p-6, -0x1.5877c60000000p-5, 0x1.f7f0860000000p-9, -0x1.d537b60000000p-6, 0x1.2d370c0000000p-5, 0x1.a00b060000000p-6, -0x1.61314c0000000p-9, -0x1.4433480000000p-6, 0x1.6de1d60000000p-5, 0x1.53e6c00000000p-6, -0x1.e158e00000000p-6, 0x1.d873060000000p-9, -0x1.2a94700000000p-14, -0x1.8659e60000000p-7, 0x1.6b51e80000000p-7, -0x1.3e3d520000000p-5, -0x1.b30c460000000p-9, -0x1.7219e60000000p-7, 0x1.0703100000000p-5, 0x1.3c9f200000000p-6, 0x1.40eb8e0000000p-8, 0x1.aa13860000000p-5, 0x1.49db140000000p-6, -0x1.c5ab3a0000000p-6, 0x1.1527d60000000p-4, 0x1.61f9260000000p-7, -0x1.0d44520000000p-5, 0x1.5c026c0000000p-6, -0x1.25ceb00000000p-6, 0x1.eefc440000000p-10, 0x1.ecae5a0000000p-7, 0x1.443e6e0000000p-7, 0x1.90353a0000000p-6, -0x1.0136d60000000p-6, -0x1.ff77ca0000000p-6, 0x1.a35c380000000p-9, -0x1.5ffc700000000p-8, 0x1.3db60a0000000p-6, 0x1.6446d20000000p-7, 0x1.c9e1a60000000p-5, -0x1.99d7160000000p-5, 0x1.270b3a0000000p-5, 0x1.99e55e0000000p-4, -0x1.9806d00000000p-6, -0x1.54031c0000000p-5, 0x1.d97c540000000p-5, -0x1.a971ca0000000p-6, -0x1.5834160000000p-6, 0x1.21eaf00000000p-7, 0x1.adb8e20000000p-8, 0x1.2fcca80000000p-7, -0x1.09d60e0000000p-5, -0x1.d1ec380000000p-5, 0x1.c68bce0000000p-8, -0x1.828dc80000000p-7, -0x1.0bda900000000p-8, 0x1.1df5c60000000p-6, -0x1.8cfb1a0000000p-6, -0x1.8f3e9a0000000p-8, -0x1.37ba260000000p-5, 0x1.1afd800000000p-4, -0x1.14476e0000000p-6, 0x1.a8b01a0000000p-7, 0x1.3de3e80000000p-4, -0x1.27da300000000p-8, 0x1.5be68a0000000p-8, -0x1.dbf4460000000p-6, -0x1.189c6c0000000p-5, -0x1.37f4800000000p-5, 0x1.6140c60000000p-6, -0x1.85354e0000000p-6, -0x1.562bda0000000p-4, -0x1.0651b80000000p-4, -0x1.90af4a0000000p-8, 0x1.0767d40000000p-5, 0x1.52e0260000000p-5, 0x1.0457180000000p-4, 0x1.126fd60000000p-6, -0x1.5900520000000p-7, 0x1.34dc860000000p-4, -0x1.0043ac0000000p-4, -0x1.239d260000000p-5, 0x1.a530740000000p-6, -0x1.db14b60000000p-4, -0x1.e432ac0000000p-7, 0x1.6263160000000p-11, 0x1.45047a0000000p-5, 0x1.ef52a40000000p-5, -0x1.c610360000000p-5, 0x1.6374de0000000p-5, 0x1.10deda0000000p-4, -0x1.e875100000000p-5, 0x1.1ee0960000000p-4, -0x1.2944600000000p-4, 0x1.2933b80000000p-4, -0x1.21a1040000000p-6, 0x1.7880c20000000p-6, -0x1.550ce00000000p-7, 0x1.a07b5c0000000p-6, -0x1.34bb160000000p-6, 0x1.a685ac0000000p-5, 0x1.5b55020000000p-11, 0x1.7feda60000000p-8, -0x1.0dd63a0000000p-8, -0x1.05d1e60000000p-6}
;


const float conv2d_2_kernel[CONV_FILTERS][CONV_KERNEL_SIZE_Y][CONV_KERNEL_SIZE_X][INPUT_CHANNELS / CONV_GROUPS] = {{{{0x1.e3d0500000000p-5, 0x1.50eec00000000p-7, -0x1.ffa55e0000000p-7, 0x1.6706a60000000p-4, -0x1.49ea680000000p-7, -0x1.4d53c80000000p-5, -0x1.8692780000000p-5, -0x1.b813220000000p-4, -0x1.9b3c800000000p-4, 0x1.77036e0000000p-4, 0x1.119b3a0000000p-3, -0x1.e33bb80000000p-8, 0x1.6b4ec80000000p-5, 0x1.770a7e0000000p-4, -0x1.2176880000000p-7, -0x1.9920e40000000p-3, -0x1.b29c020000000p-6, 0x1.96b8ba0000000p-4, -0x1.9d435c0000000p-6, 0x1.d566a80000000p-4, 0x1.a09bdc0000000p-10, 0x1.b6270c0000000p-8, 0x1.4f63300000000p-4, 0x1.0cf0900000000p-4, 0x1.2dc2fc0000000p-3, 0x1.bcfc000000000p-6, -0x1.2d9cbc0000000p-5, -0x1.59b2920000000p-6, 0x1.81d7160000000p-4, 0x1.e66b7e0000000p-5, -0x1.dd6f300000000p-4, 0x1.50db180000000p-7, 0x1.250aaa0000000p-9, 0x1.05e5240000000p-5, -0x1.3357060000000p-6, -0x1.9e24a80000000p-4, -0x1.9b81aa0000000p-5, 0x1.49be1e0000000p-4, 0x1.080ade0000000p-3, 0x1.b5277e0000000p-5, -0x1.46d6180000000p-6, 0x1.3348720000000p-3, 0x1.35db900000000p-5, -0x1.e233b20000000p-5, 0x1.6b77fe0000000p-4, -0x1.b1a9fe0000000p-5, -0x1.b5d2be0000000p-6, -0x1.ed179e0000000p-6, -0x1.f1f11a0000000p-6, 0x1.b7d32c0000000p-4, 0x1.49a9d60000000p-6, -0x1.de8fb80000000p-6, -0x1.2cad760000000p-5, 0x1.e9fb6e0000000p-4, -0x1.f0101c0000000p-5, 0x1.44785e0000000p-3, 0x1.3eed940000000p-4, -0x1.04d4000000000p-4, -0x1.193b040000000p-5, 0x1.41f8ae0000000p-6, 0x1.1c93a00000000p-6, 0x1.8306e20000000p-4, 0x1.5141200000000p-6, -0x1.67cc700000000p-7}
, {0x1.42190a0000000p-4, -0x1.87fd440000000p-5, 0x1.4c1e9c0000000p-3, -0x1.2d2aa80000000p-5, -0x1.96f9b00000000p-6, -0x1.378d320000000p-4, -0x1.2f35a00000000p-7, 0x1.00c9be0000000p-3, -0x1.ec80ac0000000p-4, 0x1.0538840000000p-6, -0x1.5b61b80000000p-5, -0x1.8fe54a0000000p-3, -0x1.53aaac0000000p-3, -0x1.cfd8fe0000000p-3, -0x1.5a86820000000p-4, -0x1.6624b80000000p-5, -0x1.b33d300000000p-4, -0x1.2058d20000000p-4, -0x1.3c1fca0000000p-9, -0x1.5dded80000000p-3, -0x1.75ded00000000p-5, -0x1.de2fc00000000p-4, -0x1.2af02e0000000p-2, -0x1.f8487c0000000p-3, -0x1.5c8fb80000000p-5, 0x1.e63ae00000000p-8, -0x1.9b5fe20000000p-7, -0x1.3c6fda0000000p-4, -0x1.0f90aa0000000p-4, -0x1.4b9d2a0000000p-4, -0x1.f74eb60000000p-5, -0x1.2ecbde0000000p-4, -0x1.7ec6020000000p-6, -0x1.2535a60000000p-6, -0x1.43751a0000000p-5, -0x1.fe16f60000000p-6, -0x1.06f29a0000000p-6, -0x1.d00b080000000p-6, -0x1.8088f20000000p-7, -0x1.e0c27a0000000p-4, -0x1.a522340000000p-3, -0x1.b1c10c0000000p-3, -0x1.1ef2980000000p-7, 0x1.118b0e0000000p-4, -0x1.158a760000000p-4, 0x1.8970de0000000p-6, -0x1.54a8240000000p-14, -0x1.3032140000000p-4, -0x1.71aa1c0000000p-4, -0x1.d305700000000p-5, -0x1.2b3d100000000p-6, -0x1.7185fe0000000p-3, -0x1.3c32a80000000p-3, -0x1.560b1c0000000p-3, 0x1.d95ca40000000p-5, 0x1.cafac40000000p-5, -0x1.ff76c00000000p-3, 0x1.45f1140000000p-5, -0x1.4b25b00000000p-3, -0x1.717c220000000p-4, -0x1.e51c6e0000000p-3, -0x1.974d360000000p-3, -0x1.90586a0000000p-5, -0x1.e3e57e0000000p-5}
, {-0x1.86d5e20000000p-4, 0x1.36f0960000000p-3, 0x1.b732340000000p-3, 0x1.87d3000000000p-7, 0x1.9e6a400000000p-8, 0x1.b9fa940000000p-5, 0x1.edc4c60000000p-7, 0x1.3af5f80000000p-3, 0x1.b3a2ea0000000p-5, 0x1.5a251e0000000p-4, 0x1.2b167c0000000p-4, 0x1.bee97c0000000p-7, -0x1.d30b5c0000000p-4, -0x1.2024220000000p-5, 0x1.0fe4da0000000p-3, 0x1.a3cafe0000000p-6, -0x1.9b1c3e0000000p-8, 0x1.1ff1f80000000p-3, 0x1.aab0440000000p-5, 0x1.b0d4b80000000p-6, 0x1.cb8d620000000p-5, 0x1.4100b60000000p-6, -0x1.108ca00000000p-6, -0x1.1ddaf20000000p-3, 0x1.5810d40000000p-6, 0x1.089b600000000p-3, -0x1.806d160000000p-6, -0x1.2d10500000000p-4, 0x1.aaf95a0000000p-4, 0x1.2b94680000000p-9, -0x1.7cf27c0000000p-4, -0x1.6a09900000000p-9, -0x1.530c6a0000000p-3, -0x1.b351160000000p-3, 0x1.d4de680000000p-4, 0x1.6d29e20000000p-8, 0x1.7306f00000000p-4, -0x1.e8fd300000000p-7, -0x1.c97f240000000p-6, 0x1.4246ba0000000p-3, -0x1.17a5240000000p-4, -0x1.309f380000000p-7, -0x1.3f79c80000000p-5, 0x1.8c060e0000000p-4, 0x1.6f3f4c0000000p-4, 0x1.75b51a0000000p-8, 0x1.5711240000000p-4, 0x1.04b8620000000p-4, 0x1.a293020000000p-3, -0x1.4cce480000000p-6, -0x1.1e02920000000p-5, -0x1.b93a4a0000000p-4, -0x1.4220420000000p-4, 0x1.c693be0000000p-5, -0x1.1e30a00000000p-3, 0x1.8d10640000000p-3, 0x1.0eaf240000000p-5, 0x1.10821e0000000p-7, -0x1.5bce7c0000000p-4, 0x1.e09a520000000p-10, 0x1.21142a0000000p-6, -0x1.47cf760000000p-5, 0x1.7a2b2c0000000p-5, 0x1.5aa1e20000000p-4}
}
, {{-0x1.347eec0000000p-5, -0x1.46ec880000000p-3, 0x1.2b00080000000p-7, 0x1.4350a20000000p-3, 0x1.c5c5a80000000p-5, -0x1.2f2f2c0000000p-4, -0x1.c27e7e0000000p-3, 0x1.73dbde0000000p-3, -0x1.b36d580000000p-5, -0x1.15c52c0000000p-6, 0x1.e30a3e0000000p-5, -0x1.8b6eac0000000p-5, -0x1.d353c80000000p-5, 0x1.5869980000000p-4, 0x1.9889f20000000p-4, 0x1.b109560000000p-6, 0x1.c3a6320000000p-8, 0x1.17b5d80000000p-3, 0x1.38c48e0000000p-7, -0x1.1512960000000p-3, 0x1.6f79360000000p-4, -0x1.80e99e0000000p-6, -0x1.2d323c0000000p-4, -0x1.3261be0000000p-4, 0x1.9e3ac40000000p-4, -0x1.58ad800000000p-14, 0x1.132bd60000000p-3, -0x1.0c72f40000000p-4, -0x1.bd47b20000000p-4, 0x1.a482c20000000p-4, -0x1.f2f36a0000000p-4, -0x1.335ab00000000p-4, -0x1.4de5880000000p-5, -0x1.0a4d280000000p-8, 0x1.c0ab4c0000000p-3, -0x1.1e2be40000000p-6, 0x1.3cc7300000000p-4, -0x1.4c962a0000000p-4, -0x1.3474780000000p-8, -0x1.ffa9780000000p-4, -0x1.31e6fa0000000p-6, -0x1.b0ccc20000000p-4, -0x1.04ad2a0000000p-4, 0x1.18298a0000000p-3, 0x1.03d8120000000p-4, -0x1.89c97e0000000p-3, -0x1.7489740000000p-10, -0x1.a7705a0000000p-6, 0x1.da13860000000p-8, 0x1.006a080000000p-2, 0x1.734d360000000p-6, -0x1.db875e0000000p-9, -0x1.ba06a80000000p-6, 0x1.bfe6c60000000p-4, 0x1.fa322c0000000p-5, -0x1.f3c4e40000000p-5, -0x1.9907b20000000p-4, -0x1.1083fc0000000p-7, -0x1.d22c160000000p-4, 0x1.25f24c0000000p-6, -0x1.ce49540000000p-6, -0x1.603f2a0000000p-7, 0x1.2c8f6c0000000p-5, -0x1.10af1e0000000p-5}
, {-0x1.6c95b40000000p-3, -0x1.d7395e0000000p-9, 0x1.f624fc0000000p-4, 0x1.1555ea0000000p-5, -0x1.deb9460000000p-5, -0x1.da0b9e0000000p-4, -0x1.0b64680000000p-3, 0x1.803f4e0000000p-3, -0x1.03b80e0000000p-3, 0x1.9224620000000p-4, 0x1.1fd8720000000p-3, 0x1.182be40000000p-5, 0x1.49f6260000000p-7, -0x1.6299d80000000p-3, -0x1.0d97020000000p-4, 0x1.76f60a0000000p-9, -0x1.ead20e0000000p-4, 0x1.25ba400000000p-4, -0x1.41da420000000p-3, -0x1.2444d00000000p-2, -0x1.e289220000000p-4, -0x1.9d90840000000p-7, -0x1.ff70160000000p-5, -0x1.69ad2a0000000p-3, 0x1.bfc4100000000p-4, 0x1.cae8aa0000000p-7, -0x1.0afe420000000p-4, -0x1.ffedf40000000p-3, -0x1.41ffda0000000p-3, -0x1.896c120000000p-6, -0x1.bff2a00000000p-3, -0x1.46cfd20000000p-3, -0x1.6888180000000p-4, -0x1.2e33c20000000p-4, -0x1.6659aa0000000p-5, -0x1.ac5aee0000000p-3, -0x1.0d087a0000000p-5, -0x1.05a4b60000000p-3, 0x1.d1bbe80000000p-4, 0x1.a6a0780000000p-5, -0x1.8902460000000p-4, -0x1.8716360000000p-3, -0x1.1268300000000p-2, -0x1.468fe80000000p-6, 0x1.d747040000000p-6, -0x1.f1aa6c0000000p-3, -0x1.b414380000000p-4, -0x1.71a2f00000000p-4, -0x1.2d2eba0000000p-6, 0x1.aab1e60000000p-4, -0x1.2ea58a0000000p-4, -0x1.f4ad920000000p-7, 0x1.6a87d40000000p-5, -0x1.06d35a0000000p-6, -0x1.1fbedc0000000p-4, 0x1.c503c80000000p-4, -0x1.e3749e0000000p-3, -0x1.7ab4fe0000000p-3, -0x1.b236240000000p-5, -0x1.fecf2a0000000p-6, -0x1.d496600000000p-5, -0x1.223d7a0000000p-4, 0x1.36cfbc0000000p-11, -0x1.da75dc0000000p-5}
, {-0x1.eee0da0000000p-3, 0x1.a926620000000p-3, 0x1.83b9c80000000p-5, 0x1.a5d01a0000000p-4, 0x1.8a7cf60000000p-3, -0x1.14b21c0000000p-5, -0x1.9d33e40000000p-4, 0x1.1f32760000000p-5, 0x1.40f51c0000000p-6, 0x1.92c6200000000p-3, 0x1.833c720000000p-4, -0x1.52e7500000000p-4, -0x1.4526b40000000p-5, 0x1.b0d8cc0000000p-6, 0x1.d559760000000p-6, 0x1.9479300000000p-5, -0x1.ff30080000000p-6, -0x1.aba8160000000p-5, -0x1.35f7920000000p-4, -0x1.20b5a60000000p-3, -0x1.1805cc0000000p-5, -0x1.85acd00000000p-5, 0x1.ebae120000000p-5, -0x1.b004dc0000000p-5, 0x1.8eebe60000000p-4, -0x1.a4595c0000000p-5, 0x1.79ed7e0000000p-4, -0x1.76baec0000000p-5, -0x1.1bef900000000p-4, -0x1.e2ddd40000000p-7, 0x1.9b6f380000000p-6, 0x1.d6f3be0000000p-7, 0x1.4d7ba00000000p-5, -0x1.4d15e80000000p-6, 0x1.9272820000000p-4, -0x1.0c53320000000p-4, -0x1.2186540000000p-4, -0x1.22f3d20000000p-3, 0x1.5be9ac0000000p-4, 0x1.6eee140000000p-5, 0x1.c4c84a0000000p-7, 0x1.cd83c80000000p-6, -0x1.1d2aa20000000p-3, -0x1.2c46f80000000p-6, 0x1.48def40000000p-4, -0x1.409f160000000p-3, 0x1.89faba0000000p-4, -0x1.86dbb80000000p-7, 0x1.0c8d200000000p-7, 0x1.0449be0000000p-4, 0x1.c91f460000000p-6, 0x1.85bf640000000p-6, -0x1.a58a620000000p-6, 0x1.ab24820000000p-4, 0x1.5253100000000p-8, -0x1.538cd00000000p-7, 0x1.2208240000000p-5, 0x1.4290480000000p-5, -0x1.847c260000000p-4, 0x1.1421440000000p-4, -0x1.837d260000000p-5, 0x1.3c8ae40000000p-4, 0x1.cd5c440000000p-4, -0x1.72b7a40000000p-4}
}
, {{0x1.ca9fc80000000p-5, 0x1.08d8b20000000p-4, 0x1.5934d80000000p-4, 0x1.4d1cb60000000p-3, 0x1.2fced40000000p-5, 0x1.063a560000000p-3, 0x1.246fe80000000p-7, 0x1.192ebe0000000p-3, -0x1.5dbee20000000p-6, 0x1.8107ac0000000p-6, -0x1.70466c0000000p-5, 0x1.83a9f80000000p-5, -0x1.5351dc0000000p-5, 0x1.d9c3020000000p-6, 0x1.c195920000000p-4, 0x1.2ef8d00000000p-3, -0x1.da87780000000p-6, -0x1.b84eb00000000p-6, 0x1.a3bed00000000p-8, -0x1.bf10f60000000p-6, -0x1.75d57e0000000p-4, 0x1.0866d20000000p-5, 0x1.9f83760000000p-6, -0x1.a802e20000000p-4, 0x1.3d135a0000000p-5, 0x1.9332060000000p-6, 0x1.3ffdcc0000000p-3, -0x1.2aadc60000000p-5, -0x1.775d400000000p-5, -0x1.27fee40000000p-5, 0x1.1a57700000000p-3, 0x1.0c84dc0000000p-7, -0x1.7e16aa0000000p-8, -0x1.dd41460000000p-5, 0x1.dc2d380000000p-4, -0x1.e0c71c0000000p-5, 0x1.a94d0e0000000p-4, -0x1.28e76e0000000p-3, -0x1.2266800000000p-8, -0x1.8381ec0000000p-5, 0x1.1f968c0000000p-11, -0x1.752e780000000p-3, -0x1.2e92300000000p-7, 0x1.70a32c0000000p-3, 0x1.3f76900000000p-5, 0x1.f3b1020000000p-6, 0x1.8697740000000p-4, 0x1.91552a0000000p-4, 0x1.3d6b380000000p-5, 0x1.a5faec0000000p-4, 0x1.ada09c0000000p-8, 0x1.91271c0000000p-4, -0x1.10627a0000000p-4, 0x1.780bf40000000p-5, -0x1.deeeba0000000p-4, -0x1.de33c20000000p-8, -0x1.3589720000000p-8, 0x1.0d11f80000000p-4, 0x1.bfe2ec0000000p-5, 0x1.5681ce0000000p-3, -0x1.322ecc0000000p-5, 0x1.ebdff20000000p-5, 0x1.829c9e0000000p-5, -0x1.36c7100000000p-4}
, {-0x1.67482c0000000p-3, -0x1.e5099a0000000p-4, 0x1.36f5360000000p-5, -0x1.3b0f080000000p-3, 0x1.b33e6a0000000p-5, -0x1.22ccaa0000000p-3, -0x1.7934c40000000p-5, 0x1.9abdec0000000p-6, -0x1.b3f7e80000000p-5, -0x1.406cd40000000p-6, 0x1.acfaf40000000p-10, -0x1.8223240000000p-5, -0x1.b455520000000p-4, 0x1.ac2ff40000000p-9, 0x1.05b3b00000000p-4, 0x1.43ce280000000p-4, 0x1.36bde60000000p-5, 0x1.ee5ff60000000p-9, 0x1.0050180000000p-4, -0x1.189efe0000000p-4, 0x1.46620c0000000p-6, -0x1.011d8a0000000p-4, -0x1.6562400000000p-3, -0x1.26fe8a0000000p-5, 0x1.c3b2f00000000p-7, 0x1.bd6cf80000000p-5, -0x1.f4b9040000000p-8, -0x1.ce43460000000p-7, -0x1.3960d00000000p-5, -0x1.7830420000000p-5, -0x1.88911a0000000p-5, -0x1.0d79a40000000p-5, -0x1.2340040000000p-4, -0x1.10da840000000p-2, -0x1.234dba0000000p-5, 0x1.3d71980000000p-4, -0x1.3c47660000000p-7, -0x1.409f1c0000000p-3, 0x1.934f7e0000000p-5, 0x1.166a200000000p-4, -0x1.2339d20000000p-7, -0x1.1362040000000p-3, -0x1.9258a80000000p-6, 0x1.ad8d5a0000000p-6, 0x1.5847b00000000p-5, -0x1.5ae8ba0000000p-4, -0x1.c0e3340000000p-5, -0x1.b7eda40000000p-4, 0x1.7d7cfa0000000p-5, 0x1.c614320000000p-5, -0x1.0dac1c0000000p-5, -0x1.8178e80000000p-6, -0x1.3a60c20000000p-5, -0x1.8230760000000p-5, -0x1.4227400000000p-5, 0x1.3472060000000p-6, -0x1.022e9a0000000p-3, -0x1.af30480000000p-6, -0x1.54416e0000000p-5, -0x1.736af40000000p-6, -0x1.a5d9fe0000000p-4, -0x1.8c426e0000000p-4, -0x1.c225800000000p-5, -0x1.067edc0000000p-7}
, {-0x1.f003260000000p-4, -0x1.1276c40000000p-4, -0x1.8a24da0000000p-5, -0x1.eba21e0000000p-6, -0x1.dc8f180000000p-4, 0x1.17b8020000000p-6, -0x1.81f89e0000000p-7, 0x1.4238600000000p-5, -0x1.29df2e0000000p-4, -0x1.47e9b80000000p-3, -0x1.2eaca40000000p-3, 0x1.13d3f60000000p-3, -0x1.6c4d2a0000000p-4, 0x1.7619d00000000p-6, -0x1.5966e20000000p-5, 0x1.3327be0000000p-6, 0x1.63508e0000000p-5, -0x1.b457e60000000p-5, -0x1.a613020000000p-5, 0x1.74b20a0000000p-5, -0x1.91fd280000000p-4, 0x1.3dd8c00000000p-4, 0x1.9569480000000p-3, 0x1.0f60e80000000p-5, -0x1.e7902a0000000p-5, -0x1.6b133c0000000p-4, -0x1.5603020000000p-6, -0x1.9e5fac0000000p-6, 0x1.d3462e0000000p-5, -0x1.6ee57e0000000p-5, 0x1.79f3720000000p-4, -0x1.3090ee0000000p-5, -0x1.00db340000000p-5, 0x1.52883a0000000p-5, -0x1.b1d1fa0000000p-7, -0x1.fba2980000000p-10, -0x1.5b8dba0000000p-4, -0x1.0714b60000000p-4, -0x1.69acfa0000000p-9, 0x1.56b0260000000p-6, 0x1.5476120000000p-8, 0x1.35cf420000000p-4, -0x1.aa13a40000000p-9, 0x1.4694e00000000p-6, 0x1.07e8ca0000000p-5, -0x1.97d2740000000p-4, -0x1.cdb11e0000000p-6, 0x1.29d4c00000000p-4, -0x1.6507e60000000p-3, 0x1.7b8b760000000p-6, -0x1.21d15c0000000p-8, -0x1.01d1500000000p-4, -0x1.98ac860000000p-5, -0x1.4978be0000000p-8, -0x1.0458c60000000p-6, -0x1.63b2b20000000p-3, 0x1.f403360000000p-5, 0x1.3fc6560000000p-7, 0x1.9af52a0000000p-6, -0x1.8645280000000p-7, -0x1.25c3140000000p-4, -0x1.1ac3b80000000p-5, 0x1.19f7c20000000p-4, -0x1.4cc96c0000000p-4}
}
}
, {{{-0x1.68eca40000000p-3, 0x1.85d0360000000p-4, -0x1.62b4240000000p-4, -0x1.49a61a0000000p-4, 0x1.1e90c20000000p-3, 0x1.263bf20000000p-5, -0x1.0a9f3c0000000p-4, -0x1.31e67e0000000p-3, 0x1.c5550a0000000p-5, -0x1.3a2ade0000000p-5, 0x1.d4aea60000000p-6, 0x1.8696520000000p-4, 0x1.27d4000000000p-4, 0x1.1957d80000000p-4, 0x1.e605040000000p-8, -0x1.51598c0000000p-4, 0x1.36b8e00000000p-4, 0x1.032e7c0000000p-4, 0x1.726e540000000p-5, 0x1.668c060000000p-4, 0x1.ec8a940000000p-7, 0x1.b808b20000000p-5, 0x1.7ee7e00000000p-4, -0x1.ec90880000000p-7, 0x1.066fc60000000p-5, 0x1.2d50fe0000000p-3, -0x1.1116f80000000p-4, -0x1.02faf20000000p-5, 0x1.0a60820000000p-7, 0x1.42e9820000000p-5, -0x1.d1ff8e0000000p-13, 0x1.6d83120000000p-4, -0x1.5448620000000p-4, -0x1.5845860000000p-4, 0x1.e765880000000p-6, -0x1.95dbc80000000p-4, 0x1.ada8280000000p-6, 0x1.52bd840000000p-6, 0x1.d4b4a80000000p-5, 0x1.8c1a180000000p-5, 0x1.f8ea240000000p-6, 0x1.20a7ec0000000p-6, -0x1.267a2e0000000p-4, -0x1.821d360000000p-4, 0x1.16ffd40000000p-3, -0x1.9b04660000000p-7, 0x1.e1d2300000000p-4, -0x1.68802e0000000p-5, 0x1.14c95a0000000p-8, 0x1.165fe20000000p-3, -0x1.24cb960000000p-4, 0x1.c1c83e0000000p-5, 0x1.87a75c0000000p-4, 0x1.c6c6260000000p-4, -0x1.4d16320000000p-5, 0x1.77d8c40000000p-6, -0x1.63e4460000000p-7, 0x1.6ab1c20000000p-6, 0x1.2c08200000000p-4, -0x1.d865c80000000p-5, 0x1.2ca9a00000000p-3, 0x1.427a8e0000000p-4, -0x1.c62c960000000p-4, -0x1.a8e7a20000000p-7}
, {-0x1.e7177e0000000p-5, -0x1.00e3b60000000p-5, 0x1.974c860000000p-4, -0x1.923dd60000000p-6, -0x1.c416620000000p-10, -0x1.093b840000000p-4, 0x1.f16da40000000p-5, 0x1.44d47e0000000p-5, 0x1.1fbc460000000p-7, 0x1.0bbe000000000p-4, -0x1.f9fc2c0000000p-5, 0x1.08bad40000000p-4, -0x1.b54eae0000000p-6, -0x1.4c21560000000p-4, -0x1.2c0cdc0000000p-4, -0x1.445cbc0000000p-4, 0x1.79b9380000000p-5, -0x1.62bd1a0000000p-6, -0x1.b6a8660000000p-6, -0x1.941f660000000p-3, 0x1.a598ae0000000p-7, 0x1.383ba80000000p-4, -0x1.baae9c0000000p-4, -0x1.1ebb140000000p-4, 0x1.30d55c0000000p-4, 0x1.0248a60000000p-4, -0x1.f949ec0000000p-4, 0x1.bcb9b00000000p-5, 0x1.3fbc8e0000000p-4, -0x1.36d1ba0000000p-4, -0x1.0a49c60000000p-6, -0x1.f33bbc0000000p-4, -0x1.47143c0000000p-4, -0x1.3c973e0000000p-3, -0x1.af47280000000p-5, -0x1.7997f60000000p-5, 0x1.465e2e0000000p-6, -0x1.2988960000000p-5, 0x1.70597c0000000p-5, 0x1.c91c580000000p-4, -0x1.31c1360000000p-7, -0x1.6464020000000p-6, -0x1.06be4a0000000p-3, -0x1.49d86a0000000p-3, -0x1.18847a0000000p-4, -0x1.d37da40000000p-4, 0x1.c5e7140000000p-5, -0x1.6d3b200000000p-5, 0x1.818ff60000000p-6, 0x1.70cf200000000p-9, -0x1.14f8100000000p-10, -0x1.a72f820000000p-5, 0x1.f589e80000000p-6, -0x1.6760da0000000p-5, -0x1.cfecfa0000000p-8, -0x1.246d840000000p-5, -0x1.4f80120000000p-7, 0x1.4381d40000000p-7, 0x1.d64bce0000000p-6, -0x1.9ebb520000000p-4, -0x1.ee8b3a0000000p-8, -0x1.9540fa0000000p-5, -0x1.0a053c0000000p-5, -0x1.a446aa0000000p-5}
, {-0x1.7fff480000000p-5, -0x1.5e73160000000p-3, 0x1.4587e60000000p-4, 0x1.53120c0000000p-4, 0x1.7a62ee0000000p-3, 0x1.d9fd820000000p-5, -0x1.4c4b140000000p-4, 0x1.70086e0000000p-5, -0x1.c2ef600000000p-5, -0x1.8718e40000000p-4, -0x1.1a741e0000000p-3, -0x1.1e452e0000000p-3, -0x1.9f9e500000000p-4, -0x1.8ec9e60000000p-5, 0x1.67b4d60000000p-5, 0x1.1c52fc0000000p-4, -0x1.516cb20000000p-7, -0x1.3a6b980000000p-5, -0x1.96096a0000000p-5, -0x1.9950be0000000p-6, -0x1.b661940000000p-5, -0x1.dea8fa0000000p-3, 0x1.cd259a0000000p-4, 0x1.0b83de0000000p-4, -0x1.0e1fb20000000p-3, -0x1.a7d5d20000000p-3, 0x1.86b67e0000000p-4, -0x1.a49edc0000000p-6, -0x1.4230ea0000000p-4, -0x1.5714060000000p-6, 0x1.24a4cc0000000p-4, 0x1.153ab40000000p-5, -0x1.df35920000000p-6, 0x1.2ad6cc0000000p-4, 0x1.58a5e00000000p-5, -0x1.4bf2d80000000p-5, 0x1.c232380000000p-5, -0x1.3a6c7e0000000p-3, -0x1.c4e69c0000000p-3, -0x1.81dbb60000000p-3, 0x1.47d38c0000000p-4, 0x1.974fa80000000p-9, -0x1.4fe76e0000000p-5, 0x1.14c0a40000000p-4, 0x1.b069360000000p-7, -0x1.a1f6540000000p-5, 0x1.fdfff60000000p-6, 0x1.3e9e2a0000000p-5, -0x1.348e8a0000000p-5, 0x1.1888260000000p-4, -0x1.064c780000000p-4, -0x1.408f180000000p-4, 0x1.023f200000000p-6, 0x1.7d342a0000000p-4, 0x1.0044a40000000p-10, -0x1.21d91e0000000p-3, -0x1.e471140000000p-5, 0x1.c03aac0000000p-6, 0x1.b47b1e0000000p-7, 0x1.2eb1120000000p-4, -0x1.7a454c0000000p-5, 0x1.8e0c180000000p-6, 0x1.4e2ad00000000p-5, -0x1.7314620000000p-4}
}
, {{0x1.be2bfe0000000p-4, -0x1.5fe36e0000000p-4, 0x1.ab9d440000000p-5, 0x1.a52e800000000p-5, -0x1.f0df2c0000000p-5, -0x1.34361e0000000p-5, -0x1.9f06760000000p-6, -0x1.77a11e0000000p-4, -0x1.a97e1c0000000p-7, 0x1.3dfd300000000p-6, -0x1.eddc6c0000000p-5, 0x1.68a56e0000000p-5, -0x1.935ebe0000000p-9, 0x1.d513f80000000p-6, 0x1.a5c75c0000000p-4, 0x1.a9b3da0000000p-10, -0x1.59723c0000000p-6, 0x1.32d9800000000p-6, 0x1.e43d580000000p-5, 0x1.a7ae6c0000000p-4, 0x1.8a20ea0000000p-5, -0x1.d4982a0000000p-6, -0x1.c329920000000p-5, 0x1.5de94c0000000p-7, -0x1.8536c80000000p-5, -0x1.78e4600000000p-7, 0x1.ff18fc0000000p-5, 0x1.850cf60000000p-5, 0x1.c68c7e0000000p-5, 0x1.39a8900000000p-6, 0x1.1dc1140000000p-5, 0x1.0eaede0000000p-6, 0x1.f232f60000000p-8, -0x1.e538e80000000p-7, 0x1.6cf3120000000p-4, 0x1.59eac40000000p-4, 0x1.0eebf00000000p-4, -0x1.5deb820000000p-5, -0x1.beaece0000000p-4, -0x1.602a560000000p-4, 0x1.014b9c0000000p-5, 0x1.5669240000000p-4, 0x1.ea38d00000000p-4, -0x1.65f4440000000p-6, -0x1.26316e0000000p-4, -0x1.2712fc0000000p-6, 0x1.73a26e0000000p-7, 0x1.6a21ee0000000p-6, -0x1.2fbe560000000p-6, -0x1.9100fc0000000p-4, 0x1.3e88b00000000p-4, 0x1.1258420000000p-5, -0x1.07d7900000000p-4, -0x1.7990b40000000p-4, 0x1.1ea1440000000p-5, 0x1.1fc01a0000000p-7, 0x1.638a780000000p-6, 0x1.4fc8660000000p-7, 0x1.5e65fa0000000p-5, -0x1.dba3900000000p-6, -0x1.a9daa00000000p-5, -0x1.0a41180000000p-6, 0x1.e0357c0000000p-5, -0x1.ea72340000000p-5}
, {-0x1.2ada240000000p-5, -0x1.d9ac360000000p-3, -0x1.95d7a80000000p-4, -0x1.747cea0000000p-4, -0x1.431d320000000p-3, -0x1.ff82f80000000p-6, 0x1.f0af720000000p-6, -0x1.0c0bbc0000000p-2, 0x1.fca5700000000p-4, -0x1.0b6c780000000p-4, 0x1.5c41200000000p-7, 0x1.6870b60000000p-6, 0x1.67ea860000000p-4, 0x1.961b280000000p-6, -0x1.08bf720000000p-8, -0x1.3d3b8e0000000p-6, 0x1.224c000000000p-10, 0x1.b66da00000000p-7, 0x1.8f92540000000p-4, 0x1.afe7f20000000p-4, 0x1.556d9c0000000p-4, -0x1.c9a7cc0000000p-4, -0x1.0b48000000000p-7, 0x1.62993a0000000p-4, -0x1.3e75a20000000p-5, 0x1.11b5ba0000000p-5, -0x1.1150680000000p-4, 0x1.00ffc80000000p-5, 0x1.27a0480000000p-3, -0x1.5081c40000000p-8, -0x1.82031e0000000p-5, 0x1.9bf9140000000p-4, -0x1.056e3c0000000p-5, -0x1.acf0380000000p-3, -0x1.7eb9120000000p-6, 0x1.aedb0c0000000p-5, -0x1.764b620000000p-5, -0x1.f9aec00000000p-9, -0x1.1444540000000p-3, -0x1.67c2060000000p-3, 0x1.66c8220000000p-5, 0x1.0c28b80000000p-3, -0x1.ee4e340000000p-9, -0x1.426b3e0000000p-3, -0x1.8e6e3a0000000p-6, -0x1.981f060000000p-4, 0x1.3a0d580000000p-5, 0x1.2b2d280000000p-4, -0x1.8aaae20000000p-5, -0x1.1401520000000p-6, -0x1.ac0eda0000000p-8, -0x1.06fd180000000p-5, 0x1.78037c0000000p-4, 0x1.c6231c0000000p-6, -0x1.73d6b40000000p-4, -0x1.88ecd80000000p-5, 0x1.f753900000000p-5, -0x1.7627e00000000p-6, -0x1.741c1e0000000p-6, -0x1.31a8bc0000000p-3, -0x1.2cce9c0000000p-7, 0x1.7ebb4e0000000p-9, -0x1.d204600000000p-4, 0x1.15595e0000000p-5}
, {-0x1.4263aa0000000p-3, -0x1.52f69c0000000p-6, -0x1.73f3ee0000000p-3, -0x1.00b9d40000000p-3, -0x1.cc57ae0000000p-5, -0x1.6dd81a0000000p-5, -0x1.893b340000000p-4, -0x1.50a99a0000000p-4, -0x1.65d9580000000p-4, -0x1.7265bc0000000p-3, -0x1.dcc4f20000000p-4, -0x1.c9c4c80000000p-7, 0x1.5851f40000000p-5, 0x1.85ca620000000p-5, 0x1.09ff480000000p-4, 0x1.2a43480000000p-6, 0x1.061a260000000p-6, -0x1.5e516a0000000p-3, -0x1.03ce120000000p-4, 0x1.90b4b40000000p-5, -0x1.e1b9d00000000p-5, -0x1.13e4c80000000p-5, 0x1.a8649e0000000p-5, 0x1.973e300000000p-5, -0x1.5012980000000p-4, -0x1.cd3ff40000000p-4, -0x1.b358f80000000p-4, -0x1.c6ca0c0000000p-5, -0x1.1770840000000p-3, -0x1.1fa7e40000000p-3, 0x1.23ff5c0000000p-7, 0x1.2235e00000000p-7, -0x1.3457d40000000p-3, -0x1.352c3c0000000p-5, -0x1.6a66bc0000000p-5, -0x1.ac7fc40000000p-5, -0x1.4fb96c0000000p-5, -0x1.55d06a0000000p-6, -0x1.b2872e0000000p-7, -0x1.149efe0000000p-4, -0x1.9f00a80000000p-6, 0x1.65098a0000000p-5, -0x1.b002c00000000p-5, -0x1.fc58ac0000000p-6, -0x1.4aa94e0000000p-5, -0x1.3a04c00000000p-3, -0x1.599b1a0000000p-5, 0x1.fb2c9a0000000p-5, -0x1.0e18420000000p-5, 0x1.3d0bb40000000p-4, -0x1.40f8180000000p-8, 0x1.4e98540000000p-5, 0x1.1aac200000000p-8, 0x1.57d9f20000000p-8, -0x1.90a92c0000000p-3, -0x1.6fb1be0000000p-3, 0x1.2beb820000000p-4, -0x1.1e61280000000p-4, 0x1.355d260000000p-3, 0x1.2a767a0000000p-6, 0x1.0d2fde0000000p-4, 0x1.b0d8f40000000p-5, -0x1.56435c0000000p-4, -0x1.1312140000000p-4}
}
, {{0x1.5e2c860000000p-3, -0x1.60ac420000000p-5, -0x1.ed3da60000000p-4, 0x1.9efee40000000p-6, 0x1.abe40a0000000p-5, -0x1.22734c0000000p-5, -0x1.9ded6a0000000p-4, 0x1.45bf480000000p-7, 0x1.7665040000000p-6, -0x1.0370160000000p-5, -0x1.ac68020000000p-7, 0x1.ca5d780000000p-5, 0x1.360f140000000p-4, -0x1.3e59300000000p-3, -0x1.e7d8940000000p-4, -0x1.861b8e0000000p-6, -0x1.3322aa0000000p-3, -0x1.adfaaa0000000p-5, -0x1.3cca1e0000000p-3, 0x1.c666180000000p-6, -0x1.08f7800000000p-6, -0x1.37a5f60000000p-4, -0x1.6a2df20000000p-5, 0x1.00982a0000000p-5, -0x1.3336e60000000p-4, -0x1.0977420000000p-3, 0x1.152bec0000000p-4, 0x1.f20e720000000p-6, -0x1.490f560000000p-4, -0x1.ee878e0000000p-5, 0x1.fa50920000000p-7, 0x1.47f44c0000000p-5, 0x1.90acd40000000p-3, 0x1.ec162e0000000p-6, -0x1.bf745a0000000p-7, 0x1.2013580000000p-5, 0x1.07af5a0000000p-4, 0x1.56bd540000000p-6, -0x1.2a06fc0000000p-4, 0x1.84aaf40000000p-5, -0x1.b32c180000000p-7, -0x1.80ebe00000000p-5, 0x1.93c4b20000000p-5, -0x1.b3d0460000000p-6, 0x1.4e7fb20000000p-5, 0x1.64e8120000000p-5, -0x1.356a380000000p-6, 0x1.cf72e40000000p-6, -0x1.7172480000000p-6, 0x1.d76cb80000000p-4, -0x1.a7e24a0000000p-6, -0x1.c511b20000000p-6, 0x1.f6e0340000000p-6, -0x1.7404380000000p-6, 0x1.0625460000000p-3, -0x1.c02ab00000000p-5, -0x1.2fbcf40000000p-7, 0x1.6c7e220000000p-4, -0x1.4c495c0000000p-5, -0x1.ae7d3e0000000p-4, 0x1.c8a39e0000000p-8, -0x1.ef82800000000p-9, -0x1.0c89600000000p-6, 0x1.d5d3d80000000p-7}
, {-0x1.b8ca3a0000000p-7, -0x1.a2ed5e0000000p-5, -0x1.0885a40000000p-3, -0x1.838b7a0000000p-10, -0x1.2394e80000000p-4, 0x1.8e242c0000000p-4, 0x1.d091780000000p-6, -0x1.ba2c5a0000000p-5, -0x1.5c35f40000000p-7, -0x1.e133d00000000p-3, -0x1.e8cee40000000p-4, -0x1.d3e6a20000000p-4, -0x1.d7c4fa0000000p-6, 0x1.25605e0000000p-7, 0x1.3b27e00000000p-7, -0x1.92baba0000000p-4, -0x1.1455500000000p-6, -0x1.e4d3fa0000000p-5, 0x1.a2f15c0000000p-4, 0x1.6a91c60000000p-4, 0x1.014e520000000p-4, -0x1.9e063c0000000p-4, 0x1.be30240000000p-5, 0x1.3c1b680000000p-4, -0x1.ef68a40000000p-3, -0x1.ae65aa0000000p-4, -0x1.0688940000000p-7, 0x1.6e6ef00000000p-4, 0x1.c88c4e0000000p-7, -0x1.c7259a0000000p-4, 0x1.dadf800000000p-5, 0x1.2c3cb80000000p-4, 0x1.0d19360000000p-5, 0x1.c049820000000p-5, 0x1.7d991a0000000p-6, 0x1.89a8c00000000p-4, -0x1.0eb9900000000p-5, 0x1.5d2b060000000p-4, -0x1.3f0ccc0000000p-3, -0x1.368e3c0000000p-3, 0x1.10e4cc0000000p-6, 0x1.973db20000000p-4, 0x1.066f7a0000000p-4, -0x1.6e9a4e0000000p-3, -0x1.cf790c0000000p-4, -0x1.415a7a0000000p-6, 0x1.43f3c40000000p-5, -0x1.f6301a0000000p-3, 0x1.ff044a0000000p-6, -0x1.ff07340000000p-4, 0x1.762fbc0000000p-6, -0x1.19bb5a0000000p-4, -0x1.0e7ce00000000p-4, 0x1.f258aa0000000p-6, 0x1.15ca0c0000000p-4, -0x1.2aeffe0000000p-4, 0x1.3ed58a0000000p-7, -0x1.1ff2140000000p-10, 0x1.d962d60000000p-6, -0x1.a4f8b00000000p-3, 0x1.85d1c40000000p-5, 0x1.a347100000000p-4, -0x1.1310ca0000000p-5, 0x1.c357040000000p-4}
, {0x1.2a3c9a0000000p-4, 0x1.9d9ce40000000p-4, -0x1.c821e20000000p-5, 0x1.140a960000000p-4, -0x1.8d68a20000000p-6, -0x1.bab7820000000p-10, 0x1.41ca8a0000000p-6, -0x1.249a780000000p-3, 0x1.12af1c0000000p-4, -0x1.cbcfcc0000000p-5, -0x1.a79a480000000p-5, -0x1.899bbc0000000p-5, 0x1.568d480000000p-5, -0x1.33c7960000000p-4, -0x1.702d560000000p-6, 0x1.307dd60000000p-6, -0x1.b587560000000p-6, -0x1.f3ec820000000p-8, -0x1.116d980000000p-3, -0x1.4d0fd80000000p-6, -0x1.7ec97a0000000p-5, 0x1.022a320000000p-4, 0x1.84eb4a0000000p-7, 0x1.fc1dfc0000000p-5, -0x1.76e41c0000000p-6, -0x1.4704060000000p-6, -0x1.5f75980000000p-4, 0x1.37f0060000000p-4, 0x1.0b1c360000000p-7, -0x1.11cc1a0000000p-4, 0x1.bdc3340000000p-8, -0x1.1b139a0000000p-6, 0x1.1283180000000p-3, 0x1.9e39820000000p-4, -0x1.a5b6840000000p-6, 0x1.0e05420000000p-4, 0x1.3da1580000000p-4, 0x1.ac4e6c0000000p-4, 0x1.41a47a0000000p-4, -0x1.8bf4f60000000p-7, -0x1.2f469a0000000p-5, 0x1.3ba00c0000000p-4, 0x1.16c7660000000p-5, -0x1.6380480000000p-5, 0x1.da06040000000p-6, 0x1.4c361c0000000p-5, -0x1.1a7dbe0000000p-8, -0x1.93386c0000000p-5, -0x1.2420ec0000000p-4, 0x1.b6e1a00000000p-5, 0x1.37bf700000000p-5, 0x1.5700ca0000000p-9, 0x1.b7bdc40000000p-8, -0x1.e1f3e40000000p-8, 0x1.a600340000000p-6, -0x1.ec41360000000p-4, 0x1.095bc20000000p-6, 0x1.0250380000000p-3, -0x1.50aaae0000000p-4, -0x1.9308b20000000p-5, -0x1.8ae0680000000p-5, -0x1.6706700000000p-9, 0x1.ae2db40000000p-5, -0x1.7bec4c0000000p-7}
}
}
, {{{-0x1.63ff0c0000000p-4, 0x1.ab40840000000p-5, 0x1.9de2dc0000000p-4, 0x1.536fb20000000p-5, -0x1.67c3960000000p-4, 0x1.8ea4400000000p-5, -0x1.c3f2ac0000000p-6, 0x1.a40a9e0000000p-4, -0x1.2ab9560000000p-5, -0x1.8501540000000p-6, -0x1.ec11360000000p-5, -0x1.095d5e0000000p-5, -0x1.6d06ce0000000p-4, 0x1.c586fa0000000p-5, 0x1.dcb6900000000p-6, 0x1.a5e9a80000000p-4, 0x1.47813c0000000p-5, 0x1.b6d4dc0000000p-6, -0x1.49cacc0000000p-11, -0x1.60fa1a0000000p-5, -0x1.a37ed40000000p-4, 0x1.00d1fe0000000p-4, -0x1.692fcc0000000p-5, -0x1.9142ca0000000p-8, 0x1.4eb7c40000000p-5, -0x1.7302220000000p-3, 0x1.0d6cb20000000p-7, 0x1.93ddb00000000p-6, -0x1.39db4c0000000p-5, -0x1.f5703c0000000p-8, 0x1.09c22e0000000p-4, -0x1.1fa4c20000000p-7, -0x1.e03e9c0000000p-7, 0x1.1dfb960000000p-4, 0x1.99304a0000000p-4, -0x1.c585ce0000000p-7, 0x1.c445020000000p-5, -0x1.6ec78a0000000p-4, -0x1.1ce6540000000p-7, -0x1.fe91f00000000p-4, -0x1.f130620000000p-5, -0x1.acd41a0000000p-8, -0x1.5a2cde0000000p-5, -0x1.f1f7520000000p-7, -0x1.74ef6a0000000p-4, 0x1.85be740000000p-6, 0x1.2acde20000000p-5, 0x1.1686a40000000p-5, -0x1.2f46be0000000p-4, 0x1.500a640000000p-5, -0x1.7653460000000p-5, -0x1.89f4300000000p-5, -0x1.2cfff00000000p-4, 0x1.a4061e0000000p-6, -0x1.51d9280000000p-4, -0x1.b1d88e0000000p-5, 0x1.b517580000000p-6, 0x1.94a76c0000000p-5, -0x1.58c4da0000000p-7, 0x1.24aef60000000p-4, -0x1.d53c880000000p-5, -0x1.d4421e0000000p-6, 0x1.f638940000000p-7, -0x1.974cd40000000p-6}
, {0x1.2cfaba0000000p-3, 0x1.ab94260000000p-4, -0x1.6eb0c80000000p-4, 0x1.92b3360000000p-7, 0x1.06d7740000000p-4, 0x1.10d1200000000p-6, 0x1.78cc260000000p-4, 0x1.cbc0f00000000p-6, 0x1.3b0ae20000000p-6, -0x1.d5c6460000000p-5, 0x1.2743520000000p-8, 0x1.25cd400000000p-5, 0x1.4eadcc0000000p-6, -0x1.a0ddb40000000p-4, -0x1.677f7a0000000p-4, -0x1.dbeed00000000p-6, -0x1.b6d0ee0000000p-6, -0x1.9ae2000000000p-10, -0x1.78b7140000000p-5, -0x1.d4f1a00000000p-6, -0x1.dffed60000000p-5, 0x1.6173140000000p-5, -0x1.766dd20000000p-6, -0x1.ff7ac20000000p-8, -0x1.941fda0000000p-6, 0x1.2e4a000000000p-4, -0x1.21f33c0000000p-3, 0x1.ce09fa0000000p-6, -0x1.5c453a0000000p-6, -0x1.6404840000000p-7, 0x1.2f54ca0000000p-4, -0x1.2b9bbc0000000p-6, 0x1.f3f1640000000p-7, -0x1.874cfa0000000p-9, -0x1.92961a0000000p-3, -0x1.a49b7c0000000p-5, -0x1.ab55160000000p-4, 0x1.d877540000000p-4, 0x1.8096c60000000p-5, 0x1.03454e0000000p-3, 0x1.a431820000000p-8, -0x1.7f86840000000p-5, 0x1.02f12e0000000p-5, -0x1.4cdfec0000000p-7, 0x1.cf6e820000000p-5, 0x1.79f9ae0000000p-3, 0x1.6118900000000p-5, -0x1.15eaa20000000p-3, -0x1.6890440000000p-5, 0x1.0291820000000p-4, -0x1.bfb68c0000000p-5, -0x1.69ab1e0000000p-7, 0x1.81341a0000000p-5, -0x1.e7ebb60000000p-7, 0x1.296d420000000p-3, 0x1.0666500000000p-4, -0x1.84307e0000000p-6, 0x1.5d5f2e0000000p-8, 0x1.4c40140000000p-4, -0x1.56abca0000000p-3, -0x1.9815e80000000p-4, -0x1.b6d7600000000p-6, 0x1.95e5040000000p-4, 0x1.41fa7c0000000p-5}
, {-0x1.a9f1740000000p-4, 0x1.890ad40000000p-5, -0x1.0e66000000000p-3, -0x1.1b02f80000000p-5, 0x1.6409260000000p-5, 0x1.62ff460000000p-4, -0x1.1f3f820000000p-7, -0x1.3549340000000p-3, -0x1.1c28120000000p-5, -0x1.ec851c0000000p-5, -0x1.3087aa0000000p-6, 0x1.3635b00000000p-7, -0x1.d611220000000p-6, 0x1.558d680000000p-5, -0x1.3ef7c00000000p-3, -0x1.2a20da0000000p-7, -0x1.36e02c0000000p-5, -0x1.30fc2c0000000p-4, 0x1.04f7ba0000000p-5, -0x1.8efcd00000000p-11, -0x1.38410c0000000p-6, 0x1.9787bc0000000p-6, 0x1.3a57b20000000p-4, -0x1.c12d8e0000000p-7, -0x1.74d0840000000p-6, -0x1.a5b9b60000000p-6, -0x1.c6fbd60000000p-6, -0x1.b709ba0000000p-7, -0x1.44d4d40000000p-5, 0x1.7ea4f40000000p-11, -0x1.b75cc40000000p-7, 0x1.2a28a20000000p-4, -0x1.ebf6260000000p-8, -0x1.5ed9b40000000p-7, -0x1.32600a0000000p-4, -0x1.f0dab20000000p-6, -0x1.15079c0000000p-5, -0x1.50e68a0000000p-6, 0x1.7902e40000000p-7, 0x1.4255d60000000p-5, 0x1.7d3dfc0000000p-4, 0x1.ca691c0000000p-6, -0x1.fc78340000000p-5, -0x1.c003340000000p-5, 0x1.928af80000000p-8, -0x1.71e5200000000p-5, -0x1.1404a20000000p-5, 0x1.04a8b00000000p-4, -0x1.9801c80000000p-5, -0x1.a7a84a0000000p-5, -0x1.83c4760000000p-4, -0x1.0bf03a0000000p-8, 0x1.a8c9900000000p-7, -0x1.09c9660000000p-6, -0x1.506dfe0000000p-3, -0x1.61f4b00000000p-5, 0x1.b58e300000000p-4, -0x1.8818b40000000p-5, 0x1.b01e100000000p-5, -0x1.cde7b00000000p-4, 0x1.a3ff1a0000000p-6, 0x1.8ffe4a0000000p-5, -0x1.0a1d9c0000000p-8, -0x1.61bb260000000p-5}
}
, {{-0x1.6ffef00000000p-5, 0x1.e84b8a0000000p-6, 0x1.6b43be0000000p-4, -0x1.c595180000000p-8, -0x1.a56d120000000p-5, -0x1.a4730c0000000p-3, -0x1.b8e2480000000p-5, -0x1.1e24c60000000p-8, 0x1.645ffe0000000p-5, 0x1.9826ca0000000p-3, 0x1.3a67e80000000p-5, -0x1.2302080000000p-6, -0x1.7c6d8e0000000p-6, 0x1.d43d420000000p-6, 0x1.f6ba7c0000000p-6, -0x1.457d740000000p-8, -0x1.4959ea0000000p-6, 0x1.9982a80000000p-5, 0x1.07149c0000000p-4, -0x1.3692a80000000p-5, -0x1.495c3e0000000p-5, -0x1.f5b7700000000p-4, -0x1.64563c0000000p-4, -0x1.bb34700000000p-3, 0x1.8291a80000000p-5, 0x1.c850b00000000p-5, -0x1.b8306c0000000p-4, -0x1.fceb400000000p-4, 0x1.2533140000000p-4, 0x1.2dc0fe0000000p-4, -0x1.ba96180000000p-3, -0x1.ee26860000000p-4, -0x1.7ba3a60000000p-4, -0x1.5a89aa0000000p-6, -0x1.b7822e0000000p-7, -0x1.67548e0000000p-4, -0x1.748f5e0000000p-4, -0x1.247edc0000000p-3, 0x1.84e9ce0000000p-6, 0x1.bde98e0000000p-5, -0x1.17f6fe0000000p-3, 0x1.6f51040000000p-4, -0x1.2182440000000p-3, 0x1.1df2700000000p-3, 0x1.b207600000000p-5, -0x1.b977580000000p-5, -0x1.b8b6fa0000000p-4, 0x1.fe85e40000000p-5, 0x1.0a8cb80000000p-6, -0x1.48561a0000000p-4, 0x1.5ecfc00000000p-5, -0x1.10a3600000000p-4, -0x1.66b15c0000000p-4, 0x1.7a4a500000000p-6, -0x1.ecf2020000000p-5, 0x1.76178a0000000p-5, 0x1.0dc2980000000p-3, -0x1.37c0700000000p-3, 0x1.35ffc80000000p-7, 0x1.15ba400000000p-6, -0x1.bd38e40000000p-4, -0x1.74910a0000000p-6, -0x1.108dcc0000000p-5, 0x1.8be0ce0000000p-5}
, {-0x1.4478c60000000p-2, 0x1.1682600000000p-3, -0x1.58c6da0000000p-6, -0x1.b63d700000000p-4, 0x1.f9dca40000000p-4, 0x1.79934c0000000p-4, -0x1.510a6a0000000p-3, -0x1.177bf00000000p-3, 0x1.874ca40000000p-7, -0x1.968a0e0000000p-5, -0x1.9608d60000000p-6, -0x1.5a36020000000p-7, -0x1.79b3f40000000p-7, -0x1.4aea8a0000000p-5, 0x1.1c5f980000000p-5, 0x1.620c4e0000000p-7, -0x1.fca39c0000000p-6, 0x1.422e6e0000000p-6, -0x1.260d240000000p-5, -0x1.c975b80000000p-3, 0x1.22ccba0000000p-5, 0x1.00a9bc0000000p-3, -0x1.4598b00000000p-4, -0x1.8675200000000p-4, 0x1.45d5d60000000p-4, 0x1.43d4520000000p-4, 0x1.44593e0000000p-5, -0x1.a1e80a0000000p-8, -0x1.cfcf300000000p-4, 0x1.9364d80000000p-7, 0x1.1196880000000p-7, -0x1.072d620000000p-6, 0x1.e42a600000000p-5, 0x1.aed5ce0000000p-6, 0x1.d5ca6c0000000p-5, -0x1.42aca00000000p-3, 0x1.bcd5420000000p-4, -0x1.3793c00000000p-3, 0x1.61af400000000p-5, 0x1.203e820000000p-3, 0x1.549ecc0000000p-5, -0x1.bc3bf20000000p-3, -0x1.1f801a0000000p-2, -0x1.4625a80000000p-3, 0x1.58a2040000000p-3, -0x1.2345e20000000p-3, 0x1.5e5dbe0000000p-3, -0x1.94c2d00000000p-3, -0x1.c5bc600000000p-12, 0x1.9ef3560000000p-6, -0x1.d8bac00000000p-5, 0x1.35a95c0000000p-4, 0x1.7135b60000000p-5, 0x1.da6d1c0000000p-6, -0x1.6ed3400000000p-4, 0x1.9e21180000000p-7, -0x1.6b11cc0000000p-2, 0x1.39c58c0000000p-4, 0x1.ed9f6e0000000p-4, -0x1.15828a0000000p-3, -0x1.1e5f920000000p-6, 0x1.60cfda0000000p-5, 0x1.59c3b00000000p-4, -0x1.f952700000000p-5}
, {0x1.43bd340000000p-4, -0x1.a45c7c0000000p-6, -0x1.0139f20000000p-4, -0x1.b6c46e0000000p-4, 0x1.9f533c0000000p-8, -0x1.6c7caa0000000p-5, -0x1.4fdee80000000p-7, -0x1.a725040000000p-4, 0x1.d80bda0000000p-6, -0x1.5f8d640000000p-3, -0x1.f185440000000p-6, -0x1.3a859a0000000p-5, 0x1.ff92b60000000p-5, -0x1.b387be0000000p-5, -0x1.bf2a2a0000000p-4, 0x1.3fe9540000000p-8, -0x1.1d10760000000p-3, 0x1.33b1f00000000p-10, -0x1.916e420000000p-6, 0x1.15ecea0000000p-5, -0x1.a667d80000000p-5, -0x1.56bd9a0000000p-5, 0x1.4cdfbc0000000p-3, -0x1.3e85cc0000000p-8, 0x1.d04dd20000000p-10, -0x1.043a540000000p-6, -0x1.906c6e0000000p-4, 0x1.d239ce0000000p-7, 0x1.4840680000000p-9, 0x1.605e560000000p-6, 0x1.9549b60000000p-6, 0x1.78850e0000000p-5, 0x1.4a3d840000000p-3, 0x1.ea94620000000p-6, -0x1.82e4380000000p-5, 0x1.d8568c0000000p-5, -0x1.0c6b180000000p-4, -0x1.954f240000000p-4, 0x1.35c6780000000p-5, -0x1.72c4f80000000p-8, 0x1.12a0b00000000p-6, 0x1.23fc220000000p-7, -0x1.bc18c00000000p-6, -0x1.d34c600000000p-5, 0x1.dabade0000000p-7, 0x1.483ebc0000000p-4, 0x1.91d9720000000p-5, -0x1.8152440000000p-5, -0x1.1fd7e80000000p-5, 0x1.f9726c0000000p-5, -0x1.fe4d620000000p-7, -0x1.77b57c0000000p-6, 0x1.c5fc040000000p-4, 0x1.44c7180000000p-4, 0x1.05a34a0000000p-7, -0x1.12beae0000000p-4, -0x1.9af1180000000p-4, 0x1.9861ca0000000p-6, -0x1.12a3e60000000p-5, -0x1.6e3d1e0000000p-5, 0x1.2416100000000p-5, -0x1.7145260000000p-6, 0x1.9ac3640000000p-4, -0x1.0103560000000p-5}
}
, {{-0x1.5177ac0000000p-4, 0x1.65aaca0000000p-5, 0x1.d5022c0000000p-5, 0x1.1641860000000p-9, -0x1.189dd20000000p-4, -0x1.030ef20000000p-3, 0x1.2c3ac40000000p-4, 0x1.82e8ba0000000p-4, -0x1.940ee60000000p-8, 0x1.a5192c0000000p-5, -0x1.75e60e0000000p-7, 0x1.123a2e0000000p-4, -0x1.2e20ea0000000p-5, -0x1.0d699a0000000p-4, -0x1.570fa60000000p-6, -0x1.ff89520000000p-4, 0x1.5932220000000p-5, 0x1.c0da8a0000000p-4, 0x1.ee1b880000000p-4, 0x1.f7c2c40000000p-5, 0x1.81ef280000000p-5, -0x1.61bbaa0000000p-5, -0x1.a5ae7e0000000p-3, -0x1.0917fa0000000p-4, 0x1.1ae76a0000000p-5, -0x1.73d8360000000p-6, -0x1.7619700000000p-5, -0x1.3b70e20000000p-4, -0x1.10a9240000000p-7, 0x1.22e5280000000p-4, -0x1.fb21fe0000000p-4, -0x1.16b1840000000p-4, -0x1.c582f60000000p-3, -0x1.2f97ec0000000p-2, 0x1.5b9e7a0000000p-6, -0x1.0d84e00000000p-6, 0x1.738eda0000000p-6, -0x1.024d660000000p-2, 0x1.6b537c0000000p-4, -0x1.d2eea60000000p-6, -0x1.4beede0000000p-10, 0x1.a24f100000000p-5, -0x1.6155280000000p-5, -0x1.217fae0000000p-3, 0x1.6177020000000p-4, 0x1.f47cfc0000000p-9, -0x1.c11a7c0000000p-4, -0x1.7f29b60000000p-5, 0x1.aa19fa0000000p-4, -0x1.c5b12c0000000p-4, -0x1.88cba20000000p-6, 0x1.f489ca0000000p-4, 0x1.360d040000000p-6, 0x1.b2e88c0000000p-5, -0x1.0b1f480000000p-2, 0x1.c05a4e0000000p-5, 0x1.7e78ae0000000p-4, -0x1.0e6f5a0000000p-3, 0x1.61304e0000000p-6, -0x1.6636220000000p-4, 0x1.2f33b80000000p-4, -0x1.34a9980000000p-4, -0x1.5fa5f60000000p-3, 0x1.1e85720000000p-3}
, {-0x1.ce3b9c0000000p-3, -0x1.3e54300000000p-2, -0x1.38d9e80000000p-2, -0x1.2633c40000000p-3, -0x1.a0b1ce0000000p-7, 0x1.b6c5920000000p-7, -0x1.65df740000000p-4, -0x1.a2583a0000000p-4, -0x1.8f711a0000000p-6, -0x1.83c4040000000p-3, -0x1.0ad5660000000p-8, -0x1.9c28660000000p-6, -0x1.9815c40000000p-3, 0x1.522acc0000000p-4, 0x1.9b6b8c0000000p-5, 0x1.5a02240000000p-4, 0x1.c5ff5e0000000p-6, 0x1.04c6a40000000p-3, 0x1.695afc0000000p-4, -0x1.2cf7fe0000000p-7, -0x1.12a0fe0000000p-7, -0x1.84fd600000000p-4, 0x1.46c1860000000p-5, -0x1.3f6b4a0000000p-6, -0x1.a96c9e0000000p-4, -0x1.196a9c0000000p-4, -0x1.469cb20000000p-10, -0x1.4dd20a0000000p-4, 0x1.6a6b380000000p-11, 0x1.fe28cc0000000p-6, -0x1.3ef8c40000000p-3, 0x1.655e340000000p-5, -0x1.b3f8880000000p-5, -0x1.fdc5b60000000p-4, 0x1.1cde180000000p-6, -0x1.c1b02e0000000p-4, 0x1.3002900000000p-4, -0x1.85d36e0000000p-3, -0x1.fd74fc0000000p-4, -0x1.7c851e0000000p-3, 0x1.409ac40000000p-6, -0x1.1b5ab40000000p-5, -0x1.179a5e0000000p-4, -0x1.3141340000000p-4, 0x1.16c8240000000p-4, -0x1.b587060000000p-4, 0x1.8834fa0000000p-6, 0x1.2de8aa0000000p-7, -0x1.28d7dc0000000p-6, -0x1.660aa40000000p-4, -0x1.2166560000000p-7, 0x1.11f4fe0000000p-4, 0x1.3cecc20000000p-6, 0x1.3bdb2e0000000p-4, -0x1.c081a00000000p-3, -0x1.49e4580000000p-6, 0x1.0ecb660000000p-3, -0x1.3553680000000p-4, 0x1.8899780000000p-7, 0x1.5451160000000p-4, 0x1.c2b39c0000000p-14, -0x1.89dbae0000000p-6, -0x1.97c81c0000000p-5, -0x1.5d5c340000000p-5}
, {0x1.eee42e0000000p-6, -0x1.e5d2420000000p-7, -0x1.44b7fe0000000p-3, 0x1.9fd33c0000000p-6, 0x1.9917800000000p-5, -0x1.307b020000000p-8, 0x1.2968780000000p-4, -0x1.145a7e0000000p-6, -0x1.3cdc3e0000000p-5, -0x1.eb656c0000000p-4, 0x1.9606980000000p-5, -0x1.dad0bc0000000p-5, 0x1.adc7f80000000p-9, -0x1.38052a0000000p-3, -0x1.8c418c0000000p-3, 0x1.e377880000000p-5, -0x1.22e0080000000p-3, -0x1.c181280000000p-4, 0x1.142ace0000000p-6, 0x1.2ca1000000000p-6, -0x1.8d9e700000000p-4, 0x1.683f620000000p-6, 0x1.b92c700000000p-3, 0x1.651ee20000000p-8, -0x1.85a4f80000000p-5, -0x1.5f7bac0000000p-7, -0x1.88be800000000p-5, 0x1.6bfbc40000000p-5, -0x1.82d5b20000000p-5, -0x1.2202ac0000000p-3, 0x1.6dcafe0000000p-4, 0x1.2233a40000000p-4, 0x1.980b8e0000000p-5, 0x1.6fa4120000000p-5, -0x1.49cf640000000p-7, 0x1.0f8a400000000p-4, -0x1.343cba0000000p-4, -0x1.8f18560000000p-5, -0x1.6ff8fe0000000p-6, 0x1.bd7d780000000p-3, -0x1.f44d000000000p-5, 0x1.27f35a0000000p-5, 0x1.a446380000000p-4, -0x1.5745da0000000p-6, -0x1.0aa3780000000p-4, 0x1.e5f4720000000p-4, -0x1.2adcc60000000p-5, 0x1.cf85ec0000000p-6, -0x1.4bde5c0000000p-7, 0x1.eb644c0000000p-4, -0x1.2021c60000000p-4, -0x1.99584e0000000p-4, 0x1.5a6a5e0000000p-5, 0x1.5d18940000000p-5, -0x1.3185620000000p-6, -0x1.f992940000000p-4, -0x1.dff0760000000p-5, 0x1.a5d3840000000p-5, -0x1.3563f00000000p-12, 0x1.383eb80000000p-5, -0x1.b343de0000000p-5, 0x1.d783f00000000p-4, -0x1.9e4a840000000p-5, -0x1.49074e0000000p-9}
}
}
, {{{0x1.0289f40000000p-5, 0x1.58cc6a0000000p-4, -0x1.8b6a840000000p-6, -0x1.8892f20000000p-5, -0x1.7edc120000000p-6, -0x1.ffef220000000p-6, 0x1.5834dc0000000p-5, -0x1.5d3b000000000p-3, 0x1.30878c0000000p-5, 0x1.dad7920000000p-6, -0x1.1102d60000000p-5, 0x1.0f18980000000p-5, 0x1.57c58a0000000p-5, -0x1.0b8e300000000p-5, -0x1.b83b9e0000000p-6, 0x1.126b3a0000000p-5, 0x1.5d5d960000000p-4, 0x1.84196c0000000p-6, 0x1.e287420000000p-4, -0x1.e7f35a0000000p-7, -0x1.4fe05e0000000p-5, 0x1.0d3a1a0000000p-4, -0x1.1066180000000p-3, 0x1.03b07a0000000p-6, -0x1.17d9a20000000p-4, 0x1.ad949c0000000p-3, -0x1.20420e0000000p-5, 0x1.53ecc40000000p-7, -0x1.f38abe0000000p-7, -0x1.1158d40000000p-6, 0x1.15b7dc0000000p-5, -0x1.c188500000000p-6, 0x1.9ef1840000000p-4, 0x1.6a77440000000p-4, -0x1.5f9e280000000p-5, 0x1.e71c200000000p-7, -0x1.b4900a0000000p-4, 0x1.fdfb700000000p-5, 0x1.845ed20000000p-4, 0x1.4ef0660000000p-3, -0x1.6588200000000p-6, -0x1.1ef63a0000000p-5, -0x1.e3fe9c0000000p-8, -0x1.6ee2d00000000p-3, 0x1.50c9ca0000000p-6, 0x1.7b0ddc0000000p-6, 0x1.472f040000000p-5, -0x1.3ec5920000000p-4, 0x1.276ab40000000p-7, -0x1.396e360000000p-6, 0x1.2c87980000000p-5, -0x1.6c675e0000000p-4, 0x1.0d4c560000000p-11, -0x1.80ae9e0000000p-6, 0x1.2775000000000p-6, 0x1.6895dc0000000p-5, -0x1.3c16a80000000p-3, -0x1.f3f9780000000p-6, 0x1.a389ae0000000p-4, -0x1.cdd7220000000p-3, 0x1.e998f00000000p-5, -0x1.3b23c60000000p-4, -0x1.c23ff80000000p-8, 0x1.83d2f20000000p-6}
, {0x1.d56af00000000p-8, -0x1.7fe4360000000p-4, -0x1.a7ab7c0000000p-5, -0x1.aa02b40000000p-4, -0x1.0fa00c0000000p-5, 0x1.41c77c0000000p-5, -0x1.70901e0000000p-7, -0x1.7c70ba0000000p-5, -0x1.29257e0000000p-4, -0x1.9374440000000p-4, -0x1.ea1ae60000000p-4, -0x1.d98b7c0000000p-8, 0x1.98e76e0000000p-4, 0x1.8aac0a0000000p-4, -0x1.2dcb620000000p-4, -0x1.b81e100000000p-6, 0x1.e727760000000p-7, -0x1.390f9a0000000p-4, 0x1.500eaa0000000p-8, 0x1.865b140000000p-4, -0x1.86b4d80000000p-4, -0x1.31611e0000000p-4, 0x1.e1396c0000000p-5, 0x1.1dfb720000000p-6, -0x1.fcb5b60000000p-4, -0x1.58ab480000000p-4, -0x1.01f4320000000p-5, 0x1.23059a0000000p-6, 0x1.9936120000000p-5, 0x1.32cc620000000p-5, -0x1.b272440000000p-5, 0x1.3f14520000000p-5, 0x1.036c6e0000000p-5, 0x1.5e70640000000p-5, -0x1.3d87fa0000000p-4, 0x1.695f9c0000000p-10, 0x1.57495a0000000p-6, 0x1.f975240000000p-5, -0x1.0f29b20000000p-7, -0x1.ab447a0000000p-4, 0x1.5bea8a0000000p-7, 0x1.216f920000000p-3, 0x1.7b7e920000000p-5, 0x1.500e6c0000000p-6, -0x1.72eaa40000000p-4, -0x1.77699a0000000p-4, 0x1.1610d80000000p-5, 0x1.53e0140000000p-6, -0x1.3bc9760000000p-4, -0x1.bffe540000000p-4, 0x1.aaec1e0000000p-5, 0x1.345b200000000p-3, 0x1.ba496a0000000p-5, 0x1.f924400000000p-4, 0x1.167cac0000000p-5, -0x1.408ed40000000p-4, 0x1.6ffba60000000p-6, 0x1.bdaca00000000p-4, 0x1.43d81c0000000p-5, 0x1.c434580000000p-4, 0x1.0195e60000000p-3, 0x1.6d4dfe0000000p-3, 0x1.d949060000000p-4, -0x1.b09a860000000p-7}
, {0x1.d5659e0000000p-5, -0x1.0f574a0000000p-5, 0x1.22e50c0000000p-5, -0x1.e4686a0000000p-7, -0x1.15d20a0000000p-2, -0x1.f2df0e0000000p-4, 0x1.08f87e0000000p-4, -0x1.a484980000000p-5, -0x1.f434e40000000p-5, 0x1.84634a0000000p-5, -0x1.6bd7e80000000p-4, 0x1.a268ba0000000p-6, 0x1.d36e140000000p-4, -0x1.8bf0840000000p-5, -0x1.db74860000000p-7, -0x1.12f6f20000000p-3, -0x1.dc96060000000p-5, -0x1.fc798a0000000p-4, -0x1.f7438a0000000p-4, 0x1.83bcf40000000p-4, 0x1.3c9adc0000000p-8, -0x1.db7e760000000p-7, 0x1.74e1900000000p-3, 0x1.f55eba0000000p-5, -0x1.563aee0000000p-5, -0x1.01ce500000000p-3, -0x1.afed880000000p-4, -0x1.cc80680000000p-4, 0x1.3310ec0000000p-5, -0x1.3ebdca0000000p-3, -0x1.4cd8ea0000000p-5, -0x1.931e5e0000000p-5, -0x1.2706ec0000000p-5, 0x1.49fe680000000p-6, -0x1.307c540000000p-4, -0x1.1f7d8e0000000p-4, -0x1.ef7c460000000p-6, 0x1.2ac26e0000000p-6, 0x1.f2187c0000000p-6, -0x1.eeac960000000p-7, -0x1.56a6c20000000p-4, 0x1.39188c0000000p-3, 0x1.2d74ae0000000p-5, 0x1.8f03880000000p-6, -0x1.7758c40000000p-4, 0x1.3eab4e0000000p-6, -0x1.a0c3000000000p-3, 0x1.09b18c0000000p-4, -0x1.c4d8800000000p-4, 0x1.162fb20000000p-5, 0x1.98165e0000000p-4, 0x1.0a7a160000000p-4, -0x1.5b42920000000p-4, -0x1.69baa80000000p-5, -0x1.3704280000000p-4, -0x1.6232a60000000p-7, 0x1.3f1dd00000000p-4, -0x1.3d0a4c0000000p-3, 0x1.936f2a0000000p-7, 0x1.ddf14c0000000p-5, -0x1.7f6f6c0000000p-5, 0x1.1daac80000000p-4, -0x1.82cd740000000p-5, -0x1.8e68e80000000p-5}
}
, {{-0x1.41f9060000000p-7, 0x1.347c3a0000000p-7, -0x1.db6fda0000000p-5, -0x1.7f70540000000p-4, -0x1.6014120000000p-4, -0x1.4d44ca0000000p-4, -0x1.6d445e0000000p-5, -0x1.ae87420000000p-4, -0x1.eed69e0000000p-6, -0x1.73bc280000000p-4, 0x1.4a61740000000p-5, 0x1.0faf7e0000000p-7, 0x1.5fcdf00000000p-5, -0x1.0e0e0a0000000p-3, 0x1.ef461c0000000p-4, -0x1.5fef7c0000000p-5, 0x1.a6d14a0000000p-7, 0x1.9be7400000000p-5, -0x1.3354ae0000000p-5, -0x1.14b2400000000p-6, -0x1.dab24e0000000p-4, 0x1.acd3b80000000p-8, -0x1.5447760000000p-5, -0x1.bc9d900000000p-7, 0x1.0f89b80000000p-6, 0x1.498f880000000p-5, 0x1.a5f8ea0000000p-3, -0x1.0b12e00000000p-11, -0x1.71b32c0000000p-4, 0x1.359a060000000p-5, 0x1.8131160000000p-6, -0x1.4b5bcc0000000p-5, 0x1.3735ae0000000p-9, -0x1.9a4b1e0000000p-4, 0x1.2ee0c00000000p-3, -0x1.35067a0000000p-5, 0x1.8c39d00000000p-5, -0x1.3a16160000000p-8, 0x1.1fa3380000000p-6, 0x1.a89b2e0000000p-5, -0x1.f7fff40000000p-4, -0x1.07e7060000000p-3, -0x1.b1b2620000000p-5, -0x1.1b204e0000000p-3, 0x1.0a9b380000000p-4, 0x1.c06d8c0000000p-8, -0x1.6209e20000000p-5, -0x1.c7c60c0000000p-5, -0x1.1779380000000p-3, 0x1.41c8620000000p-4, -0x1.7746f00000000p-5, -0x1.de3bbc0000000p-5, 0x1.0f32160000000p-5, 0x1.a36ae00000000p-4, -0x1.b952ac0000000p-4, 0x1.cfb9c20000000p-7, -0x1.0370600000000p-4, 0x1.91cbf00000000p-4, -0x1.95d18c0000000p-6, 0x1.58f1a40000000p-4, -0x1.55af720000000p-5, 0x1.0be1bc0000000p-4, -0x1.1e6fbe0000000p-4, -0x1.01388e0000000p-4}
, {0x1.1cf2920000000p-5, 0x1.a2e59a0000000p-5, -0x1.0efd6a0000000p-5, -0x1.251b3c0000000p-3, 0x1.59cbb80000000p-4, 0x1.08c6ea0000000p-8, -0x1.d0a38c0000000p-6, -0x1.34dc940000000p-3, -0x1.b565600000000p-6, -0x1.6fce900000000p-5, -0x1.3c0ab40000000p-4, -0x1.b90f020000000p-5, -0x1.293ee20000000p-4, -0x1.551cc00000000p-4, 0x1.d6bcb40000000p-9, -0x1.3941340000000p-4, 0x1.5cbf040000000p-6, -0x1.0a19a00000000p-5, -0x1.a448300000000p-5, -0x1.afd0960000000p-4, 0x1.5922980000000p-8, 0x1.4234da0000000p-5, 0x1.4644a80000000p-4, -0x1.f1f9120000000p-7, 0x1.babd280000000p-6, -0x1.49668a0000000p-5, 0x1.61bf580000000p-6, 0x1.453c880000000p-4, -0x1.c550a20000000p-5, 0x1.3d02e80000000p-5, -0x1.16cd0a0000000p-4, 0x1.cd978e0000000p-5, -0x1.66277a0000000p-8, 0x1.d1209c0000000p-6, 0x1.0400680000000p-8, 0x1.517a7a0000000p-6, -0x1.928d200000000p-7, -0x1.a054460000000p-6, 0x1.3ce2ba0000000p-4, -0x1.67215c0000000p-4, 0x1.d2a1fe0000000p-5, -0x1.237bec0000000p-5, -0x1.453b920000000p-5, -0x1.9698040000000p-4, -0x1.7c18440000000p-5, 0x1.b0d7ca0000000p-4, 0x1.9146860000000p-4, -0x1.39df860000000p-3, 0x1.b8b1c40000000p-6, 0x1.550f680000000p-5, 0x1.11a5260000000p-6, 0x1.6bbdfa0000000p-5, 0x1.40f7b00000000p-7, -0x1.09849a0000000p-5, 0x1.1939540000000p-8, 0x1.c378460000000p-8, -0x1.6554fa0000000p-3, -0x1.2421740000000p-7, -0x1.7721440000000p-4, -0x1.9200fa0000000p-3, 0x1.926a320000000p-10, 0x1.2f7a880000000p-6, -0x1.3e98200000000p-5, -0x1.2b41e40000000p-3}
, {-0x1.8517040000000p-7, -0x1.ef09ce0000000p-6, -0x1.198a520000000p-4, -0x1.f4d5fe0000000p-3, -0x1.2c8e460000000p-5, -0x1.383b220000000p-3, 0x1.38fda00000000p-5, -0x1.ac6aae0000000p-3, 0x1.1f319c0000000p-5, -0x1.4402120000000p-3, -0x1.5dd1b40000000p-3, 0x1.f17a120000000p-4, 0x1.8c5ee60000000p-4, 0x1.8fce2a0000000p-4, -0x1.6c39ce0000000p-4, -0x1.cf9e900000000p-4, 0x1.e5376e0000000p-7, -0x1.92b6c00000000p-3, -0x1.db65280000000p-12, 0x1.f211140000000p-5, -0x1.4639d60000000p-4, 0x1.4859be0000000p-3, 0x1.476a8a0000000p-5, 0x1.dfdc5e0000000p-5, -0x1.9b7d120000000p-5, -0x1.265fce0000000p-3, -0x1.378e0a0000000p-4, 0x1.b24df40000000p-5, -0x1.27e11a0000000p-6, -0x1.6457da0000000p-3, 0x1.62e7520000000p-6, 0x1.64ef280000000p-5, -0x1.03eeb80000000p-3, -0x1.1643080000000p-3, -0x1.2869620000000p-5, 0x1.dd51be0000000p-5, -0x1.4fcc400000000p-4, 0x1.7c29600000000p-5, 0x1.a03bb40000000p-10, 0x1.e6f7ce0000000p-7, 0x1.a3ea120000000p-4, 0x1.b54d9c0000000p-4, -0x1.d8e1020000000p-7, -0x1.14e3ca0000000p-2, -0x1.83b5f00000000p-5, -0x1.749b920000000p-9, -0x1.af05e60000000p-4, 0x1.7c06240000000p-5, -0x1.5263340000000p-9, 0x1.01ca5e0000000p-4, -0x1.036b4c0000000p-8, 0x1.69e0080000000p-5, 0x1.0b98220000000p-6, -0x1.9896340000000p-6, -0x1.83fb220000000p-4, -0x1.ba72260000000p-8, -0x1.57f1640000000p-5, -0x1.186a9a0000000p-5, 0x1.4ecd100000000p-5, -0x1.243e140000000p-5, 0x1.95f7d40000000p-4, 0x1.e8eaf20000000p-5, -0x1.28eae40000000p-3, 0x1.74fc400000000p-6}
}
, {{0x1.bee3040000000p-4, 0x1.5692940000000p-6, -0x1.a4cbe80000000p-3, 0x1.f365c00000000p-6, 0x1.a609040000000p-6, 0x1.26f51a0000000p-5, -0x1.22107a0000000p-4, -0x1.0700de0000000p-3, -0x1.06f0680000000p-6, -0x1.dc6a260000000p-4, -0x1.2490fa0000000p-4, 0x1.7d6f8e0000000p-5, 0x1.c52b820000000p-4, -0x1.69a2c20000000p-3, -0x1.54fc340000000p-3, -0x1.e6446e0000000p-4, 0x1.9a1f2a0000000p-8, -0x1.73f2300000000p-3, -0x1.2d833e0000000p-4, 0x1.15dde60000000p-4, -0x1.6963380000000p-4, 0x1.a982980000000p-4, 0x1.73f6360000000p-4, 0x1.126bf40000000p-3, -0x1.2be4860000000p-4, -0x1.ab8d1c0000000p-3, -0x1.1425500000000p-9, 0x1.261ace0000000p-4, -0x1.a511a20000000p-5, -0x1.84ce2e0000000p-5, 0x1.9b637c0000000p-4, 0x1.2afc8c0000000p-4, 0x1.9f890c0000000p-4, 0x1.56e5c60000000p-3, -0x1.33af080000000p-5, 0x1.c33fb20000000p-7, -0x1.9a29e00000000p-10, -0x1.cc13640000000p-7, -0x1.58501e0000000p-5, -0x1.a169480000000p-6, -0x1.9b6b700000000p-5, 0x1.9050ee0000000p-5, 0x1.badef40000000p-3, -0x1.06c7780000000p-3, -0x1.38d1780000000p-4, 0x1.501c360000000p-4, 0x1.7ac3320000000p-5, 0x1.3696740000000p-7, -0x1.951a740000000p-5, -0x1.04169c0000000p-5, -0x1.3ec6980000000p-5, 0x1.b70b380000000p-4, 0x1.c60cf40000000p-4, 0x1.2eb9200000000p-4, 0x1.2c40960000000p-5, -0x1.ccc3900000000p-3, -0x1.9348b40000000p-5, 0x1.b6f3560000000p-6, 0x1.a8d69a0000000p-4, -0x1.ddfc9a0000000p-3, 0x1.4ce16a0000000p-5, 0x1.86c0060000000p-6, -0x1.a6191a0000000p-8, -0x1.c857880000000p-4}
, {0x1.4537560000000p-12, -0x1.927c520000000p-4, -0x1.cab9440000000p-4, 0x1.ec22340000000p-5, 0x1.08f0a00000000p-3, 0x1.5e967c0000000p-4, 0x1.04a2c00000000p-8, -0x1.ec89e20000000p-5, -0x1.dee2680000000p-4, 0x1.0220c00000000p-5, -0x1.602a700000000p-4, -0x1.341f4c0000000p-3, -0x1.040b3a0000000p-3, -0x1.1a2b5c0000000p-2, -0x1.f63c560000000p-3, 0x1.2f86c00000000p-4, -0x1.53c9140000000p-3, -0x1.23892e0000000p-3, -0x1.3b0de80000000p-4, -0x1.f0902a0000000p-6, -0x1.abf9380000000p-4, -0x1.0177e20000000p-2, -0x1.381f6e0000000p-6, 0x1.21385a0000000p-11, -0x1.51ab5e0000000p-4, -0x1.8418840000000p-3, 0x1.517a1e0000000p-6, 0x1.abe6da0000000p-6, 0x1.45e21e0000000p-6, -0x1.0819ca0000000p-5, 0x1.1f986a0000000p-4, -0x1.5f51c20000000p-4, 0x1.209b2a0000000p-3, -0x1.5b571a0000000p-6, -0x1.6eb25c0000000p-6, 0x1.4f343e0000000p-6, -0x1.cc7d5e0000000p-6, -0x1.7b09e20000000p-4, -0x1.c01c200000000p-4, -0x1.0d96120000000p-4, -0x1.ed45560000000p-4, -0x1.2453f40000000p-3, 0x1.fea8c80000000p-6, -0x1.8e989a0000000p-7, 0x1.1228400000000p-6, 0x1.067ad80000000p-4, 0x1.860d120000000p-3, -0x1.3370820000000p-3, -0x1.07a6a00000000p-4, 0x1.13fe280000000p-4, -0x1.5e8e140000000p-3, -0x1.1d7bc80000000p-3, 0x1.67b3660000000p-8, -0x1.ad762c0000000p-5, 0x1.77356c0000000p-4, -0x1.c311200000000p-4, -0x1.e934700000000p-3, 0x1.5456d00000000p-4, -0x1.0789760000000p-2, -0x1.4d40280000000p-4, -0x1.5e929c0000000p-3, -0x1.8ac9360000000p-4, 0x1.c2f3f80000000p-4, 0x1.f5f6f00000000p-7}
, {0x1.b85c460000000p-6, 0x1.e0f0460000000p-7, 0x1.d50cee0000000p-4, -0x1.7270760000000p-3, -0x1.a8d9e80000000p-4, -0x1.c872160000000p-4, 0x1.0c012c0000000p-3, -0x1.21795e0000000p-2, 0x1.872a7c0000000p-4, 0x1.0987480000000p-3, 0x1.9ee2300000000p-4, -0x1.f966d40000000p-4, -0x1.2380aa0000000p-3, -0x1.6126d20000000p-7, -0x1.2f85fa0000000p-3, -0x1.40291e0000000p-3, -0x1.5d11aa0000000p-5, 0x1.6365180000000p-6, -0x1.05f2640000000p-4, -0x1.14f7380000000p-4, -0x1.03bd0e0000000p-4, -0x1.1aae600000000p-2, 0x1.4796aa0000000p-5, 0x1.8ff7100000000p-6, 0x1.7646900000000p-5, -0x1.27764c0000000p-7, -0x1.01e4280000000p-3, 0x1.f03bb60000000p-6, 0x1.6f7bc60000000p-4, 0x1.1656400000000p-6, -0x1.1733920000000p-8, -0x1.96d8640000000p-5, -0x1.3b235a0000000p-4, 0x1.4ebb860000000p-6, -0x1.f68ff80000000p-4, 0x1.faa15c0000000p-6, -0x1.d1c7800000000p-5, -0x1.917ae00000000p-5, -0x1.9cd8100000000p-5, 0x1.d17cda0000000p-4, -0x1.05b6380000000p-4, -0x1.d7cafc0000000p-4, 0x1.3811be0000000p-4, -0x1.f4041e0000000p-4, -0x1.73362a0000000p-4, -0x1.3480e20000000p-7, -0x1.89ba360000000p-3, -0x1.f4a7540000000p-4, -0x1.5fb04c0000000p-7, -0x1.8396120000000p-6, -0x1.1667340000000p-4, -0x1.c353f20000000p-4, 0x1.9bbd820000000p-4, -0x1.28bda60000000p-4, -0x1.e235ca0000000p-5, 0x1.7ef0380000000p-4, -0x1.4726280000000p-2, -0x1.7f5f2e0000000p-4, -0x1.573e300000000p-5, -0x1.637b220000000p-3, 0x1.6484300000000p-8, -0x1.7c2f1c0000000p-3, -0x1.d699c40000000p-4, 0x1.4f237a0000000p-3}
}
}
, {{{-0x1.7047c60000000p-5, 0x1.23483c0000000p-2, -0x1.4e77500000000p-5, -0x1.8dcbd40000000p-4, 0x1.04e9560000000p-4, 0x1.079d680000000p-7, 0x1.374a220000000p-7, -0x1.bd39020000000p-4, 0x1.39af6a0000000p-6, -0x1.c2c2740000000p-5, -0x1.1714940000000p-4, 0x1.c69e300000000p-6, 0x1.4b4cbe0000000p-4, -0x1.2b8d240000000p-4, 0x1.fdfdc40000000p-7, -0x1.b79ff80000000p-6, 0x1.c84ca40000000p-6, 0x1.09e1da0000000p-5, -0x1.920e680000000p-7, -0x1.3fbbb20000000p-4, -0x1.c186ac0000000p-7, 0x1.03ebf80000000p-4, -0x1.41b1760000000p-7, 0x1.c521ca0000000p-8, 0x1.54615a0000000p-4, -0x1.1d1fd60000000p-7, 0x1.8a0de60000000p-4, -0x1.7a44bc0000000p-4, -0x1.1185ec0000000p-3, -0x1.826a940000000p-6, -0x1.a797640000000p-6, -0x1.a3c9560000000p-5, -0x1.d532040000000p-7, -0x1.fa229e0000000p-5, -0x1.4f1c440000000p-5, -0x1.03ef8c0000000p-6, 0x1.43d09e0000000p-4, 0x1.5ab1c60000000p-4, 0x1.a063c80000000p-4, 0x1.1bdcc60000000p-4, -0x1.b3001a0000000p-4, -0x1.6dc0660000000p-4, -0x1.0dfbb40000000p-3, -0x1.dae7880000000p-4, 0x1.27ef780000000p-5, 0x1.52bed80000000p-4, -0x1.4c4f5a0000000p-7, 0x1.c4170e0000000p-6, -0x1.e15f440000000p-6, 0x1.26faba0000000p-6, 0x1.db6a980000000p-4, 0x1.6a93060000000p-7, 0x1.1c31760000000p-5, -0x1.07bb600000000p-4, 0x1.fca6120000000p-6, 0x1.7a62e60000000p-5, -0x1.48a0580000000p-3, -0x1.e5847a0000000p-5, 0x1.44c8020000000p-4, -0x1.361f9c0000000p-4, -0x1.a62f620000000p-7, 0x1.d38b980000000p-6, -0x1.0da6b60000000p-4, 0x1.e0f0c00000000p-5}
, {0x1.efaf640000000p-6, 0x1.23f57e0000000p-3, -0x1.f93c200000000p-4, -0x1.0c3eba0000000p-3, 0x1.ae3c600000000p-3, 0x1.198de40000000p-3, 0x1.f142700000000p-5, -0x1.ada5120000000p-4, -0x1.c04dc00000000p-8, -0x1.84f4180000000p-4, -0x1.1f4d5a0000000p-4, 0x1.096a420000000p-5, 0x1.18a8080000000p-3, 0x1.0e53f40000000p-4, -0x1.2e43320000000p-3, 0x1.05be420000000p-8, 0x1.f3627a0000000p-6, -0x1.16cf000000000p-3, -0x1.d79ed80000000p-4, 0x1.43370c0000000p-3, -0x1.4bc9ee0000000p-7, 0x1.0aa64e0000000p-4, 0x1.0ebb2c0000000p-5, -0x1.7c5b880000000p-7, 0x1.ec07f60000000p-5, 0x1.0978320000000p-6, -0x1.15d9d20000000p-4, 0x1.28f7680000000p-3, -0x1.75e69a0000000p-5, -0x1.d9a84a0000000p-6, 0x1.8443ea0000000p-3, 0x1.df11ca0000000p-4, 0x1.13cb540000000p-5, -0x1.d4fafc0000000p-5, -0x1.3ee9040000000p-4, 0x1.a96d900000000p-4, -0x1.6e35240000000p-4, 0x1.b1f10e0000000p-9, 0x1.64954e0000000p-4, 0x1.4e733a0000000p-4, 0x1.69ea8c0000000p-4, -0x1.76caac0000000p-5, 0x1.af685c0000000p-6, -0x1.7aaebc0000000p-4, 0x1.0ded2c0000000p-4, 0x1.e0c8020000000p-4, 0x1.eb0a480000000p-4, 0x1.71baf80000000p-4, 0x1.ac0d5a0000000p-9, 0x1.165cbc0000000p-5, 0x1.128ec00000000p-3, 0x1.99960c0000000p-4, 0x1.3791560000000p-7, 0x1.c1e2480000000p-5, -0x1.0b3c7e0000000p-8, -0x1.0190fa0000000p-4, 0x1.c7178c0000000p-5, 0x1.7dc9e40000000p-4, 0x1.3278240000000p-5, -0x1.f29e580000000p-5, 0x1.b8bda20000000p-7, 0x1.a0897e0000000p-4, -0x1.2355bc0000000p-3, 0x1.b79bca0000000p-8}
, {-0x1.e9b1b80000000p-9, -0x1.2b4e120000000p-4, -0x1.08c17c0000000p-2, -0x1.007b2e0000000p-2, -0x1.9d4f600000000p-4, -0x1.ee285a0000000p-5, 0x1.5b0a5e0000000p-4, -0x1.2f64f00000000p-3, 0x1.40416a0000000p-9, -0x1.390c460000000p-2, -0x1.d355160000000p-5, -0x1.46759a0000000p-4, 0x1.d4e2320000000p-4, 0x1.0d02bc0000000p-3, -0x1.075cee0000000p-3, -0x1.08f34c0000000p-4, -0x1.526f540000000p-7, -0x1.2a97d00000000p-5, 0x1.7d385c0000000p-9, 0x1.16a2300000000p-3, 0x1.1b09fe0000000p-6, -0x1.5229860000000p-5, 0x1.6bac020000000p-4, -0x1.a9202a0000000p-8, 0x1.434bd80000000p-5, -0x1.16312c0000000p-3, -0x1.70697e0000000p-4, 0x1.20dc320000000p-5, 0x1.8c43800000000p-4, 0x1.c7f8fa0000000p-4, 0x1.5804160000000p-12, 0x1.e77a0a0000000p-4, 0x1.297c980000000p-5, -0x1.1afe640000000p-6, -0x1.f177fa0000000p-4, -0x1.60f0900000000p-6, -0x1.9376000000000p-4, 0x1.f5c41e0000000p-5, -0x1.d171fa0000000p-4, -0x1.f2bf120000000p-6, 0x1.4d4ace0000000p-4, 0x1.0618340000000p-3, 0x1.5ff6be0000000p-8, -0x1.d18f6c0000000p-5, -0x1.71c6e80000000p-6, 0x1.384a220000000p-4, -0x1.47f60e0000000p-4, 0x1.a71ede0000000p-4, -0x1.0267a60000000p-3, -0x1.e7268e0000000p-4, -0x1.1cae840000000p-4, 0x1.939c640000000p-4, -0x1.c1a4540000000p-7, -0x1.1afe140000000p-5, -0x1.0670540000000p-4, -0x1.67db620000000p-3, 0x1.e854700000000p-4, -0x1.0353760000000p-3, -0x1.e807e80000000p-6, 0x1.6efcba0000000p-5, 0x1.39c7720000000p-6, 0x1.da48540000000p-4, -0x1.d380540000000p-4, -0x1.1a789a0000000p-6}
}
, {{0x1.5038160000000p-4, 0x1.45b3d20000000p-6, 0x1.9b20ec0000000p-5, -0x1.b1b7560000000p-4, -0x1.0428fe0000000p-6, 0x1.be79760000000p-7, -0x1.7ddd3e0000000p-6, 0x1.9f977a0000000p-6, 0x1.5e21dc0000000p-4, 0x1.20fefe0000000p-6, 0x1.42f1ba0000000p-3, 0x1.e9bb860000000p-10, -0x1.cec2900000000p-6, 0x1.790fc20000000p-5, -0x1.41c9920000000p-5, 0x1.84d7e20000000p-6, 0x1.83d0740000000p-6, 0x1.800e600000000p-4, 0x1.90cb120000000p-4, 0x1.2f82ce0000000p-5, 0x1.d60c940000000p-5, 0x1.dfac8e0000000p-6, -0x1.fd7ac60000000p-4, -0x1.72d4a60000000p-4, -0x1.124ef40000000p-6, 0x1.855a3a0000000p-7, -0x1.08d7780000000p-4, -0x1.5cab120000000p-5, -0x1.21eb400000000p-5, 0x1.8067820000000p-5, -0x1.669c7a0000000p-6, -0x1.cb40380000000p-6, 0x1.602f8a0000000p-5, -0x1.d3fb7e0000000p-6, -0x1.e93a240000000p-5, -0x1.9e1dd40000000p-5, -0x1.7bf9a00000000p-5, 0x1.475b820000000p-6, 0x1.62f1f40000000p-7, -0x1.7f02760000000p-6, -0x1.842f9a0000000p-5, 0x1.e93f440000000p-5, -0x1.69314a0000000p-7, -0x1.f1f3e40000000p-5, -0x1.d0bd9c0000000p-7, 0x1.31591c0000000p-3, -0x1.aba9ae0000000p-5, -0x1.8b86a60000000p-5, -0x1.ccf2ec0000000p-8, -0x1.e2c6200000000p-4, 0x1.1e7c2c0000000p-8, -0x1.df184e0000000p-7, -0x1.2161e60000000p-5, -0x1.489eec0000000p-4, 0x1.059b660000000p-8, 0x1.336cb20000000p-5, 0x1.7be15e0000000p-6, 0x1.c7c5620000000p-6, 0x1.265c4c0000000p-6, -0x1.f878da0000000p-7, 0x1.2617640000000p-9, 0x1.359fe00000000p-6, 0x1.7f4a840000000p-6, 0x1.4002540000000p-3}
, {0x1.7f2a1c0000000p-4, -0x1.ecb8e80000000p-5, -0x1.a098920000000p-4, 0x1.382b640000000p-6, 0x1.bfecfe0000000p-4, -0x1.e358f20000000p-5, 0x1.6553ec0000000p-9, -0x1.1fa7660000000p-4, 0x1.c3a6980000000p-7, -0x1.3168d20000000p-4, -0x1.e528500000000p-4, -0x1.76a3620000000p-8, 0x1.fba0820000000p-6, -0x1.1c7d460000000p-3, -0x1.3d99040000000p-5, -0x1.14fc220000000p-4, -0x1.36c4440000000p-3, -0x1.a2fcb80000000p-5, -0x1.1bf2320000000p-4, 0x1.5169ec0000000p-11, -0x1.2559ee0000000p-5, -0x1.1aedee0000000p-5, -0x1.13827e0000000p-6, -0x1.a0ea0e0000000p-7, 0x1.39494e0000000p-4, -0x1.a1c6d20000000p-9, -0x1.1881b00000000p-6, -0x1.3674500000000p-9, 0x1.5f4e500000000p-6, -0x1.356e780000000p-7, 0x1.0f81c60000000p-4, 0x1.f5376a0000000p-6, 0x1.c520e60000000p-4, -0x1.6d55220000000p-7, 0x1.0868dc0000000p-5, -0x1.7462c60000000p-4, -0x1.6b3bf60000000p-5, -0x1.0ac78a0000000p-3, -0x1.8da59e0000000p-5, 0x1.ee56b80000000p-7, -0x1.fa78a40000000p-5, -0x1.0446020000000p-3, 0x1.25a5900000000p-7, -0x1.02624c0000000p-4, 0x1.8bf95e0000000p-4, 0x1.46b0740000000p-5, -0x1.b4e0160000000p-6, -0x1.2a9c900000000p-3, 0x1.04d0b80000000p-7, -0x1.5185960000000p-4, -0x1.1172ce0000000p-4, 0x1.88932c0000000p-6, -0x1.01293e0000000p-7, 0x1.c8ee260000000p-5, -0x1.2f1fea0000000p-11, -0x1.f592b00000000p-4, -0x1.ea5fdc0000000p-3, 0x1.bbc9bc0000000p-6, -0x1.1201840000000p-5, -0x1.0af2560000000p-4, -0x1.020a8a0000000p-4, -0x1.82a1dc0000000p-5, -0x1.0a12a20000000p-6, -0x1.5e88a00000000p-6}
, {0x1.2569180000000p-6, 0x1.7d3af60000000p-4, 0x1.214d2a0000000p-3, 0x1.8432b20000000p-7, 0x1.f19fa00000000p-11, -0x1.d826100000000p-7, 0x1.02f85e0000000p-5, -0x1.0ec9180000000p-6, 0x1.7e36da0000000p-7, 0x1.6f1f360000000p-3, 0x1.2d9a9c0000000p-5, -0x1.eebb7c0000000p-4, -0x1.fc3dd60000000p-8, -0x1.18e3f20000000p-4, -0x1.baa67c0000000p-4, -0x1.0152be0000000p-4, -0x1.067fa60000000p-4, -0x1.5e50e40000000p-4, -0x1.7a49b00000000p-4, -0x1.19b0240000000p-13, -0x1.b77c9c0000000p-6, -0x1.79881c0000000p-4, 0x1.15ed420000000p-4, 0x1.3a860c0000000p-6, 0x1.9cdb540000000p-4, 0x1.f37cfa0000000p-5, 0x1.f1b0ac0000000p-7, 0x1.31d8700000000p-7, 0x1.c676440000000p-6, 0x1.ea4ae40000000p-5, 0x1.29a2ec0000000p-10, 0x1.eae7c20000000p-5, -0x1.dbf3320000000p-6, -0x1.7aad560000000p-3, 0x1.5ed6860000000p-5, -0x1.a45d380000000p-6, 0x1.dbbd2e0000000p-8, -0x1.0b51c40000000p-4, -0x1.d661ce0000000p-6, 0x1.5c29380000000p-4, 0x1.98777c0000000p-4, 0x1.43322e0000000p-5, -0x1.0e60ae0000000p-4, 0x1.7a71760000000p-5, -0x1.9ca54a0000000p-8, -0x1.348a460000000p-4, 0x1.df9ac40000000p-6, -0x1.15b8740000000p-3, -0x1.7fd7a40000000p-6, -0x1.ec7e720000000p-4, -0x1.0658200000000p-5, 0x1.0569700000000p-5, -0x1.9f284c0000000p-4, 0x1.8319800000000p-6, -0x1.228a300000000p-4, 0x1.113bfa0000000p-5, -0x1.7e75fa0000000p-4, -0x1.b980760000000p-5, -0x1.3687940000000p-4, 0x1.215f000000000p-4, 0x1.15429c0000000p-4, 0x1.e023d00000000p-5, -0x1.20050a0000000p-3, -0x1.f9fb8a0000000p-4}
}
, {{0x1.9e9ff60000000p-4, -0x1.0986260000000p-4, -0x1.87cbf80000000p-3, -0x1.75b5ee0000000p-3, 0x1.0efa320000000p-6, 0x1.939b940000000p-5, 0x1.6991ac0000000p-4, -0x1.0d076e0000000p-2, -0x1.c908700000000p-5, -0x1.53ff4c0000000p-4, -0x1.c7ca320000000p-6, -0x1.218ee20000000p-5, -0x1.ad35600000000p-4, 0x1.9df2f00000000p-9, -0x1.9c312e0000000p-7, -0x1.a073700000000p-4, 0x1.7865300000000p-5, -0x1.0a764a0000000p-4, 0x1.8c65220000000p-5, 0x1.616e2e0000000p-4, -0x1.777d080000000p-4, -0x1.309e780000000p-6, 0x1.976e4a0000000p-5, 0x1.8febd60000000p-4, -0x1.3503d20000000p-6, -0x1.1f179a0000000p-4, -0x1.2fcca20000000p-3, 0x1.aca4760000000p-5, 0x1.5820680000000p-4, -0x1.ff11e80000000p-6, 0x1.6f5eb40000000p-5, -0x1.5d26900000000p-8, 0x1.d096e60000000p-7, -0x1.4538ce0000000p-2, -0x1.14cea40000000p-4, 0x1.1d2fd80000000p-5, 0x1.42e4760000000p-6, 0x1.9e65d80000000p-6, 0x1.c382b00000000p-11, -0x1.8ebb7c0000000p-4, 0x1.5c19220000000p-5, 0x1.cf29960000000p-5, 0x1.9ac7400000000p-4, -0x1.d2a1e60000000p-4, -0x1.87a0cc0000000p-5, 0x1.10c5d00000000p-6, -0x1.c705140000000p-5, 0x1.8f25c00000000p-7, 0x1.c9bf0e0000000p-6, 0x1.4b64680000000p-6, -0x1.7694ea0000000p-9, -0x1.07fd620000000p-4, -0x1.1c66fc0000000p-4, 0x1.52b3ec0000000p-6, -0x1.895b8c0000000p-7, -0x1.85a8c80000000p-5, 0x1.aea6ac0000000p-4, 0x1.b10c980000000p-4, -0x1.07f42c0000000p-5, -0x1.de07120000000p-5, 0x1.aefd5a0000000p-5, -0x1.f7335e0000000p-7, -0x1.3e665c0000000p-3, 0x1.b850b40000000p-5}
, {0x1.3771860000000p-4, -0x1.e3d5d20000000p-3, -0x1.a0e9a00000000p-3, -0x1.c07f880000000p-4, -0x1.f0b8f00000000p-8, 0x1.c5e97e0000000p-4, 0x1.22d19a0000000p-4, -0x1.4317500000000p-4, -0x1.4402d40000000p-4, -0x1.05fecc0000000p-3, -0x1.a842fa0000000p-4, -0x1.3aec000000000p-4, 0x1.0ee3640000000p-5, 0x1.841e920000000p-5, -0x1.3f51f80000000p-3, 0x1.213f2a0000000p-6, -0x1.b26c9c0000000p-4, -0x1.cafcf00000000p-3, 0x1.2cc3500000000p-5, 0x1.94e7d00000000p-6, -0x1.215c9e0000000p-4, -0x1.4470f80000000p-8, 0x1.a3cb620000000p-6, 0x1.d5f0be0000000p-4, -0x1.016c4e0000000p-4, -0x1.0c9dc40000000p-3, -0x1.41dd6e0000000p-5, 0x1.a0e72c0000000p-4, -0x1.71acee0000000p-6, -0x1.ef94960000000p-4, 0x1.d37f020000000p-4, 0x1.aaf8540000000p-4, -0x1.5886fa0000000p-7, -0x1.356b8c0000000p-4, -0x1.ae7a840000000p-5, 0x1.111f280000000p-4, -0x1.4036a20000000p-3, -0x1.1a54e60000000p-4, -0x1.3fae220000000p-3, -0x1.cbb2dc0000000p-3, 0x1.b785f60000000p-5, 0x1.66e0260000000p-4, 0x1.0369240000000p-4, -0x1.3fb3d00000000p-4, -0x1.caaf900000000p-4, 0x1.1ab36c0000000p-4, 0x1.0fbdd60000000p-6, 0x1.1db33c0000000p-6, -0x1.3727640000000p-4, -0x1.22f74a0000000p-3, -0x1.57edc80000000p-7, 0x1.478b4a0000000p-5, 0x1.ca7fe00000000p-6, -0x1.5640700000000p-5, 0x1.b423a20000000p-4, -0x1.a437a80000000p-3, 0x1.a7522a0000000p-6, 0x1.98ea740000000p-5, -0x1.231dce0000000p-4, -0x1.8e80bc0000000p-4, -0x1.d7bc360000000p-6, -0x1.e0ad800000000p-6, 0x1.575c060000000p-9, -0x1.c53bd60000000p-5}
, {-0x1.a31c5c0000000p-9, 0x1.a1906a0000000p-5, -0x1.9911a60000000p-5, 0x1.0750940000000p-5, 0x1.c202460000000p-4, 0x1.a894de0000000p-4, -0x1.a55acc0000000p-4, 0x1.2cdae80000000p-5, -0x1.932cd20000000p-4, -0x1.02cdae0000000p-5, 0x1.c61dde0000000p-7, -0x1.30ef5a0000000p-4, -0x1.ea21c80000000p-6, -0x1.1072f00000000p-3, -0x1.741c720000000p-3, 0x1.540cd00000000p-4, -0x1.b7edb60000000p-5, -0x1.0bb0260000000p-3, -0x1.00898a0000000p-3, -0x1.6210a80000000p-4, -0x1.a7422a0000000p-3, 0x1.8c697c0000000p-8, -0x1.aa16720000000p-5, -0x1.d1a94e0000000p-5, -0x1.a21da20000000p-5, -0x1.2983520000000p-2, 0x1.48164a0000000p-5, -0x1.8886920000000p-5, -0x1.1e4eda0000000p-3, -0x1.bbf2300000000p-4, 0x1.7f3d700000000p-4, -0x1.41f1ca0000000p-3, 0x1.8209140000000p-4, 0x1.d142ec0000000p-4, -0x1.fcf1400000000p-5, 0x1.0e74360000000p-5, -0x1.492dc00000000p-4, -0x1.fbcec40000000p-4, -0x1.bd800a0000000p-5, -0x1.24c0000000000p-9, -0x1.b40cf80000000p-5, -0x1.594fb40000000p-3, 0x1.e906680000000p-5, 0x1.c42c740000000p-6, 0x1.e939460000000p-5, 0x1.bd4c8a0000000p-5, -0x1.4969b80000000p-4, -0x1.0ea4ee0000000p-3, -0x1.b3a45e0000000p-4, 0x1.d3814a0000000p-8, -0x1.c8a3f20000000p-3, -0x1.398f080000000p-4, 0x1.a84de20000000p-6, -0x1.54bdac0000000p-4, 0x1.395d100000000p-4, -0x1.f462ca0000000p-5, -0x1.5f57560000000p-4, 0x1.db83660000000p-5, -0x1.2e39220000000p-6, -0x1.e621640000000p-5, -0x1.d07a420000000p-5, -0x1.05cd3e0000000p-5, 0x1.43fafe0000000p-4, -0x1.891d980000000p-3}
}
}
, {{{-0x1.e6ea120000000p-8, -0x1.3600480000000p-3, 0x1.c9d77e0000000p-3, 0x1.4fe4d40000000p-3, -0x1.a59daa0000000p-6, 0x1.3db0e00000000p-4, 0x1.ad44fe0000000p-6, -0x1.5db8420000000p-5, 0x1.c31bfa0000000p-6, 0x1.0bcd420000000p-3, -0x1.5426560000000p-8, -0x1.ee27b80000000p-4, -0x1.f91bd00000000p-3, -0x1.106f020000000p-6, -0x1.0dbd2c0000000p-6, 0x1.942d160000000p-6, -0x1.3f9f940000000p-7, -0x1.09044a0000000p-4, -0x1.6bd49c0000000p-5, -0x1.c8d1640000000p-4, 0x1.5e8ab80000000p-7, -0x1.c9325a0000000p-5, -0x1.7cf1460000000p-4, -0x1.6c3f040000000p-8, 0x1.1a4d560000000p-4, -0x1.ea00480000000p-5, -0x1.b5c3100000000p-12, 0x1.f151c80000000p-5, -0x1.a5f2a40000000p-6, 0x1.39484a0000000p-6, 0x1.a82b240000000p-5, -0x1.a1c6380000000p-8, 0x1.2d2a540000000p-6, 0x1.4670880000000p-9, -0x1.05ee0a0000000p-8, 0x1.f481120000000p-7, 0x1.d75bcc0000000p-10, -0x1.3c6ffc0000000p-4, 0x1.974e9e0000000p-4, -0x1.284e580000000p-3, -0x1.b03f900000000p-5, 0x1.32ccfe0000000p-7, 0x1.c53d4c0000000p-5, 0x1.2088540000000p-5, -0x1.c690060000000p-4, 0x1.e51e700000000p-5, 0x1.be0f5a0000000p-5, -0x1.36cd900000000p-3, -0x1.94156e0000000p-4, -0x1.cf77600000000p-5, -0x1.ca52900000000p-4, -0x1.e053660000000p-4, -0x1.9e1a600000000p-4, -0x1.2fe63c0000000p-5, 0x1.3735820000000p-4, 0x1.0085400000000p-3, -0x1.a1bb7e0000000p-3, 0x1.c048e40000000p-6, -0x1.b6676c0000000p-6, -0x1.87e30a0000000p-6, -0x1.36410e0000000p-4, -0x1.3610460000000p-5, 0x1.13ca6c0000000p-4, 0x1.6d7f6e0000000p-6}
, {-0x1.b1e7500000000p-6, 0x1.0aa2560000000p-3, 0x1.edf4460000000p-4, -0x1.a89e780000000p-4, 0x1.02a7c00000000p-3, -0x1.9bd19a0000000p-7, -0x1.272c020000000p-5, 0x1.22e6140000000p-6, 0x1.1524b80000000p-5, 0x1.6a0e920000000p-6, -0x1.7afdd80000000p-4, 0x1.6fa0300000000p-6, -0x1.b010d20000000p-4, -0x1.5b68e00000000p-6, 0x1.f911220000000p-6, -0x1.89d9a00000000p-5, -0x1.32e3ca0000000p-4, -0x1.3183f20000000p-9, -0x1.a3690e0000000p-4, -0x1.9c9ff80000000p-4, -0x1.d1d7a20000000p-5, 0x1.6277c80000000p-4, -0x1.991b560000000p-3, -0x1.fd03a80000000p-5, -0x1.96bc2e0000000p-4, -0x1.3b41120000000p-11, 0x1.2664780000000p-3, 0x1.9f868e0000000p-4, -0x1.dff5b00000000p-8, 0x1.6351c60000000p-5, 0x1.ee124e0000000p-6, 0x1.73c5d60000000p-6, -0x1.4a374e0000000p-9, 0x1.0f6d800000000p-4, 0x1.4c024a0000000p-4, 0x1.05370e0000000p-5, -0x1.86a49e0000000p-9, 0x1.39b7360000000p-5, 0x1.4f57ca0000000p-5, 0x1.b823680000000p-6, -0x1.4eac980000000p-4, -0x1.214f720000000p-3, -0x1.a2d9d00000000p-3, 0x1.7df9860000000p-4, -0x1.d0960e0000000p-6, 0x1.5c2e120000000p-4, -0x1.d6224a0000000p-8, -0x1.367f680000000p-4, -0x1.f492400000000p-6, -0x1.88c0ae0000000p-4, -0x1.cb72020000000p-5, 0x1.08c1100000000p-10, -0x1.f618700000000p-5, 0x1.bcbb620000000p-4, -0x1.7d80080000000p-6, 0x1.0e6fba0000000p-6, 0x1.4a11440000000p-5, 0x1.3c9fb40000000p-5, -0x1.09ecea0000000p-5, 0x1.59ba020000000p-5, -0x1.804ca80000000p-4, -0x1.4e8ce00000000p-7, -0x1.a6b74c0000000p-4, -0x1.20ca9c0000000p-4}
, {0x1.3d4ef00000000p-5, -0x1.d15fce0000000p-4, -0x1.d926b20000000p-6, 0x1.7544e20000000p-5, 0x1.f6b98e0000000p-4, 0x1.e371280000000p-6, 0x1.b2b6f20000000p-6, 0x1.5955a00000000p-10, -0x1.a39e7e0000000p-6, 0x1.a78ac40000000p-5, 0x1.5afe3a0000000p-4, 0x1.a5e5540000000p-6, 0x1.8aecda0000000p-6, -0x1.d723ec0000000p-6, 0x1.1e9bca0000000p-5, 0x1.961bb20000000p-6, -0x1.1501aa0000000p-6, 0x1.d178480000000p-4, -0x1.8a6daa0000000p-5, -0x1.4bea6a0000000p-5, -0x1.76950e0000000p-5, -0x1.595ef20000000p-6, -0x1.1a56460000000p-4, -0x1.a72b0c0000000p-5, 0x1.aee9c80000000p-4, 0x1.1867160000000p-3, 0x1.ad52540000000p-4, 0x1.cb65120000000p-5, -0x1.cdbd320000000p-6, 0x1.0194700000000p-4, -0x1.b4dd600000000p-7, 0x1.80fa440000000p-5, 0x1.9fc8580000000p-5, 0x1.5151780000000p-4, -0x1.0f753e0000000p-6, 0x1.82d3840000000p-4, 0x1.074c600000000p-5, -0x1.dffef80000000p-5, 0x1.5328620000000p-4, -0x1.0df8b40000000p-5, 0x1.45ce360000000p-4, -0x1.8d8f7c0000000p-6, -0x1.87dc8c0000000p-6, 0x1.ce40fc0000000p-9, 0x1.b712440000000p-4, 0x1.778a620000000p-7, 0x1.c1e9100000000p-7, -0x1.578c960000000p-4, 0x1.2189540000000p-5, 0x1.5cad7c0000000p-5, 0x1.960f320000000p-5, -0x1.aa4af60000000p-8, 0x1.b055780000000p-5, 0x1.ef11f60000000p-4, 0x1.3b9db80000000p-8, -0x1.8a64520000000p-6, -0x1.924b9c0000000p-4, -0x1.8471680000000p-6, -0x1.c94c780000000p-4, 0x1.e08e4e0000000p-6, -0x1.8f02cc0000000p-7, 0x1.06366e0000000p-3, -0x1.b270080000000p-5, -0x1.29471a0000000p-4}
}
, {{0x1.ae3bde0000000p-6, 0x1.83cb640000000p-4, -0x1.6891f00000000p-11, 0x1.58f7f40000000p-6, -0x1.9f86b40000000p-5, -0x1.392e460000000p-3, -0x1.cbffda0000000p-6, -0x1.93db080000000p-4, -0x1.6f67cc0000000p-5, 0x1.51aba20000000p-4, 0x1.1ab7f20000000p-4, 0x1.1f5dfa0000000p-4, 0x1.3b894a0000000p-5, -0x1.7cdd3e0000000p-5, -0x1.1f39160000000p-3, -0x1.e135d40000000p-4, -0x1.5574b20000000p-4, -0x1.7dc4a80000000p-3, -0x1.a2aaee0000000p-5, -0x1.2537b00000000p-4, -0x1.3737f60000000p-4, -0x1.acb5fa0000000p-7, -0x1.64de600000000p-4, -0x1.84f4740000000p-8, 0x1.66d80a0000000p-5, 0x1.b9edcc0000000p-6, -0x1.d197040000000p-3, -0x1.08ce380000000p-3, 0x1.9698d80000000p-7, -0x1.f345b40000000p-6, -0x1.7d32a20000000p-4, -0x1.6a7e8e0000000p-5, -0x1.473d8a0000000p-4, -0x1.c036940000000p-5, -0x1.268cd40000000p-3, 0x1.076be60000000p-8, -0x1.c318800000000p-4, 0x1.ad56ce0000000p-6, -0x1.96f9ee0000000p-7, 0x1.a10c320000000p-4, 0x1.b084d40000000p-8, 0x1.f222940000000p-4, 0x1.735b180000000p-5, -0x1.42c2500000000p-5, -0x1.23adea0000000p-5, -0x1.8407a20000000p-4, -0x1.13e78a0000000p-4, -0x1.80b3960000000p-7, -0x1.9ea76c0000000p-5, -0x1.7ff0700000000p-5, -0x1.47b3d20000000p-4, -0x1.0b339c0000000p-6, -0x1.51be480000000p-7, -0x1.913aa60000000p-3, 0x1.3944c80000000p-11, 0x1.62b2260000000p-10, -0x1.aae0b00000000p-5, -0x1.f845c80000000p-4, 0x1.22f5660000000p-4, 0x1.e3ac8e0000000p-6, -0x1.dd24e20000000p-5, -0x1.a1164e0000000p-5, -0x1.01d4ae0000000p-5, 0x1.c100580000000p-4}
, {-0x1.e6ec600000000p-4, 0x1.639e200000000p-6, 0x1.0b13cc0000000p-3, -0x1.8d4c0c0000000p-5, -0x1.a4de3c0000000p-7, 0x1.5537f00000000p-7, 0x1.253f0e0000000p-6, 0x1.1e6f060000000p-3, -0x1.7d9ae40000000p-7, 0x1.95544a0000000p-4, 0x1.aa84d40000000p-6, 0x1.e2af700000000p-7, -0x1.6b4ad00000000p-3, 0x1.a234760000000p-5, 0x1.8686c00000000p-4, 0x1.d14cbc0000000p-4, 0x1.29b5ce0000000p-4, 0x1.738c620000000p-7, 0x1.16a5a80000000p-5, -0x1.4e86720000000p-5, 0x1.64af060000000p-5, -0x1.f1d6980000000p-5, -0x1.ead7880000000p-6, 0x1.e357640000000p-8, 0x1.a074b20000000p-4, 0x1.fd7c460000000p-6, 0x1.3c83960000000p-3, -0x1.1254700000000p-4, 0x1.294efa0000000p-4, 0x1.98f02e0000000p-4, 0x1.6d6c9a0000000p-4, -0x1.28d4d20000000p-6, -0x1.93c23a0000000p-5, 0x1.471d300000000p-7, 0x1.74bada0000000p-4, -0x1.96b60e0000000p-6, 0x1.011b860000000p-5, -0x1.1c09200000000p-2, 0x1.1865680000000p-3, 0x1.37ea6c0000000p-4, 0x1.44ceec0000000p-6, 0x1.5003860000000p-4, 0x1.af6e180000000p-7, 0x1.a5a2400000000p-3, 0x1.0957b60000000p-7, -0x1.2433760000000p-3, 0x1.6babcc0000000p-5, 0x1.569ce20000000p-5, 0x1.e6896a0000000p-5, -0x1.08a1920000000p-8, 0x1.40ed780000000p-5, -0x1.6847a80000000p-9, 0x1.2974e40000000p-4, 0x1.0e1dfa0000000p-6, -0x1.5da9200000000p-3, 0x1.00b6ee0000000p-5, -0x1.addbda0000000p-5, 0x1.090a060000000p-7, -0x1.f801de0000000p-5, 0x1.2ee0320000000p-4, -0x1.e1fd120000000p-7, -0x1.d477ba0000000p-5, 0x1.6029d00000000p-3, 0x1.b2dbbc0000000p-5}
, {-0x1.053dd00000000p-4, -0x1.7983060000000p-4, 0x1.56bd880000000p-10, 0x1.e129640000000p-6, -0x1.6c9c840000000p-5, -0x1.975d080000000p-7, -0x1.2cd16c0000000p-3, 0x1.4dede60000000p-4, -0x1.5ced260000000p-3, 0x1.5ecb620000000p-6, -0x1.70ed060000000p-7, -0x1.8c7f6e0000000p-4, -0x1.f4646e0000000p-5, 0x1.5115b60000000p-6, 0x1.a6be680000000p-6, 0x1.f4293e0000000p-4, -0x1.04cc9a0000000p-10, -0x1.82bedc0000000p-5, 0x1.8bc2bc0000000p-5, -0x1.3d67e20000000p-4, -0x1.161d520000000p-5, -0x1.02771c0000000p-2, -0x1.672e020000000p-3, -0x1.2430780000000p-3, -0x1.558b260000000p-4, -0x1.e1189c0000000p-4, 0x1.ce9e340000000p-5, -0x1.2a477a0000000p-5, -0x1.b36fa40000000p-4, -0x1.37f9bc0000000p-4, 0x1.f8476e0000000p-7, -0x1.7ef0e40000000p-4, 0x1.9d72fc0000000p-5, 0x1.3295920000000p-4, 0x1.8ccd360000000p-4, 0x1.02078c0000000p-9, 0x1.62e0ca0000000p-5, -0x1.beecf00000000p-3, 0x1.8da7740000000p-6, -0x1.f6e9960000000p-3, -0x1.16d2680000000p-3, -0x1.1fd7840000000p-6, -0x1.10f6d80000000p-4, 0x1.9a82d40000000p-7, -0x1.d633de0000000p-5, -0x1.0baa1c0000000p-3, 0x1.dc89ca0000000p-7, 0x1.28008c0000000p-4, -0x1.15377e0000000p-3, -0x1.7836940000000p-5, 0x1.2890dc0000000p-5, -0x1.aa214c0000000p-4, -0x1.cb26600000000p-3, -0x1.b6cb960000000p-5, 0x1.6a4d4a0000000p-4, -0x1.f045720000000p-4, 0x1.4945de0000000p-5, 0x1.62ff900000000p-8, -0x1.8b504e0000000p-4, 0x1.2def760000000p-3, -0x1.ce69100000000p-3, -0x1.661b9c0000000p-4, 0x1.5c1d400000000p-5, -0x1.0a90760000000p-3}
}
, {{0x1.f7dc740000000p-5, -0x1.5f7a9c0000000p-10, 0x1.2455900000000p-6, 0x1.196b5e0000000p-4, -0x1.3724a60000000p-5, 0x1.0f8bfc0000000p-7, 0x1.008b720000000p-5, -0x1.8763520000000p-6, -0x1.510d3e0000000p-5, -0x1.f5d7be0000000p-6, 0x1.d55e5e0000000p-6, 0x1.7e88840000000p-6, 0x1.4f660a0000000p-5, -0x1.011c6e0000000p-3, -0x1.7904400000000p-4, 0x1.b5625a0000000p-6, -0x1.4ad6260000000p-5, 0x1.74a6240000000p-7, -0x1.3a2bc80000000p-3, 0x1.73a0180000000p-9, -0x1.10fbdc0000000p-5, -0x1.f7523c0000000p-5, -0x1.d043fc0000000p-5, -0x1.de2a920000000p-5, 0x1.07c6b00000000p-3, -0x1.1bc66a0000000p-4, -0x1.cd8e4c0000000p-10, -0x1.6229440000000p-9, 0x1.e3ac720000000p-6, 0x1.4e3a460000000p-7, -0x1.3fcbd20000000p-4, -0x1.007e0e0000000p-6, 0x1.9682ea0000000p-5, 0x1.693aec0000000p-4, -0x1.6cf65a0000000p-4, -0x1.1e526c0000000p-7, -0x1.fa46920000000p-5, -0x1.8c5cfc0000000p-4, 0x1.0e63460000000p-5, 0x1.c8fbca0000000p-5, -0x1.c9d5660000000p-10, -0x1.5777300000000p-4, -0x1.cda56e0000000p-6, -0x1.eecd1a0000000p-5, 0x1.d9a8ea0000000p-5, 0x1.8b9a840000000p-8, -0x1.f13bce0000000p-7, 0x1.745d180000000p-5, -0x1.cdb2740000000p-9, 0x1.558e000000000p-4, -0x1.1197320000000p-4, 0x1.c7d3d80000000p-10, -0x1.f169020000000p-8, -0x1.840f380000000p-12, 0x1.7fd6720000000p-5, 0x1.420a680000000p-4, 0x1.157b220000000p-4, 0x1.6fe3c40000000p-5, -0x1.ee58160000000p-4, -0x1.31a8d20000000p-6, -0x1.d8b82c0000000p-6, 0x1.3ed5740000000p-3, 0x1.76277c0000000p-7, -0x1.581e2c0000000p-9}
, {-0x1.031f5c0000000p-5, -0x1.f40ca20000000p-4, 0x1.9e2b5a0000000p-5, -0x1.57cab60000000p-6, 0x1.c1de600000000p-6, -0x1.dbfd2a0000000p-5, -0x1.1617580000000p-3, 0x1.7fdeb80000000p-4, -0x1.101a340000000p-5, 0x1.4307d20000000p-4, 0x1.606dc00000000p-4, -0x1.648b4a0000000p-4, -0x1.8dc5ba0000000p-3, 0x1.2715320000000p-5, -0x1.3a20fe0000000p-5, 0x1.10a14c0000000p-4, 0x1.47256e0000000p-4, 0x1.4f65cc0000000p-4, 0x1.0db22a0000000p-7, -0x1.af41720000000p-3, 0x1.121a060000000p-5, -0x1.160b680000000p-2, -0x1.62494e0000000p-3, -0x1.61c5d00000000p-3, 0x1.4e3a740000000p-4, 0x1.7e7ab20000000p-4, 0x1.9fcc140000000p-8, -0x1.4468b80000000p-4, -0x1.2416920000000p-5, 0x1.5dae780000000p-4, -0x1.6823fa0000000p-4, -0x1.9a98020000000p-4, 0x1.1796d40000000p-6, -0x1.670c360000000p-4, 0x1.278a2a0000000p-4, -0x1.b9e0e60000000p-4, 0x1.8801c80000000p-6, -0x1.4299060000000p-3, -0x1.c894980000000p-4, 0x1.f6aff60000000p-8, -0x1.c2b99c0000000p-4, -0x1.2cdf200000000p-4, -0x1.cb81ce0000000p-6, 0x1.1addca0000000p-4, 0x1.14ce460000000p-4, -0x1.8186140000000p-4, 0x1.eb47ce0000000p-7, 0x1.f86c5a0000000p-8, -0x1.c4857c0000000p-10, 0x1.07afe80000000p-14, 0x1.4ea2b80000000p-6, -0x1.a139ac0000000p-5, -0x1.1638660000000p-5, -0x1.b946980000000p-5, -0x1.063f100000000p-4, 0x1.53db480000000p-4, -0x1.0638a60000000p-3, -0x1.73dc100000000p-4, -0x1.3c823c0000000p-5, 0x1.758b160000000p-4, -0x1.359c880000000p-3, -0x1.d8cf760000000p-3, 0x1.d84d260000000p-6, 0x1.f1d2b20000000p-7}
, {-0x1.e727f00000000p-5, -0x1.f7e4720000000p-5, -0x1.7af4a00000000p-7, -0x1.6ba4ec0000000p-5, -0x1.5d39100000000p-4, -0x1.11bfe40000000p-6, -0x1.001f540000000p-2, 0x1.368da60000000p-9, -0x1.59e1a80000000p-4, 0x1.7e8b760000000p-7, 0x1.a74ffe0000000p-4, 0x1.2557180000000p-4, -0x1.3dcb740000000p-3, -0x1.0475f00000000p-5, 0x1.ca318c0000000p-7, 0x1.a7fd2e0000000p-7, 0x1.1bda220000000p-5, 0x1.09a72e0000000p-4, 0x1.38c5a20000000p-5, -0x1.61b8aa0000000p-3, -0x1.2c327e0000000p-5, -0x1.b592a20000000p-5, 0x1.c684680000000p-4, -0x1.6fe2fc0000000p-4, 0x1.92f7be0000000p-5, -0x1.6f1bce0000000p-4, -0x1.a6d7480000000p-4, -0x1.a4de6c0000000p-3, -0x1.f7a75c0000000p-4, -0x1.3483e00000000p-6, -0x1.d12ce40000000p-3, -0x1.57934c0000000p-4, -0x1.334db40000000p-5, 0x1.86177a0000000p-6, -0x1.c419aa0000000p-4, -0x1.102c620000000p-3, -0x1.30d3c40000000p-3, -0x1.aec65e0000000p-4, 0x1.7399ec0000000p-8, -0x1.feefae0000000p-5, -0x1.1f65260000000p-3, -0x1.6a39c80000000p-5, -0x1.ac91900000000p-5, 0x1.06d51c0000000p-8, 0x1.da04a60000000p-4, -0x1.d5bae60000000p-4, 0x1.b6c48c0000000p-8, -0x1.3e59a80000000p-5, -0x1.05fcba0000000p-4, 0x1.fc5e6e0000000p-4, 0x1.e2dfd00000000p-8, 0x1.8d827c0000000p-6, -0x1.013db60000000p-3, -0x1.608ae40000000p-3, 0x1.70a8980000000p-5, -0x1.fc60280000000p-5, -0x1.525bd80000000p-4, -0x1.6c5fee0000000p-6, 0x1.e341840000000p-5, -0x1.68e08e0000000p-4, -0x1.9ea4860000000p-4, -0x1.79a9120000000p-4, -0x1.6704520000000p-6, -0x1.9b8ad80000000p-4}
}
}
, {{{0x1.c310060000000p-7, 0x1.81a47a0000000p-8, -0x1.f776940000000p-4, -0x1.2947a00000000p-3, 0x1.cf57da0000000p-4, -0x1.42ab000000000p-4, 0x1.1315b80000000p-6, -0x1.b1d9e20000000p-3, -0x1.4966580000000p-4, -0x1.c634160000000p-5, -0x1.01cdda0000000p-5, 0x1.0f316c0000000p-6, 0x1.4c721a0000000p-4, -0x1.6e99260000000p-9, -0x1.345d280000000p-9, 0x1.c6e4240000000p-6, -0x1.135f740000000p-5, 0x1.1d9e9c0000000p-9, -0x1.fd57780000000p-6, 0x1.55e44e0000000p-7, 0x1.5566660000000p-9, 0x1.ddd5200000000p-5, 0x1.e7dc800000000p-6, 0x1.6865620000000p-4, -0x1.83b81c0000000p-5, -0x1.b2c3ac0000000p-5, -0x1.47ae200000000p-3, 0x1.43fbfa0000000p-6, -0x1.6ce0780000000p-5, 0x1.db05ba0000000p-5, 0x1.7b6c3a0000000p-4, -0x1.7d5a7a0000000p-5, -0x1.98632a0000000p-5, -0x1.553c6c0000000p-4, -0x1.0040ee0000000p-3, 0x1.dd90a60000000p-5, -0x1.95dd8c0000000p-5, 0x1.f3d3ca0000000p-5, -0x1.5492fc0000000p-5, -0x1.9191120000000p-5, 0x1.0b695c0000000p-5, -0x1.1c45640000000p-7, 0x1.27af060000000p-3, -0x1.37498a0000000p-3, -0x1.4259520000000p-6, 0x1.01f0860000000p-4, -0x1.84446c0000000p-6, -0x1.7f22f60000000p-4, 0x1.c4e0e40000000p-5, -0x1.e2fe3e0000000p-5, 0x1.080d660000000p-4, 0x1.4d656c0000000p-5, 0x1.555e760000000p-5, -0x1.e3d8dc0000000p-5, -0x1.9814340000000p-7, -0x1.26c3940000000p-4, 0x1.6e4a200000000p-5, 0x1.5a228a0000000p-4, 0x1.c063220000000p-5, -0x1.86566c0000000p-4, 0x1.f07c1a0000000p-6, 0x1.ffceb40000000p-4, -0x1.7f43ee0000000p-3, 0x1.a015fc0000000p-6}
, {0x1.f8a5d60000000p-4, -0x1.6c5e600000000p-6, -0x1.271f360000000p-3, 0x1.4319a40000000p-3, -0x1.5f73f20000000p-6, 0x1.8e6a520000000p-4, 0x1.c67ada0000000p-5, 0x1.dac6760000000p-4, -0x1.1065a40000000p-6, -0x1.2b5fe60000000p-4, -0x1.d5d0140000000p-7, -0x1.8d9dd40000000p-6, 0x1.1d31420000000p-3, 0x1.6f0a620000000p-6, 0x1.5debfc0000000p-7, 0x1.0282180000000p-3, 0x1.bd7cba0000000p-4, 0x1.f8ade60000000p-5, 0x1.d362580000000p-4, 0x1.c8b5ec0000000p-4, 0x1.68d0ec0000000p-3, -0x1.26ffa80000000p-6, -0x1.2bfb780000000p-4, 0x1.f338aa0000000p-6, 0x1.20d69a0000000p-4, -0x1.2cd8840000000p-6, 0x1.b47acc0000000p-3, 0x1.f2d1140000000p-4, 0x1.1c66f40000000p-3, 0x1.9d9c520000000p-5, 0x1.17a2ba0000000p-3, 0x1.f729cc0000000p-6, 0x1.1d38dc0000000p-3, 0x1.524d300000000p-6, 0x1.cc036a0000000p-4, 0x1.6603880000000p-4, 0x1.3c19520000000p-3, 0x1.64868a0000000p-5, -0x1.e4b44c0000000p-7, 0x1.d008c00000000p-6, -0x1.466ad00000000p-4, 0x1.b77d940000000p-5, 0x1.4f2bb40000000p-4, 0x1.1538520000000p-3, 0x1.935d8a0000000p-4, 0x1.6d7e8e0000000p-3, 0x1.894b980000000p-7, 0x1.52f52a0000000p-6, 0x1.1cb89e0000000p-5, -0x1.00aa8e0000000p-5, 0x1.3bc8560000000p-3, -0x1.0a27a60000000p-4, -0x1.27a0160000000p-5, 0x1.31e7200000000p-5, 0x1.7b48780000000p-4, -0x1.7405960000000p-3, 0x1.52a3180000000p-12, 0x1.73d9d60000000p-8, -0x1.92ef6a0000000p-4, 0x1.d20d360000000p-4, -0x1.eda1820000000p-6, -0x1.b5a9e20000000p-4, 0x1.453ef20000000p-3, -0x1.f6b4220000000p-5}
, {0x1.adecb60000000p-5, -0x1.fb635e0000000p-3, -0x1.0db1360000000p-5, 0x1.ecd37e0000000p-7, -0x1.70c86c0000000p-3, -0x1.23336e0000000p-7, -0x1.d346f00000000p-6, -0x1.6590f40000000p-6, -0x1.0d4d540000000p-4, -0x1.8ad39a0000000p-5, -0x1.df57000000000p-3, -0x1.642b8e0000000p-3, -0x1.8a64020000000p-3, -0x1.f9d44e0000000p-5, 0x1.0899700000000p-6, -0x1.6181600000000p-6, 0x1.9632040000000p-4, 0x1.ee06b00000000p-5, -0x1.0839b00000000p-5, -0x1.2d0a5e0000000p-4, 0x1.21abf80000000p-5, -0x1.88f97a0000000p-3, -0x1.b94e4e0000000p-6, -0x1.2e3b7c0000000p-3, -0x1.528aca0000000p-3, 0x1.8a96600000000p-4, 0x1.1761ac0000000p-5, -0x1.7d19e80000000p-4, -0x1.686dce0000000p-4, -0x1.edc9800000000p-5, -0x1.2a77180000000p-4, -0x1.40b6980000000p-4, 0x1.1633d80000000p-4, 0x1.348dba0000000p-4, -0x1.89be7e0000000p-7, -0x1.86b38e0000000p-7, 0x1.67e0ba0000000p-5, 0x1.f737900000000p-8, -0x1.b48fde0000000p-3, -0x1.67492c0000000p-3, -0x1.8bb4cc0000000p-4, 0x1.dda8f80000000p-4, -0x1.c274700000000p-5, -0x1.ff00d00000000p-5, -0x1.d5b0660000000p-3, -0x1.762bc00000000p-5, -0x1.7ee5600000000p-4, -0x1.d8118a0000000p-7, 0x1.f89fd00000000p-5, -0x1.641ecc0000000p-2, 0x1.0ef3cc0000000p-6, -0x1.571e620000000p-3, -0x1.b7d75c0000000p-4, -0x1.2691740000000p-7, 0x1.2a8a6a0000000p-5, -0x1.a49ab20000000p-4, -0x1.ff87d00000000p-3, -0x1.ad1da00000000p-5, -0x1.0f90f20000000p-3, -0x1.dbc5920000000p-7, -0x1.3f5ce00000000p-4, -0x1.b03a380000000p-3, -0x1.d7e8660000000p-8, -0x1.edcf5e0000000p-5}
}
, {{-0x1.fe76800000000p-6, 0x1.95a43a0000000p-4, -0x1.48c9d20000000p-4, -0x1.4e57580000000p-7, -0x1.8b929c0000000p-4, 0x1.5ad9ca0000000p-4, 0x1.972f8e0000000p-4, -0x1.a3263c0000000p-6, 0x1.3facb80000000p-6, -0x1.a9a7bc0000000p-7, 0x1.0d9df40000000p-4, -0x1.ffcd420000000p-6, 0x1.116fe00000000p-3, -0x1.4b4efe0000000p-7, 0x1.ea25e20000000p-11, -0x1.c8ea860000000p-5, 0x1.882f760000000p-6, 0x1.e6e90c0000000p-8, 0x1.f552c40000000p-5, -0x1.cd7d4e0000000p-6, -0x1.428ff40000000p-5, 0x1.69af900000000p-4, -0x1.1f5c320000000p-5, 0x1.1693100000000p-7, 0x1.0dcbb80000000p-5, 0x1.d0a51e0000000p-5, 0x1.333ea80000000p-3, 0x1.2c2fb80000000p-10, 0x1.9f1dfa0000000p-6, 0x1.9ac4b40000000p-7, 0x1.0812d00000000p-5, -0x1.a274700000000p-5, -0x1.74dabe0000000p-4, 0x1.d43b880000000p-6, -0x1.43e07a0000000p-4, 0x1.b5f5e00000000p-4, 0x1.b96a3c0000000p-4, -0x1.4bbf460000000p-7, 0x1.b55d220000000p-5, 0x1.4d54ba0000000p-5, -0x1.6295820000000p-6, 0x1.e4e3ec0000000p-6, -0x1.2f4a440000000p-6, 0x1.47cf040000000p-3, 0x1.27d1be0000000p-5, -0x1.24e8720000000p-10, -0x1.7953480000000p-5, 0x1.2a589c0000000p-5, 0x1.c215b80000000p-4, -0x1.68d75e0000000p-6, -0x1.dd58f20000000p-6, 0x1.afc6e40000000p-5, -0x1.e6bc8a0000000p-9, -0x1.fda6f20000000p-5, 0x1.578d360000000p-6, 0x1.9c98520000000p-8, -0x1.4860920000000p-5, 0x1.a2dcde0000000p-5, -0x1.f277b60000000p-4, 0x1.8f7cd00000000p-3, -0x1.0b48e80000000p-4, 0x1.7d92080000000p-4, -0x1.1670500000000p-4, 0x1.39f5460000000p-4}
, {-0x1.94b62a0000000p-5, 0x1.03d6ce0000000p-6, 0x1.625ab00000000p-2, 0x1.44633e0000000p-3, -0x1.f6686c0000000p-6, 0x1.d416700000000p-5, -0x1.c5fa300000000p-4, 0x1.3dd1500000000p-4, 0x1.02d4b40000000p-3, 0x1.d923320000000p-6, -0x1.1f61740000000p-6, -0x1.891f660000000p-4, -0x1.6e669a0000000p-3, 0x1.4dda640000000p-7, 0x1.6a84ba0000000p-5, 0x1.d41ba40000000p-5, -0x1.99c1b40000000p-10, -0x1.a879c40000000p-6, -0x1.ce4a8a0000000p-5, -0x1.6e1e8e0000000p-3, 0x1.966f560000000p-6, -0x1.a4b51e0000000p-4, -0x1.2187220000000p-3, -0x1.619dc20000000p-5, -0x1.da93460000000p-3, -0x1.8a33f60000000p-7, 0x1.327cd00000000p-4, 0x1.2796840000000p-5, 0x1.89744e0000000p-5, 0x1.c168420000000p-9, -0x1.23a3b60000000p-8, -0x1.333e6a0000000p-4, -0x1.3b070a0000000p-3, -0x1.338a920000000p-4, -0x1.1471240000000p-6, -0x1.d698400000000p-4, 0x1.489f900000000p-4, 0x1.842b440000000p-4, -0x1.c999de0000000p-4, -0x1.0074520000000p-3, 0x1.7e0b720000000p-5, -0x1.63b6fc0000000p-3, 0x1.089c880000000p-4, 0x1.5c7c880000000p-4, -0x1.5bb7180000000p-3, -0x1.9101620000000p-3, 0x1.213ff60000000p-7, 0x1.2c39640000000p-5, 0x1.92d4200000000p-4, -0x1.f01a860000000p-6, 0x1.53df5a0000000p-4, -0x1.b874fc0000000p-5, -0x1.aa360e0000000p-4, 0x1.48bec40000000p-7, -0x1.f25bde0000000p-5, -0x1.00fc340000000p-5, -0x1.32130a0000000p-3, -0x1.330d760000000p-4, -0x1.e42b060000000p-4, -0x1.076c900000000p-5, -0x1.9db0720000000p-5, -0x1.75b48c0000000p-3, -0x1.15bae00000000p-5, 0x1.7cf46c0000000p-4}
, {-0x1.491adc0000000p-3, -0x1.b5a9400000000p-3, 0x1.37f9ac0000000p-5, 0x1.52b0bc0000000p-6, -0x1.7631300000000p-2, 0x1.b128ac0000000p-4, -0x1.05f5360000000p-3, -0x1.9f9f3e0000000p-4, -0x1.e746200000000p-6, 0x1.92c4b40000000p-6, 0x1.b092f60000000p-3, -0x1.577b5e0000000p-3, -0x1.f7e3960000000p-3, -0x1.d223300000000p-8, 0x1.ca72000000000p-7, -0x1.cddbce0000000p-7, -0x1.5643960000000p-6, 0x1.2c2fa00000000p-3, -0x1.4512ca0000000p-7, 0x1.a29dd20000000p-10, -0x1.80cbb20000000p-3, -0x1.b4475c0000000p-4, -0x1.e4d2620000000p-3, -0x1.03906e0000000p-4, -0x1.961bcc0000000p-4, -0x1.38b6e60000000p-4, -0x1.5301bc0000000p-6, -0x1.4b8a1e0000000p-4, -0x1.7494660000000p-3, -0x1.959dca0000000p-4, -0x1.9c63180000000p-7, -0x1.9195560000000p-3, 0x1.5a27b40000000p-6, -0x1.9ffcde0000000p-4, -0x1.263baa0000000p-6, -0x1.a25aa20000000p-7, -0x1.e572f80000000p-5, -0x1.69c64c0000000p-4, -0x1.dd452e0000000p-6, -0x1.2825c80000000p-2, -0x1.c2076a0000000p-3, -0x1.d531600000000p-3, -0x1.d0a2de0000000p-8, 0x1.d3d1360000000p-6, -0x1.3ba4a60000000p-4, -0x1.7fd3f40000000p-3, 0x1.d007980000000p-9, 0x1.ead46c0000000p-7, -0x1.1e1f320000000p-4, 0x1.9b09f00000000p-5, -0x1.2ab8b00000000p-3, -0x1.eb28720000000p-4, -0x1.fcf6f80000000p-3, -0x1.1aa5a60000000p-3, 0x1.84697e0000000p-7, 0x1.b3204a0000000p-8, -0x1.7788020000000p-4, 0x1.1995da0000000p-5, -0x1.084b2c0000000p-4, -0x1.a932000000000p-5, -0x1.c273600000000p-4, -0x1.f62bb60000000p-3, 0x1.0e05c00000000p-6, -0x1.5511460000000p-5}
}
, {{0x1.2de80c0000000p-4, 0x1.0023060000000p-4, 0x1.a9f3a00000000p-4, 0x1.67611a0000000p-4, 0x1.ee84780000000p-4, 0x1.f5d6be0000000p-4, 0x1.dc5df60000000p-4, 0x1.5558140000000p-4, 0x1.8148180000000p-4, 0x1.4333480000000p-5, 0x1.a6475a0000000p-9, -0x1.6a6b2e0000000p-3, -0x1.1d312c0000000p-3, 0x1.172dee0000000p-4, 0x1.109a740000000p-4, 0x1.05026a0000000p-3, 0x1.de26d40000000p-4, 0x1.007e340000000p-5, 0x1.7fd24e0000000p-4, -0x1.12a8920000000p-10, 0x1.fc79280000000p-7, -0x1.3d0ade0000000p-5, -0x1.b2367c0000000p-3, -0x1.24c67c0000000p-8, 0x1.e56aac0000000p-4, 0x1.74c0ca0000000p-4, 0x1.8d67d00000000p-3, 0x1.2acc4e0000000p-6, 0x1.5c4a120000000p-3, 0x1.7d8ef20000000p-5, -0x1.13d6f20000000p-4, -0x1.02bb660000000p-7, -0x1.f627b00000000p-5, -0x1.aa5c560000000p-5, 0x1.19e2580000000p-4, 0x1.fa3eb60000000p-7, 0x1.085e580000000p-3, -0x1.9617960000000p-4, 0x1.256e860000000p-4, 0x1.901d740000000p-6, -0x1.0611400000000p-4, 0x1.23046a0000000p-3, 0x1.6142b80000000p-5, 0x1.02b9fe0000000p-3, -0x1.9810860000000p-5, 0x1.27663a0000000p-5, 0x1.216b3e0000000p-3, -0x1.3706000000000p-3, 0x1.5ad25c0000000p-4, -0x1.7b119e0000000p-5, -0x1.13ecc60000000p-5, -0x1.f411de0000000p-4, 0x1.3da5d80000000p-6, 0x1.f3cc180000000p-4, 0x1.39c7160000000p-5, 0x1.c979800000000p-4, -0x1.b6817e0000000p-3, 0x1.ea95600000000p-4, -0x1.bd735e0000000p-3, 0x1.40ae360000000p-3, 0x1.3f7ee20000000p-5, -0x1.12cdf60000000p-3, 0x1.7cedf80000000p-5, 0x1.c03cf20000000p-3}
, {0x1.2fa5dc0000000p-3, -0x1.2806660000000p-5, 0x1.e85a100000000p-6, 0x1.016cd00000000p-8, -0x1.5c4ee00000000p-3, 0x1.54b47e0000000p-7, -0x1.24087a0000000p-3, -0x1.9201a20000000p-4, -0x1.a349ce0000000p-4, 0x1.54cd7a0000000p-4, -0x1.2c2d3c0000000p-3, -0x1.42da060000000p-4, 0x1.e0501e0000000p-5, -0x1.9154800000000p-5, -0x1.440d9a0000000p-6, 0x1.58813e0000000p-4, 0x1.47135a0000000p-6, -0x1.3e5d9a0000000p-3, -0x1.4ce0140000000p-3, -0x1.a256000000000p-4, -0x1.56b40e0000000p-6, -0x1.3971ee0000000p-3, -0x1.1c7f060000000p-4, 0x1.36dd2c0000000p-6, -0x1.3911760000000p-4, -0x1.49d4320000000p-2, -0x1.f2ca0e0000000p-5, -0x1.d396920000000p-5, -0x1.2437ba0000000p-3, -0x1.49ea980000000p-3, -0x1.76ef3a0000000p-4, -0x1.101dfe0000000p-3, 0x1.08013e0000000p-3, 0x1.b4e62e0000000p-3, 0x1.2b7a960000000p-5, -0x1.2d25800000000p-4, -0x1.a883660000000p-4, -0x1.4a1a4c0000000p-6, -0x1.ad54200000000p-11, -0x1.69d0340000000p-4, -0x1.653b800000000p-3, -0x1.b4b3cc0000000p-6, 0x1.c1ff500000000p-4, 0x1.0632800000000p-6, -0x1.f2d6ec0000000p-3, 0x1.ade09a0000000p-4, 0x1.32d0f00000000p-8, 0x1.51a4660000000p-8, -0x1.e4217a0000000p-4, -0x1.fd5dfa0000000p-3, -0x1.7bfd300000000p-6, -0x1.8183aa0000000p-10, -0x1.28b2fe0000000p-4, -0x1.0e7ae80000000p-2, 0x1.2f15640000000p-3, -0x1.ff69d80000000p-4, -0x1.ccedcc0000000p-7, 0x1.a67d760000000p-5, 0x1.62d6140000000p-5, -0x1.6c45a00000000p-7, -0x1.c05aa80000000p-4, -0x1.737bd20000000p-8, 0x1.0876ce0000000p-4, -0x1.68c8fa0000000p-5}
, {0x1.93a0740000000p-4, 0x1.153c900000000p-6, -0x1.c32d840000000p-8, -0x1.5e3da80000000p-3, -0x1.b3f4c00000000p-4, -0x1.b9fc3c0000000p-3, -0x1.6bddec0000000p-5, -0x1.18359a0000000p-4, -0x1.c1ceda0000000p-5, -0x1.3c24480000000p-7, 0x1.39de980000000p-5, -0x1.a0719e0000000p-5, -0x1.6afd6e0000000p-4, -0x1.2b7aa80000000p-4, 0x1.4fa0c00000000p-5, -0x1.16112c0000000p-3, -0x1.75aac80000000p-4, -0x1.ad58920000000p-4, -0x1.8a84140000000p-9, -0x1.bc83420000000p-4, 0x1.36972c0000000p-6, 0x1.01ffaa0000000p-3, -0x1.8408440000000p-4, -0x1.3956ae0000000p-3, 0x1.41decc0000000p-4, -0x1.5f8c680000000p-3, -0x1.e784180000000p-3, -0x1.5610860000000p-5, -0x1.aca6180000000p-4, -0x1.0eef780000000p-3, -0x1.28b87a0000000p-3, -0x1.147f500000000p-2, 0x1.5875880000000p-6, 0x1.2bdf520000000p-5, -0x1.30d5080000000p-4, -0x1.ddda4c0000000p-6, -0x1.947fbc0000000p-3, 0x1.3d2b3e0000000p-4, 0x1.89d0ce0000000p-4, -0x1.4435f00000000p-4, -0x1.5207040000000p-3, -0x1.274da20000000p-6, 0x1.5748fa0000000p-4, -0x1.c409ca0000000p-3, 0x1.230d920000000p-5, -0x1.1bacb00000000p-5, -0x1.5c62260000000p-3, -0x1.2616d20000000p-2, -0x1.29f0440000000p-4, -0x1.787e0a0000000p-4, 0x1.f563900000000p-8, -0x1.3d9cf40000000p-6, -0x1.b4d85c0000000p-4, -0x1.67702c0000000p-3, 0x1.51cd740000000p-10, -0x1.1daeb60000000p-7, -0x1.c7c30a0000000p-4, -0x1.6208740000000p-3, 0x1.68b89c0000000p-4, -0x1.9d3a580000000p-3, 0x1.c87dbc0000000p-6, -0x1.47cc3c0000000p-3, -0x1.9004f60000000p-4, -0x1.bd150e0000000p-5}
}
}
, {{{-0x1.8094f00000000p-7, -0x1.4ec1f80000000p-4, -0x1.21b8680000000p-3, -0x1.8a6e900000000p-5, -0x1.1221e40000000p-8, 0x1.395ff60000000p-5, 0x1.2ca51c0000000p-9, -0x1.09f0440000000p-8, 0x1.ef73ce0000000p-9, -0x1.1a98360000000p-3, -0x1.4a79140000000p-9, -0x1.18800c0000000p-9, -0x1.9fb5a80000000p-5, 0x1.3e2e180000000p-9, -0x1.e2ee9a0000000p-4, 0x1.debb7c0000000p-8, 0x1.ca02d00000000p-5, -0x1.9bd2a60000000p-4, -0x1.fd4e720000000p-5, 0x1.f5f0dc0000000p-6, -0x1.a455ec0000000p-4, -0x1.5105c80000000p-4, -0x1.a0c3e40000000p-7, -0x1.847e000000000p-5, 0x1.0af0e20000000p-3, -0x1.c32c5a0000000p-5, -0x1.8798900000000p-4, -0x1.4210ec0000000p-7, -0x1.28846e0000000p-5, -0x1.74c7ee0000000p-7, -0x1.a15a0e0000000p-7, 0x1.83a6900000000p-5, 0x1.319c8a0000000p-4, -0x1.48a7120000000p-6, 0x1.e2013a0000000p-9, 0x1.57b4ec0000000p-5, -0x1.fd6e900000000p-5, -0x1.51b37c0000000p-5, 0x1.001bd60000000p-4, -0x1.c638180000000p-5, 0x1.94da1c0000000p-5, 0x1.0d9efc0000000p-6, 0x1.752f6e0000000p-5, -0x1.9150540000000p-4, 0x1.3f31c00000000p-4, -0x1.7b43f00000000p-6, -0x1.d394540000000p-7, -0x1.2586280000000p-5, -0x1.50f1540000000p-5, 0x1.fd5f500000000p-4, -0x1.1c4b4a0000000p-4, 0x1.2348480000000p-8, 0x1.c35bba0000000p-7, 0x1.0b7f980000000p-4, -0x1.0f4aca0000000p-4, -0x1.960df80000000p-5, 0x1.5b05460000000p-5, -0x1.d8248c0000000p-8, -0x1.8070be0000000p-4, -0x1.5188f40000000p-7, -0x1.161a620000000p-5, 0x1.83c10c0000000p-8, -0x1.db3e680000000p-5, -0x1.dfcfde0000000p-6}
, {-0x1.0a8b0e0000000p-4, -0x1.26470a0000000p-3, -0x1.0303a20000000p-8, -0x1.85f7d00000000p-5, 0x1.c5e7660000000p-5, -0x1.b5dea80000000p-4, -0x1.65c4420000000p-4, -0x1.e9232a0000000p-5, -0x1.7150420000000p-5, -0x1.37430c0000000p-5, -0x1.2813640000000p-3, -0x1.0d78820000000p-5, -0x1.ee8a200000000p-4, 0x1.7a72220000000p-5, 0x1.8a2e100000000p-7, -0x1.6022a20000000p-3, -0x1.1b400c0000000p-4, 0x1.f0535e0000000p-6, 0x1.3263e40000000p-6, -0x1.43e2260000000p-4, 0x1.9d33260000000p-6, -0x1.54e0420000000p-3, -0x1.0921100000000p-4, -0x1.67a1020000000p-3, 0x1.64ced60000000p-6, -0x1.b91e7e0000000p-5, -0x1.2d88dc0000000p-5, -0x1.f79d560000000p-4, 0x1.08f69e0000000p-6, -0x1.4a5ec00000000p-4, -0x1.5b3ea60000000p-4, -0x1.848d260000000p-4, -0x1.ad14680000000p-4, -0x1.960ee60000000p-4, 0x1.115dd60000000p-4, -0x1.6c61ee0000000p-4, -0x1.0b3cd40000000p-8, -0x1.906b400000000p-4, -0x1.21bb220000000p-3, 0x1.8601580000000p-5, -0x1.44bfd60000000p-5, 0x1.9b1e720000000p-9, 0x1.cc826c0000000p-5, -0x1.e9b46c0000000p-3, -0x1.49774a0000000p-4, -0x1.84b72e0000000p-4, -0x1.64bbba0000000p-3, -0x1.e1f3a60000000p-4, -0x1.605a1c0000000p-4, 0x1.5583320000000p-6, -0x1.8201de0000000p-9, -0x1.1c63e40000000p-4, -0x1.0a6fb80000000p-4, -0x1.cc7b580000000p-10, -0x1.506b740000000p-5, 0x1.29e39a0000000p-9, -0x1.e473a60000000p-5, -0x1.0efb7c0000000p-3, -0x1.8d977c0000000p-5, -0x1.5fba6c0000000p-6, -0x1.032d580000000p-3, -0x1.90a5000000000p-5, -0x1.54c6980000000p-5, 0x1.96ad900000000p-9}
, {-0x1.4d8a0e0000000p-3, -0x1.2a736e0000000p-9, 0x1.f8ec800000000p-4, 0x1.44662e0000000p-3, 0x1.302f4a0000000p-4, -0x1.f7ea080000000p-8, -0x1.f9e9aa0000000p-6, 0x1.4e587c0000000p-5, -0x1.64b4d80000000p-5, 0x1.4fc78a0000000p-6, 0x1.194d360000000p-3, -0x1.3a39520000000p-5, -0x1.168bfe0000000p-3, -0x1.717a0c0000000p-10, 0x1.33b04c0000000p-4, 0x1.99d2240000000p-4, 0x1.1a5a6c0000000p-5, 0x1.17ffd80000000p-6, 0x1.06cfe40000000p-4, -0x1.5a5ad00000000p-7, 0x1.2876c00000000p-7, -0x1.0f96e40000000p-3, -0x1.028f520000000p-4, -0x1.e579760000000p-4, -0x1.da69f80000000p-5, 0x1.0c99ae0000000p-4, 0x1.704b060000000p-4, -0x1.e0da4c0000000p-6, -0x1.f9a3fe0000000p-6, -0x1.1d22ca0000000p-4, -0x1.f8be680000000p-5, -0x1.07f54e0000000p-3, 0x1.b779d80000000p-7, -0x1.eb85940000000p-6, 0x1.5e437e0000000p-4, -0x1.347eca0000000p-4, -0x1.4829a60000000p-5, -0x1.05330c0000000p-3, -0x1.08609a0000000p-4, 0x1.335f860000000p-5, -0x1.bf4dfa0000000p-4, -0x1.aa14740000000p-8, -0x1.ab6ba60000000p-4, 0x1.724fec0000000p-5, -0x1.a061200000000p-5, -0x1.5dc3580000000p-7, 0x1.d050820000000p-6, 0x1.4e27ba0000000p-5, 0x1.30064c0000000p-4, -0x1.f43b260000000p-6, -0x1.2c8e160000000p-4, -0x1.68373e0000000p-6, -0x1.cc652e0000000p-6, -0x1.5dd4be0000000p-7, -0x1.24aed40000000p-3, 0x1.cbe2760000000p-7, 0x1.0114b00000000p-4, 0x1.89963e0000000p-6, -0x1.f35be80000000p-5, 0x1.bac3460000000p-5, -0x1.8df7f60000000p-5, -0x1.54607c0000000p-3, 0x1.d107880000000p-5, -0x1.617f580000000p-8}
}
