/**
  ******************************************************************************
  * @file    weights/conv2d.cc
  * @author  Pierre-Emmanuel Novac <penovac@unice.fr>, LEAT, CNRS, Université Côte d'Azur, France
  * @version V2.0
  * @date    24 march 2020
  * @brief   Template generating plain C code for the implementation of Convolutional Neural Networks on MCU
  */

#include <stdint.h>

#define INPUT_CHANNELS     8
#define CONV_FILTERS       16
#define CONV_KERNEL_SIZE_Y 3
#define CONV_KERNEL_SIZE_X 3
#define CONV_GROUPS        1


const float conv2d_142_bias[CONV_FILTERS] = {0x1.1382e60000000p-3, 0x1.38528a0000000p-7, 0x1.4651cc0000000p-11, -0x1.0c9c860000000p-3, -0x1.10bcf60000000p-7, -0x1.25b1220000000p-9, 0x1.25be000000000p-8, -0x1.2e2ed00000000p-3, -0x1.3344520000000p-3, -0x1.4e99cc0000000p-7, 0x1.02f6d20000000p-8, -0x1.4541900000000p-4, -0x1.ae803a0000000p-5, -0x1.92f4700000000p-3, 0x1.447ef80000000p-8, -0x1.bbdd260000000p-9}
;


const float conv2d_142_kernel[CONV_FILTERS][CONV_KERNEL_SIZE_Y][CONV_KERNEL_SIZE_X][INPUT_CHANNELS / CONV_GROUPS] = {{{{-0x1.b3d7200000000p-8, 0x1.421a7e0000000p-4, -0x1.5edd5c0000000p-6, 0x1.b4e7260000000p-3, 0x1.8d19600000000p-3, 0x1.17e6cc0000000p-4, 0x1.4983380000000p-3, 0x1.62af600000000p-2}
, {-0x1.35fd460000000p-2, -0x1.46e7ca0000000p-1, -0x1.584e8e0000000p-2, -0x1.7094de0000000p-3, -0x1.8392b80000000p-2, -0x1.6cd2d80000000p-3, -0x1.f4322a0000000p-3, 0x1.4274100000000p-4}
, {-0x1.21d5ae0000000p-1, -0x1.28f3260000000p-7, 0x1.57dee00000000p-4, -0x1.5f06be0000000p-2, -0x1.9853c20000000p-4, 0x1.61ac8e0000000p-6, 0x1.655ff20000000p-4, -0x1.2aebb20000000p-1}
}
, {{-0x1.f3d47e0000000p-3, -0x1.08e26e0000000p-4, -0x1.0bc07c0000000p-2, 0x1.c991700000000p-3, 0x1.08f99c0000000p-2, 0x1.157f9c0000000p-4, 0x1.8215620000000p-5, 0x1.d6a6480000000p-3}
, {-0x1.8f0fa40000000p-1, -0x1.e5b5ee0000000p-3, 0x1.5f0b7a0000000p-8, -0x1.98cc800000000p-1, -0x1.14c23c0000000p-1, -0x1.4aa1800000000p-3, -0x1.c83d6a0000000p-2, 0x1.3d376a0000000p-4}
, {-0x1.a5a86a0000000p-2, 0x1.9186800000000p-3, 0x1.5d6b6c0000000p-2, 0x1.7de3fc0000000p-4, 0x1.3d8ec00000000p-3, 0x1.066e9a0000000p-2, 0x1.5de2b60000000p-3, -0x1.7f9eea0000000p-3}
}
, {{-0x1.6c82b80000000p-2, -0x1.0d159e0000000p-1, -0x1.c5c2c20000000p-2, -0x1.8c3ef60000000p-7, -0x1.33e41e0000000p-2, -0x1.7399980000000p-3, -0x1.29eaf40000000p-2, 0x1.b76fbe0000000p-5}
, {-0x1.93c71a0000000p-1, -0x1.48a5720000000p-3, -0x1.d6e6020000000p-6, -0x1.83024e0000000p-2, -0x1.a9c1980000000p-3, -0x1.e35fb20000000p-4, -0x1.f8fde60000000p-4, -0x1.00ca5a0000000p-1}
, {-0x1.791c4a0000000p-3, 0x1.b69d820000000p-3, 0x1.16a1720000000p-2, 0x1.bf44ea0000000p-5, 0x1.a01b540000000p-3, 0x1.de63320000000p-3, 0x1.37849a0000000p-3, 0x1.4514c60000000p-2}
}
}
, {{{0x1.02e3d00000000p-2, -0x1.1cf0c60000000p-2, -0x1.cf85ee0000000p-2, -0x1.1c4eaa0000000p-1, -0x1.bcd16c0000000p-2, -0x1.31d6b20000000p-1, -0x1.8482960000000p-2, -0x1.71f6240000000p-2}
, {0x1.684b580000000p-3, -0x1.fee1a60000000p-2, -0x1.f1c8d60000000p-2, -0x1.46003a0000000p-1, -0x1.37ccca0000000p-2, -0x1.3b10f40000000p-1, -0x1.0906be0000000p-2, -0x1.dcc4940000000p-2}
, {0x1.c66e780000000p-3, -0x1.6f01300000000p-2, -0x1.00b9220000000p-2, -0x1.da56800000000p-2, -0x1.8d7fa80000000p-2, -0x1.54c0740000000p-2, -0x1.7b44420000000p-2, -0x1.c7d0040000000p-2}
}
, {{-0x1.3e52ba0000000p-2, -0x1.5dfd200000000p-5, -0x1.1c87b60000000p-9, 0x1.e1c0b40000000p-11, -0x1.0de7ce0000000p-5, -0x1.28a8960000000p-5, -0x1.9bac100000000p-4, -0x1.6de0120000000p-5}
, {-0x1.4e2f760000000p-7, 0x1.858b500000000p-4, -0x1.93b7c00000000p-10, 0x1.2c20420000000p-3, 0x1.8a3f500000000p-5, 0x1.7df4480000000p-5, 0x1.2b692a0000000p-4, -0x1.31ab320000000p-3}
, {-0x1.b015680000000p-5, 0x1.2f39000000000p-3, 0x1.b88efe0000000p-9, 0x1.a74cf60000000p-6, 0x1.517aa80000000p-4, 0x1.238b720000000p-5, 0x1.cc5ca40000000p-4, -0x1.be901a0000000p-3}
}
, {{0x1.c08f9a0000000p-3, 0x1.88bfa60000000p-3, 0x1.19d2e00000000p-4, 0x1.dc87ee0000000p-3, 0x1.f39e5a0000000p-3, 0x1.3cd7f20000000p-4, 0x1.0827c00000000p-3, 0x1.47c1ca0000000p-2}
, {0x1.c223260000000p-2, 0x1.fb89f00000000p-3, 0x1.3bc3d80000000p-3, 0x1.c9de140000000p-5, 0x1.d42d1a0000000p-3, 0x1.74d3bc0000000p-4, 0x1.b3114e0000000p-3, 0x1.bc40f00000000p-4}
, {0x1.be31ee0000000p-2, 0x1.60ad9a0000000p-5, 0x1.eb4dee0000000p-4, 0x1.69ba840000000p-4, 0x1.7acad60000000p-4, 0x1.2cc5500000000p-3, 0x1.626f760000000p-3, 0x1.0bdf440000000p-5}
}
}
, {{{-0x1.2cc8c60000000p-3, 0x1.54e9e80000000p-3, 0x1.e7d7560000000p-3, 0x1.23c8160000000p-4, 0x1.07827c0000000p-3, 0x1.0be9480000000p-3, 0x1.596d480000000p-4, 0x1.ab2b220000000p-4}
, {-0x1.d569620000000p-4, 0x1.0fa05e0000000p-5, -0x1.413f5a0000000p-3, 0x1.21da680000000p-3, 0x1.320b7a0000000p-4, 0x1.32fbd20000000p-6, 0x1.d3e6040000000p-6, 0x1.3226c60000000p-2}
, {-0x1.62b6560000000p-3, -0x1.1985260000000p-1, -0x1.bcf8400000000p-4, -0x1.692a700000000p-3, -0x1.f850080000000p-3, -0x1.0af6a00000000p-2, -0x1.2104a80000000p-2, -0x1.48aa200000000p-6}
}
, {{-0x1.fa03720000000p-3, 0x1.9170e60000000p-3, 0x1.31b6b60000000p-3, 0x1.23f9000000000p-3, 0x1.1e2baa0000000p-3, 0x1.127fbe0000000p-3, 0x1.20c2a80000000p-3, 0x1.9595be0000000p-3}
, {-0x1.992cc20000000p-2, 0x1.3cab5a0000000p-4, -0x1.e12f160000000p-5, 0x1.78dddc0000000p-3, 0x1.d5ddc40000000p-4, 0x1.7169560000000p-4, -0x1.1e1c340000000p-6, 0x1.1bc22c0000000p-2}
, {-0x1.9d6c140000000p-2, -0x1.b46cec0000000p-2, -0x1.0267da0000000p-2, -0x1.3448180000000p-2, -0x1.d3746e0000000p-2, -0x1.dec8f40000000p-3, -0x1.72c1b20000000p-3, -0x1.3e9c300000000p-3}
}
, {{-0x1.ff72ce0000000p-4, 0x1.2ca61a0000000p-3, 0x1.bdc0680000000p-5, 0x1.ca1ba60000000p-3, 0x1.a81b0e0000000p-4, 0x1.b49ea20000000p-5, 0x1.145a820000000p-3, 0x1.0807da0000000p-4}
, {-0x1.0bd6ba0000000p-1, -0x1.65c7ea0000000p-2, -0x1.3bde280000000p-2, -0x1.a3081a0000000p-5, -0x1.70c4720000000p-3, -0x1.ae6c000000000p-3, -0x1.6217a60000000p-3, 0x1.6245c20000000p-3}
, {-0x1.23dda60000000p-1, -0x1.da01b00000000p-5, 0x1.404ca80000000p-3, -0x1.2169c40000000p-1, -0x1.5f3f1c0000000p-2, -0x1.85ea4c0000000p-8, -0x1.120d540000000p-2, -0x1.d375c20000000p-2}
}
}
, {{{0x1.eb9a180000000p-5, 0x1.f859c40000000p-5, 0x1.2744000000000p-6, -0x1.980cb60000000p-5, 0x1.ecf3080000000p-6, -0x1.ef56e80000000p-4, -0x1.0bc9560000000p-4, -0x1.03f98a0000000p-1}
, {-0x1.de2b120000000p-3, 0x1.8ac3e20000000p-4, 0x1.d1fb700000000p-4, -0x1.6a6f320000000p-6, 0x1.ba756e0000000p-4, 0x1.363e440000000p-4, -0x1.05993e0000000p-8, -0x1.4771900000000p-5}
, {-0x1.f0750e0000000p-3, 0x1.fb21740000000p-11, -0x1.e4a50e0000000p-7, 0x1.cdd7a20000000p-6, 0x1.6aaa360000000p-5, 0x1.2b84800000000p-7, 0x1.6790fe0000000p-4, -0x1.754d3c0000000p-4}
}
, {{-0x1.4b278e0000000p-4, 0x1.ac12fe0000000p-4, 0x1.db96a60000000p-5, 0x1.803e660000000p-4, -0x1.c1cb7e0000000p-7, 0x1.b0c4f00000000p-6, -0x1.b771c80000000p-9, -0x1.866d280000000p-2}
, {-0x1.e15d780000000p-3, 0x1.3a7c720000000p-10, 0x1.488f320000000p-3, 0x1.3cf83e0000000p-3, 0x1.1704960000000p-3, 0x1.4c47580000000p-3, 0x1.7cb26a0000000p-4, -0x1.3e66100000000p-3}
, {-0x1.21a2040000000p-2, -0x1.51ffaa0000000p-5, -0x1.0a42d60000000p-6, 0x1.51d9080000000p-4, 0x1.32dd520000000p-4, 0x1.6680a00000000p-5, 0x1.6187640000000p-5, -0x1.8b452e0000000p-6}
}
, {{-0x1.b270ba0000000p-4, -0x1.e9c8ce0000000p-7, 0x1.9d35540000000p-6, 0x1.6061120000000p-10, -0x1.a1ff400000000p-6, 0x1.a987360000000p-5, -0x1.2133660000000p-5, -0x1.ef95ae0000000p-3}
, {-0x1.77be7e0000000p-3, 0x1.5b42420000000p-4, 0x1.0e6a500000000p-4, 0x1.81d5d80000000p-4, 0x1.80c4040000000p-5, 0x1.d74b840000000p-7, 0x1.d97e020000000p-6, -0x1.5bdaae0000000p-3}
, {-0x1.0e1dd40000000p-4, -0x1.8451200000000p-9, 0x1.163e580000000p-4, -0x1.94c3160000000p-6, -0x1.f0ceec0000000p-9, -0x1.8bf2c60000000p-5, 0x1.9d1c900000000p-5, 0x1.57c0280000000p-4}
}
}
, {{{-0x1.423dc20000000p-2, -0x1.25f9ec0000000p-8, -0x1.6db0f00000000p-3, -0x1.840dfc0000000p-4, -0x1.9b4f360000000p-5, -0x1.8c508c0000000p-3, -0x1.3c3d2a0000000p-7, -0x1.1181d60000000p-4}
, {-0x1.0d28300000000p-2, 0x1.930e060000000p-4, -0x1.43bdee0000000p-2, -0x1.6e58b40000000p-4, 0x1.4c65580000000p-6, -0x1.021a8e0000000p-4, 0x1.a1bdda0000000p-4, -0x1.0105680000000p-4}
, {-0x1.cb539e0000000p-3, 0x1.d3741a0000000p-4, -0x1.66c0dc0000000p-4, -0x1.03d8f20000000p-4, 0x1.e6240c0000000p-4, 0x1.2cd0100000000p-9, 0x1.1005580000000p-3, -0x1.8659140000000p-2}
}
, {{0x1.c66f000000000p-2, 0x1.714e120000000p-4, 0x1.7b59540000000p-3, 0x1.326d600000000p-3, 0x1.9e3d200000000p-3, 0x1.edcb9a0000000p-3, 0x1.153fb40000000p-3, -0x1.1425de0000000p-7}
, {0x1.9a221c0000000p-1, 0x1.913b760000000p-3, 0x1.d39e840000000p-3, 0x1.6cee3c0000000p-3, 0x1.597c4c0000000p-3, 0x1.29b4600000000p-4, 0x1.0b9ca80000000p-3, -0x1.476eb20000000p-3}
, {0x1.10b4a00000000p-1, 0x1.8e725a0000000p-4, 0x1.7e88a80000000p-3, 0x1.6e25d40000000p-3, 0x1.4efb540000000p-7, 0x1.56169a0000000p-4, 0x1.dbaea40000000p-4, -0x1.79a3d20000000p-4}
}
, {{0x1.ef95440000000p-3, -0x1.0c6d580000000p-2, 0x1.767bce0000000p-8, -0x1.8e50100000000p-4, -0x1.6014420000000p-3, -0x1.af93740000000p-3, -0x1.a160f40000000p-3, -0x1.72ccd00000000p-5}
, {0x1.00187a0000000p-1, -0x1.2effa00000000p-2, -0x1.820b1c0000000p-5, -0x1.a74c020000000p-3, -0x1.71c61c0000000p-2, -0x1.becf600000000p-3, -0x1.18ae2a0000000p-2, -0x1.43a6140000000p-2}
, {0x1.1390ac0000000p-2, -0x1.50f1100000000p-3, 0x1.0bbacc0000000p-8, -0x1.fac28e0000000p-4, -0x1.d56e000000000p-3, -0x1.9a80ea0000000p-4, -0x1.97b1d60000000p-3, -0x1.ae392a0000000p-3}
}
}
, {{{-0x1.18dafa0000000p-5, -0x1.ed5b780000000p-2, -0x1.ac35b40000000p-3, -0x1.fe105e0000000p-4, -0x1.699f300000000p-2, -0x1.1263fa0000000p-2, -0x1.7cce780000000p-2, 0x1.2cc3880000000p-3}
, {-0x1.7e666a0000000p-2, -0x1.064de40000000p-4, 0x1.29ad1a0000000p-4, -0x1.e4b15c0000000p-3, -0x1.6462ee0000000p-4, 0x1.a560400000000p-5, -0x1.83029e0000000p-7, -0x1.2565740000000p-2}
, {-0x1.31c1b60000000p-1, 0x1.f2760e0000000p-4, 0x1.258e1a0000000p-4, 0x1.4a31ec0000000p-3, 0x1.07f2ca0000000p-3, 0x1.2c60380000000p-3, 0x1.d4f0980000000p-4, 0x1.bb40060000000p-4}
}
, {{-0x1.27f99c0000000p-2, -0x1.092bc40000000p-1, -0x1.1de67e0000000p-2, -0x1.0908700000000p-1, -0x1.1c5f900000000p-1, -0x1.f7e3520000000p-3, -0x1.a43b1a0000000p-2, 0x1.8b25d00000000p-4}
, {-0x1.7e52e20000000p-1, 0x1.3de9bc0000000p-3, 0x1.041cd40000000p-4, -0x1.c7e2440000000p-4, -0x1.39f6580000000p-5, 0x1.51a97c0000000p-4, 0x1.a691460000000p-7, -0x1.1fa1e60000000p-1}
, {-0x1.9bc4b40000000p-1, 0x1.755cf80000000p-3, 0x1.ad71960000000p-3, 0x1.a402b00000000p-3, 0x1.4d85860000000p-3, 0x1.8b8e800000000p-3, 0x1.8a6d780000000p-3, 0x1.43b90e0000000p-2}
}
, {{-0x1.7acbcc0000000p-1, -0x1.0e00700000000p-3, -0x1.d11cda0000000p-4, -0x1.f2198a0000000p-2, -0x1.5fd5e00000000p-2, -0x1.c8561c0000000p-3, -0x1.d528480000000p-3, -0x1.bab6440000000p-3}
, {-0x1.0dd4960000000p-1, 0x1.34512a0000000p-4, 0x1.df0da80000000p-4, -0x1.1a866e0000000p-7, 0x1.7184040000000p-5, 0x1.e511620000000p-4, 0x1.58cea80000000p-4, 0x1.83829e0000000p-2}
, {-0x1.63b9ce0000000p-2, -0x1.4bdc6a0000000p-5, 0x1.6f91ec0000000p-4, 0x1.f1bf920000000p-4, 0x1.5e076e0000000p-4, 0x1.d862b40000000p-6, -0x1.928ebe0000000p-5, 0x1.6f55720000000p-2}
}
}
, {{{-0x1.96e4e20000000p-3, 0x1.1a5ed00000000p-3, 0x1.5846460000000p-4, 0x1.2d44760000000p-6, -0x1.27d54a0000000p-9, 0x1.6a05560000000p-4, 0x1.d9ff240000000p-7, 0x1.2a1a880000000p-4}
, {0x1.50bb5c0000000p-4, -0x1.550f540000000p-4, 0x1.215f700000000p-3, -0x1.21dd200000000p-8, 0x1.384d200000000p-3, 0x1.abef560000000p-4, 0x1.04180c0000000p-4, 0x1.1dd9da0000000p-4}
, {0x1.ae4e3c0000000p-6, -0x1.e7b1320000000p-3, -0x1.6f0ac40000000p-5, -0x1.223ece0000000p-5, -0x1.fb55540000000p-4, -0x1.847a240000000p-6, -0x1.c8eff60000000p-5, 0x1.0c691a0000000p-4}
}
, {{-0x1.73525e0000000p-2, 0x1.5f32700000000p-4, 0x1.016c140000000p-4, 0x1.d72ffe0000000p-4, 0x1.6c41060000000p-4, 0x1.9f9b660000000p-4, 0x1.da93de0000000p-5, 0x1.12175a0000000p-3}
, {-0x1.0d9ed80000000p-1, -0x1.0a97ec0000000p-4, -0x1.19e7600000000p-3, 0x1.d273360000000p-4, 0x1.5322ea0000000p-5, 0x1.1eeee00000000p-8, 0x1.49d5fa0000000p-5, 0x1.f3b3bc0000000p-6}
, {-0x1.c7725a0000000p-3, -0x1.19c39c0000000p-1, -0x1.3b5d5e0000000p-2, -0x1.d8b3480000000p-3, -0x1.13913a0000000p-2, -0x1.36d7140000000p-2, -0x1.705de20000000p-2, -0x1.1986500000000p-5}
}
, {{-0x1.a2a5da0000000p-3, -0x1.4ef7b40000000p-9, 0x1.cfea180000000p-4, 0x1.3657c60000000p-8, 0x1.839fe60000000p-7, 0x1.1547f40000000p-3, -0x1.d4ed640000000p-5, 0x1.4f9f880000000p-10}
, {-0x1.213a200000000p-2, 0x1.b22e560000000p-3, -0x1.b281520000000p-4, 0x1.a7be180000000p-4, 0x1.4e044e0000000p-3, 0x1.5406da0000000p-4, 0x1.644eca0000000p-3, 0x1.e10b1e0000000p-5}
, {-0x1.99c0300000000p-2, -0x1.b118ba0000000p-5, -0x1.eaf8a00000000p-3, -0x1.d6999e0000000p-5, 0x1.a7440e0000000p-5, -0x1.dac94c0000000p-4, 0x1.096b180000000p-4, 0x1.d0bb220000000p-3}
}
}
, {{{-0x1.b3e70a0000000p-4, -0x1.4190b00000000p-5, 0x1.56261a0000000p-7, -0x1.368d320000000p-5, -0x1.432a700000000p-7, -0x1.6eaee40000000p-4, 0x1.400ff40000000p-9, 0x1.1ef2920000000p-2}
, {-0x1.f0c51e0000000p-3, 0x1.48be380000000p-5, 0x1.6959900000000p-4, 0x1.8d67280000000p-5, -0x1.fae6ce0000000p-5, 0x1.3f0ef80000000p-6, -0x1.132d5c0000000p-4, 0x1.6b6fd00000000p-2}
, {0x1.0480560000000p-4, -0x1.0e9d600000000p-2, -0x1.31d9ce0000000p-5, 0x1.f2ad180000000p-7, -0x1.889e0a0000000p-6, -0x1.f0ca7a0000000p-5, -0x1.f8c2900000000p-4, 0x1.f85ae40000000p-4}
}
, {{-0x1.974f4e0000000p-3, 0x1.4f426c0000000p-3, 0x1.d3b34c0000000p-4, 0x1.15e7940000000p-3, 0x1.0c7f280000000p-4, 0x1.5bbe360000000p-3, 0x1.c7929e0000000p-4, 0x1.c3b5740000000p-3}
, {-0x1.0f8e640000000p-1, 0x1.8236400000000p-3, -0x1.18bb9e0000000p-5, 0x1.da24fe0000000p-5, 0x1.b9ad460000000p-6, 0x1.20ebee0000000p-4, 0x1.5234780000000p-3, 0x1.c76e000000000p-2}
, {-0x1.99f97c0000000p-2, -0x1.7c05420000000p-3, -0x1.b532ba0000000p-2, -0x1.00745c0000000p-5, 0x1.6df0960000000p-6, -0x1.6f715c0000000p-3, 0x1.08a07c0000000p-6, 0x1.95fbe80000000p-2}
}
, {{-0x1.080d180000000p-3, 0x1.52aaa00000000p-6, 0x1.ef7abe0000000p-11, 0x1.97c7380000000p-4, 0x1.d1ffce0000000p-6, -0x1.0138780000000p-5, -0x1.923f020000000p-5, -0x1.132fc00000000p-4}
, {0x1.b80b5c0000000p-4, 0x1.d656260000000p-5, 0x1.67b8d80000000p-3, -0x1.3fd2ac0000000p-5, 0x1.a609620000000p-7, 0x1.0f4c7c0000000p-6, 0x1.0a2e700000000p-9, -0x1.ba9f600000000p-8}
, {-0x1.80fe900000000p-4, 0x1.0fdb020000000p-4, -0x1.2a624e0000000p-5, 0x1.78d5f60000000p-5, 0x1.5a76ae0000000p-4, 0x1.abf5ca0000000p-5, 0x1.0c98d40000000p-3, -0x1.d4cf6a0000000p-5}
}
}
, {{{-0x1.ab22000000000p-4, 0x1.0b15860000000p-4, 0x1.a4980c0000000p-4, -0x1.1730b80000000p-4, 0x1.722ac60000000p-5, 0x1.1590dc0000000p-3, -0x1.0639240000000p-5, -0x1.0b0dca0000000p-4}
, {-0x1.3eb5900000000p-1, 0x1.71df700000000p-4, -0x1.7e5c2e0000000p-7, 0x1.78931a0000000p-6, 0x1.3ca4460000000p-3, 0x1.061efa0000000p-3, 0x1.3acf4a0000000p-5, 0x1.fb18ae0000000p-4}
, {-0x1.7dec240000000p-4, -0x1.d846580000000p-5, -0x1.b5f0e20000000p-5, 0x1.be7b3e0000000p-8, 0x1.c5687c0000000p-4, -0x1.357a8c0000000p-4, -0x1.76e39c0000000p-5, 0x1.f2f5cc0000000p-7}
}
, {{-0x1.c447980000000p-3, -0x1.d3e40e0000000p-4, 0x1.715ecc0000000p-4, -0x1.428b860000000p-2, -0x1.a4f4160000000p-3, -0x1.625b780000000p-6, -0x1.295d960000000p-3, -0x1.4397580000000p-1}
, {-0x1.705b060000000p-1, 0x1.76df060000000p-3, 0x1.8dd02e0000000p-3, 0x1.68f0ba0000000p-3, 0x1.94f84c0000000p-3, 0x1.1dfb240000000p-3, 0x1.8457360000000p-3, 0x1.ac6bc40000000p-2}
, {-0x1.fae84c0000000p-3, -0x1.6635900000000p-3, -0x1.1d27bc0000000p-2, -0x1.15a2f40000000p-4, -0x1.e988260000000p-4, -0x1.468f360000000p-3, -0x1.f426c20000000p-4, 0x1.dc21440000000p-2}
}
, {{-0x1.aeede80000000p-2, -0x1.0e8b0c0000000p-4, -0x1.0483e40000000p-4, -0x1.2c36b20000000p-2, -0x1.1d2ad00000000p-2, -0x1.65cf660000000p-5, -0x1.e643680000000p-4, -0x1.9cbf980000000p-2}
, {-0x1.139af40000000p-1, 0x1.a455b20000000p-4, 0x1.5cde880000000p-3, 0x1.6f1cf00000000p-4, 0x1.459c700000000p-3, 0x1.7877bc0000000p-4, 0x1.023b3c0000000p-3, 0x1.da4d3c0000000p-2}
, {-0x1.b4d1ba0000000p-2, -0x1.9622c60000000p-4, -0x1.baacb20000000p-3, 0x1.e1eb960000000p-7, 0x1.6e52c20000000p-6, -0x1.11f9d60000000p-3, -0x1.11a1200000000p-5, 0x1.1772e60000000p-2}
}
}
, {{{0x1.58a41e0000000p-4, -0x1.428ce60000000p-2, 0x1.afaec00000000p-5, -0x1.e24c6a0000000p-4, -0x1.39af600000000p-2, -0x1.062d600000000p-3, -0x1.b860720000000p-3, -0x1.9c3f500000000p-3}
, {-0x1.f9d1340000000p-4, 0x1.92d2480000000p-3, 0x1.5292240000000p-6, 0x1.3223220000000p-6, 0x1.b432a00000000p-4, -0x1.8f29300000000p-6, 0x1.2642ce0000000p-3, 0x1.1e83680000000p-3}
, {-0x1.433e3c0000000p-3, 0x1.d9212a0000000p-5, 0x1.86239c0000000p-11, -0x1.eaf9c80000000p-5, 0x1.6d640a0000000p-8, 0x1.1c1d480000000p-4, 0x1.4009300000000p-6, 0x1.3cb68c0000000p-4}
}
, {{-0x1.65470c0000000p-4, -0x1.c2a60a0000000p-4, -0x1.d9e5100000000p-4, -0x1.23b2c20000000p-1, -0x1.9efa8e0000000p-2, -0x1.4e55380000000p-3, -0x1.300e380000000p-2, -0x1.4590800000000p-1}
, {-0x1.7974dc0000000p-3, 0x1.ce17d00000000p-3, 0x1.dadf6e0000000p-4, 0x1.d60d440000000p-3, 0x1.7afc9c0000000p-3, 0x1.4d0a060000000p-3, 0x1.e3d38a0000000p-4, 0x1.1b47880000000p-2}
, {0x1.34f70a0000000p-3, 0x1.812aa80000000p-4, 0x1.06204e0000000p-3, 0x1.cc08960000000p-4, 0x1.0ae2fa0000000p-3, 0x1.b223aa0000000p-4, -0x1.c6880e0000000p-6, 0x1.48b8e80000000p-3}
}
, {{-0x1.81b6a60000000p-2, -0x1.416af20000000p-6, -0x1.0f817a0000000p-4, -0x1.02f2900000000p-6, 0x1.af466a0000000p-5, -0x1.9261600000000p-5, -0x1.d1ec6a0000000p-6, -0x1.2264100000000p-2}
, {-0x1.3b510e0000000p-4, -0x1.266f280000000p-5, -0x1.76cd340000000p-4, 0x1.448b460000000p-5, -0x1.a49bc60000000p-6, 0x1.099f7a0000000p-4, 0x1.8464440000000p-7, 0x1.a6ab2a0000000p-2}
, {0x1.a4b5ac0000000p-5, -0x1.29db900000000p-5, -0x1.0b4e3e0000000p-4, 0x1.76e08e0000000p-6, -0x1.4bf8ec0000000p-4, 0x1.37e3a40000000p-7, -0x1.2d16d40000000p-7, 0x1.06dbac0000000p-3}
}
}
, {{{0x1.7d6cf20000000p-2, 0x1.54ab520000000p-3, 0x1.9834920000000p-4, 0x1.ca54fe0000000p-3, 0x1.2648680000000p-3, 0x1.71b37c0000000p-3, 0x1.6a66960000000p-3, 0x1.cd454e0000000p-3}
, {0x1.0839120000000p-1, 0x1.d5f7600000000p-3, 0x1.445d4c0000000p-3, 0x1.58aae40000000p-3, 0x1.27f6200000000p-3, 0x1.bee6260000000p-4, 0x1.e93d800000000p-4, -0x1.04ae5e0000000p-4}
, {0x1.25fece0000000p-1, 0x1.0eb2d00000000p-2, 0x1.51507e0000000p-2, 0x1.6436fc0000000p-3, 0x1.7ebc8e0000000p-3, 0x1.2464180000000p-3, 0x1.e17a4a0000000p-4, -0x1.0a8ab80000000p-3}
}
, {{0x1.806cfa0000000p-3, -0x1.c81d820000000p-3, 0x1.1628de0000000p-3, -0x1.cf567a0000000p-5, -0x1.11815e0000000p-3, -0x1.221d9e0000000p-3, -0x1.33b9f40000000p-3, -0x1.107b6c0000000p-4}
, {0x1.074d640000000p-2, 0x1.627db00000000p-5, 0x1.35de340000000p-5, 0x1.f9e8820000000p-5, -0x1.121bda0000000p-5, 0x1.013e060000000p-4, -0x1.bd74040000000p-7, -0x1.038f4e0000000p-2}
, {0x1.c4efbc0000000p-2, -0x1.28ef460000000p-4, 0x1.0cf2a00000000p-6, 0x1.4606ba0000000p-5, -0x1.60b8ec0000000p-5, 0x1.3051dc0000000p-5, -0x1.32a9500000000p-7, -0x1.a1d2fc0000000p-4}
}
, {{-0x1.340b140000000p-5, -0x1.f454800000000p-2, -0x1.899baa0000000p-2, -0x1.0922da0000000p-1, -0x1.5be72c0000000p-2, -0x1.0b294e0000000p-1, -0x1.fb4c960000000p-3, -0x1.5e33f00000000p-2}
, {0x1.6594740000000p-3, -0x1.4fc7000000000p-2, -0x1.74b2cc0000000p-2, -0x1.6d1bfc0000000p-1, -0x1.c420f40000000p-2, -0x1.cc342a0000000p-2, -0x1.3c95d00000000p-2, -0x1.62c2660000000p-2}
, {-0x1.f7412a0000000p-4, -0x1.f264640000000p-3, -0x1.41d0940000000p-2, -0x1.f6ab000000000p-2, -0x1.1b132e0000000p-2, -0x1.45c3b60000000p-2, -0x1.00f4bc0000000p-2, -0x1.0603a60000000p-2}
}
}
, {{{0x1.052fd60000000p-3, 0x1.1a19160000000p-4, 0x1.aa0e700000000p-6, 0x1.0d20640000000p-6, 0x1.6c7f2c0000000p-8, 0x1.4c578e0000000p-3, 0x1.c679d20000000p-4, 0x1.539a0e0000000p-6}
, {0x1.0bf83e0000000p-3, 0x1.d0ef800000000p-4, 0x1.23f62c0000000p-4, 0x1.cc70500000000p-4, 0x1.59933a0000000p-3, 0x1.c546ec0000000p-4, 0x1.354fd40000000p-3, 0x1.8f57ea0000000p-5}
, {-0x1.8f2bca0000000p-4, 0x1.6839500000000p-4, -0x1.10c96a0000000p-4, 0x1.ce78c20000000p-5, 0x1.21b5fc0000000p-5, 0x1.f0ba5c0000000p-5, 0x1.5094c40000000p-8, 0x1.82ce420000000p-4}
}
, {{0x1.51fb680000000p-6, -0x1.69751a0000000p-4, 0x1.e6b1a20000000p-5, -0x1.95b5c80000000p-3, -0x1.8296a60000000p-3, -0x1.927c440000000p-10, -0x1.8b8b3a0000000p-3, -0x1.4126860000000p-2}
, {0x1.44f34c0000000p-3, 0x1.ffdc480000000p-4, 0x1.27801c0000000p-4, -0x1.65f06c0000000p-6, -0x1.abff680000000p-5, 0x1.7120f40000000p-4, 0x1.0655c20000000p-4, -0x1.d1ab2a0000000p-5}
, {-0x1.8f0c8c0000000p-7, 0x1.051a1a0000000p-3, 0x1.cde1140000000p-4, 0x1.2e540c0000000p-3, 0x1.40ef540000000p-3, 0x1.cd547a0000000p-5, 0x1.c1092e0000000p-3, 0x1.1ea64c0000000p-2}
}
, {{0x1.b9e4700000000p-4, -0x1.08962a0000000p-1, -0x1.1695900000000p-2, -0x1.19a4880000000p-1, -0x1.1a6da20000000p-1, -0x1.9e439e0000000p-2, -0x1.1ce83e0000000p-1, -0x1.cf2ba20000000p-2}
, {0x1.e8ccb80000000p-2, -0x1.21690c0000000p-2, 0x1.51835e0000000p-4, -0x1.0d9fd60000000p-2, -0x1.329f760000000p-2, -0x1.14d5c80000000p-4, -0x1.97db200000000p-2, -0x1.71ab6a0000000p-1}
, {0x1.722e2a0000000p-4, 0x1.80ddda0000000p-7, 0x1.55be620000000p-3, 0x1.ecb7ac0000000p-6, -0x1.7f60360000000p-6, 0x1.0ff11a0000000p-4, -0x1.c407020000000p-8, -0x1.245f9e0000000p-7}
}
}
, {{{0x1.d7ea0a0000000p-5, 0x1.f7ffb80000000p-8, 0x1.5b5bce0000000p-8, 0x1.c80fea0000000p-8, 0x1.bb3d9e0000000p-6, -0x1.1a79a60000000p-5, 0x1.c788060000000p-5, 0x1.ad05c20000000p-4}
, {-0x1.a216200000000p-8, -0x1.9206b60000000p-4, -0x1.02d1640000000p-2, -0x1.f493ca0000000p-4, 0x1.85570a0000000p-7, -0x1.992e2c0000000p-3, 0x1.0acbd20000000p-7, 0x1.f214fc0000000p-5}
, {0x1.845ff20000000p-3, -0x1.289eaa0000000p-5, -0x1.d86ede0000000p-5, -0x1.9ff65a0000000p-5, -0x1.750a2a0000000p-6, -0x1.402d5a0000000p-4, -0x1.eb6f620000000p-5, -0x1.f1e1c20000000p-4}
}
, {{0x1.a862e40000000p-3, 0x1.402a660000000p-3, -0x1.8181a40000000p-7, -0x1.9c29820000000p-5, 0x1.570af80000000p-6, 0x1.21e2840000000p-4, 0x1.a0fe260000000p-4, -0x1.f15c640000000p-3}
, {0x1.1b68420000000p-2, 0x1.1b07d40000000p-3, 0x1.0c8a640000000p-3, 0x1.92e7f40000000p-3, 0x1.d5ddb40000000p-4, 0x1.10d2ec0000000p-5, 0x1.fcf2200000000p-4, 0x1.02ec500000000p-3}
, {0x1.268d0a0000000p-2, 0x1.3528860000000p-4, 0x1.c49ae80000000p-6, 0x1.44174a0000000p-6, 0x1.ea41820000000p-10, 0x1.f6643e0000000p-5, 0x1.1699ec0000000p-6, -0x1.4c21e40000000p-3}
}
, {{0x1.6e30060000000p-3, -0x1.b864f80000000p-5, 0x1.4098fc0000000p-4, 0x1.02096c0000000p-5, 0x1.e3e9f80000000p-6, 0x1.7ba6be0000000p-6, 0x1.9922ce0000000p-6, -0x1.d2277c0000000p-4}
, {0x1.8b57bc0000000p-2, -0x1.4ddfd80000000p-4, 0x1.d514520000000p-4, 0x1.8bcd560000000p-5, -0x1.d0e0120000000p-5, 0x1.22c94e0000000p-4, -0x1.36076e0000000p-7, -0x1.7df0520000000p-6}
, {0x1.878d0e0000000p-4, -0x1.15abe60000000p-5, 0x1.40f81c0000000p-6, 0x1.9640f20000000p-6, -0x1.05a3d40000000p-11, 0x1.e434740000000p-5, -0x1.717b3a0000000p-5, -0x1.bfe8ca0000000p-5}
}
}
, {{{-0x1.32d4aa0000000p-3, 0x1.bce70c0000000p-5, -0x1.7264a40000000p-4, 0x1.613cc80000000p-7, 0x1.1307e20000000p-5, 0x1.36de240000000p-5, 0x1.6aad560000000p-5, 0x1.ac3eaa0000000p-3}
, {-0x1.e668f00000000p-3, -0x1.b08ae00000000p-5, -0x1.b443d00000000p-4, -0x1.16c2b80000000p-5, -0x1.7ca64c0000000p-4, -0x1.9bb4120000000p-4, -0x1.22bec00000000p-6, 0x1.2ca4f00000000p-2}
, {-0x1.abca340000000p-3, 0x1.a974760000000p-6, 0x1.7ad8f80000000p-6, -0x1.b936c40000000p-9, -0x1.bd73500000000p-5, 0x1.dd7a660000000p-5, 0x1.3387740000000p-9, -0x1.1d0da40000000p-6}
}
, {{-0x1.430fe00000000p-4, 0x1.af01760000000p-6, -0x1.61bb4c0000000p-7, -0x1.5aa8e20000000p-5, 0x1.b5c8400000000p-9, 0x1.07ffc00000000p-8, 0x1.3cfd480000000p-5, -0x1.01df2a0000000p-6}
, {-0x1.8d3a9c0000000p-2, 0x1.73fb320000000p-3, 0x1.82c9f80000000p-8, 0x1.f50aa00000000p-5, 0x1.71824a0000000p-5, 0x1.05dbde0000000p-5, 0x1.4ec2960000000p-4, 0x1.4669b00000000p-3}
, {-0x1.a2c4520000000p-4, 0x1.a79f460000000p-4, 0x1.bdaf680000000p-5, 0x1.4489340000000p-4, 0x1.dc5e560000000p-4, 0x1.e0cc4e0000000p-5, 0x1.e11c1e0000000p-4, 0x1.4cca520000000p-4}
}
, {{-0x1.e134dc0000000p-2, 0x1.4238f00000000p-4, 0x1.e2dd840000000p-6, 0x1.abb0dc0000000p-5, 0x1.a042380000000p-5, 0x1.b36fd40000000p-5, 0x1.a862140000000p-4, -0x1.8642220000000p-4}
, {-0x1.0a22be0000000p-1, 0x1.64face0000000p-4, 0x1.50e00a0000000p-3, 0x1.6ba0e40000000p-3, 0x1.21d0820000000p-6, 0x1.d6dd280000000p-4, 0x1.63d25c0000000p-4, 0x1.aeff8c0000000p-4}
, {-0x1.89f20e0000000p-2, -0x1.7e9ea20000000p-4, -0x1.d88e4c0000000p-6, 0x1.cecd7c0000000p-4, -0x1.4598cc0000000p-5, -0x1.fcb7860000000p-6, -0x1.1181a20000000p-6, 0x1.70b9820000000p-3}
}
}
, {{{0x1.7aebf60000000p-4, -0x1.cf9f7a0000000p-4, -0x1.e999720000000p-3, -0x1.17876c0000000p-4, 0x1.28e3680000000p-10, -0x1.54e2e80000000p-4, -0x1.abca360000000p-5, -0x1.9f9bb00000000p-5}
, {0x1.05f6740000000p-1, -0x1.fc4bc00000000p-3, -0x1.d185e00000000p-3, -0x1.79a7ee0000000p-2, -0x1.9318500000000p-3, -0x1.385f580000000p-2, -0x1.1010ce0000000p-2, -0x1.37e62c0000000p-2}
, {0x1.5a6ac20000000p-2, -0x1.6594400000000p-3, -0x1.f6d97a0000000p-3, -0x1.b6ac940000000p-3, -0x1.650ac60000000p-3, -0x1.3390a80000000p-2, -0x1.cf8e460000000p-4, -0x1.afcfc80000000p-3}
}
, {{0x1.11ffec0000000p-1, 0x1.28b12e0000000p-3, 0x1.8af0d00000000p-5, 0x1.5635340000000p-3, 0x1.5fb3ba0000000p-3, 0x1.9d9de80000000p-4, 0x1.90fb960000000p-3, -0x1.6d975a0000000p-4}
, {0x1.ef48f20000000p-2, 0x1.03854c0000000p-3, 0x1.70d0880000000p-8, -0x1.c02b900000000p-8, 0x1.35c5e40000000p-3, 0x1.bd3b6e0000000p-4, 0x1.e819160000000p-5, -0x1.03ba960000000p-2}
, {0x1.c291c40000000p-2, 0x1.29b12c0000000p-6, -0x1.e1d3d20000000p-8, 0x1.a6d7b00000000p-5, 0x1.7512a40000000p-5, 0x1.30160c0000000p-8, -0x1.dfe5820000000p-8, -0x1.1f18de0000000p-4}
}
, {{0x1.7f1a800000000p-2, -0x1.5af21e0000000p-9, 0x1.9a6c5c0000000p-3, 0x1.f92e1c0000000p-8, 0x1.576b820000000p-5, 0x1.20fdca0000000p-3, 0x1.4c6f060000000p-5, -0x1.f5bff80000000p-3}
, {0x1.09e65c0000000p-2, 0x1.6ca0a60000000p-3, 0x1.af8b0c0000000p-3, 0x1.c21c760000000p-5, 0x1.2c17480000000p-3, 0x1.9d6ea40000000p-3, 0x1.1cb5080000000p-3, -0x1.544f220000000p-3}
, {0x1.3527160000000p-2, 0x1.e6510e0000000p-4, 0x1.2fa9d20000000p-4, 0x1.35eee60000000p-5, 0x1.1f81340000000p-5, 0x1.3339b40000000p-4, 0x1.0245860000000p-3, -0x1.93d40c0000000p-3}
}
}
, {{{-0x1.5d09260000000p-4, 0x1.f72d1c0000000p-4, -0x1.c5ffb60000000p-6, -0x1.157e000000000p-7, 0x1.31ff640000000p-4, 0x1.7aa10c0000000p-5, -0x1.946d000000000p-7, 0x1.bd75420000000p-9}
, {-0x1.8156760000000p-2, 0x1.0f46be0000000p-4, -0x1.1f39900000000p-4, 0x1.fd1fc00000000p-6, -0x1.8342ac0000000p-4, -0x1.a632720000000p-5, 0x1.84d9e60000000p-4, -0x1.2627200000000p-4}
, {-0x1.18933c0000000p-2, -0x1.a54cf80000000p-4, -0x1.25d1460000000p-2, -0x1.1e3e300000000p-3, -0x1.d314920000000p-4, -0x1.4393260000000p-3, -0x1.87fcfc0000000p-3, 0x1.cb2cbe0000000p-4}
}
, {{0x1.07dc480000000p-5, -0x1.e9b4e20000000p-5, 0x1.7ac2e40000000p-3, -0x1.56a0340000000p-6, 0x1.216af80000000p-5, 0x1.15d2c60000000p-4, 0x1.1e41700000000p-3, -0x1.f7f8c00000000p-6}
, {0x1.86c05e0000000p-4, 0x1.5160ac0000000p-4, 0x1.a775900000000p-4, 0x1.cf7f800000000p-7, 0x1.bada160000000p-4, 0x1.84f3d00000000p-4, 0x1.7f36500000000p-4, -0x1.58b00e0000000p-3}
, {0x1.1fd7440000000p-4, 0x1.9b724a0000000p-5, 0x1.4fbb9a0000000p-7, 0x1.ae18e00000000p-4, 0x1.2208d60000000p-3, 0x1.f6ba860000000p-4, 0x1.3e15740000000p-4, -0x1.eeaabe0000000p-4}
}
, {{0x1.2083120000000p-2, -0x1.44c1dc0000000p-3, 0x1.9eade20000000p-9, 0x1.25bbce0000000p-9, -0x1.c9809e0000000p-4, -0x1.8cf7c00000000p-5, -0x1.4b15b60000000p-3, -0x1.3743ca0000000p-4}
, {0x1.0655620000000p-1, -0x1.e78bc40000000p-4, 0x1.cb978e0000000p-6, -0x1.1226920000000p-4, -0x1.5026720000000p-4, 0x1.dd7de40000000p-5, -0x1.5fb7a80000000p-4, -0x1.65b26e0000000p-3}
, {0x1.cc8e620000000p-2, -0x1.3a64160000000p-4, 0x1.3df9980000000p-4, -0x1.c45a020000000p-6, -0x1.b35c2e0000000p-5, 0x1.7c89920000000p-6, -0x1.7225a60000000p-4, -0x1.2902d40000000p-3}
}
}
}
;

#undef INPUT_CHANNELS
#undef CONV_FILTERS
#undef CONV_KERNEL_SIZE_X
#undef CONV_KERNEL_SIZE_Y
#undef CONV_GROUPS