/**
  ******************************************************************************
  * @file    weights/conv2d.cc
  * @author  Pierre-Emmanuel Novac <penovac@unice.fr>, LEAT, CNRS, Université Côte d'Azur, France
  * @version V2.0
  * @date    24 march 2020
  * @brief   Template generating plain C code for the implementation of Convolutional Neural Networks on MCU
  */

#include <stdint.h>

#define INPUT_CHANNELS     256
#define CONV_FILTERS       32
#define CONV_KERNEL_SIZE_Y 3
#define CONV_KERNEL_SIZE_X 3
#define CONV_GROUPS        1


const float conv2d_37_bias[CONV_FILTERS] = {0x1.288a680000000p-8, -0x1.47da160000000p-6, 0x1.684d0a0000000p-4, -0x1.57f0060000000p-6, 0x1.3541100000000p-7, -0x1.ba7ece0000000p-6, 0x1.ba1baa0000000p-7, -0x1.067c180000000p-7, 0x1.c5c4820000000p-5, 0x1.de48440000000p-6, -0x1.ef31820000000p-6, -0x1.81338c0000000p-7, -0x1.5974040000000p-5, 0x1.da784c0000000p-7, -0x1.6fdc620000000p-9, -0x1.7b01160000000p-4, -0x1.3f03da0000000p-6, -0x1.0e95f80000000p-5, -0x1.7103d20000000p-5, -0x1.5fd45e0000000p-6, -0x1.4bba980000000p-5, 0x1.d0138e0000000p-5, 0x1.2748fa0000000p-6, -0x1.a283f00000000p-7, 0x1.5640920000000p-6, -0x1.16665c0000000p-7, 0x1.1f200c0000000p-4, -0x1.403d500000000p-5, -0x1.6b94640000000p-6, -0x1.8d66080000000p-5, -0x1.9815700000000p-5, -0x1.03b43a0000000p-5}
;


const float conv2d_37_kernel[CONV_FILTERS][CONV_KERNEL_SIZE_Y][CONV_KERNEL_SIZE_X][INPUT_CHANNELS / CONV_GROUPS] = {{{{-0x1.d10b8c0000000p-5, -0x1.dc87740000000p-3, -0x1.bd31cc0000000p-3, 0x1.4885740000000p-5, -0x1.cd265a0000000p-4, 0x1.27a3fc0000000p-6, 0x1.1775440000000p-7, -0x1.35f7e60000000p-5, -0x1.22939c0000000p-4, -0x1.0e7eda0000000p-5, 0x1.d3b6340000000p-6, -0x1.dcef960000000p-3, 0x1.7a681a0000000p-7, 0x1.79e4a00000000p-6, -0x1.40c6200000000p-4, -0x1.912f5e0000000p-4, -0x1.0f86a40000000p-4, 0x1.db8afa0000000p-4, -0x1.22cec60000000p-2, -0x1.d091aa0000000p-6, 0x1.362f8c0000000p-3, 0x1.a17f2e0000000p-5, 0x1.9585ee0000000p-7, 0x1.d87ee00000000p-5, -0x1.238a4c0000000p-6, 0x1.ffa81c0000000p-6, 0x1.eb0f060000000p-7, -0x1.19fcde0000000p-4, -0x1.39ab1c0000000p-3, 0x1.9b3b180000000p-5, -0x1.197a5a0000000p-5, 0x1.d4c4b60000000p-11, -0x1.c11de40000000p-3, -0x1.8244160000000p-6, 0x1.9afdae0000000p-5, 0x1.8006ae0000000p-5, -0x1.58e8f60000000p-4, -0x1.341dd40000000p-6, -0x1.68a3380000000p-5, -0x1.370e2c0000000p-4, -0x1.80c8ee0000000p-3, -0x1.94da9e0000000p-4, -0x1.260af20000000p-4, -0x1.d55c9a0000000p-10, 0x1.7e801e0000000p-5, -0x1.56c9e20000000p-3, -0x1.8733080000000p-3, -0x1.fefa9a0000000p-4, -0x1.aea54a0000000p-4, -0x1.4792a20000000p-3, -0x1.3f6cb40000000p-3, -0x1.ed436e0000000p-6, 0x1.a2d4980000000p-5, 0x1.325fe80000000p-5, 0x1.5432600000000p-5, -0x1.8675060000000p-7, -0x1.31b7d60000000p-4, 0x1.96ea5e0000000p-4, -0x1.b805b40000000p-5, 0x1.083eb60000000p-6, -0x1.68b0860000000p-5, 0x1.b5c0400000000p-5, -0x1.0d77ea0000000p-4, -0x1.4252320000000p-3, 0x1.6cdac60000000p-5, -0x1.d360780000000p-5, 0x1.0683140000000p-4, 0x1.1d5f660000000p-4, -0x1.11b9ba0000000p-4, -0x1.f379c80000000p-6, -0x1.ed988c0000000p-4, -0x1.602f320000000p-4, -0x1.173b120000000p-5, -0x1.d557c60000000p-4, -0x1.99088a0000000p-4, -0x1.4614aa0000000p-5, -0x1.bd968a0000000p-4, -0x1.343d640000000p-3, -0x1.8d8b6c0000000p-5, 0x1.df750e0000000p-4, -0x1.ea70000000000p-5, -0x1.d1437e0000000p-5, 0x1.10d6f80000000p-5, -0x1.463aba0000000p-12, -0x1.8ffe240000000p-4, 0x1.6f3d5c0000000p-4, 0x1.8aba4a0000000p-5, 0x1.b2856a0000000p-5, -0x1.37b8160000000p-5, -0x1.a866120000000p-5, -0x1.e475fe0000000p-6, -0x1.d23fda0000000p-4, -0x1.1322400000000p-4, 0x1.16410a0000000p-3, -0x1.4aa74c0000000p-9, -0x1.20b2320000000p-8, -0x1.6e50000000000p-3, -0x1.007afa0000000p-3, -0x1.a2598e0000000p-7, -0x1.1779d80000000p-3, -0x1.36dd580000000p-4, -0x1.404b4a0000000p-3, -0x1.b1ea1e0000000p-9, -0x1.ec71720000000p-7, -0x1.aaefee0000000p-4, -0x1.6133720000000p-3, 0x1.79c8d40000000p-5, -0x1.747bf60000000p-3, -0x1.6d68d40000000p-5, -0x1.f364860000000p-3, -0x1.9bd20a0000000p-8, 0x1.5856960000000p-3, -0x1.036f4c0000000p-8, -0x1.dd5aaa0000000p-5, 0x1.cc16e80000000p-4, -0x1.5a33860000000p-4, -0x1.8cf48a0000000p-3, -0x1.931b640000000p-5, 0x1.47bafe0000000p-6, 0x1.d9e14c0000000p-4, -0x1.d2ea100000000p-5, -0x1.16262a0000000p-10, 0x1.3bb8f80000000p-4, -0x1.2c27360000000p-3, -0x1.cea32a0000000p-4, -0x1.2a65660000000p-3, -0x1.d1a8fa0000000p-5, 0x1.21ca780000000p-3, -0x1.5281340000000p-4, 0x1.8cec920000000p-5, -0x1.30d9b80000000p-3, -0x1.b352f60000000p-5, 0x1.df53ba0000000p-5, -0x1.45fee80000000p-3, -0x1.df4d200000000p-4, -0x1.04330c0000000p-4, -0x1.046dba0000000p-4, -0x1.579bac0000000p-4, 0x1.09f2e20000000p-5, -0x1.e89df20000000p-7, -0x1.a755140000000p-5, -0x1.346c500000000p-3, -0x1.5d1e6c0000000p-5, -0x1.59f15c0000000p-12, -0x1.d882c00000000p-5, 0x1.64a6220000000p-8, -0x1.6000e60000000p-6, -0x1.6ed06c0000000p-5, -0x1.feee9e0000000p-8, -0x1.6a1e3c0000000p-6, -0x1.5780ba0000000p-3, -0x1.98b1bc0000000p-5, 0x1.82b5a20000000p-5, -0x1.5161820000000p-4, -0x1.1041be0000000p-3, -0x1.e5cca00000000p-4, -0x1.cbfc900000000p-8, 0x1.f791da0000000p-4, -0x1.b90c320000000p-6, 0x1.dd1f4a0000000p-4, -0x1.f479b80000000p-5, 0x1.1d42020000000p-5, -0x1.130ae60000000p-4, -0x1.e717620000000p-3, 0x1.8429a80000000p-5, -0x1.9b0ac00000000p-5, 0x1.5730920000000p-6, -0x1.167dde0000000p-4, -0x1.c176140000000p-4, -0x1.eb433e0000000p-5, 0x1.12b8100000000p-6, 0x1.f188c40000000p-10, 0x1.3aa59e0000000p-9, -0x1.3368200000000p-3, -0x1.a801a00000000p-4, -0x1.6a0d700000000p-4, -0x1.88f80e0000000p-4, -0x1.0129940000000p-4, -0x1.fcb53e0000000p-4, -0x1.9fb4160000000p-3, -0x1.4656700000000p-5, 0x1.3f61de0000000p-5, -0x1.ac5a120000000p-4, -0x1.1ffe9c0000000p-3, -0x1.e2c44a0000000p-5, -0x1.f75fea0000000p-3, -0x1.56f1f40000000p-5, -0x1.0520bc0000000p-7, 0x1.6e65d00000000p-5, -0x1.000a1c0000000p-4, -0x1.2431560000000p-8, -0x1.b858fc0000000p-4, -0x1.bebfbe0000000p-4, -0x1.ca6d5a0000000p-4, -0x1.1a47340000000p-3, -0x1.0b3bf20000000p-4, -0x1.baf9a60000000p-7, -0x1.86de120000000p-5, -0x1.cb59420000000p-5, -0x1.7529fe0000000p-3, -0x1.be290e0000000p-6, 0x1.e361560000000p-5, -0x1.c394e40000000p-4, -0x1.55581e0000000p-3, -0x1.4188780000000p-4, -0x1.c1551a0000000p-3, -0x1.7061640000000p-4, -0x1.37eb000000000p-4, -0x1.8f2b440000000p-5, -0x1.9684ea0000000p-5, 0x1.cc72280000000p-5, 0x1.099f780000000p-4, -0x1.c40a560000000p-8, -0x1.079e260000000p-2, -0x1.4498fe0000000p-4, -0x1.4f955e0000000p-4, -0x1.df663e0000000p-4, -0x1.b029180000000p-7, -0x1.9d93a40000000p-3, -0x1.124bf60000000p-6, 0x1.088bc80000000p-11, 0x1.1b44240000000p-6, -0x1.fb48ee0000000p-5, -0x1.3be6440000000p-8, 0x1.af66480000000p-7, -0x1.abac0c0000000p-4, 0x1.7b9bd60000000p-5, -0x1.1c4ca80000000p-7, 0x1.a9dfe80000000p-6, -0x1.47621c0000000p-3, -0x1.59f5c40000000p-3, 0x1.ad9b020000000p-7, 0x1.d322f80000000p-4, -0x1.2372520000000p-3, -0x1.8325f00000000p-9, -0x1.ba1c9a0000000p-6, 0x1.0c1dd20000000p-4, -0x1.43f68a0000000p-4, -0x1.8904860000000p-8, -0x1.5707fa0000000p-3, 0x1.8e21c20000000p-4, -0x1.4cdb7a0000000p-5, -0x1.275ca40000000p-3, -0x1.3278d60000000p-3, 0x1.2c204a0000000p-5, 0x1.11b5da0000000p-4, 0x1.27cd760000000p-5, 0x1.6e4cf20000000p-8, -0x1.12821a0000000p-4, -0x1.63c19a0000000p-4, -0x1.7cd4900000000p-3, -0x1.2a21440000000p-5, 0x1.3397ba0000000p-5, -0x1.9d98960000000p-4, -0x1.cb53180000000p-5, 0x1.3e2c920000000p-6}
, {-0x1.1923160000000p-3, -0x1.4e18e00000000p-4, -0x1.ed59a80000000p-4, 0x1.1f4dc00000000p-4, -0x1.66800c0000000p-4, 0x1.6480780000000p-5, -0x1.b25ca80000000p-5, -0x1.2b47aa0000000p-6, -0x1.7d7f240000000p-3, -0x1.e678240000000p-5, 0x1.e2bf6c0000000p-6, -0x1.94db140000000p-3, 0x1.1a578c0000000p-3, -0x1.3ee4c60000000p-8, -0x1.03806e0000000p-3, -0x1.3c39580000000p-4, -0x1.47d64a0000000p-6, 0x1.eb643e0000000p-4, -0x1.75129c0000000p-4, 0x1.af61440000000p-4, 0x1.abe76e0000000p-3, 0x1.6ab6860000000p-4, -0x1.be52980000000p-6, 0x1.733fba0000000p-4, -0x1.1064260000000p-5, -0x1.fc35120000000p-4, 0x1.1370800000000p-4, -0x1.caaa1e0000000p-4, -0x1.e037740000000p-4, 0x1.5910dc0000000p-3, -0x1.2e7a9e0000000p-7, 0x1.3a9dca0000000p-7, -0x1.4540da0000000p-3, -0x1.0ba6ce0000000p-4, 0x1.89d2d20000000p-5, 0x1.ab12500000000p-5, 0x1.fe11900000000p-7, 0x1.d642600000000p-5, 0x1.268db80000000p-5, 0x1.5e64500000000p-4, -0x1.0cf2a20000000p-4, -0x1.4c4bee0000000p-3, 0x1.c3a21a0000000p-5, 0x1.5952360000000p-4, -0x1.96ebf60000000p-8, 0x1.89a4ec0000000p-5, -0x1.fdcbee0000000p-4, -0x1.0dc4260000000p-3, -0x1.823d760000000p-5, -0x1.a9f7020000000p-4, -0x1.94c71e0000000p-7, -0x1.b93be00000000p-6, 0x1.8171c20000000p-4, -0x1.0b8f060000000p-6, 0x1.50af500000000p-4, -0x1.42be040000000p-3, 0x1.523fa60000000p-4, -0x1.358ab20000000p-5, -0x1.ef083c0000000p-5, -0x1.c6f20a0000000p-5, 0x1.44f26e0000000p-6, -0x1.1e114a0000000p-6, -0x1.23917e0000000p-3, -0x1.4c12300000000p-3, 0x1.0f31ee0000000p-5, -0x1.945ea40000000p-10, 0x1.2d372c0000000p-7, 0x1.8489600000000p-4, -0x1.615e380000000p-5, 0x1.d02f7e0000000p-6, -0x1.1fc1640000000p-3, -0x1.c154940000000p-5, 0x1.22785e0000000p-6, -0x1.a558040000000p-7, 0x1.948e060000000p-4, 0x1.f91cc20000000p-6, 0x1.50dda40000000p-5, -0x1.33dacc0000000p-7, -0x1.f363d20000000p-4, 0x1.def46e0000000p-4, -0x1.2459ba0000000p-3, -0x1.c2cf420000000p-10, -0x1.16cede0000000p-5, -0x1.670e120000000p-4, 0x1.5e75ac0000000p-8, 0x1.8701ac0000000p-4, -0x1.d5855c0000000p-5, -0x1.64a7600000000p-6, -0x1.80b0320000000p-5, 0x1.60828a0000000p-5, -0x1.e013da0000000p-6, -0x1.dca99a0000000p-8, -0x1.a4f90c0000000p-5, 0x1.8c1a8c0000000p-3, 0x1.c19c120000000p-5, 0x1.1165e00000000p-5, -0x1.23b8360000000p-4, -0x1.b053e40000000p-5, 0x1.e6b5400000000p-7, -0x1.1261080000000p-4, -0x1.1ae7620000000p-8, -0x1.1866120000000p-4, -0x1.38e9680000000p-5, -0x1.fd3c100000000p-5, -0x1.2dc6f40000000p-3, -0x1.33e1660000000p-3, -0x1.4524360000000p-4, -0x1.ce069e0000000p-3, -0x1.af24c00000000p-4, -0x1.1bd7f00000000p-4, -0x1.0c8fb20000000p-5, -0x1.b1eefa0000000p-6, -0x1.d0b1e60000000p-7, 0x1.9862b80000000p-5, 0x1.211d4e0000000p-3, -0x1.bbd4600000000p-11, -0x1.c69c080000000p-4, -0x1.92c5100000000p-8, -0x1.99cba00000000p-5, 0x1.9cda5e0000000p-4, -0x1.e773ae0000000p-4, -0x1.c9cbdc0000000p-4, 0x1.1ba58e0000000p-3, -0x1.9e568e0000000p-4, -0x1.eb4b1e0000000p-9, -0x1.a0602c0000000p-6, -0x1.03154c0000000p-3, 0x1.a9d0a80000000p-5, 0x1.cb67c60000000p-11, 0x1.d81e860000000p-5, 0x1.c084e80000000p-5, -0x1.7ac5580000000p-4, 0x1.81bce40000000p-6, -0x1.6ca5de0000000p-4, -0x1.8612f60000000p-6, -0x1.05e1360000000p-5, -0x1.4b35fc0000000p-7, -0x1.aed91e0000000p-10, 0x1.8306e00000000p-4, 0x1.6245100000000p-6, -0x1.d174280000000p-4, -0x1.9ecaae0000000p-4, 0x1.fe91720000000p-6, -0x1.89018e0000000p-5, -0x1.3c0c980000000p-9, 0x1.dc81a60000000p-5, -0x1.02fe9c0000000p-4, -0x1.a5b0ce0000000p-7, 0x1.8398140000000p-4, -0x1.4cfb660000000p-7, -0x1.0466f40000000p-4, 0x1.46deda0000000p-5, 0x1.427e080000000p-3, -0x1.bbeea20000000p-4, -0x1.4b4d4e0000000p-4, -0x1.c69aca0000000p-4, 0x1.a354140000000p-8, 0x1.2ddfec0000000p-3, -0x1.3210000000000p-4, -0x1.9f8da20000000p-7, -0x1.c386dc0000000p-4, -0x1.7c53620000000p-6, 0x1.a028fa0000000p-5, -0x1.2ba9620000000p-3, 0x1.e3868c0000000p-6, -0x1.47d9de0000000p-6, -0x1.af11ba0000000p-6, -0x1.c07a1a0000000p-8, 0x1.762b080000000p-6, 0x1.7091020000000p-6, -0x1.a636560000000p-4, -0x1.59373e0000000p-6, 0x1.0b44f20000000p-6, -0x1.84db9e0000000p-5, -0x1.1280920000000p-3, 0x1.0845ac0000000p-4, -0x1.02f5840000000p-3, 0x1.41dbf20000000p-6, -0x1.822ab40000000p-10, -0x1.9d29c60000000p-4, -0x1.516c5e0000000p-4, -0x1.a0a5040000000p-5, 0x1.c85cac0000000p-4, 0x1.9fa0d60000000p-7, 0x1.7bbd5c0000000p-4, -0x1.46b9160000000p-3, -0x1.0f68580000000p-7, -0x1.7660ac0000000p-5, 0x1.0c41540000000p-8, 0x1.d4763a0000000p-8, 0x1.0500660000000p-4, -0x1.4500240000000p-4, -0x1.d760b00000000p-4, -0x1.496c260000000p-6, -0x1.39671e0000000p-4, -0x1.e39bb80000000p-4, -0x1.b005b00000000p-4, -0x1.b4ba220000000p-4, 0x1.5956e40000000p-5, 0x1.9ce7ac0000000p-5, 0x1.0852f80000000p-4, 0x1.efdec80000000p-8, -0x1.c31dce0000000p-4, -0x1.0f46d20000000p-3, 0x1.4c3eee0000000p-7, -0x1.d339900000000p-3, -0x1.1b6a8c0000000p-4, -0x1.46bb2c0000000p-6, -0x1.3f27100000000p-3, -0x1.180dd40000000p-6, 0x1.7d67be0000000p-4, 0x1.2b54720000000p-3, 0x1.c2bc620000000p-5, -0x1.505ffa0000000p-3, 0x1.f0c5dc0000000p-6, 0x1.0911de0000000p-5, -0x1.23e0760000000p-6, 0x1.f80b6e0000000p-7, -0x1.6ef49a0000000p-3, -0x1.6965aa0000000p-5, 0x1.9c82ba0000000p-7, -0x1.12ac660000000p-8, -0x1.0cdbc80000000p-3, 0x1.07f31e0000000p-5, 0x1.d5f4b00000000p-7, 0x1.2b1c740000000p-5, 0x1.f2fada0000000p-4, 0x1.dfc3380000000p-4, -0x1.664d760000000p-6, -0x1.6e7f280000000p-4, -0x1.c6c8060000000p-4, 0x1.a38f300000000p-6, 0x1.199ba00000000p-9, -0x1.1c732a0000000p-5, 0x1.9944d00000000p-5, -0x1.84b45c0000000p-9, 0x1.2412fe0000000p-6, -0x1.f631e60000000p-6, -0x1.c84a5a0000000p-5, -0x1.9d8f8c0000000p-3, 0x1.3a7cd80000000p-6, -0x1.d958ea0000000p-7, -0x1.58631c0000000p-3, -0x1.253f840000000p-4, 0x1.3aac600000000p-5, 0x1.60bf2e0000000p-6, 0x1.1905320000000p-5, 0x1.b8ebfa0000000p-5, -0x1.4b97860000000p-5, -0x1.1c19c60000000p-5, -0x1.0f85660000000p-3, 0x1.d75faa0000000p-5, 0x1.f8b2900000000p-5, -0x1.3f1c560000000p-3, -0x1.f035480000000p-7, 0x1.b168fe0000000p-5}
, {-0x1.6a90340000000p-4, -0x1.4cc3480000000p-3, -0x1.55a64c0000000p-5, 0x1.afd9960000000p-5, -0x1.7f491a0000000p-3, 0x1.f1f0a60000000p-9, 0x1.1707740000000p-4, 0x1.b0c9f40000000p-5, -0x1.60321e0000000p-5, -0x1.b6908e0000000p-6, -0x1.4ac8040000000p-5, -0x1.3afbf40000000p-3, 0x1.9aeff40000000p-4, -0x1.84a37a0000000p-5, -0x1.e6fd8c0000000p-5, -0x1.9571cc0000000p-4, 0x1.7a2c1e0000000p-8, 0x1.ce6dee0000000p-4, -0x1.690a360000000p-3, 0x1.276d4c0000000p-3, 0x1.4857a20000000p-4, 0x1.8507700000000p-6, 0x1.0c644e0000000p-6, 0x1.9e65b80000000p-5, 0x1.18233c0000000p-6, -0x1.3bc1620000000p-6, 0x1.d588d60000000p-6, -0x1.a0a88a0000000p-4, 0x1.e7bc160000000p-7, 0x1.3535a80000000p-4, -0x1.e04e0c0000000p-6, 0x1.5469dc0000000p-4, -0x1.32685c0000000p-4, -0x1.27198e0000000p-3, 0x1.e8c63a0000000p-9, 0x1.6334fc0000000p-4, -0x1.36a0900000000p-5, 0x1.4eea160000000p-5, -0x1.3443ca0000000p-3, 0x1.2618f40000000p-4, -0x1.d3bbea0000000p-9, 0x1.2a91a80000000p-4, 0x1.6338fe0000000p-7, 0x1.75c1180000000p-3, -0x1.335c880000000p-6, 0x1.3247720000000p-5, -0x1.8a8d480000000p-4, -0x1.3007ce0000000p-3, 0x1.0ac3460000000p-4, -0x1.6401fa0000000p-3, 0x1.c13cc60000000p-5, -0x1.6339520000000p-4, 0x1.7aef320000000p-5, -0x1.04d8700000000p-6, 0x1.3d189a0000000p-3, -0x1.afb0220000000p-3, 0x1.c0755a0000000p-6, 0x1.bce1660000000p-4, -0x1.6079240000000p-2, -0x1.9971460000000p-6, -0x1.b119ca0000000p-5, -0x1.d593d20000000p-4, -0x1.b395320000000p-3, -0x1.c8df820000000p-3, 0x1.2f8d440000000p-5, -0x1.3df9960000000p-3, -0x1.6322c00000000p-5, 0x1.069f160000000p-3, -0x1.9332480000000p-4, -0x1.0eebae0000000p-3, -0x1.db9f380000000p-4, -0x1.855dd80000000p-3, -0x1.9705dc0000000p-7, 0x1.8411560000000p-4, 0x1.eba6a60000000p-6, 0x1.1a492e0000000p-7, 0x1.3b03ac0000000p-4, -0x1.21540e0000000p-5, -0x1.daba620000000p-4, 0x1.553c0a0000000p-6, -0x1.f2e8180000000p-8, -0x1.b8d82a0000000p-3, 0x1.0955080000000p-4, -0x1.3278260000000p-4, -0x1.4acc560000000p-8, 0x1.9de9b40000000p-4, -0x1.737db40000000p-3, 0x1.9d228a0000000p-5, -0x1.09b8880000000p-3, -0x1.28c4240000000p-3, 0x1.3694140000000p-6, -0x1.d297e00000000p-3, 0x1.8b47000000000p-7, 0x1.27785c0000000p-3, 0x1.6409220000000p-6, 0x1.28ad260000000p-5, 0x1.3e70280000000p-6, -0x1.1242280000000p-2, -0x1.bb2be20000000p-7, -0x1.d4e6e40000000p-6, 0x1.688a3c0000000p-6, 0x1.416f940000000p-5, -0x1.132d940000000p-2, -0x1.6414500000000p-4, -0x1.9672400000000p-4, -0x1.0cdb260000000p-3, 0x1.2a6dda0000000p-6, -0x1.9b62960000000p-5, 0x1.b1b2380000000p-5, 0x1.6db37a0000000p-5, -0x1.d3bd6a0000000p-5, 0x1.7e1eb00000000p-4, -0x1.1bad580000000p-3, -0x1.44f2260000000p-5, 0x1.0736aa0000000p-3, 0x1.0cf9a40000000p-4, -0x1.67bde00000000p-5, -0x1.e851ae0000000p-6, -0x1.852d320000000p-5, 0x1.d696340000000p-5, -0x1.08ec6c0000000p-3, 0x1.0bbcb60000000p-7, 0x1.052a140000000p-8, -0x1.76be020000000p-3, 0x1.3ce3ec0000000p-4, 0x1.fa1b300000000p-4, 0x1.0ecd0a0000000p-6, 0x1.b26d780000000p-7, -0x1.5f11920000000p-4, 0x1.b375580000000p-5, -0x1.2f4cc20000000p-3, -0x1.5f858c0000000p-4, -0x1.23e77c0000000p-4, 0x1.7204320000000p-5, -0x1.d8335e0000000p-4, 0x1.954c080000000p-7, -0x1.d675100000000p-5, -0x1.10bd480000000p-8, 0x1.d8f0100000000p-6, 0x1.2dc4440000000p-7, -0x1.a10b000000000p-6, -0x1.7f48fc0000000p-7, -0x1.0c1ece0000000p-3, 0x1.4e9c8a0000000p-4, -0x1.38f5ea0000000p-4, 0x1.e647580000000p-5, -0x1.2fbe120000000p-9, -0x1.8283a60000000p-5, 0x1.565eec0000000p-4, 0x1.da189c0000000p-6, 0x1.f8b0be0000000p-5, 0x1.222b4e0000000p-3, 0x1.4b73380000000p-4, -0x1.a186760000000p-7, 0x1.cb57c40000000p-7, -0x1.c1fa180000000p-8, -0x1.190ddc0000000p-3, 0x1.498ff60000000p-4, 0x1.595b1a0000000p-4, 0x1.7919840000000p-4, -0x1.45697c0000000p-6, -0x1.f1cfb00000000p-5, -0x1.87082a0000000p-6, -0x1.9f54a40000000p-4, 0x1.b2121a0000000p-5, -0x1.6776500000000p-4, -0x1.52e9ee0000000p-7, -0x1.1b9bc40000000p-5, 0x1.f9f3bc0000000p-7, -0x1.fde8a80000000p-11, -0x1.88aa560000000p-4, -0x1.4c198c0000000p-3, 0x1.cebff00000000p-5, -0x1.2e70980000000p-5, -0x1.dedd480000000p-3, 0x1.b76e960000000p-4, -0x1.9295ee0000000p-4, 0x1.3f72e80000000p-4, -0x1.fbeeba0000000p-5, -0x1.df1f040000000p-6, -0x1.8bff580000000p-6, -0x1.ea93060000000p-6, -0x1.ffb35a0000000p-5, -0x1.aff2840000000p-5, 0x1.1e74da0000000p-5, 0x1.df322c0000000p-7, -0x1.af0f0a0000000p-4, 0x1.eeb2060000000p-6, 0x1.1806a60000000p-6, -0x1.afc96c0000000p-6, 0x1.0904700000000p-4, -0x1.e89fd60000000p-8, -0x1.4c0f2e0000000p-3, -0x1.6c955e0000000p-6, -0x1.a119e40000000p-4, -0x1.8749720000000p-6, -0x1.2056d20000000p-2, 0x1.dc48b40000000p-6, 0x1.2e30a00000000p-9, -0x1.29e3dc0000000p-5, -0x1.94c8020000000p-6, 0x1.d0a6ce0000000p-9, -0x1.0b9d0a0000000p-5, -0x1.417d3c0000000p-3, -0x1.2d4a2c0000000p-4, -0x1.33689a0000000p-3, -0x1.f220fc0000000p-6, -0x1.9df3cc0000000p-4, 0x1.002d4e0000000p-6, -0x1.000a5c0000000p-4, 0x1.3e1bce0000000p-4, 0x1.8081560000000p-3, -0x1.84f6580000000p-7, -0x1.86d34e0000000p-3, 0x1.b139be0000000p-7, 0x1.e8005c0000000p-7, 0x1.9dbfe80000000p-4, -0x1.bc76280000000p-6, -0x1.44d3500000000p-2, -0x1.b680b00000000p-8, 0x1.1eeaca0000000p-4, 0x1.3038140000000p-4, -0x1.c3c7b60000000p-4, -0x1.328bfa0000000p-8, 0x1.57114c0000000p-5, -0x1.372e680000000p-9, 0x1.acf0980000000p-5, -0x1.88b0fc0000000p-5, 0x1.2753dc0000000p-7, -0x1.dda7f60000000p-3, -0x1.cd9f1e0000000p-6, -0x1.4d53700000000p-8, 0x1.f54a780000000p-5, -0x1.dc2cb80000000p-8, -0x1.385a7a0000000p-3, 0x1.0b15540000000p-4, 0x1.8f2b7c0000000p-5, -0x1.d59b9a0000000p-5, -0x1.c2cd580000000p-4, -0x1.fa3a620000000p-4, 0x1.5607a00000000p-4, 0x1.d793720000000p-6, -0x1.8c37c20000000p-3, 0x1.daa3460000000p-5, 0x1.0657520000000p-3, 0x1.2b19e60000000p-13, -0x1.bc9a240000000p-5, 0x1.7e27cc0000000p-6, -0x1.5927ae0000000p-3, 0x1.e726b60000000p-5, -0x1.1f97a80000000p-3, -0x1.3ee1fc0000000p-5, -0x1.4e28640000000p-5, -0x1.0e0d080000000p-6, -0x1.d4384a0000000p-3, 0x1.dcc0d60000000p-6}
}
, {{-0x1.d05b980000000p-5, -0x1.d4d3220000000p-4, -0x1.b6beca0000000p-6, 0x1.4298480000000p-3, -0x1.9d93f40000000p-5, 0x1.8c17a80000000p-5, 0x1.6f03260000000p-4, 0x1.8035860000000p-5, -0x1.4ab47a0000000p-6, -0x1.0dcec80000000p-4, -0x1.545b7e0000000p-3, -0x1.0b0fda0000000p-5, 0x1.1e4b4c0000000p-3, -0x1.d5e7940000000p-4, 0x1.2888640000000p-6, 0x1.af7c240000000p-10, -0x1.a39a7a0000000p-4, 0x1.d1d9620000000p-6, -0x1.8cd7240000000p-4, 0x1.02e2840000000p-2, 0x1.f34bde0000000p-4, 0x1.00ee140000000p-6, 0x1.a5da240000000p-4, 0x1.42498c0000000p-5, 0x1.6f99cc0000000p-6, 0x1.fbc6ca0000000p-4, 0x1.55931c0000000p-4, -0x1.514c2c0000000p-6, -0x1.b2a2b80000000p-8, -0x1.63fed20000000p-6, -0x1.d6a1fe0000000p-6, 0x1.b2ba900000000p-4, -0x1.9b7a0a0000000p-6, -0x1.094e680000000p-6, -0x1.0cf9760000000p-5, -0x1.72d9540000000p-5, 0x1.9b32f40000000p-4, 0x1.ceeee80000000p-6, 0x1.817cda0000000p-8, 0x1.b4e4420000000p-5, 0x1.a091d40000000p-6, -0x1.de3b700000000p-4, 0x1.1ec8a00000000p-5, 0x1.c8e1d60000000p-4, 0x1.14056a0000000p-4, 0x1.899f3c0000000p-7, -0x1.8bc5260000000p-4, 0x1.24943c0000000p-4, -0x1.9bfe560000000p-6, -0x1.8ec7620000000p-5, -0x1.181cde0000000p-4, -0x1.e8a75a0000000p-4, -0x1.80fbba0000000p-5, 0x1.a8b5e20000000p-5, 0x1.ccff760000000p-6, -0x1.372adc0000000p-4, -0x1.1fe1a60000000p-5, 0x1.32303a0000000p-3, -0x1.3b98520000000p-6, -0x1.d68ee80000000p-4, -0x1.3eecec0000000p-5, 0x1.24132a0000000p-4, -0x1.ffe0d20000000p-5, -0x1.a63ab60000000p-4, -0x1.3c7b480000000p-5, 0x1.cbcb2a0000000p-8, -0x1.4fed300000000p-4, 0x1.80909c0000000p-6, 0x1.6d754a0000000p-5, -0x1.efd27a0000000p-4, 0x1.1071300000000p-4, -0x1.08f4b40000000p-2, -0x1.ea90720000000p-5, -0x1.02dff00000000p-5, -0x1.20f9ec0000000p-3, -0x1.11e7e00000000p-3, -0x1.9a44e20000000p-4, -0x1.56c44a0000000p-6, -0x1.08ae680000000p-3, -0x1.c62a8a0000000p-6, -0x1.6c89c00000000p-4, -0x1.96fcf60000000p-5, -0x1.15ba520000000p-5, -0x1.47c0f20000000p-3, -0x1.9547ee0000000p-6, 0x1.77fa560000000p-4, 0x1.535b3a0000000p-4, -0x1.bea31a0000000p-5, -0x1.b76fa00000000p-8, -0x1.ec29640000000p-7, -0x1.0baf0a0000000p-4, -0x1.d2a4d00000000p-7, -0x1.24a8320000000p-3, 0x1.cf34060000000p-4, -0x1.3d34ec0000000p-4, -0x1.b428f40000000p-7, -0x1.f94d720000000p-5, -0x1.16913c0000000p-5, 0x1.cf0f840000000p-3, -0x1.9b08420000000p-8, -0x1.33e7d80000000p-3, -0x1.94a2200000000p-5, -0x1.3c0cbe0000000p-5, -0x1.31aae20000000p-8, 0x1.699ca00000000p-9, -0x1.4033520000000p-5, 0x1.9ca2600000000p-5, -0x1.bdc7fc0000000p-4, -0x1.268eb20000000p-6, 0x1.750ae80000000p-5, 0x1.867e3a0000000p-8, 0x1.0773780000000p-3, 0x1.6e3a160000000p-9, -0x1.64c4800000000p-4, -0x1.67c39a0000000p-6, 0x1.8c37060000000p-6, 0x1.e1c2a80000000p-5, -0x1.755c700000000p-4, -0x1.9a09300000000p-4, -0x1.8051860000000p-5, 0x1.72632a0000000p-6, -0x1.1f0a080000000p-7, 0x1.c7df5c0000000p-4, -0x1.13cd540000000p-3, 0x1.ef739c0000000p-4, -0x1.1e2b840000000p-4, -0x1.178bea0000000p-6, -0x1.5a53740000000p-6, -0x1.e5125a0000000p-7, -0x1.25496c0000000p-9, 0x1.274c8a0000000p-6, 0x1.6267120000000p-7, 0x1.5a62360000000p-4, -0x1.deca060000000p-3, -0x1.45a46a0000000p-4, -0x1.9580980000000p-3, -0x1.a17b8e0000000p-5, 0x1.d165480000000p-6, -0x1.c5940c0000000p-7, 0x1.c09bba0000000p-3, -0x1.9afbe00000000p-4, 0x1.a2ad2c0000000p-6, -0x1.20b32c0000000p-4, -0x1.20cb440000000p-6, 0x1.69a4760000000p-5, -0x1.5c959e0000000p-4, -0x1.169a2c0000000p-7, 0x1.6b9fa20000000p-5, -0x1.2a46c60000000p-4, -0x1.112cce0000000p-3, -0x1.0a16f80000000p-5, -0x1.85f3900000000p-7, 0x1.796e080000000p-8, 0x1.e35e840000000p-7, -0x1.02f84c0000000p-3, -0x1.1f50600000000p-9, -0x1.a79b000000000p-5, 0x1.b17f260000000p-4, 0x1.f2a61e0000000p-5, 0x1.f706c60000000p-8, -0x1.f510fc0000000p-7, -0x1.410f760000000p-6, -0x1.8f2bb60000000p-6, -0x1.3ddbc40000000p-4, 0x1.4b07a60000000p-5, 0x1.25c41c0000000p-4, -0x1.0637660000000p-5, -0x1.b9d9d40000000p-5, 0x1.4907e80000000p-8, 0x1.06d7840000000p-5, 0x1.a006a20000000p-5, -0x1.5105f40000000p-9, 0x1.f626800000000p-4, -0x1.4bc0500000000p-4, -0x1.68b33a0000000p-4, 0x1.81d0d80000000p-3, 0x1.73c8680000000p-5, -0x1.2ffebc0000000p-5, -0x1.2359ec0000000p-4, 0x1.7444f80000000p-6, -0x1.8c2e6c0000000p-4, 0x1.244e160000000p-6, 0x1.966e5e0000000p-5, -0x1.9fdfe80000000p-5, -0x1.497cbc0000000p-4, -0x1.995cdc0000000p-4, 0x1.991d8e0000000p-6, 0x1.7618000000000p-7, 0x1.7b3edc0000000p-6, 0x1.2bf6b20000000p-3, 0x1.4016400000000p-5, -0x1.7f92940000000p-5, -0x1.52a9f60000000p-5, -0x1.5c8fae0000000p-3, -0x1.2018240000000p-4, -0x1.d5c9820000000p-5, 0x1.d3bb000000000p-8, 0x1.5433300000000p-4, 0x1.1acb5e0000000p-6, 0x1.4050620000000p-11, 0x1.bde1f60000000p-5, -0x1.317a600000000p-5, -0x1.0891ba0000000p-3, -0x1.f613500000000p-4, 0x1.a7d7ae0000000p-7, -0x1.815b960000000p-4, -0x1.3d00aa0000000p-4, 0x1.d184d00000000p-5, 0x1.c17a640000000p-7, -0x1.aadbce0000000p-6, -0x1.59da540000000p-4, 0x1.83d1920000000p-4, 0x1.4b44260000000p-3, -0x1.a6707c0000000p-4, 0x1.2cebfa0000000p-5, 0x1.1a4e460000000p-6, 0x1.321cd40000000p-3, -0x1.71924c0000000p-7, 0x1.2010b00000000p-8, 0x1.8e0e080000000p-4, -0x1.e6f7600000000p-6, 0x1.2da65a0000000p-4, -0x1.7cb58a0000000p-8, -0x1.6311b80000000p-7, 0x1.7eb9b60000000p-4, 0x1.c63ff00000000p-7, 0x1.2f6e600000000p-4, 0x1.73e4d40000000p-3, -0x1.2ae84c0000000p-5, -0x1.04f5700000000p-3, 0x1.f377060000000p-7, 0x1.61cd440000000p-5, 0x1.4197660000000p-4, 0x1.29334c0000000p-5, 0x1.c21abe0000000p-7, 0x1.dce0380000000p-5, -0x1.02eb800000000p-6, 0x1.2a43ee0000000p-8, 0x1.8648ae0000000p-6, -0x1.0e22240000000p-3, 0x1.1225240000000p-4, -0x1.acd8ae0000000p-7, 0x1.97b5220000000p-7, 0x1.a0861e0000000p-12, 0x1.3864be0000000p-6, -0x1.74bce00000000p-3, -0x1.dfa60e0000000p-5, 0x1.8156660000000p-4, -0x1.6145520000000p-3, -0x1.216c7e0000000p-4, -0x1.54d8400000000p-7, -0x1.b29d1c0000000p-7, 0x1.5859440000000p-5, -0x1.467b6c0000000p-4, -0x1.886a680000000p-4, 0x1.07969a0000000p-6}
, {-0x1.6589f80000000p-9, -0x1.44aabc0000000p-5, 0x1.5aef3c0000000p-5, 0x1.dbcfc00000000p-5, -0x1.eae9ba0000000p-7, 0x1.29aeea0000000p-6, -0x1.285a040000000p-4, 0x1.bcba6e0000000p-5, 0x1.dbcb520000000p-4, 0x1.edca280000000p-8, 0x1.7f56980000000p-5, -0x1.ee197e0000000p-5, 0x1.b2e9460000000p-5, 0x1.2f33540000000p-5, 0x1.780b340000000p-5, -0x1.f683e60000000p-7, 0x1.9e6f580000000p-4, 0x1.d380440000000p-9, -0x1.ca95f00000000p-6, 0x1.a718f00000000p-5, 0x1.822bbe0000000p-7, 0x1.6b12960000000p-5, -0x1.b87b0c0000000p-6, -0x1.dad6c80000000p-4, 0x1.b60b500000000p-4, 0x1.8540e40000000p-5, -0x1.b5eac40000000p-5, -0x1.1c7b220000000p-6, -0x1.b714200000000p-6, 0x1.8300780000000p-5, -0x1.2fffec0000000p-4, 0x1.1d52820000000p-5, -0x1.9b83720000000p-7, -0x1.17ff2a0000000p-5, 0x1.4328020000000p-5, -0x1.4002920000000p-3, 0x1.1f759e0000000p-10, 0x1.9a1a180000000p-6, 0x1.88a7380000000p-11, -0x1.1d81ba0000000p-4, -0x1.4730340000000p-5, 0x1.0a88100000000p-4, 0x1.6f245c0000000p-4, 0x1.fd56300000000p-5, 0x1.82abe80000000p-6, -0x1.d1f9200000000p-7, -0x1.ba833a0000000p-7, 0x1.6dafdc0000000p-6, 0x1.ab1cd40000000p-7, 0x1.9f40e00000000p-7, -0x1.e06f480000000p-5, 0x1.abfc7a0000000p-6, 0x1.a428d00000000p-4, -0x1.af36ee0000000p-5, -0x1.e1346e0000000p-7, -0x1.2d41000000000p-6, -0x1.25f9c00000000p-4, 0x1.6ef5180000000p-6, -0x1.5955ee0000000p-5, 0x1.9959ae0000000p-4, 0x1.1c79de0000000p-6, 0x1.5b2a280000000p-5, -0x1.9f13380000000p-15, 0x1.5c9b820000000p-5, -0x1.8ae0a40000000p-6, -0x1.354b1c0000000p-5, 0x1.23fad40000000p-5, -0x1.69c8ae0000000p-4, 0x1.1a33d60000000p-4, 0x1.77bcee0000000p-4, 0x1.278fc80000000p-3, -0x1.3f9a1c0000000p-4, -0x1.a78c320000000p-5, -0x1.d15ad00000000p-6, 0x1.88dc4c0000000p-4, -0x1.e4deec0000000p-7, 0x1.6e34e20000000p-5, 0x1.13cc580000000p-4, 0x1.2ddb1e0000000p-4, 0x1.5551380000000p-4, -0x1.03fca60000000p-4, -0x1.d9455a0000000p-5, 0x1.01317c0000000p-3, -0x1.0fe56e0000000p-4, 0x1.365dbc0000000p-5, -0x1.c032440000000p-8, -0x1.d949680000000p-5, -0x1.d1f7ec0000000p-6, -0x1.1010140000000p-4, 0x1.abebdc0000000p-5, 0x1.99e3700000000p-4, -0x1.0188ee0000000p-6, -0x1.76b21c0000000p-6, 0x1.7bf7940000000p-3, 0x1.c91e700000000p-8, -0x1.0911420000000p-4, 0x1.d9a1980000000p-5, -0x1.5a83c20000000p-9, 0x1.df1d6e0000000p-5, -0x1.f24fb80000000p-7, 0x1.ee1ef40000000p-5, -0x1.21699e0000000p-6, 0x1.0242040000000p-5, -0x1.af57860000000p-6, 0x1.373f860000000p-4, 0x1.35bdca0000000p-6, -0x1.76fe420000000p-5, -0x1.707f3a0000000p-5, 0x1.2fbdaa0000000p-5, 0x1.970f6c0000000p-6, -0x1.1f32140000000p-3, -0x1.98f0c80000000p-5, -0x1.6d256e0000000p-5, 0x1.91f69a0000000p-15, 0x1.510c340000000p-5, 0x1.02b1140000000p-11, -0x1.f3faa80000000p-9, 0x1.868a060000000p-5, -0x1.bcd43a0000000p-5, 0x1.33cd7e0000000p-6, 0x1.4bf6ca0000000p-4, -0x1.acfaf60000000p-6, 0x1.2c8dd00000000p-5, -0x1.ea29500000000p-5, 0x1.92defc0000000p-4, -0x1.4a3f960000000p-4, 0x1.19ef5c0000000p-7, 0x1.ec33ce0000000p-6, 0x1.3ba7d00000000p-5, 0x1.a9080e0000000p-9, -0x1.3108b60000000p-10, 0x1.d6e0d40000000p-5, -0x1.84960e0000000p-7, 0x1.261f340000000p-4, 0x1.b8cc560000000p-4, 0x1.43eb500000000p-3, 0x1.917cae0000000p-8, 0x1.aedf5a0000000p-5, -0x1.a5f06e0000000p-11, 0x1.58cf440000000p-5, -0x1.d6002e0000000p-6, 0x1.c455ea0000000p-4, 0x1.63ad4c0000000p-4, 0x1.49c89a0000000p-5, 0x1.41143a0000000p-5, 0x1.28396c0000000p-4, -0x1.18b4180000000p-6, 0x1.1ac1820000000p-3, 0x1.eb893e0000000p-7, -0x1.f57e180000000p-5, -0x1.6f68440000000p-8, -0x1.28f0600000000p-6, 0x1.4d4e780000000p-5, -0x1.7cde060000000p-7, 0x1.f19cc40000000p-5, 0x1.bd73dc0000000p-4, 0x1.5022f40000000p-4, 0x1.d966400000000p-5, 0x1.961b020000000p-4, -0x1.3b9eda0000000p-6, -0x1.6c58c00000000p-8, -0x1.056e260000000p-4, 0x1.4b66760000000p-7, 0x1.1464de0000000p-6, -0x1.dfe34a0000000p-6, 0x1.02e1a40000000p-6, 0x1.973e180000000p-10, 0x1.7aa8060000000p-4, -0x1.2ef9240000000p-5, 0x1.4c3a060000000p-6, 0x1.4cfa8a0000000p-6, -0x1.7ff1460000000p-5, 0x1.621c160000000p-7, -0x1.9e5d620000000p-4, 0x1.e73fb00000000p-5, 0x1.c69ad20000000p-4, -0x1.0cce080000000p-6, 0x1.f2536e0000000p-7, 0x1.f505520000000p-6, -0x1.8ce59a0000000p-6, -0x1.600af20000000p-5, 0x1.3bc93a0000000p-7, 0x1.54564a0000000p-5, -0x1.612d400000000p-3, 0x1.34f95e0000000p-9, -0x1.fa22dc0000000p-5, -0x1.49fd3e0000000p-8, 0x1.42edf80000000p-4, 0x1.9f4e440000000p-6, -0x1.56916a0000000p-5, 0x1.28f6f40000000p-4, -0x1.88ee400000000p-10, 0x1.ea68f80000000p-7, 0x1.3fe1bc0000000p-6, 0x1.17b3960000000p-3, -0x1.6917940000000p-6, 0x1.a514ac0000000p-6, -0x1.bdef4a0000000p-9, -0x1.aaadca0000000p-5, -0x1.40455a0000000p-4, -0x1.14efbe0000000p-5, 0x1.3836040000000p-7, -0x1.09a0660000000p-8, -0x1.20929e0000000p-6, -0x1.616c900000000p-5, -0x1.796ac80000000p-6, -0x1.7c6ef00000000p-5, -0x1.96b8700000000p-5, 0x1.4ee2760000000p-5, 0x1.a6050a0000000p-7, -0x1.303d620000000p-4, 0x1.104ed60000000p-4, 0x1.853e1a0000000p-4, 0x1.b43cd80000000p-7, 0x1.24f85c0000000p-6, -0x1.0602ae0000000p-5, 0x1.7cae2a0000000p-4, 0x1.758fa40000000p-4, 0x1.50852a0000000p-4, 0x1.9df28c0000000p-7, 0x1.9d77740000000p-5, 0x1.07ea160000000p-4, 0x1.4d0e3c0000000p-5, 0x1.131bbe0000000p-4, -0x1.285b380000000p-7, -0x1.accafa0000000p-7, 0x1.951f1c0000000p-5, 0x1.176fa00000000p-3, 0x1.3821000000000p-4, -0x1.275d9c0000000p-4, 0x1.0b57400000000p-5, -0x1.3ace580000000p-5, 0x1.0775260000000p-4, 0x1.5e53b60000000p-5, -0x1.84a65a0000000p-6, 0x1.36b8280000000p-3, -0x1.569bd60000000p-5, -0x1.2fd0980000000p-7, -0x1.1963460000000p-4, 0x1.1dc4c40000000p-5, 0x1.f930ca0000000p-4, -0x1.53eed60000000p-4, 0x1.1e58a60000000p-4, 0x1.1d97460000000p-6, -0x1.05eb020000000p-5, 0x1.a4d2620000000p-4, 0x1.0350b40000000p-4, 0x1.1e7f4e0000000p-6, -0x1.7fb3e60000000p-6, 0x1.624ef00000000p-7, 0x1.020cc60000000p-6, 0x1.21f9420000000p-5, 0x1.1bb80a0000000p-8, 0x1.9edeb60000000p-8, 0x1.3c5b280000000p-6, -0x1.5b3e600000000p-6}
, {0x1.4daefe0000000p-3, 0x1.99d21e0000000p-5, 0x1.7111580000000p-5, -0x1.1702ec0000000p-4, 0x1.8a67b20000000p-4, 0x1.7833300000000p-6, 0x1.608d060000000p-6, 0x1.4978d40000000p-5, -0x1.b2c6ec0000000p-6, -0x1.18352e0000000p-5, -0x1.e062cc0000000p-4, -0x1.68c1080000000p-6, -0x1.2225f00000000p-4, -0x1.7d22360000000p-6, 0x1.90c4b60000000p-4, 0x1.f3935c0000000p-8, 0x1.b09d940000000p-7, -0x1.f48f540000000p-4, 0x1.83c4da0000000p-4, 0x1.572a2a0000000p-5, -0x1.dae85c0000000p-5, -0x1.6d41ae0000000p-3, -0x1.26d1b40000000p-7, -0x1.7e8f2e0000000p-3, -0x1.300ed20000000p-9, -0x1.e8858c0000000p-4, -0x1.eb3d3a0000000p-4, -0x1.1c43660000000p-8, 0x1.144e300000000p-3, -0x1.b4f4820000000p-4, 0x1.3799120000000p-4, -0x1.a131e00000000p-5, -0x1.6df2300000000p-7, 0x1.5708f00000000p-5, -0x1.38b5aa0000000p-5, -0x1.fcd6a60000000p-5, -0x1.2376da0000000p-4, -0x1.7e3de80000000p-5, 0x1.54cbae0000000p-7, -0x1.32a0520000000p-3, 0x1.9477260000000p-3, -0x1.c75a8e0000000p-6, 0x1.f22af80000000p-5, -0x1.be60880000000p-8, -0x1.15b6d40000000p-5, 0x1.873e2e0000000p-5, 0x1.1576e20000000p-6, -0x1.d9859c0000000p-6, 0x1.318c300000000p-4, 0x1.61f3ce0000000p-5, -0x1.4998400000000p-7, 0x1.0f78d20000000p-4, -0x1.61c57e0000000p-5, -0x1.ac73860000000p-8, 0x1.2180100000000p-4, -0x1.1c21ba0000000p-6, 0x1.736c920000000p-4, 0x1.bb68280000000p-5, 0x1.26850c0000000p-6, 0x1.21446a0000000p-5, 0x1.4b95f80000000p-5, -0x1.f4a74e0000000p-7, 0x1.369a500000000p-3, 0x1.3964ca0000000p-3, 0x1.0a4abe0000000p-4, 0x1.0d04440000000p-3, 0x1.9d283e0000000p-5, 0x1.9611980000000p-4, -0x1.bc6fe40000000p-6, -0x1.df36120000000p-8, -0x1.3666020000000p-5, -0x1.303a120000000p-3, 0x1.94b7ee0000000p-4, 0x1.eec4660000000p-5, 0x1.15b3600000000p-7, -0x1.a3fd780000000p-9, -0x1.b0b9c60000000p-5, -0x1.4a3a400000000p-5, 0x1.40f7ca0000000p-11, -0x1.901ec20000000p-3, 0x1.3ee72c0000000p-4, 0x1.211f3c0000000p-4, 0x1.754b600000000p-4, -0x1.3f53120000000p-4, -0x1.458b780000000p-6, -0x1.0052300000000p-5, 0x1.3c4dfe0000000p-6, 0x1.03a1c20000000p-5, 0x1.35a9ba0000000p-4, 0x1.c485d20000000p-4, 0x1.0a04f20000000p-5, 0x1.ff4ff20000000p-5, 0x1.183f0e0000000p-4, 0x1.457e5c0000000p-4, 0x1.79b0f20000000p-4, -0x1.f20da20000000p-3, -0x1.acde400000000p-4, 0x1.849e300000000p-4, -0x1.6967880000000p-6, 0x1.45be580000000p-5, 0x1.c124820000000p-4, 0x1.3ce5720000000p-6, 0x1.9de5200000000p-4, -0x1.4fa07a0000000p-4, 0x1.1156b00000000p-3, -0x1.634a880000000p-6, 0x1.3f5bd20000000p-3, 0x1.617b520000000p-7, 0x1.59bdc60000000p-4, 0x1.d5b18c0000000p-5, -0x1.01b8060000000p-4, 0x1.15a8480000000p-3, 0x1.5c38300000000p-3, -0x1.4442ec0000000p-4, -0x1.35dd8a0000000p-3, 0x1.37e9960000000p-5, -0x1.71e7be0000000p-5, 0x1.57d0ea0000000p-4, -0x1.e2264c0000000p-6, 0x1.2eda380000000p-5, 0x1.0ae83e0000000p-10, -0x1.0863680000000p-4, -0x1.77bd640000000p-4, -0x1.ac1fb00000000p-5, 0x1.50d4a80000000p-5, 0x1.4e2cb80000000p-3, 0x1.60c7680000000p-4, -0x1.0a5d880000000p-4, -0x1.5cba1c0000000p-11, -0x1.fb7be00000000p-7, 0x1.84a5aa0000000p-5, -0x1.2e4dde0000000p-9, 0x1.3094c60000000p-5, -0x1.106f720000000p-5, -0x1.690a2c0000000p-5, 0x1.4b444c0000000p-5, 0x1.5d11a60000000p-6, -0x1.8d5abc0000000p-6, 0x1.e1bf360000000p-9, -0x1.38d8e00000000p-4, 0x1.93391a0000000p-5, -0x1.4c28560000000p-5, 0x1.bd41e80000000p-5, 0x1.185c780000000p-3, 0x1.847b460000000p-8, 0x1.c004b20000000p-7, -0x1.59a0400000000p-4, 0x1.6916de0000000p-9, -0x1.a029560000000p-5, -0x1.f7192a0000000p-5, 0x1.f51e660000000p-6, 0x1.0a64840000000p-4, -0x1.ea05ec0000000p-5, 0x1.03d4480000000p-4, 0x1.e860b60000000p-6, 0x1.c6a1260000000p-6, 0x1.f599e80000000p-6, 0x1.b0315a0000000p-6, 0x1.2f31140000000p-6, 0x1.8320680000000p-5, 0x1.0ee1060000000p-4, -0x1.69afd00000000p-5, 0x1.2f250e0000000p-6, -0x1.68c0f80000000p-8, -0x1.c826d20000000p-8, 0x1.2bba0a0000000p-4, 0x1.45c46e0000000p-6, -0x1.a41df00000000p-6, 0x1.d3205a0000000p-8, -0x1.c3fd3e0000000p-4, -0x1.d83cdc0000000p-9, -0x1.59438c0000000p-6, -0x1.6bed6a0000000p-6, -0x1.10e75e0000000p-5, 0x1.05a0280000000p-6, 0x1.1d11080000000p-4, 0x1.0e15260000000p-10, -0x1.17a81a0000000p-4, 0x1.16b94a0000000p-3, 0x1.83683c0000000p-6, -0x1.3e2e7c0000000p-8, -0x1.e1c2f60000000p-6, -0x1.9521aa0000000p-6, 0x1.0e2ecc0000000p-5, 0x1.17af500000000p-3, -0x1.02d4e80000000p-6, 0x1.baa7320000000p-5, 0x1.45aee80000000p-8, 0x1.9687a80000000p-4, -0x1.7bc7160000000p-4, 0x1.7fb9540000000p-4, 0x1.1123780000000p-6, 0x1.3d19500000000p-5, -0x1.06e4a00000000p-4, -0x1.ea1dc40000000p-10, 0x1.0111cc0000000p-3, 0x1.195b120000000p-5, 0x1.49bed40000000p-4, 0x1.b1e8280000000p-5, -0x1.874c700000000p-4, -0x1.5a02a60000000p-5, -0x1.da1f580000000p-4, -0x1.76d2280000000p-4, 0x1.1b6aa20000000p-5, -0x1.b3056a0000000p-7, -0x1.f7ede00000000p-6, -0x1.1ea8180000000p-4, 0x1.2102ae0000000p-6, -0x1.731cd00000000p-8, 0x1.12cbf00000000p-5, -0x1.f34f5c0000000p-4, -0x1.2a00940000000p-6, 0x1.d45e3c0000000p-5, 0x1.ac64d80000000p-9, -0x1.cd7f9a0000000p-11, -0x1.1e39380000000p-9, 0x1.ce7b9a0000000p-4, 0x1.3a8b140000000p-4, -0x1.0b09f40000000p-4, -0x1.b0925c0000000p-7, 0x1.bb202a0000000p-5, 0x1.a6f5500000000p-5, 0x1.b4df7e0000000p-10, 0x1.2b15340000000p-4, -0x1.892db20000000p-6, 0x1.1bdf340000000p-11, 0x1.6015d80000000p-4, -0x1.9b7f6a0000000p-4, 0x1.c3824c0000000p-13, -0x1.49f2ae0000000p-5, 0x1.de8fc80000000p-5, 0x1.40fc5a0000000p-4, -0x1.d1b8a00000000p-6, -0x1.41b5600000000p-6, 0x1.9416940000000p-4, 0x1.0ebb460000000p-5, -0x1.91836e0000000p-4, -0x1.cdc05a0000000p-5, -0x1.a8466a0000000p-4, 0x1.0c5df20000000p-3, 0x1.63db200000000p-4, -0x1.49e4f60000000p-5, 0x1.25d7a20000000p-4, 0x1.4924b20000000p-7, 0x1.8ead840000000p-6, -0x1.a0695e0000000p-4, 0x1.18757c0000000p-4, -0x1.e17a740000000p-7, -0x1.fb3ce60000000p-4, 0x1.b7f96a0000000p-5, 0x1.6c8dfa0000000p-4, -0x1.3581340000000p-4, -0x1.4a8e060000000p-5, -0x1.582c680000000p-5, -0x1.9b4b0e0000000p-5, -0x1.6873b60000000p-3}
}
, {{-0x1.76cf340000000p-4, 0x1.b357380000000p-6, 0x1.f296480000000p-4, -0x1.3c88360000000p-5, -0x1.6159540000000p-4, 0x1.63aeba0000000p-3, 0x1.0f2c480000000p-2, -0x1.3d01720000000p-3, 0x1.f2308a0000000p-5, -0x1.97c8c20000000p-4, 0x1.9e784c0000000p-7, -0x1.7e20e20000000p-5, -0x1.661dfc0000000p-5, -0x1.6147f40000000p-6, -0x1.b7cdf40000000p-5, 0x1.048ee80000000p-4, -0x1.4d3ccc0000000p-3, 0x1.5889500000000p-5, -0x1.1967760000000p-6, 0x1.31527e0000000p-2, -0x1.bd84a00000000p-5, -0x1.6a2e580000000p-4, 0x1.c014d40000000p-5, -0x1.4179dc0000000p-5, -0x1.6d6b800000000p-5, -0x1.0428d60000000p-5, -0x1.2ff0480000000p-4, -0x1.5e61700000000p-5, -0x1.2862460000000p-4, -0x1.cf76e60000000p-5, -0x1.63493a0000000p-5, 0x1.4c83ec0000000p-5, -0x1.b833f60000000p-7, -0x1.9e710e0000000p-4, -0x1.a921f20000000p-4, -0x1.2abf540000000p-4, 0x1.9e05200000000p-6, 0x1.2bcbfe0000000p-3, 0x1.7036080000000p-6, 0x1.ba64380000000p-7, -0x1.a7401c0000000p-4, -0x1.756e800000000p-6, 0x1.3ca7e40000000p-8, -0x1.cd54e80000000p-7, -0x1.955a200000000p-4, -0x1.1758180000000p-6, 0x1.4cedf00000000p-4, 0x1.ed6a440000000p-9, -0x1.96fbea0000000p-6, -0x1.5cd2240000000p-4, 0x1.2d8f420000000p-6, -0x1.b4134c0000000p-3, -0x1.b937b20000000p-6, -0x1.f0470a0000000p-4, -0x1.0a52ca0000000p-6, -0x1.84d44e0000000p-4, 0x1.0beace0000000p-5, 0x1.1a0f480000000p-3, 0x1.8b24b20000000p-9, -0x1.7e4dbc0000000p-4, -0x1.0109780000000p-4, 0x1.5cf4800000000p-3, -0x1.0cd4580000000p-5, -0x1.060cbc0000000p-3, 0x1.a1e5240000000p-3, -0x1.5eb1ae0000000p-8, 0x1.cd5d480000000p-4, 0x1.2fa32a0000000p-4, 0x1.f4c96e0000000p-4, 0x1.910b2e0000000p-7, 0x1.1bb6c20000000p-3, -0x1.a782840000000p-4, -0x1.4c6c2c0000000p-4, -0x1.22bcfc0000000p-4, -0x1.dc4a420000000p-5, -0x1.8814640000000p-3, -0x1.6d7a460000000p-3, 0x1.8313fa0000000p-5, -0x1.a4051c0000000p-10, -0x1.5d33360000000p-4, 0x1.e18c9a0000000p-3, -0x1.041f1c0000000p-5, -0x1.b530940000000p-7, -0x1.f35a100000000p-4, -0x1.713bbe0000000p-3, -0x1.b75a120000000p-4, 0x1.40b41a0000000p-3, -0x1.50d0060000000p-6, -0x1.2b17b20000000p-12, -0x1.2eaf140000000p-4, -0x1.a2d0f80000000p-4, -0x1.6035900000000p-6, -0x1.dfcd7a0000000p-3, -0x1.0841ee0000000p-7, -0x1.227e5a0000000p-3, -0x1.10ae900000000p-5, -0x1.bd948c0000000p-9, -0x1.28f4220000000p-4, 0x1.7e6ab60000000p-7, 0x1.cbd56e0000000p-6, -0x1.dbc0b20000000p-6, 0x1.3f894e0000000p-4, 0x1.fed5f80000000p-11, -0x1.fe4b7a0000000p-4, -0x1.0a62080000000p-5, 0x1.1c91ce0000000p-3, 0x1.afbe9c0000000p-4, -0x1.11d2c20000000p-5, -0x1.6809b80000000p-5, -0x1.bed8180000000p-4, -0x1.b446640000000p-5, -0x1.14a1600000000p-5, 0x1.8be5f40000000p-5, 0x1.5984780000000p-8, 0x1.3956220000000p-5, -0x1.91b6080000000p-4, 0x1.38b7700000000p-6, 0x1.7c01600000000p-4, 0x1.6ceab60000000p-4, -0x1.0661d40000000p-8, -0x1.a1b5be0000000p-9, 0x1.60b86c0000000p-3, 0x1.27e4560000000p-5, 0x1.83ed2c0000000p-6, 0x1.8956040000000p-4, -0x1.418b8e0000000p-4, -0x1.acdb060000000p-5, 0x1.a9c72c0000000p-6, 0x1.b1e46e0000000p-3, -0x1.00d7200000000p-3, 0x1.bcc6f00000000p-4, -0x1.268ec00000000p-4, 0x1.2046280000000p-5, 0x1.ad52880000000p-4, 0x1.313d040000000p-3, 0x1.aa16660000000p-7, 0x1.e4137a0000000p-5, 0x1.a8c71c0000000p-7, 0x1.885c660000000p-3, 0x1.574e9a0000000p-3, -0x1.6f98940000000p-4, 0x1.8bed300000000p-7, 0x1.b535780000000p-5, -0x1.10b2c40000000p-5, 0x1.4ecb8e0000000p-4, -0x1.ae7fd60000000p-5, 0x1.b7e56c0000000p-4, -0x1.9dea2a0000000p-4, -0x1.5093880000000p-3, -0x1.0e01560000000p-5, -0x1.53dfba0000000p-8, 0x1.5c0f8e0000000p-6, -0x1.0bfbb40000000p-4, 0x1.e2fd6a0000000p-6, 0x1.60318e0000000p-4, -0x1.fac9100000000p-15, 0x1.a2f87a0000000p-4, -0x1.02e9520000000p-4, -0x1.0ea83c0000000p-4, 0x1.100d9e0000000p-4, -0x1.be42a00000000p-9, 0x1.afefd00000000p-5, 0x1.17e4ee0000000p-6, 0x1.5451b40000000p-3, 0x1.e4602c0000000p-12, -0x1.e4b77e0000000p-7, 0x1.e058700000000p-7, 0x1.b819840000000p-4, 0x1.a0b4a40000000p-6, 0x1.3210080000000p-4, 0x1.13bcd60000000p-2, 0x1.d6b7000000000p-8, 0x1.b465520000000p-8, -0x1.355b900000000p-4, -0x1.96ff1c0000000p-4, 0x1.2685be0000000p-3, -0x1.764f860000000p-6, -0x1.4dee9c0000000p-4, 0x1.f809d40000000p-10, 0x1.919c980000000p-3, -0x1.6110be0000000p-4, 0x1.cd81540000000p-7, 0x1.cd1cd00000000p-3, -0x1.99b21a0000000p-4, -0x1.3f0b960000000p-3, -0x1.17ff1e0000000p-3, 0x1.24595a0000000p-3, 0x1.08ffe80000000p-3, 0x1.4b64ae0000000p-7, 0x1.740f8a0000000p-12, -0x1.675bd80000000p-3, -0x1.c7cd200000000p-6, 0x1.1e71c40000000p-4, 0x1.259eb80000000p-3, -0x1.ff8a240000000p-5, -0x1.486c5e0000000p-4, -0x1.e9a8fa0000000p-7, -0x1.48f9520000000p-6, -0x1.463dae0000000p-5, 0x1.e5d3060000000p-4, 0x1.49615e0000000p-4, -0x1.dfaa2c0000000p-6, -0x1.2638ee0000000p-3, -0x1.c38cde0000000p-7, -0x1.2835b60000000p-5, 0x1.6e80ee0000000p-5, 0x1.644c740000000p-4, 0x1.7fb1ee0000000p-3, 0x1.292a480000000p-5, 0x1.8713a40000000p-9, 0x1.87a0d00000000p-6, -0x1.bb4fda0000000p-3, -0x1.705acc0000000p-5, -0x1.2691ca0000000p-7, 0x1.79b8840000000p-3, -0x1.50da6e0000000p-7, -0x1.4f835c0000000p-4, -0x1.8e4b100000000p-4, -0x1.63437c0000000p-5, 0x1.9bcf6a0000000p-6, -0x1.7567560000000p-3, 0x1.c87e600000000p-10, 0x1.1e11fa0000000p-4, -0x1.d5cd780000000p-5, 0x1.625b580000000p-4, 0x1.3d7e800000000p-2, 0x1.531b260000000p-4, -0x1.0ed00e0000000p-2, -0x1.5d212e0000000p-5, -0x1.821d220000000p-4, 0x1.16d6fa0000000p-4, -0x1.0f64b40000000p-5, 0x1.c0b34c0000000p-5, -0x1.3f47d80000000p-6, -0x1.f8148c0000000p-4, 0x1.54bbdc0000000p-4, -0x1.33c25a0000000p-4, -0x1.293f040000000p-4, 0x1.e9dc4c0000000p-7, -0x1.8904de0000000p-6, 0x1.ec52de0000000p-3, 0x1.13db7c0000000p-3, -0x1.f289e80000000p-6, -0x1.46f0c80000000p-8, 0x1.a207580000000p-7, -0x1.20c2620000000p-2, -0x1.4a5ae20000000p-4, 0x1.98e1140000000p-6, -0x1.c5bad40000000p-5, 0x1.79655a0000000p-4, 0x1.a9dd2c0000000p-4, 0x1.f061ee0000000p-4, -0x1.8c26820000000p-6, -0x1.bb3bae0000000p-4, 0x1.4028c60000000p-2, -0x1.f4ee700000000p-4}
, {-0x1.4c26760000000p-5, 0x1.021c340000000p-3, 0x1.2255d60000000p-3, 0x1.a07d440000000p-3, -0x1.31ed720000000p-5, 0x1.b7173e0000000p-5, 0x1.5bcc9e0000000p-4, -0x1.6ee60e0000000p-4, 0x1.2911560000000p-5, 0x1.562ce40000000p-4, 0x1.56ed460000000p-5, 0x1.fbeb9a0000000p-5, 0x1.2de0120000000p-3, -0x1.e01daa0000000p-4, -0x1.26586e0000000p-5, 0x1.88e7320000000p-6, -0x1.e2edca0000000p-5, 0x1.65e9220000000p-3, 0x1.a5673e0000000p-4, 0x1.176ce60000000p-4, -0x1.047ba00000000p-3, 0x1.9702880000000p-11, 0x1.ee49260000000p-5, -0x1.de64b40000000p-5, 0x1.f49d0c0000000p-5, -0x1.d596fc0000000p-5, -0x1.06565a0000000p-2, -0x1.157d6c0000000p-8, 0x1.4414240000000p-4, 0x1.5a1c080000000p-3, 0x1.2294d20000000p-4, -0x1.1172960000000p-4, 0x1.bb9e760000000p-7, -0x1.01fd100000000p-4, 0x1.db54420000000p-7, -0x1.0ff4220000000p-4, -0x1.faf8f80000000p-4, 0x1.50e5240000000p-4, 0x1.3423d20000000p-5, -0x1.6f7b3e0000000p-3, 0x1.0cde860000000p-3, 0x1.16055c0000000p-5, 0x1.7c53460000000p-5, 0x1.6978900000000p-6, -0x1.3d8de60000000p-4, 0x1.123ca40000000p-4, 0x1.2c49f60000000p-5, 0x1.bae51a0000000p-6, 0x1.baccdc0000000p-3, 0x1.48574e0000000p-8, 0x1.b7c82e0000000p-7, 0x1.87a6540000000p-4, 0x1.e72a2e0000000p-4, -0x1.1364400000000p-5, -0x1.63b6820000000p-4, -0x1.17d7140000000p-6, -0x1.e981d20000000p-4, 0x1.0936e80000000p-6, -0x1.7f36260000000p-5, 0x1.0c69ce0000000p-4, 0x1.71b4e00000000p-5, 0x1.b06d280000000p-4, 0x1.c3f25c0000000p-5, 0x1.01b06c0000000p-4, -0x1.d06ae00000000p-8, -0x1.26dd820000000p-5, -0x1.ba70440000000p-4, -0x1.0a54e60000000p-4, 0x1.3e0b3c0000000p-5, 0x1.142f220000000p-3, -0x1.9bd6a40000000p-5, -0x1.0aa3780000000p-6, -0x1.fa184c0000000p-5, 0x1.8e88500000000p-9, -0x1.4a408e0000000p-7, -0x1.5e21300000000p-6, -0x1.645f2c0000000p-8, 0x1.e820480000000p-5, 0x1.1cb45e0000000p-4, 0x1.7f0fa00000000p-4, 0x1.00f5920000000p-3, -0x1.49dbd80000000p-4, -0x1.77a9d80000000p-5, -0x1.8903ae0000000p-5, -0x1.e1a5700000000p-5, 0x1.91c08a0000000p-4, 0x1.5c89b40000000p-6, -0x1.f7e9680000000p-8, -0x1.3202ea0000000p-5, 0x1.d75dea0000000p-4, -0x1.5c39220000000p-4, -0x1.5bd4c00000000p-4, -0x1.29eee00000000p-4, 0x1.57d1d80000000p-4, 0x1.21fdb80000000p-6, -0x1.7668f00000000p-4, 0x1.2b1c980000000p-5, 0x1.70a7040000000p-5, 0x1.30abea0000000p-5, 0x1.c2b6a80000000p-6, -0x1.4e472e0000000p-9, -0x1.0244de0000000p-6, -0x1.d0ba320000000p-8, -0x1.dc98060000000p-6, 0x1.b57ebc0000000p-4, 0x1.1b72020000000p-4, 0x1.adf42e0000000p-5, -0x1.88ca780000000p-5, 0x1.9066220000000p-4, -0x1.a029980000000p-6, 0x1.8c758c0000000p-6, 0x1.b110fa0000000p-5, 0x1.7d8b9a0000000p-5, -0x1.0d154a0000000p-3, -0x1.ef13860000000p-4, -0x1.59d5c60000000p-4, 0x1.cb89020000000p-7, -0x1.ca281c0000000p-5, 0x1.261c680000000p-7, 0x1.9e04060000000p-5, 0x1.7a6cf20000000p-5, 0x1.f9e8c80000000p-6, 0x1.f380b80000000p-6, 0x1.0ca35e0000000p-3, -0x1.1124e80000000p-5, 0x1.1fa3d60000000p-5, -0x1.8c8c100000000p-5, -0x1.592e0c0000000p-5, 0x1.a651c80000000p-7, 0x1.8ed0740000000p-5, -0x1.e710020000000p-5, -0x1.e9e9420000000p-4, 0x1.11c5b60000000p-4, 0x1.42833a0000000p-3, -0x1.02b3b80000000p-3, -0x1.f762300000000p-5, -0x1.13fe200000000p-6, 0x1.788b4e0000000p-5, -0x1.2e16c80000000p-5, 0x1.dc46620000000p-4, 0x1.638e900000000p-5, -0x1.2f41f20000000p-8, -0x1.123c280000000p-4, -0x1.c793320000000p-5, -0x1.48e2040000000p-4, -0x1.73588c0000000p-4, 0x1.1a0f280000000p-5, -0x1.626b520000000p-9, 0x1.31d1f80000000p-5, -0x1.8629300000000p-5, -0x1.02fde60000000p-5, -0x1.61c9040000000p-5, 0x1.57ef740000000p-7, -0x1.38a0fe0000000p-5, 0x1.93cb640000000p-6, -0x1.85c0240000000p-5, -0x1.1530ba0000000p-6, 0x1.245cde0000000p-3, -0x1.41123a0000000p-5, 0x1.7edf7a0000000p-4, 0x1.77f8040000000p-4, -0x1.95bc0e0000000p-5, 0x1.4b2ad20000000p-4, 0x1.3483960000000p-5, 0x1.1a9c1c0000000p-5, -0x1.4cda540000000p-5, 0x1.dff4380000000p-6, -0x1.1830440000000p-3, 0x1.882d180000000p-6, -0x1.affabc0000000p-3, 0x1.fd57f80000000p-5, -0x1.c23f040000000p-6, -0x1.5df2aa0000000p-3, 0x1.1880460000000p-4, 0x1.7d3e040000000p-8, -0x1.1244720000000p-7, 0x1.d44e260000000p-5, -0x1.5c6ffa0000000p-4, -0x1.055ce80000000p-7, 0x1.0ab43a0000000p-4, -0x1.519c300000000p-5, -0x1.7b2e960000000p-4, 0x1.1fc98a0000000p-3, -0x1.aa073e0000000p-5, -0x1.4f61900000000p-6, 0x1.4fda560000000p-5, 0x1.e3e9fc0000000p-5, -0x1.1582700000000p-4, -0x1.7e3cb60000000p-3, -0x1.b5b5a20000000p-7, -0x1.78c91e0000000p-5, 0x1.e5acac0000000p-5, 0x1.1c8e8e0000000p-4, 0x1.f242e80000000p-5, 0x1.9cb6a20000000p-4, -0x1.05cc440000000p-6, -0x1.6db72a0000000p-6, -0x1.018fe80000000p-3, -0x1.a478e00000000p-4, -0x1.ecb2460000000p-5, -0x1.28ed7c0000000p-6, 0x1.04b1620000000p-8, 0x1.e1a3500000000p-5, -0x1.0d38780000000p-5, -0x1.a7d2800000000p-6, 0x1.e3d1120000000p-5, 0x1.0a2bd80000000p-4, -0x1.a272ba0000000p-4, 0x1.0bdf3c0000000p-5, -0x1.eecd660000000p-5, -0x1.932d6a0000000p-8, 0x1.80c0980000000p-4, -0x1.537b000000000p-5, 0x1.9a47b20000000p-4, 0x1.086a480000000p-6, -0x1.0698480000000p-4, -0x1.ca6c980000000p-8, -0x1.3f286a0000000p-5, 0x1.8bcc0c0000000p-6, 0x1.0dfe400000000p-4, 0x1.c05d0a0000000p-5, -0x1.80c5e40000000p-4, 0x1.380ac60000000p-7, -0x1.3797800000000p-5, -0x1.b26a2e0000000p-5, 0x1.67425c0000000p-5, -0x1.f43fd60000000p-5, -0x1.bb7c840000000p-5, -0x1.4423ec0000000p-4, 0x1.587cc80000000p-4, -0x1.fdce780000000p-9, 0x1.c7c4960000000p-3, -0x1.49ef520000000p-4, 0x1.03a9b80000000p-6, 0x1.966f560000000p-5, 0x1.4b4a780000000p-4, 0x1.5263840000000p-5, -0x1.046e840000000p-6, -0x1.0738f40000000p-3, -0x1.cc6f360000000p-5, -0x1.ef872c0000000p-5, 0x1.2a2d040000000p-9, 0x1.74a9a00000000p-4, 0x1.11351a0000000p-6, 0x1.03bfec0000000p-4, 0x1.949c3e0000000p-5, 0x1.6d60600000000p-9, -0x1.2ab79c0000000p-4, 0x1.d1655a0000000p-4, 0x1.a74e840000000p-4, 0x1.e528180000000p-5, 0x1.3144fe0000000p-4, -0x1.f318ae0000000p-5, -0x1.2e13140000000p-5, 0x1.4c3d700000000p-3, 0x1.157ec20000000p-4}
, {0x1.9069480000000p-5, -0x1.88c1680000000p-4, 0x1.7489820000000p-4, 0x1.c7c2a20000000p-4, 0x1.3ecb480000000p-7, 0x1.9081100000000p-5, 0x1.39c7b60000000p-4, -0x1.fa92780000000p-4, 0x1.0db6420000000p-5, -0x1.d56dda0000000p-5, -0x1.f9aa1a0000000p-5, -0x1.5df4640000000p-4, -0x1.a5f68c0000000p-5, -0x1.e665ee0000000p-3, 0x1.5ce5a60000000p-4, -0x1.130b400000000p-4, -0x1.0986e00000000p-5, 0x1.d63eb00000000p-5, -0x1.878eb20000000p-2, 0x1.b0a7b20000000p-5, -0x1.f281ae0000000p-8, -0x1.ad7cb00000000p-4, 0x1.ef428e0000000p-4, 0x1.e13c6e0000000p-4, -0x1.eee80e0000000p-6, -0x1.dd464a0000000p-4, -0x1.f747140000000p-4, -0x1.31df9a0000000p-4, -0x1.df85e20000000p-5, -0x1.35f6da0000000p-4, -0x1.6ff1de0000000p-4, -0x1.f632d40000000p-5, -0x1.27b1880000000p-3, 0x1.99c66a0000000p-4, -0x1.d5cd7e0000000p-4, 0x1.8226c60000000p-5, -0x1.51210a0000000p-4, 0x1.624fac0000000p-8, -0x1.df600a0000000p-4, 0x1.2f9a100000000p-5, 0x1.dd12560000000p-4, 0x1.8450680000000p-5, -0x1.8f13460000000p-3, -0x1.db86680000000p-7, -0x1.4553680000000p-7, -0x1.325b940000000p-3, -0x1.229f320000000p-3, -0x1.574cf80000000p-4, -0x1.6d4d200000000p-4, 0x1.4528100000000p-4, -0x1.1cf4060000000p-5, -0x1.4c4e100000000p-4, -0x1.ead0fa0000000p-3, 0x1.9fbfe00000000p-6, 0x1.87ec360000000p-5, -0x1.5a91020000000p-5, -0x1.9cd48c0000000p-4, 0x1.28cccc0000000p-4, 0x1.8d6dc20000000p-5, -0x1.9118c40000000p-6, 0x1.04554a0000000p-5, -0x1.4c666a0000000p-5, 0x1.706f700000000p-5, 0x1.82f4200000000p-9, -0x1.9e3bde0000000p-5, -0x1.2f0e800000000p-6, -0x1.d3a5f60000000p-3, -0x1.be867a0000000p-5, -0x1.354f520000000p-4, 0x1.3d74d40000000p-5, -0x1.7f2a460000000p-5, -0x1.3dbc280000000p-5, 0x1.5727920000000p-4, -0x1.02fcbc0000000p-5, -0x1.4527de0000000p-4, -0x1.2f1d4a0000000p-5, 0x1.4439ee0000000p-5, 0x1.f2d2500000000p-5, -0x1.8f7ee20000000p-5, -0x1.0710540000000p-7, -0x1.2a14360000000p-5, 0x1.82656e0000000p-4, 0x1.231c600000000p-3, -0x1.1602500000000p-3, -0x1.412da60000000p-5, -0x1.81fa160000000p-6, 0x1.2f27ce0000000p-4, 0x1.8ab8420000000p-5, -0x1.46759a0000000p-8, 0x1.aaee240000000p-6, -0x1.d550220000000p-4, 0x1.30f6580000000p-5, 0x1.d90bda0000000p-4, 0x1.9161360000000p-6, -0x1.5441ec0000000p-3, 0x1.9aa7a60000000p-6, 0x1.f1399c0000000p-7, -0x1.c92d2e0000000p-5, 0x1.03748c0000000p-4, 0x1.823ea20000000p-8, -0x1.d55ff00000000p-3, -0x1.2941d00000000p-6, 0x1.5798aa0000000p-4, -0x1.abc94c0000000p-5, 0x1.697d080000000p-6, -0x1.6432de0000000p-4, 0x1.1981380000000p-3, -0x1.12f6cc0000000p-3, -0x1.0200720000000p-4, 0x1.6b210c0000000p-7, -0x1.1763260000000p-6, -0x1.e70dde0000000p-4, 0x1.be5f240000000p-6, -0x1.148d7e0000000p-3, 0x1.ac53f40000000p-3, -0x1.0a5af60000000p-5, -0x1.0e36520000000p-3, -0x1.66ae4a0000000p-3, 0x1.3af62c0000000p-6, 0x1.1d33560000000p-4, -0x1.2e47e20000000p-4, 0x1.b0c3140000000p-4, 0x1.2eb9660000000p-4, -0x1.4af0020000000p-6, -0x1.a8805c0000000p-6, 0x1.1bcc780000000p-4, 0x1.a233e40000000p-7, -0x1.7071e80000000p-4, -0x1.88c4720000000p-6, 0x1.9c63ec0000000p-4, -0x1.5551d60000000p-3, -0x1.9874940000000p-3, 0x1.ddae040000000p-5, -0x1.3c2c480000000p-4, -0x1.e266460000000p-4, -0x1.7b48680000000p-3, 0x1.90ff540000000p-10, -0x1.3d1da40000000p-5, -0x1.81c2fe0000000p-5, -0x1.d54bc20000000p-4, -0x1.6f4fea0000000p-6, -0x1.5ff8ee0000000p-5, -0x1.4d94200000000p-8, 0x1.3accf80000000p-6, 0x1.710ea00000000p-6, -0x1.0e5e6a0000000p-4, 0x1.659d1a0000000p-5, -0x1.a1d4bc0000000p-3, 0x1.055c780000000p-4, -0x1.d0e5dc0000000p-4, 0x1.e5756a0000000p-5, -0x1.9592ac0000000p-5, -0x1.fe67b20000000p-7, 0x1.520f540000000p-8, 0x1.0064ec0000000p-6, -0x1.5a52ec0000000p-5, -0x1.1fbe380000000p-6, 0x1.3d3a640000000p-6, -0x1.2d6c960000000p-3, 0x1.10219e0000000p-4, 0x1.a4727a0000000p-6, -0x1.1096fa0000000p-4, -0x1.b10f540000000p-4, -0x1.360d260000000p-4, 0x1.8eba7a0000000p-5, 0x1.a999020000000p-6, 0x1.54bae20000000p-4, -0x1.4ced740000000p-4, -0x1.035a3c0000000p-4, -0x1.01398e0000000p-8, -0x1.87602c0000000p-10, 0x1.3ee4220000000p-7, 0x1.3c82e80000000p-4, 0x1.9834660000000p-8, -0x1.5f736e0000000p-5, 0x1.a20faa0000000p-5, 0x1.fd8f480000000p-6, -0x1.5c49960000000p-3, 0x1.dbe6080000000p-5, -0x1.43649e0000000p-5, 0x1.aa441c0000000p-5, -0x1.0f85a60000000p-6, -0x1.4c94180000000p-4, -0x1.218b880000000p-4, 0x1.eb88940000000p-4, -0x1.980ce20000000p-3, -0x1.f52efa0000000p-4, 0x1.a0d4e80000000p-6, -0x1.e565360000000p-5, -0x1.08164a0000000p-3, -0x1.2728440000000p-9, 0x1.a549ce0000000p-7, 0x1.78194a0000000p-5, -0x1.dc60320000000p-6, -0x1.8ec5d20000000p-9, 0x1.a5663e0000000p-7, 0x1.7f2cb00000000p-6, 0x1.bd33320000000p-4, 0x1.4c08720000000p-3, -0x1.7bf5e60000000p-4, -0x1.fe077c0000000p-4, 0x1.45846c0000000p-5, -0x1.93c0060000000p-7, -0x1.63d1da0000000p-5, 0x1.de448c0000000p-5, -0x1.37d1400000000p-3, -0x1.3407ee0000000p-3, 0x1.a4fe520000000p-7, 0x1.6e32840000000p-5, 0x1.4da4c80000000p-4, 0x1.b45a180000000p-4, 0x1.6923b80000000p-5, -0x1.1045ce0000000p-5, 0x1.a5eef60000000p-4, -0x1.77e0e00000000p-4, -0x1.02d4aa0000000p-4, 0x1.f921320000000p-5, -0x1.b03b160000000p-5, 0x1.8bb9f80000000p-6, -0x1.4e366c0000000p-3, -0x1.53c3000000000p-2, -0x1.551cf80000000p-6, -0x1.8735b80000000p-5, -0x1.76b80c0000000p-3, 0x1.e8e6be0000000p-8, -0x1.39cef60000000p-4, -0x1.c53e140000000p-7, 0x1.49ab880000000p-5, -0x1.e772920000000p-4, -0x1.36a21a0000000p-4, -0x1.65b20c0000000p-6, 0x1.7d7cd00000000p-4, -0x1.27c2b60000000p-5, 0x1.3dde620000000p-3, 0x1.a6c44e0000000p-4, -0x1.44a8000000000p-3, -0x1.6b92840000000p-8, 0x1.3c44e80000000p-4, -0x1.2db63e0000000p-3, -0x1.0aff700000000p-8, 0x1.8f4cc40000000p-4, -0x1.1c58a80000000p-3, -0x1.e9d78e0000000p-5, 0x1.79090e0000000p-4, 0x1.36f6a20000000p-4, -0x1.85c6c60000000p-5, 0x1.be57120000000p-6, -0x1.d9fda40000000p-7, -0x1.8993ce0000000p-4, -0x1.e5d8520000000p-5, -0x1.01bd6e0000000p-3, -0x1.50cc320000000p-3, -0x1.26c1060000000p-7, -0x1.829c920000000p-6, -0x1.07d9120000000p-6, -0x1.81c44c0000000p-9}
}
}
, {{{-0x1.2548840000000p-5, -0x1.6402580000000p-5, 0x1.6fa9dc0000000p-6, -0x1.6649a40000000p-7, 0x1.8b389a0000000p-12, 0x1.3c226c0000000p-6, 0x1.17c6920000000p-5, -0x1.88fca20000000p-5, -0x1.89ea320000000p-6, -0x1.36b00a0000000p-5, 0x1.5967800000000p-7, -0x1.6ac84c0000000p-5, -0x1.d9421c0000000p-6, 0x1.83fc1c0000000p-7, 0x1.32ba600000000p-5, 0x1.3c55120000000p-10, -0x1.e44c2a0000000p-6, -0x1.96e0a40000000p-5, -0x1.1a79fe0000000p-9, -0x1.ba05160000000p-6, 0x1.d3f2460000000p-6, -0x1.6974180000000p-7, 0x1.09ebd00000000p-5, -0x1.b16bde0000000p-7, 0x1.d437e20000000p-9, -0x1.f1bf500000000p-7, -0x1.9666f80000000p-12, 0x1.3c55dc0000000p-5, -0x1.e82f900000000p-6, -0x1.303e7a0000000p-6, -0x1.8a5c020000000p-6, -0x1.6a127c0000000p-5, 0x1.30130a0000000p-7, -0x1.0682aa0000000p-4, -0x1.4957660000000p-7, 0x1.f332000000000p-7, 0x1.6e6db80000000p-9, -0x1.c1ba6a0000000p-8, 0x1.3c79ea0000000p-6, 0x1.2557e80000000p-6, 0x1.65abf00000000p-9, -0x1.2c8ca00000000p-8, -0x1.c8ad480000000p-7, -0x1.0eed1e0000000p-7, -0x1.0884bc0000000p-5, -0x1.17a2580000000p-5, -0x1.bae5300000000p-5, 0x1.d75e260000000p-10, -0x1.b1e8ee0000000p-6, 0x1.1c45300000000p-5, 0x1.6d17720000000p-6, 0x1.2d38d00000000p-6, 0x1.46fe1c0000000p-6, -0x1.e32e5e0000000p-7, -0x1.5938620000000p-5, -0x1.2eb3540000000p-6, -0x1.f194b80000000p-6, -0x1.2d3b320000000p-6, -0x1.e6078e0000000p-5, 0x1.ef3cda0000000p-7, 0x1.5da5ee0000000p-8, 0x1.99de6e0000000p-11, 0x1.7e019a0000000p-5, 0x1.ac8b860000000p-6, 0x1.a14bea0000000p-6, 0x1.6cec640000000p-8, -0x1.3184000000000p-14, -0x1.0f52960000000p-6, -0x1.429bb80000000p-5, 0x1.2c45480000000p-7, 0x1.6481ae0000000p-5, 0x1.a057580000000p-8, -0x1.1f97160000000p-5, -0x1.510d120000000p-5, -0x1.4620720000000p-5, -0x1.3fd0c20000000p-6, -0x1.683e300000000p-5, -0x1.6c109c0000000p-5, 0x1.0155a80000000p-7, -0x1.3137240000000p-14, 0x1.335f100000000p-11, -0x1.b6052a0000000p-6, 0x1.d40d720000000p-8, 0x1.74de300000000p-7, -0x1.974b840000000p-5, -0x1.a391d80000000p-5, -0x1.a2a3f60000000p-6, 0x1.854c9c0000000p-6, -0x1.3e4e5c0000000p-5, -0x1.39b6300000000p-8, -0x1.a8b5900000000p-6, -0x1.d3ba020000000p-5, -0x1.56dc000000000p-6, -0x1.4a2ec40000000p-5, 0x1.151c040000000p-7, 0x1.870e8e0000000p-6, 0x1.fa00a20000000p-7, 0x1.8ad84c0000000p-7, -0x1.2b916a0000000p-6, -0x1.902cce0000000p-5, -0x1.ead4fa0000000p-5, -0x1.5a6e480000000p-5, 0x1.14d7b20000000p-10, 0x1.f244f80000000p-8, -0x1.ac306e0000000p-6, -0x1.35a12a0000000p-7, 0x1.5cd4c40000000p-8, 0x1.126ee00000000p-7, 0x1.5195b20000000p-9, -0x1.1dfba60000000p-5, 0x1.1ea5be0000000p-6, -0x1.40704a0000000p-6, -0x1.3da9ba0000000p-10, 0x1.90d6be0000000p-6, -0x1.da3be20000000p-5, 0x1.68d64a0000000p-6, 0x1.5b507a0000000p-5, -0x1.546dc40000000p-5, 0x1.180b100000000p-5, 0x1.6f6b6e0000000p-5, -0x1.6311920000000p-6, -0x1.6e93800000000p-5, 0x1.7edd5a0000000p-6, 0x1.2b20320000000p-6, -0x1.f00dbc0000000p-8, -0x1.f86f7a0000000p-6, -0x1.6730860000000p-5, -0x1.6d8b5c0000000p-10, -0x1.68e0ba0000000p-7, -0x1.1f614a0000000p-5, 0x1.c731360000000p-8, 0x1.6d6d8e0000000p-5, -0x1.201c680000000p-5, -0x1.1963900000000p-7, -0x1.f611900000000p-8, -0x1.421f2e0000000p-8, -0x1.52786e0000000p-7, -0x1.dad7760000000p-6, -0x1.166a240000000p-6, -0x1.862abe0000000p-5, -0x1.3531c40000000p-5, -0x1.13688c0000000p-6, -0x1.7a1b2e0000000p-5, -0x1.4beb5a0000000p-5, -0x1.6cf80c0000000p-5, 0x1.6958be0000000p-5, 0x1.3cb5de0000000p-6, -0x1.5d41880000000p-5, -0x1.36c4e00000000p-6, -0x1.1826ba0000000p-5, -0x1.6bee8a0000000p-8, 0x1.22ee320000000p-5, -0x1.0b66220000000p-5, 0x1.decf340000000p-6, 0x1.f8eaf80000000p-8, 0x1.7522100000000p-7, 0x1.56dde80000000p-8, 0x1.44bb800000000p-6, 0x1.b1dc220000000p-7, -0x1.3555e40000000p-5, 0x1.2cf41e0000000p-5, 0x1.1785300000000p-13, -0x1.9f5b9e0000000p-5, -0x1.76777c0000000p-5, 0x1.25472c0000000p-6, -0x1.6512200000000p-7, -0x1.a6c6c80000000p-7, 0x1.1eed2a0000000p-5, 0x1.b790300000000p-6, 0x1.77aae20000000p-6, 0x1.4275720000000p-9, 0x1.043b900000000p-13, 0x1.c69d480000000p-6, -0x1.89f28c0000000p-10, -0x1.bcdd1e0000000p-11, -0x1.bf6c240000000p-7, 0x1.1fb8d60000000p-6, -0x1.ec8d440000000p-6, -0x1.194ac20000000p-11, -0x1.b5b69e0000000p-7, 0x1.25de5a0000000p-9, -0x1.9fac940000000p-6, 0x1.78548a0000000p-9, -0x1.325e840000000p-5, -0x1.0a905a0000000p-8, 0x1.0c2e8c0000000p-5, -0x1.7b56080000000p-5, 0x1.fd9eec0000000p-6, -0x1.6c4d9e0000000p-6, 0x1.5806540000000p-5, -0x1.e90e4c0000000p-7, -0x1.6b27260000000p-5, 0x1.f2a7540000000p-6, 0x1.809a620000000p-6, 0x1.e31ee80000000p-6, -0x1.7727e80000000p-6, -0x1.de99e80000000p-5, 0x1.850c6e0000000p-5, 0x1.46a1300000000p-7, -0x1.ac6c460000000p-7, -0x1.78c30e0000000p-5, 0x1.3db1ea0000000p-7, -0x1.a147fa0000000p-6, 0x1.80faa00000000p-5, -0x1.e3bab80000000p-9, -0x1.df603e0000000p-9, -0x1.16d3aa0000000p-5, -0x1.cb01800000000p-6, 0x1.d28ea20000000p-6, -0x1.82f4900000000p-5, -0x1.0bec1e0000000p-4, -0x1.84f9ea0000000p-5, -0x1.5cf5d00000000p-10, 0x1.b8194a0000000p-7, -0x1.b26eca0000000p-6, 0x1.c81de00000000p-8, 0x1.3a30fc0000000p-7, -0x1.49a5200000000p-5, 0x1.24e71a0000000p-5, -0x1.ced4800000000p-10, -0x1.c9ef1c0000000p-5, -0x1.dc65820000000p-5, -0x1.0106560000000p-5, 0x1.e587000000000p-8, -0x1.50db600000000p-5, 0x1.5f83700000000p-5, 0x1.48baf60000000p-5, -0x1.32a1180000000p-5, -0x1.04dfa40000000p-4, -0x1.b3cc800000000p-6, -0x1.c88f0e0000000p-6, 0x1.8b93740000000p-7, -0x1.4e0ac00000000p-7, -0x1.78504a0000000p-5, 0x1.37c0a40000000p-5, 0x1.37a4ac0000000p-5, -0x1.5eadce0000000p-7, 0x1.2b7e3e0000000p-5, 0x1.0b5ad80000000p-5, -0x1.0760ec0000000p-5, 0x1.6fdb980000000p-8, -0x1.b177fc0000000p-6, -0x1.4ae9740000000p-5, -0x1.10fa0c0000000p-7, -0x1.457dd00000000p-7, 0x1.1a17220000000p-6, 0x1.32e2140000000p-10, -0x1.77f6ca0000000p-5, 0x1.d296640000000p-9, -0x1.9debe40000000p-5, 0x1.8212820000000p-6, -0x1.17e1000000000p-6, 0x1.608c900000000p-5, -0x1.63f01a0000000p-5, -0x1.77959a0000000p-5, -0x1.f8181a0000000p-7}
, {-0x1.658f3a0000000p-7, 0x1.f3c4520000000p-10, 0x1.16035c0000000p-5, -0x1.d026580000000p-7, -0x1.4a03020000000p-10, -0x1.3f938a0000000p-5, 0x1.5152e20000000p-5, -0x1.0a59ee0000000p-6, 0x1.3f83380000000p-8, -0x1.30af1c0000000p-6, -0x1.5cc5900000000p-7, 0x1.11d5fa0000000p-6, 0x1.176e780000000p-7, -0x1.caa4800000000p-6, 0x1.9cf6880000000p-5, 0x1.6e19380000000p-6, -0x1.11b8660000000p-4, -0x1.0bcbd60000000p-7, -0x1.121f240000000p-4, 0x1.a76a4a0000000p-6, -0x1.9f0be80000000p-6, -0x1.8614800000000p-5, 0x1.deee680000000p-6, 0x1.bb19e80000000p-7, -0x1.8112840000000p-7, -0x1.7810100000000p-5, -0x1.e7d0d60000000p-5, -0x1.021ee80000000p-6, 0x1.ee96a80000000p-7, -0x1.1dfd6e0000000p-5, -0x1.e5e3dc0000000p-5, 0x1.07e32c0000000p-5, 0x1.7e4ee40000000p-6, -0x1.33d4880000000p-4, 0x1.81e5980000000p-9, 0x1.6b95f40000000p-8, 0x1.bcaea20000000p-8, 0x1.4fbdb40000000p-6, -0x1.1ba1340000000p-5, 0x1.0b53000000000p-7, -0x1.17130e0000000p-6, -0x1.bafdee0000000p-5, -0x1.182a880000000p-4, -0x1.0ca01e0000000p-5, -0x1.d8d8fc0000000p-5, -0x1.06ba180000000p-5, -0x1.d92aa00000000p-8, -0x1.679ea80000000p-7, -0x1.3f129a0000000p-5, -0x1.9beb080000000p-5, -0x1.7d93f40000000p-5, -0x1.a20f400000000p-6, -0x1.b25bc20000000p-8, 0x1.8d92be0000000p-6, -0x1.a23f260000000p-7, 0x1.bd74960000000p-6, -0x1.24bd3a0000000p-5, -0x1.2436f40000000p-6, 0x1.c971a80000000p-7, 0x1.74e2de0000000p-5, -0x1.cb87100000000p-5, 0x1.bc35e60000000p-6, -0x1.c860340000000p-6, 0x1.f37a6c0000000p-7, -0x1.aadd5a0000000p-5, 0x1.d3d5b80000000p-6, -0x1.0e41640000000p-6, -0x1.6edcc80000000p-5, -0x1.063af00000000p-6, -0x1.e255da0000000p-5, 0x1.7214280000000p-7, -0x1.d662b80000000p-5, -0x1.11fc000000000p-7, 0x1.192a9c0000000p-9, 0x1.8d53200000000p-7, -0x1.342fdc0000000p-5, -0x1.0f324c0000000p-4, 0x1.be732e0000000p-11, -0x1.74bd0a0000000p-8, -0x1.715a820000000p-6, -0x1.5d593c0000000p-6, 0x1.1a9c8e0000000p-8, -0x1.1bf3240000000p-6, -0x1.035e920000000p-6, -0x1.0cc1a40000000p-5, -0x1.75bdb80000000p-6, 0x1.5bbc380000000p-6, -0x1.ff302e0000000p-7, -0x1.f18f640000000p-6, 0x1.19ffec0000000p-5, -0x1.6187e60000000p-5, -0x1.e44ca40000000p-5, -0x1.3301ec0000000p-5, 0x1.7c24b40000000p-8, -0x1.3d3e600000000p-7, 0x1.a14e940000000p-6, 0x1.bba2d40000000p-6, 0x1.a47ffa0000000p-5, -0x1.fa25760000000p-5, 0x1.ecf98c0000000p-6, -0x1.b64f7a0000000p-5, 0x1.15cf4e0000000p-10, 0x1.f8bd1e0000000p-9, 0x1.e697140000000p-6, -0x1.a205f40000000p-7, 0x1.04bedc0000000p-6, 0x1.e6cc280000000p-5, 0x1.2e6bfe0000000p-5, -0x1.3658660000000p-5, -0x1.f415380000000p-5, 0x1.c190640000000p-9, 0x1.24d6c40000000p-5, -0x1.08409e0000000p-5, -0x1.9c4ea80000000p-5, -0x1.091b440000000p-5, -0x1.3883520000000p-6, -0x1.ef2dcc0000000p-5, -0x1.c44ae40000000p-5, -0x1.f6fa5a0000000p-9, -0x1.e3d1f40000000p-6, 0x1.6684ea0000000p-5, -0x1.d39e860000000p-9, 0x1.27fdc40000000p-5, -0x1.a369ee0000000p-6, -0x1.4d968e0000000p-5, -0x1.60725c0000000p-5, 0x1.1147600000000p-5, 0x1.2109220000000p-5, 0x1.423f200000000p-6, 0x1.b0d4440000000p-9, 0x1.f2561a0000000p-6, -0x1.c170320000000p-7, 0x1.0ec99e0000000p-5, -0x1.a0290e0000000p-5, -0x1.ad56400000000p-5, 0x1.14cd980000000p-6, 0x1.b2d0dc0000000p-5, -0x1.86f0680000000p-6, 0x1.93a2380000000p-5, -0x1.1708ea0000000p-8, 0x1.e165e40000000p-9, 0x1.4c2c8a0000000p-6, 0x1.c59a360000000p-7, -0x1.7b022e0000000p-6, -0x1.9542980000000p-7, -0x1.5eb8440000000p-5, 0x1.10f3f20000000p-6, -0x1.3f91b60000000p-5, 0x1.8a60f80000000p-6, -0x1.2135700000000p-5, -0x1.7a0d240000000p-8, -0x1.b946ca0000000p-5, -0x1.df5ea40000000p-7, -0x1.971c3a0000000p-8, -0x1.045fd80000000p-4, -0x1.7a56460000000p-6, -0x1.451a3a0000000p-5, -0x1.311e020000000p-6, 0x1.a9d36a0000000p-7, -0x1.930a660000000p-5, -0x1.7c908e0000000p-10, -0x1.b08b2c0000000p-6, 0x1.4332980000000p-7, -0x1.5b42cc0000000p-5, -0x1.0e91c60000000p-12, -0x1.f860000000000p-8, -0x1.46d1f20000000p-7, -0x1.4a02320000000p-7, -0x1.e340800000000p-5, 0x1.45878e0000000p-5, 0x1.5935800000000p-8, -0x1.902e760000000p-11, 0x1.1e4fea0000000p-6, -0x1.29a3740000000p-7, 0x1.0e9eca0000000p-5, 0x1.1810be0000000p-7, -0x1.2b4efe0000000p-7, -0x1.0dae580000000p-5, -0x1.6358100000000p-5, -0x1.904e900000000p-8, -0x1.14d1360000000p-5, -0x1.5d94480000000p-5, -0x1.73ca300000000p-6, 0x1.8dfc260000000p-6, 0x1.cfdd240000000p-11, 0x1.d840320000000p-5, -0x1.714ccc0000000p-5, -0x1.3922b60000000p-8, -0x1.fe33360000000p-6, -0x1.f1abd40000000p-5, -0x1.8f98a20000000p-6, -0x1.1739a40000000p-5, 0x1.b7baa40000000p-6, 0x1.0c13580000000p-4, -0x1.cb6f500000000p-5, -0x1.e92d380000000p-7, -0x1.f99cd60000000p-5, 0x1.d7d1540000000p-6, -0x1.e661640000000p-6, 0x1.60f5160000000p-6, 0x1.ab93e20000000p-8, 0x1.1c6a2c0000000p-5, -0x1.ad2c0c0000000p-7, -0x1.a101980000000p-6, 0x1.1bed3a0000000p-6, 0x1.8f64800000000p-6, -0x1.1596a00000000p-8, -0x1.a282c60000000p-6, -0x1.02d3000000000p-5, -0x1.c57b160000000p-5, -0x1.cda25e0000000p-5, -0x1.0389dc0000000p-5, -0x1.52c3d60000000p-6, 0x1.1e31b40000000p-5, 0x1.2d78cc0000000p-5, -0x1.fb92d00000000p-5, -0x1.43ef1a0000000p-5, 0x1.9024a00000000p-11, -0x1.e5aeae0000000p-7, 0x1.c909620000000p-7, -0x1.2c4e5c0000000p-4, -0x1.359f2e0000000p-5, -0x1.8ba5e60000000p-5, -0x1.3e02760000000p-6, 0x1.9a1aa80000000p-8, -0x1.1271140000000p-6, -0x1.afdf8a0000000p-5, 0x1.93723a0000000p-7, -0x1.231a7c0000000p-5, -0x1.719f140000000p-5, 0x1.67f3100000000p-8, 0x1.1a9f900000000p-6, -0x1.2671ba0000000p-8, -0x1.19c8d20000000p-6, -0x1.297b3c0000000p-5, 0x1.227cfa0000000p-7, -0x1.aca6fe0000000p-9, -0x1.fb4abc0000000p-5, -0x1.13f1d20000000p-7, -0x1.7e60c80000000p-5, -0x1.d7cfec0000000p-5, -0x1.44b1ec0000000p-4, -0x1.1608bc0000000p-4, 0x1.dc82000000000p-6, 0x1.398a820000000p-5, -0x1.6a54680000000p-5, -0x1.d4ad6e0000000p-5, -0x1.079b2e0000000p-6, -0x1.69faca0000000p-8, -0x1.c4aa6a0000000p-5, -0x1.699a400000000p-5, -0x1.3a4ac40000000p-6, 0x1.af3be20000000p-6, 0x1.cc26b60000000p-6, -0x1.9d5f6a0000000p-8, -0x1.9c078e0000000p-5}
, {0x1.212ef80000000p-6, -0x1.8e09880000000p-5, -0x1.6468a60000000p-6, -0x1.645ce40000000p-5, 0x1.92519c0000000p-5, 0x1.b9e1300000000p-8, -0x1.42c1280000000p-6, -0x1.cc45520000000p-5, 0x1.f4fdce0000000p-5, -0x1.87d0400000000p-9, 0x1.2350740000000p-7, 0x1.e7970e0000000p-7, 0x1.2bfe780000000p-6, -0x1.51e5c80000000p-6, -0x1.29c9840000000p-5, -0x1.067d5a0000000p-7, 0x1.08fbf00000000p-7, -0x1.d6083a0000000p-5, 0x1.fa77940000000p-7, -0x1.af95f40000000p-6, -0x1.acdb860000000p-10, 0x1.bd166e0000000p-7, -0x1.7d765e0000000p-7, -0x1.926a180000000p-5, 0x1.6554e20000000p-8, -0x1.99e8ba0000000p-5, -0x1.0970ea0000000p-6, -0x1.e03e4c0000000p-7, 0x1.302eea0000000p-5, -0x1.7ef8700000000p-5, -0x1.08dd480000000p-5, -0x1.8f342e0000000p-7, -0x1.1c4b6e0000000p-7, 0x1.00f4ba0000000p-6, 0x1.b7bda60000000p-7, -0x1.218cc00000000p-5, -0x1.8d55a20000000p-5, 0x1.a00d2c0000000p-6, -0x1.7e9aa80000000p-5, -0x1.45306a0000000p-5, 0x1.93fb080000000p-7, 0x1.13904c0000000p-5, -0x1.86ef120000000p-8, 0x1.b2029a0000000p-6, 0x1.dc839a0000000p-7, 0x1.c5de7e0000000p-5, 0x1.909f2e0000000p-7, 0x1.325e220000000p-6, 0x1.6f09700000000p-8, 0x1.de89d20000000p-6, 0x1.4d3dbe0000000p-5, 0x1.4dc0be0000000p-5, -0x1.3a20520000000p-7, -0x1.09a2ae0000000p-4, 0x1.b4252a0000000p-5, 0x1.f77d960000000p-12, 0x1.a36a600000000p-7, -0x1.9787ce0000000p-5, 0x1.eac1100000000p-8, 0x1.6c14760000000p-6, 0x1.a539020000000p-9, 0x1.f474f40000000p-7, -0x1.e21b440000000p-6, 0x1.6f55640000000p-6, -0x1.3221980000000p-5, 0x1.8aea420000000p-9, -0x1.fccf320000000p-5, 0x1.5493480000000p-5, 0x1.3ac0060000000p-6, -0x1.8d381c0000000p-7, 0x1.16da8c0000000p-7, -0x1.4311a00000000p-5, 0x1.206c720000000p-6, -0x1.a9076a0000000p-7, -0x1.1b5eea0000000p-5, -0x1.73441c0000000p-5, -0x1.ab12180000000p-5, 0x1.a5c0b20000000p-5, -0x1.23653c0000000p-6, -0x1.1287bc0000000p-4, 0x1.9656120000000p-5, -0x1.b21b940000000p-6, 0x1.23119c0000000p-7, 0x1.01e3fa0000000p-11, -0x1.b408460000000p-6, -0x1.8294600000000p-5, -0x1.c095c40000000p-6, 0x1.0c13980000000p-5, 0x1.3b9b3a0000000p-5, 0x1.5e374e0000000p-6, -0x1.2b79da0000000p-4, -0x1.3f42fe0000000p-6, 0x1.e68a0c0000000p-6, -0x1.4d820e0000000p-7, 0x1.819c820000000p-6, 0x1.db3e7c0000000p-6, -0x1.1a662c0000000p-6, 0x1.1420460000000p-4, 0x1.1137ba0000000p-5, -0x1.9c4e9e0000000p-5, -0x1.e066040000000p-5, -0x1.03fe400000000p-7, 0x1.2f2e660000000p-6, 0x1.8e877e0000000p-7, 0x1.2347040000000p-6, 0x1.5e70500000000p-6, 0x1.3c7a540000000p-5, 0x1.a0f48a0000000p-5, 0x1.5733140000000p-5, 0x1.041e000000000p-7, -0x1.315f360000000p-4, -0x1.4965220000000p-5, -0x1.2acca00000000p-5, -0x1.3207060000000p-5, -0x1.5f24cc0000000p-7, -0x1.92d07c0000000p-5, -0x1.5db1380000000p-10, 0x1.85ec740000000p-6, 0x1.8dbe680000000p-6, 0x1.b99a900000000p-7, 0x1.194e1a0000000p-5, 0x1.484c400000000p-5, -0x1.24fc340000000p-4, -0x1.18a6920000000p-5, -0x1.b62e940000000p-6, -0x1.58eba60000000p-7, 0x1.30477a0000000p-5, 0x1.7fd38c0000000p-6, -0x1.a715ee0000000p-6, -0x1.4c98a40000000p-7, 0x1.e441580000000p-6, 0x1.c3374c0000000p-8, 0x1.3bfe0a0000000p-6, -0x1.3d77360000000p-8, -0x1.9475280000000p-5, -0x1.2e230a0000000p-5, -0x1.74b1200000000p-5, -0x1.0b73540000000p-7, -0x1.7511bc0000000p-7, -0x1.e94ef00000000p-6, -0x1.99aeb60000000p-5, -0x1.17ed1c0000000p-5, -0x1.7025440000000p-6, -0x1.450ef00000000p-5, 0x1.1f9a960000000p-5, -0x1.be040e0000000p-5, -0x1.adba140000000p-8, 0x1.ee16e60000000p-7, 0x1.36d0380000000p-6, -0x1.976eaa0000000p-6, -0x1.2da36e0000000p-6, 0x1.ff9b340000000p-6, -0x1.bad65c0000000p-8, -0x1.20816a0000000p-5, 0x1.abb08e0000000p-8, -0x1.1890ae0000000p-6, 0x1.9eda6c0000000p-7, 0x1.f5e8e20000000p-6, -0x1.18297e0000000p-7, -0x1.23e5ae0000000p-5, -0x1.f8e82e0000000p-8, 0x1.2eb6b80000000p-8, -0x1.0eea640000000p-5, 0x1.0d41200000000p-7, -0x1.db189c0000000p-6, 0x1.c993560000000p-10, -0x1.7416320000000p-6, -0x1.5794ca0000000p-5, -0x1.13b2500000000p-4, -0x1.2f4e200000000p-7, -0x1.2f18560000000p-5, 0x1.d9da120000000p-5, -0x1.1ae2ce0000000p-5, -0x1.f9b44e0000000p-6, -0x1.7242320000000p-6, -0x1.02dd380000000p-4, 0x1.d229640000000p-6, 0x1.9e3a8c0000000p-8, 0x1.5511d80000000p-5, -0x1.65299c0000000p-5, 0x1.4a5a260000000p-6, -0x1.8f7fe60000000p-6, 0x1.9b71060000000p-6, -0x1.21a8d80000000p-4, 0x1.561d040000000p-5, -0x1.0e2b740000000p-11, 0x1.a061000000000p-6, -0x1.0b76440000000p-5, 0x1.2db4740000000p-6, -0x1.80e2400000000p-6, -0x1.5f71640000000p-5, -0x1.0755cc0000000p-5, -0x1.1440460000000p-5, 0x1.8b99460000000p-5, -0x1.300efc0000000p-8, -0x1.16b6500000000p-6, 0x1.57e2340000000p-5, -0x1.4277b00000000p-6, -0x1.65515a0000000p-5, -0x1.40299e0000000p-6, -0x1.688bc40000000p-5, -0x1.c92cb00000000p-5, 0x1.ee71760000000p-10, -0x1.aa33e20000000p-5, -0x1.27a7fc0000000p-7, 0x1.9729ce0000000p-5, 0x1.8e6c600000000p-10, 0x1.b541be0000000p-9, 0x1.3940940000000p-6, -0x1.d26cdc0000000p-8, -0x1.1f650c0000000p-6, 0x1.1d7cf80000000p-6, -0x1.00baf20000000p-4, 0x1.16f5460000000p-4, -0x1.25f7140000000p-6, -0x1.7462740000000p-6, 0x1.62d29c0000000p-6, 0x1.97e2b80000000p-8, 0x1.b73e2c0000000p-6, -0x1.c08d2a0000000p-6, 0x1.1806920000000p-9, 0x1.6d509a0000000p-5, -0x1.29ccc60000000p-5, 0x1.edd7b40000000p-6, -0x1.284e9a0000000p-10, 0x1.53e6660000000p-7, -0x1.3950b80000000p-11, -0x1.2d90420000000p-5, 0x1.4628ec0000000p-7, -0x1.87de240000000p-5, 0x1.d16b620000000p-9, -0x1.9375160000000p-7, 0x1.b332100000000p-7, -0x1.4e143c0000000p-5, 0x1.39e9720000000p-5, -0x1.22eaaa0000000p-5, -0x1.3597320000000p-5, 0x1.e1e1ca0000000p-10, -0x1.7a04ca0000000p-5, 0x1.2db4040000000p-6, -0x1.a696ec0000000p-6, 0x1.76b09c0000000p-9, 0x1.184efa0000000p-7, -0x1.94bb4a0000000p-5, 0x1.9be4340000000p-7, -0x1.832efe0000000p-8, -0x1.5444e00000000p-5, -0x1.6cfc0c0000000p-6, 0x1.5efcc20000000p-6, 0x1.5d31580000000p-6, -0x1.0815780000000p-4, 0x1.c096440000000p-5, 0x1.c74fa60000000p-6, -0x1.9abc180000000p-8, -0x1.4565e00000000p-6, -0x1.0d49a80000000p-5}
}
, {{0x1.2477780000000p-6, 0x1.c9982e0000000p-7, 0x1.7692920000000p-13, 0x1.0af6b00000000p-7, -0x1.7c40360000000p-7, 0x1.76c1dc0000000p-6, -0x1.14ac920000000p-5, -0x1.63484a0000000p-5, 0x1.3ada720000000p-5, -0x1.c9fbbc0000000p-6, -0x1.07a0520000000p-8, -0x1.5b724c0000000p-5, 0x1.16f1ca0000000p-7, -0x1.591d4a0000000p-7, 0x1.3ceb9a0000000p-5, -0x1.d7e50a0000000p-8, -0x1.1840460000000p-4, -0x1.4755000000000p-5, -0x1.6ea9fc0000000p-5, 0x1.e0c8000000000p-9, -0x1.ab90f60000000p-7, -0x1.30e3f60000000p-5, 0x1.62b51c0000000p-6, -0x1.43074e0000000p-5, -0x1.34d4600000000p-6, -0x1.cad1be0000000p-6, -0x1.abd16e0000000p-5, 0x1.1bc2580000000p-5, 0x1.93bfa60000000p-5, -0x1.ac20f80000000p-5, 0x1.983b3a0000000p-6, -0x1.95d4300000000p-7, -0x1.13abf00000000p-5, -0x1.234a120000000p-6, -0x1.fd81760000000p-6, -0x1.2b10020000000p-6, 0x1.0241e20000000p-5, -0x1.95fa300000000p-7, -0x1.0a29460000000p-5, 0x1.2bbbe20000000p-5, -0x1.2e9f7c0000000p-5, 0x1.b4fe8a0000000p-9, 0x1.021d100000000p-5, -0x1.418c380000000p-6, 0x1.7e98d20000000p-5, 0x1.6a7e9c0000000p-6, -0x1.fd6f560000000p-9, -0x1.7bc96c0000000p-8, 0x1.2ea7800000000p-5, -0x1.527af60000000p-7, 0x1.3d19f00000000p-6, -0x1.fb71660000000p-6, -0x1.6f0e200000000p-6, -0x1.c3e8680000000p-10, 0x1.f970440000000p-8, -0x1.252a0e0000000p-4, -0x1.884b4a0000000p-5, -0x1.0f5a360000000p-5, -0x1.0faaf60000000p-4, 0x1.0527060000000p-5, -0x1.52a0080000000p-5, -0x1.1b4e000000000p-11, -0x1.da61e20000000p-5, -0x1.ac26500000000p-5, -0x1.3653660000000p-5, 0x1.e50abe0000000p-9, -0x1.d97dd00000000p-6, -0x1.36358c0000000p-5, 0x1.3b43480000000p-8, -0x1.239a560000000p-5, -0x1.5cf5a60000000p-6, -0x1.d77afc0000000p-5, -0x1.1aa5280000000p-4, 0x1.272a200000000p-9, -0x1.a0d46a0000000p-6, 0x1.17b0020000000p-6, -0x1.79c34a0000000p-9, -0x1.ce73120000000p-6, 0x1.211b8c0000000p-8, -0x1.5c9b1c0000000p-6, -0x1.9ef3fa0000000p-5, 0x1.9d5ffe0000000p-6, 0x1.47b59a0000000p-5, -0x1.e056ee0000000p-5, 0x1.1c549e0000000p-6, -0x1.6893be0000000p-6, -0x1.142fec0000000p-4, 0x1.66c9780000000p-7, 0x1.04c0360000000p-7, -0x1.878c440000000p-5, -0x1.2ad3660000000p-6, -0x1.6a0d400000000p-5, 0x1.b4e1ec0000000p-6, -0x1.5fda920000000p-6, -0x1.0799640000000p-4, -0x1.dbca0e0000000p-5, -0x1.cb4f500000000p-6, -0x1.3f2f760000000p-5, -0x1.4b6d460000000p-5, -0x1.6ee1c80000000p-7, -0x1.aa73f40000000p-7, 0x1.d2d9f80000000p-7, -0x1.047f980000000p-7, -0x1.43d86c0000000p-5, -0x1.872d280000000p-6, -0x1.f1a6c80000000p-7, -0x1.2debb20000000p-6, -0x1.c904700000000p-5, 0x1.36b4040000000p-5, -0x1.c8b50a0000000p-8, -0x1.0445a40000000p-4, -0x1.b25e880000000p-7, 0x1.70a91e0000000p-8, 0x1.779fea0000000p-11, -0x1.22d1d00000000p-5, 0x1.64176c0000000p-8, -0x1.018ec80000000p-5, -0x1.0189560000000p-4, 0x1.b8f93e0000000p-6, 0x1.9f330c0000000p-6, -0x1.393b780000000p-10, -0x1.34850c0000000p-5, -0x1.bd98980000000p-6, 0x1.565eda0000000p-7, 0x1.ea21b60000000p-8, -0x1.037fc00000000p-4, 0x1.342f3a0000000p-6, 0x1.2728820000000p-5, 0x1.23052c0000000p-5, 0x1.c1974e0000000p-9, 0x1.17ffd00000000p-5, 0x1.028bce0000000p-6, 0x1.03b3080000000p-6, 0x1.5d03e60000000p-6, 0x1.a2f1700000000p-8, 0x1.0aef0c0000000p-5, -0x1.3c7fc20000000p-8, 0x1.4f01de0000000p-7, -0x1.17075e0000000p-7, -0x1.d946f20000000p-5, -0x1.b5dba80000000p-5, -0x1.39d1560000000p-5, 0x1.ba8bb60000000p-8, -0x1.2a22f00000000p-5, -0x1.aef89c0000000p-6, 0x1.7086440000000p-7, 0x1.f03b700000000p-6, -0x1.e1845e0000000p-5, 0x1.f5be2a0000000p-6, -0x1.136c700000000p-4, -0x1.38591a0000000p-5, 0x1.6587a00000000p-6, 0x1.dcdab80000000p-6, 0x1.a23cc80000000p-7, 0x1.055a520000000p-5, 0x1.7f39020000000p-14, -0x1.7193f20000000p-6, -0x1.52ae640000000p-8, -0x1.6567060000000p-6, -0x1.8a934e0000000p-7, -0x1.2729120000000p-7, 0x1.3c78260000000p-7, -0x1.58b4340000000p-5, -0x1.65aa380000000p-6, 0x1.9167980000000p-7, -0x1.c7fb0a0000000p-5, 0x1.b29bdc0000000p-6, -0x1.07fc400000000p-5, -0x1.12a1320000000p-5, -0x1.3a3a540000000p-7, -0x1.61eaae0000000p-5, -0x1.1088640000000p-4, -0x1.0c75360000000p-4, -0x1.10b6f60000000p-6, -0x1.ae35600000000p-5, -0x1.57c1740000000p-5, -0x1.f13fd20000000p-6, -0x1.52666c0000000p-5, -0x1.a2a5d20000000p-8, 0x1.376af60000000p-5, 0x1.407c840000000p-7, 0x1.caeb620000000p-5, 0x1.a29da80000000p-9, 0x1.9795740000000p-5, 0x1.385a7c0000000p-6, -0x1.b43aac0000000p-5, 0x1.f32de80000000p-6, 0x1.dc01760000000p-6, 0x1.70a5500000000p-6, -0x1.194d940000000p-4, -0x1.7fc6b40000000p-5, -0x1.06500c0000000p-5, -0x1.cbc6120000000p-5, -0x1.53e51a0000000p-5, -0x1.a98b180000000p-5, 0x1.4578f00000000p-6, -0x1.8515fe0000000p-5, -0x1.828bca0000000p-6, -0x1.dce48c0000000p-6, -0x1.8ad8b00000000p-6, 0x1.0d897e0000000p-5, 0x1.8d0eec0000000p-7, -0x1.e281f00000000p-6, -0x1.019f7c0000000p-5, -0x1.a024860000000p-6, 0x1.c546420000000p-6, -0x1.289baa0000000p-5, -0x1.6a4a300000000p-6, 0x1.1b7d8c0000000p-5, 0x1.6d13900000000p-7, 0x1.64e4860000000p-10, -0x1.d464b80000000p-6, -0x1.b7e0620000000p-5, 0x1.0a36ac0000000p-5, 0x1.26ae220000000p-6, 0x1.f9fd480000000p-6, 0x1.582a000000000p-10, -0x1.2697ea0000000p-6, -0x1.79341c0000000p-7, 0x1.62749e0000000p-6, -0x1.a6fadc0000000p-5, -0x1.0d83300000000p-4, 0x1.4fd10e0000000p-6, -0x1.2149780000000p-6, -0x1.e01efc0000000p-6, -0x1.e11db20000000p-6, -0x1.5767320000000p-5, 0x1.4229d80000000p-5, -0x1.b32a680000000p-7, -0x1.3f93860000000p-6, -0x1.702a940000000p-5, -0x1.7e97fc0000000p-5, -0x1.881e2a0000000p-5, -0x1.90aa140000000p-5, -0x1.bf59760000000p-6, 0x1.6469dc0000000p-5, -0x1.e90a060000000p-5, 0x1.c0db660000000p-7, -0x1.5240ce0000000p-7, -0x1.d058280000000p-12, -0x1.1e22c20000000p-6, -0x1.ea00640000000p-7, -0x1.8eeaea0000000p-6, -0x1.800be00000000p-9, 0x1.8d0c2c0000000p-6, -0x1.0e79b00000000p-4, 0x1.84171c0000000p-5, -0x1.5d06a80000000p-6, 0x1.0771760000000p-5, -0x1.fc646c0000000p-5, -0x1.48c5d00000000p-5, -0x1.0584b40000000p-6, 0x1.2159cc0000000p-5, 0x1.5d9b7e0000000p-7, -0x1.405df80000000p-5, -0x1.5edce20000000p-8}
, {-0x1.153f900000000p-4, -0x1.9ba0540000000p-5, 0x1.3ebc240000000p-9, 0x1.e72e1c0000000p-6, 0x1.bcf8c80000000p-8, 0x1.6e46c00000000p-7, 0x1.e377f20000000p-7, 0x1.b69cea0000000p-10, -0x1.a583880000000p-6, 0x1.b451880000000p-6, -0x1.fa05040000000p-5, -0x1.f1fa2a0000000p-5, 0x1.d200fa0000000p-6, -0x1.f456620000000p-5, -0x1.2824860000000p-6, -0x1.317da60000000p-7, -0x1.26129c0000000p-4, 0x1.410c7c0000000p-5, -0x1.9fca940000000p-6, 0x1.10d9520000000p-5, 0x1.538acc0000000p-6, -0x1.2b03120000000p-6, -0x1.b88f140000000p-5, 0x1.5e07e60000000p-5, 0x1.7722640000000p-6, 0x1.a8b5600000000p-11, 0x1.75d67e0000000p-6, -0x1.cf83ae0000000p-6, 0x1.3157040000000p-5, -0x1.952d480000000p-5, 0x1.8ccc440000000p-6, -0x1.b0b1960000000p-9, -0x1.12f1de0000000p-6, 0x1.56ed380000000p-7, -0x1.d6f2560000000p-6, 0x1.3dbe2a0000000p-5, -0x1.0a284e0000000p-4, -0x1.51abea0000000p-5, -0x1.ccc4820000000p-5, 0x1.32575e0000000p-5, 0x1.0d49260000000p-11, -0x1.1786180000000p-5, -0x1.e1d40e0000000p-5, -0x1.51ae4c0000000p-8, -0x1.53284e0000000p-7, -0x1.96adac0000000p-6, 0x1.5602d20000000p-7, 0x1.8af6f20000000p-7, 0x1.5afaa80000000p-7, -0x1.55a41c0000000p-5, -0x1.402c0e0000000p-5, -0x1.d78b2c0000000p-7, -0x1.ba79200000000p-5, -0x1.f2b6400000000p-6, 0x1.f497e20000000p-7, -0x1.ed7a3a0000000p-7, 0x1.2f8f7c0000000p-6, 0x1.ca2bc20000000p-7, -0x1.77a8240000000p-6, 0x1.02773a0000000p-6, -0x1.18aabc0000000p-4, -0x1.20ce440000000p-8, -0x1.d023aa0000000p-6, 0x1.37dfca0000000p-8, -0x1.3bf9e00000000p-5, 0x1.25d3040000000p-5, 0x1.8034940000000p-7, 0x1.2349c00000000p-8, -0x1.be4a4e0000000p-6, 0x1.6c72160000000p-6, -0x1.2a1eca0000000p-8, -0x1.b5bca40000000p-5, -0x1.3044060000000p-9, 0x1.99e5e60000000p-10, -0x1.53dc420000000p-5, -0x1.d2ce8e0000000p-5, -0x1.15d4a80000000p-4, -0x1.53e16a0000000p-5, 0x1.4fe26a0000000p-7, -0x1.fed6080000000p-6, 0x1.b9f2260000000p-5, 0x1.b5df0e0000000p-6, 0x1.38f6340000000p-6, 0x1.b209b20000000p-6, -0x1.f301080000000p-7, -0x1.bb9ed00000000p-7, -0x1.03bdc20000000p-6, -0x1.0e37880000000p-4, -0x1.b525660000000p-5, 0x1.640c660000000p-5, 0x1.1a6d640000000p-6, -0x1.ca23920000000p-6, -0x1.b937020000000p-7, -0x1.5745e60000000p-5, -0x1.0f512c0000000p-4, -0x1.5604ac0000000p-6, 0x1.cf55f20000000p-5, -0x1.270e800000000p-7, -0x1.1c3cc40000000p-6, 0x1.10cbe40000000p-8, 0x1.98e5d60000000p-8, -0x1.8a134a0000000p-5, 0x1.c9d8ae0000000p-7, -0x1.16b1020000000p-6, 0x1.f75bc60000000p-7, -0x1.52c7600000000p-5, 0x1.1636fa0000000p-7, 0x1.1459280000000p-8, 0x1.74eb260000000p-6, 0x1.375d600000000p-11, -0x1.bf59c80000000p-5, -0x1.c25e7c0000000p-9, 0x1.a2f8680000000p-6, -0x1.3d18ea0000000p-8, -0x1.d469da0000000p-5, 0x1.04824a0000000p-5, -0x1.b995560000000p-6, -0x1.f2912e0000000p-5, 0x1.1ee4360000000p-6, -0x1.3e72f00000000p-5, 0x1.9475760000000p-10, 0x1.536bc60000000p-6, -0x1.cdc0580000000p-7, 0x1.edaf920000000p-8, -0x1.29e5f60000000p-5, -0x1.a4441e0000000p-5, -0x1.0fdc680000000p-4, -0x1.3953500000000p-7, 0x1.cacdbe0000000p-7, 0x1.60952e0000000p-6, -0x1.116b7c0000000p-4, 0x1.2a40a80000000p-5, 0x1.374d4a0000000p-5, 0x1.ba31800000000p-9, -0x1.466b4c0000000p-6, 0x1.5bd3c80000000p-7, -0x1.ec3c380000000p-5, 0x1.d4a3e80000000p-7, -0x1.13657a0000000p-11, -0x1.066bf60000000p-4, -0x1.be6f620000000p-5, 0x1.d2f4720000000p-7, -0x1.0ed0680000000p-5, 0x1.263e140000000p-5, 0x1.7f74e40000000p-8, 0x1.8247d20000000p-7, -0x1.5bbcc40000000p-6, -0x1.e96b900000000p-11, 0x1.3cc15a0000000p-6, -0x1.0db51c0000000p-4, -0x1.0e4e040000000p-5, -0x1.748b1a0000000p-11, 0x1.3e8e1e0000000p-8, -0x1.b78c100000000p-8, -0x1.653c480000000p-5, 0x1.5d96600000000p-5, -0x1.48fd380000000p-8, -0x1.3c5ef40000000p-5, -0x1.f64cf80000000p-5, -0x1.79ebc00000000p-6, 0x1.56550c0000000p-8, -0x1.a0daa80000000p-5, 0x1.4ea3520000000p-7, 0x1.4d5d260000000p-6, -0x1.56855a0000000p-6, 0x1.f3f4aa0000000p-11, -0x1.4405300000000p-5, -0x1.a10c180000000p-5, -0x1.023ff00000000p-4, -0x1.81c8fe0000000p-6, -0x1.7ab2d20000000p-8, -0x1.bb4b020000000p-8, -0x1.8602aa0000000p-7, -0x1.527b580000000p-6, 0x1.da5bea0000000p-6, 0x1.8adc7a0000000p-12, 0x1.c372980000000p-6, -0x1.2991a60000000p-6, -0x1.a58cde0000000p-7, -0x1.0757580000000p-5, 0x1.6b84940000000p-6, -0x1.b484ac0000000p-5, -0x1.13b7f00000000p-4, 0x1.2269c80000000p-7, 0x1.f89d360000000p-6, -0x1.1a305a0000000p-5, 0x1.13690c0000000p-5, -0x1.53d1060000000p-4, 0x1.1d4be80000000p-8, -0x1.eee94e0000000p-6, -0x1.b037540000000p-7, -0x1.43b5200000000p-4, 0x1.3210840000000p-6, 0x1.cea0a80000000p-5, -0x1.084bb20000000p-5, 0x1.3fb7c60000000p-6, -0x1.a4f0760000000p-5, 0x1.48acee0000000p-6, 0x1.2d22b20000000p-7, -0x1.9821840000000p-5, -0x1.aa054a0000000p-5, -0x1.38ddca0000000p-7, -0x1.d019f60000000p-5, 0x1.2ddfac0000000p-6, 0x1.989f500000000p-7, -0x1.e789340000000p-6, -0x1.039c920000000p-4, -0x1.7b00280000000p-5, -0x1.c096560000000p-6, -0x1.73b1b80000000p-5, -0x1.67efb20000000p-5, -0x1.3c18a20000000p-5, 0x1.89d0140000000p-6, -0x1.f369ec0000000p-6, -0x1.7c55720000000p-8, -0x1.f47c9e0000000p-5, -0x1.2192b40000000p-7, -0x1.9a27d80000000p-6, -0x1.99da580000000p-6, -0x1.7be1e20000000p-5, 0x1.e0f2560000000p-9, -0x1.c4eb720000000p-5, -0x1.0524320000000p-8, -0x1.0842da0000000p-6, -0x1.2932be0000000p-8, -0x1.d8e5d60000000p-7, -0x1.6cccdc0000000p-5, 0x1.b848560000000p-6, -0x1.b543ca0000000p-7, -0x1.208dfe0000000p-5, -0x1.c1340c0000000p-10, 0x1.eb167a0000000p-6, 0x1.9045c80000000p-6, -0x1.3a26b80000000p-6, -0x1.9c2d280000000p-5, -0x1.0445d40000000p-5, -0x1.63d6680000000p-5, -0x1.f4356e0000000p-6, 0x1.a04f8a0000000p-7, -0x1.1971b60000000p-8, -0x1.9edb620000000p-5, 0x1.31ab4a0000000p-6, -0x1.64e6f20000000p-5, -0x1.1118a00000000p-5, -0x1.6f335c0000000p-5, 0x1.47a6d60000000p-6, -0x1.3139380000000p-4, 0x1.83011e0000000p-8, 0x1.836f920000000p-5, 0x1.cc17fc0000000p-7, -0x1.5107c80000000p-6, -0x1.25edcc0000000p-5, -0x1.1d27a80000000p-7, -0x1.65015a0000000p-6, 0x1.118d6c0000000p-5, -0x1.ca89cc0000000p-7}
, {0x1.668d9a0000000p-7, -0x1.1d9b280000000p-5, 0x1.31e62c0000000p-5, -0x1.bf37d40000000p-5, 0x1.a97dea0000000p-6, 0x1.102c640000000p-6, -0x1.d7ad920000000p-5, -0x1.3f62080000000p-6, -0x1.9eca700000000p-6, -0x1.16b2ac0000000p-8, -0x1.8e5b7e0000000p-7, -0x1.a16ba80000000p-7, -0x1.2e4ec40000000p-4, 0x1.12bf580000000p-5, 0x1.53f8b80000000p-6, -0x1.cbf0220000000p-6, -0x1.5d3aa00000000p-5, -0x1.a8da280000000p-5, 0x1.22b2840000000p-8, -0x1.ea70160000000p-6, -0x1.17b3140000000p-6, -0x1.68faf40000000p-5, -0x1.dcf4d40000000p-6, -0x1.a161d00000000p-10, 0x1.69a5ee0000000p-7, -0x1.2ed7b20000000p-5, -0x1.2165c00000000p-5, -0x1.46b49e0000000p-11, -0x1.4a8ef60000000p-8, -0x1.b9f33a0000000p-7, 0x1.c01b5a0000000p-8, 0x1.2466ac0000000p-5, -0x1.a5ec4c0000000p-6, 0x1.80720e0000000p-5, -0x1.900e640000000p-6, 0x1.d0889a0000000p-6, -0x1.cc943a0000000p-5, -0x1.a2af9c0000000p-7, 0x1.0c15c20000000p-6, 0x1.e548a20000000p-6, 0x1.32a2860000000p-8, -0x1.a4964a0000000p-6, 0x1.87fde80000000p-11, -0x1.4d078a0000000p-5, -0x1.9366700000000p-6, -0x1.2ffb420000000p-4, -0x1.4c02160000000p-6, -0x1.4d87260000000p-10, -0x1.3fdf960000000p-6, -0x1.86b3120000000p-8, -0x1.d1bf820000000p-6, 0x1.6186240000000p-8, 0x1.f619f00000000p-7, 0x1.9ea8a00000000p-6, 0x1.0befcc0000000p-5, -0x1.43bd4e0000000p-5, 0x1.ba78d00000000p-6, 0x1.4e34060000000p-8, -0x1.1688180000000p-8, -0x1.5c20360000000p-5, 0x1.22d3da0000000p-8, -0x1.2073580000000p-8, -0x1.3dce480000000p-5, -0x1.1604240000000p-4, -0x1.f4cfb40000000p-5, 0x1.96f89a0000000p-5, -0x1.62dc1c0000000p-8, -0x1.1e30220000000p-5, -0x1.928c2e0000000p-6, -0x1.21055c0000000p-6, -0x1.9aea280000000p-7, 0x1.6f63380000000p-8, 0x1.c2eb500000000p-6, 0x1.03d5360000000p-7, -0x1.2181b00000000p-8, -0x1.e3199a0000000p-5, 0x1.5ca54c0000000p-8, -0x1.385a7e0000000p-7, -0x1.1d6ed60000000p-4, 0x1.5de13e0000000p-12, 0x1.421c500000000p-6, 0x1.0501980000000p-8, 0x1.a5b6920000000p-7, -0x1.b99c180000000p-8, -0x1.77d6140000000p-5, 0x1.0227d80000000p-6, 0x1.45d6000000000p-8, 0x1.1a12d40000000p-9, 0x1.3ead6c0000000p-10, 0x1.98b5c00000000p-6, -0x1.9107040000000p-5, 0x1.91182c0000000p-10, -0x1.0637040000000p-5, 0x1.51be020000000p-7, -0x1.9965500000000p-5, 0x1.4d82320000000p-7, 0x1.2926540000000p-5, -0x1.0348220000000p-4, -0x1.54c5980000000p-5, 0x1.5254ce0000000p-16, -0x1.fe5a980000000p-5, -0x1.ae61ae0000000p-7, 0x1.344a6a0000000p-5, -0x1.9b07ec0000000p-5, -0x1.bad5f20000000p-6, -0x1.f61d100000000p-6, -0x1.76ee800000000p-5, -0x1.0452220000000p-5, -0x1.fc4b0a0000000p-5, 0x1.9d17d40000000p-7, -0x1.a8ecd80000000p-7, -0x1.595fdc0000000p-5, -0x1.e7dcd60000000p-6, -0x1.c3b66a0000000p-6, -0x1.0a422e0000000p-4, 0x1.9e9e200000000p-6, 0x1.cdcd060000000p-6, 0x1.5409bc0000000p-6, -0x1.5ccdd00000000p-5, 0x1.1349e00000000p-8, -0x1.49e3760000000p-8, -0x1.834abc0000000p-6, -0x1.1f5eba0000000p-5, 0x1.52f49e0000000p-7, -0x1.0699a60000000p-5, -0x1.6adfb00000000p-5, -0x1.3b23fc0000000p-5, -0x1.fa81100000000p-5, -0x1.bab94a0000000p-7, -0x1.1e877a0000000p-4, -0x1.fd84000000000p-6, 0x1.cb7b480000000p-6, 0x1.10d6d20000000p-8, 0x1.e79f720000000p-8, -0x1.dd673c0000000p-7, -0x1.7485e20000000p-5, -0x1.41f8540000000p-7, 0x1.44d7720000000p-6, -0x1.78318c0000000p-6, -0x1.b58b340000000p-6, 0x1.d80c480000000p-6, -0x1.9ca3c00000000p-5, -0x1.4e20700000000p-8, -0x1.33f7960000000p-5, 0x1.1e02ec0000000p-6, -0x1.cde9380000000p-6, -0x1.8eb8600000000p-7, -0x1.993cb80000000p-7, 0x1.5991c00000000p-6, -0x1.646aa00000000p-10, -0x1.d0ece60000000p-7, -0x1.4490280000000p-5, -0x1.4a2bc80000000p-4, -0x1.53cbce0000000p-5, 0x1.3c41f80000000p-5, -0x1.73834e0000000p-6, -0x1.d90ea20000000p-6, -0x1.3cf5d40000000p-6, -0x1.1ddf7e0000000p-5, -0x1.0428560000000p-4, -0x1.738d500000000p-8, -0x1.7202140000000p-5, -0x1.e33ecc0000000p-6, 0x1.c1d75a0000000p-6, -0x1.99d4e00000000p-9, 0x1.fbfae40000000p-6, 0x1.fc15c20000000p-9, 0x1.86ef680000000p-8, -0x1.7100d60000000p-8, -0x1.046b700000000p-8, -0x1.234b260000000p-5, -0x1.29238a0000000p-6, 0x1.0740b40000000p-8, -0x1.78d38c0000000p-6, 0x1.a725d60000000p-6, -0x1.af740e0000000p-6, -0x1.0c89680000000p-7, -0x1.78ac840000000p-5, -0x1.8249760000000p-8, -0x1.0203d80000000p-9, -0x1.75303a0000000p-6, 0x1.6765f00000000p-7, 0x1.57f7940000000p-6, -0x1.26f9280000000p-6, -0x1.5379440000000p-9, -0x1.e679860000000p-10, 0x1.1637420000000p-7, -0x1.117b440000000p-7, 0x1.9f727c0000000p-6, 0x1.71b1800000000p-6, 0x1.1afb5c0000000p-7, -0x1.65e0720000000p-9, -0x1.940ae40000000p-5, -0x1.af1b520000000p-5, -0x1.2629ba0000000p-5, 0x1.15158e0000000p-5, -0x1.ab3d060000000p-7, 0x1.2e23da0000000p-8, 0x1.0498540000000p-5, 0x1.11f0a60000000p-7, -0x1.9bf2420000000p-5, 0x1.028e980000000p-7, -0x1.095df00000000p-4, 0x1.5edcb60000000p-5, -0x1.5f2c880000000p-6, -0x1.40a1160000000p-7, 0x1.4fc13a0000000p-7, -0x1.42a0e60000000p-6, -0x1.b027ac0000000p-10, 0x1.6c35bc0000000p-6, -0x1.0176e40000000p-5, -0x1.0af42c0000000p-5, -0x1.5d179a0000000p-5, 0x1.87692a0000000p-6, -0x1.bd68aa0000000p-5, -0x1.0b30060000000p-5, -0x1.2245740000000p-4, -0x1.bc11200000000p-5, -0x1.ebc8400000000p-5, -0x1.f93da20000000p-6, -0x1.476b780000000p-6, 0x1.bf9dd00000000p-7, 0x1.d650980000000p-6, 0x1.7f56960000000p-9, -0x1.a440ee0000000p-5, -0x1.1d06640000000p-4, -0x1.bd73bc0000000p-5, -0x1.5e1dd60000000p-5, -0x1.a2e4ba0000000p-6, -0x1.9c010c0000000p-5, -0x1.6406e40000000p-7, 0x1.11652e0000000p-6, -0x1.021aa60000000p-5, -0x1.7cf8ee0000000p-7, 0x1.a630dc0000000p-7, -0x1.1cd9f80000000p-8, 0x1.0f9aaa0000000p-5, -0x1.0192100000000p-5, -0x1.0b051a0000000p-6, -0x1.c6872e0000000p-5, -0x1.0641440000000p-4, -0x1.0392d80000000p-6, -0x1.04455c0000000p-4, 0x1.8674460000000p-5, 0x1.8f5fec0000000p-8, -0x1.f9005c0000000p-6, -0x1.a006be0000000p-8, 0x1.31f1760000000p-8, -0x1.5936ac0000000p-5, -0x1.1bd3260000000p-4, -0x1.ed1b0c0000000p-6, 0x1.1a61460000000p-6, -0x1.2b40660000000p-5, -0x1.1e03d20000000p-5, -0x1.6c82800000000p-10, -0x1.fc884c0000000p-7}
}
, {{-0x1.8d4d8e0000000p-5, -0x1.93f66e0000000p-7, 0x1.7069dc0000000p-7, -0x1.c32b060000000p-5, 0x1.25f70a0000000p-7, 0x1.1b67f80000000p-7, -0x1.dcd9800000000p-12, -0x1.345e3a0000000p-9, -0x1.ca8c400000000p-9, -0x1.1c17300000000p-8, 0x1.f982e20000000p-6, -0x1.54fd120000000p-5, -0x1.07b7d80000000p-4, -0x1.4401720000000p-5, -0x1.ef8ed40000000p-6, 0x1.afab600000000p-7, 0x1.10697e0000000p-5, -0x1.0002360000000p-5, -0x1.193ec00000000p-4, 0x1.e9d4fc0000000p-8, -0x1.3cf9e20000000p-8, 0x1.c059920000000p-6, 0x1.3d79060000000p-6, -0x1.5f4b8a0000000p-5, -0x1.4ccd860000000p-5, -0x1.8fc1620000000p-6, -0x1.3ec3ca0000000p-6, 0x1.ab03480000000p-7, -0x1.54cb720000000p-5, -0x1.9a7ad40000000p-7, -0x1.031d4a0000000p-7, -0x1.24920a0000000p-7, 0x1.0a99840000000p-5, 0x1.6bd58e0000000p-7, -0x1.de787a0000000p-5, 0x1.22f5720000000p-5, -0x1.0514de0000000p-4, 0x1.9962e60000000p-6, -0x1.cdafb60000000p-7, -0x1.facfaa0000000p-5, -0x1.8d8c840000000p-5, 0x1.0675820000000p-6, -0x1.39268a0000000p-6, 0x1.6c38500000000p-7, -0x1.c483f20000000p-6, 0x1.059d420000000p-5, -0x1.26e6f80000000p-7, -0x1.5048560000000p-7, -0x1.81898e0000000p-8, -0x1.ac6d480000000p-6, -0x1.d00bac0000000p-7, 0x1.cb9d400000000p-8, -0x1.9283dc0000000p-5, -0x1.5830d40000000p-5, -0x1.44a9760000000p-5, -0x1.1316800000000p-4, 0x1.73cc840000000p-8, 0x1.b1ebda0000000p-11, -0x1.373b8e0000000p-7, -0x1.8c39500000000p-5, -0x1.2373f00000000p-6, -0x1.c2cb820000000p-6, -0x1.6a29680000000p-5, -0x1.c8fab60000000p-7, 0x1.fac9f40000000p-7, 0x1.fe89960000000p-7, 0x1.35138a0000000p-7, -0x1.41d3000000000p-4, 0x1.ea61980000000p-9, -0x1.d925e00000000p-11, 0x1.6e5d4a0000000p-7, -0x1.0ac7980000000p-4, 0x1.62ede00000000p-6, -0x1.d7c5ac0000000p-6, -0x1.75305e0000000p-5, -0x1.2db7ca0000000p-5, -0x1.c14abe0000000p-5, -0x1.3325620000000p-5, -0x1.bd64980000000p-5, 0x1.21aa8a0000000p-6, -0x1.1962b40000000p-7, -0x1.496b800000000p-5, 0x1.2934aa0000000p-14, -0x1.bcddca0000000p-9, -0x1.03ffb20000000p-4, -0x1.22de7e0000000p-7, -0x1.8d912e0000000p-7, -0x1.fb960a0000000p-9, -0x1.b0de720000000p-8, -0x1.20238c0000000p-6, -0x1.dc28820000000p-6, -0x1.5e53a00000000p-6, 0x1.0501540000000p-5, 0x1.dcd1380000000p-7, -0x1.02144e0000000p-7, -0x1.1ee72c0000000p-4, -0x1.7ce53a0000000p-5, 0x1.9366c00000000p-7, 0x1.4e9b420000000p-7, -0x1.d41ecc0000000p-5, -0x1.f0debc0000000p-5, -0x1.2a79860000000p-5, -0x1.026bac0000000p-5, 0x1.78c9080000000p-6, 0x1.37fe000000000p-5, -0x1.6676a00000000p-5, 0x1.8965ec0000000p-8, 0x1.f6ca8c0000000p-8, -0x1.6dcb580000000p-5, -0x1.f272100000000p-5, -0x1.11535e0000000p-4, -0x1.c4e2000000000p-12, -0x1.b87c1a0000000p-7, 0x1.4cf9920000000p-9, -0x1.8a47060000000p-6, 0x1.b3a2cc0000000p-5, -0x1.f1a3a20000000p-8, -0x1.8ad4820000000p-6, -0x1.cdb0160000000p-6, 0x1.a47a940000000p-6, 0x1.a2a8240000000p-6, 0x1.63f4200000000p-7, 0x1.5817140000000p-8, -0x1.010f420000000p-6, 0x1.e9afc20000000p-8, -0x1.909b7e0000000p-6, -0x1.217c8c0000000p-4, -0x1.6667840000000p-6, -0x1.d37f6c0000000p-8, 0x1.97b2780000000p-6, 0x1.66064c0000000p-6, -0x1.2f7be20000000p-8, -0x1.1ff5280000000p-9, 0x1.fe38ea0000000p-6, 0x1.aa66920000000p-7, 0x1.93bff40000000p-5, 0x1.2c6f3c0000000p-6, -0x1.a353c80000000p-6, -0x1.089b6a0000000p-6, 0x1.d5b4ca0000000p-6, -0x1.931c160000000p-5, -0x1.ac9c200000000p-8, -0x1.6db8ee0000000p-5, -0x1.fbb0be0000000p-9, -0x1.6aee100000000p-5, 0x1.17213e0000000p-9, -0x1.b5f6660000000p-5, -0x1.2124e00000000p-5, 0x1.6d0fb60000000p-9, 0x1.7e022e0000000p-7, -0x1.0a24d60000000p-7, -0x1.4b8dfa0000000p-5, 0x1.5eca660000000p-7, -0x1.3741940000000p-9, -0x1.2359e00000000p-5, -0x1.75555e0000000p-5, 0x1.0ff0800000000p-8, 0x1.4307dc0000000p-6, -0x1.1822d20000000p-5, 0x1.46d9460000000p-5, 0x1.1f67540000000p-6, 0x1.1ef9700000000p-6, -0x1.3c6b6c0000000p-5, -0x1.430b6e0000000p-5, 0x1.5b853c0000000p-5, -0x1.0459400000000p-7, -0x1.1d593e0000000p-8, -0x1.572ebe0000000p-5, -0x1.83b0560000000p-7, 0x1.98fa200000000p-6, -0x1.bf35e80000000p-6, -0x1.02b9a60000000p-4, -0x1.ce0a200000000p-5, 0x1.323b780000000p-5, -0x1.57d13a0000000p-5, 0x1.067a920000000p-6, 0x1.ea2b4e0000000p-6, -0x1.5d7e040000000p-5, -0x1.5917f20000000p-5, 0x1.7c83f20000000p-6, -0x1.82e76c0000000p-5, 0x1.248d9c0000000p-6, 0x1.8031840000000p-7, -0x1.0bdb4a0000000p-5, -0x1.9c36c40000000p-5, 0x1.23d2560000000p-8, 0x1.82b7680000000p-6, 0x1.5132020000000p-6, -0x1.26bdb80000000p-6, -0x1.063fac0000000p-4, 0x1.533ae60000000p-10, -0x1.2e788e0000000p-4, -0x1.5c7fb60000000p-5, 0x1.7187f40000000p-7, 0x1.cb55d60000000p-7, 0x1.165e980000000p-7, 0x1.1ad4020000000p-8, 0x1.a400ae0000000p-6, -0x1.7ef09a0000000p-6, 0x1.61474e0000000p-6, -0x1.93ba9e0000000p-5, 0x1.d376ba0000000p-8, 0x1.29d5c00000000p-8, 0x1.6590220000000p-7, -0x1.1d0c200000000p-6, -0x1.3c447c0000000p-7, -0x1.de00a80000000p-11, -0x1.071c6a0000000p-4, 0x1.4afba20000000p-5, -0x1.0671c20000000p-5, 0x1.63e56a0000000p-6, 0x1.75427a0000000p-7, 0x1.3318b80000000p-5, 0x1.d141d80000000p-7, 0x1.be6d0a0000000p-7, -0x1.56628e0000000p-5, -0x1.0c32740000000p-5, 0x1.8d63000000000p-6, -0x1.26f9aa0000000p-8, -0x1.c352e60000000p-5, 0x1.09e3480000000p-5, -0x1.ad6a2a0000000p-5, -0x1.18c38c0000000p-6, -0x1.7b12dc0000000p-6, 0x1.5c55a80000000p-6, -0x1.4de4820000000p-7, -0x1.e9cea40000000p-6, -0x1.830ea20000000p-7, -0x1.ab9bd80000000p-7, 0x1.d867f80000000p-8, 0x1.1f6ce60000000p-5, -0x1.1d14820000000p-4, -0x1.188f6a0000000p-4, 0x1.5918540000000p-7, 0x1.0b96420000000p-6, 0x1.9391740000000p-12, -0x1.31b6640000000p-5, -0x1.99fc3e0000000p-5, 0x1.c018f20000000p-6, -0x1.12538e0000000p-7, -0x1.b6e4860000000p-8, 0x1.b745b80000000p-6, -0x1.26b3bc0000000p-4, 0x1.3414860000000p-10, 0x1.b226180000000p-8, -0x1.268da80000000p-5, -0x1.c7a5cc0000000p-6, 0x1.404d7c0000000p-7, -0x1.0d57280000000p-7, -0x1.a4efda0000000p-5, -0x1.01837a0000000p-4, 0x1.323cfa0000000p-7, 0x1.7d57b20000000p-6, -0x1.f7cf760000000p-5, -0x1.4de3a00000000p-8, 0x1.6c06540000000p-8}
, {0x1.446dae0000000p-8, 0x1.b14f040000000p-6, 0x1.30ee540000000p-5, 0x1.49b47a0000000p-5, 0x1.a9e99c0000000p-7, -0x1.e343f40000000p-8, -0x1.26dc240000000p-4, -0x1.810de20000000p-5, 0x1.c60b800000000p-6, -0x1.cc6bae0000000p-6, -0x1.f8e0dc0000000p-6, 0x1.81839a0000000p-6, -0x1.7a28460000000p-7, -0x1.d4f4d00000000p-5, 0x1.08edac0000000p-7, -0x1.70ef3e0000000p-5, -0x1.d06e7a0000000p-5, -0x1.1c61ea0000000p-4, -0x1.4a4f480000000p-5, -0x1.166c8a0000000p-6, 0x1.6129d80000000p-9, -0x1.711a8a0000000p-10, -0x1.db08e40000000p-5, 0x1.15348c0000000p-7, 0x1.fad0cc0000000p-9, -0x1.3ab6be0000000p-5, -0x1.9d8f820000000p-5, -0x1.bb732a0000000p-5, 0x1.5b89c80000000p-6, -0x1.22ae5a0000000p-5, -0x1.7281780000000p-5, 0x1.35c0160000000p-6, -0x1.0f9db80000000p-8, -0x1.a5aeb80000000p-5, 0x1.2293da0000000p-5, -0x1.713e0c0000000p-6, -0x1.0613b60000000p-7, -0x1.7f7cbc0000000p-7, -0x1.c05d7e0000000p-5, -0x1.9b52780000000p-6, -0x1.1799c40000000p-6, -0x1.7c080e0000000p-7, 0x1.c1ab280000000p-7, 0x1.f62e3c0000000p-7, -0x1.d98d820000000p-7, -0x1.3340c80000000p-5, -0x1.5a1ab40000000p-6, -0x1.9339fc0000000p-5, -0x1.2a8e460000000p-12, -0x1.7801800000000p-7, -0x1.1953e80000000p-5, -0x1.9043840000000p-6, -0x1.a013660000000p-7, -0x1.03dd580000000p-7, -0x1.5c9a120000000p-5, -0x1.d8ec020000000p-8, 0x1.3459560000000p-5, -0x1.3bc26a0000000p-6, -0x1.2a75140000000p-5, -0x1.152d240000000p-5, -0x1.3a02800000000p-6, 0x1.509ae00000000p-7, -0x1.08e0ae0000000p-5, -0x1.7277d80000000p-6, 0x1.a1b9e00000000p-7, 0x1.4cfc3a0000000p-7, -0x1.87246e0000000p-5, 0x1.f893f20000000p-6, -0x1.85b1220000000p-5, -0x1.62f1620000000p-5, -0x1.2bf0260000000p-4, 0x1.1680a20000000p-13, 0x1.1b2ae60000000p-4, -0x1.f156da0000000p-6, 0x1.81f1720000000p-7, -0x1.499e100000000p-4, -0x1.7e09e60000000p-7, 0x1.abd6620000000p-7, 0x1.2875900000000p-6, 0x1.3241460000000p-5, -0x1.31d9be0000000p-8, -0x1.400b760000000p-6, -0x1.1caf180000000p-6, -0x1.d8ec880000000p-6, 0x1.367a3c0000000p-5, -0x1.9afc8c0000000p-6, 0x1.ad7eb00000000p-5, 0x1.03c9ac0000000p-5, -0x1.ea941e0000000p-6, -0x1.cccaae0000000p-6, 0x1.efe1300000000p-6, -0x1.5a8ab60000000p-5, 0x1.23d5d00000000p-6, 0x1.d556460000000p-7, -0x1.51818a0000000p-6, 0x1.1f72a00000000p-5, 0x1.fae6380000000p-8, 0x1.d5bcd20000000p-7, -0x1.1b369e0000000p-7, -0x1.78543c0000000p-5, 0x1.8732fe0000000p-7, -0x1.c464260000000p-5, -0x1.6281140000000p-6, -0x1.e52bb80000000p-6, -0x1.3363580000000p-5, 0x1.4ef77a0000000p-6, -0x1.676daa0000000p-9, -0x1.bc611e0000000p-5, -0x1.78a7600000000p-7, 0x1.09f94a0000000p-5, -0x1.59041c0000000p-4, 0x1.da1aea0000000p-9, -0x1.0815600000000p-4, -0x1.b5b16e0000000p-5, -0x1.5afcd80000000p-6, -0x1.1e478a0000000p-5, -0x1.0f69100000000p-7, -0x1.10391c0000000p-6, -0x1.54d1620000000p-6, 0x1.4ca51a0000000p-5, -0x1.c495b00000000p-5, -0x1.15ae680000000p-5, -0x1.1103720000000p-4, -0x1.45e7540000000p-8, -0x1.dc21860000000p-6, 0x1.3e02360000000p-5, 0x1.2186840000000p-6, -0x1.2754700000000p-5, -0x1.ac84920000000p-6, -0x1.fc50520000000p-6, 0x1.857a5c0000000p-7, 0x1.cd77240000000p-6, -0x1.fbf0d20000000p-6, -0x1.7a25c00000000p-5, 0x1.2739020000000p-5, -0x1.c30f680000000p-6, -0x1.7153540000000p-6, -0x1.5f90de0000000p-5, 0x1.8c1dba0000000p-7, -0x1.2a2c760000000p-9, 0x1.12dd9a0000000p-8, -0x1.4a24440000000p-7, -0x1.2119c40000000p-5, -0x1.907ae20000000p-7, -0x1.c89ba40000000p-7, -0x1.acb8be0000000p-5, -0x1.3bd6840000000p-7, -0x1.350e100000000p-6, -0x1.b38fce0000000p-7, -0x1.ae87c00000000p-5, -0x1.f7cfae0000000p-6, 0x1.89c3f20000000p-6, -0x1.fbd0a80000000p-6, -0x1.ab27040000000p-6, -0x1.67a0ce0000000p-5, -0x1.22a9fe0000000p-5, 0x1.ea03000000000p-7, 0x1.8c67480000000p-7, 0x1.4ac9f20000000p-8, 0x1.a99b9e0000000p-6, -0x1.b119fe0000000p-7, -0x1.705b1a0000000p-5, -0x1.219ee80000000p-7, -0x1.2455f60000000p-6, 0x1.fd2cbe0000000p-6, 0x1.b30eae0000000p-7, -0x1.1bdb540000000p-5, -0x1.c1f5500000000p-7, -0x1.27b3f60000000p-5, -0x1.cab8fc0000000p-5, 0x1.02d1c80000000p-6, -0x1.fdbd8e0000000p-6, -0x1.a88fbe0000000p-6, -0x1.6eac5c0000000p-5, 0x1.bc1f8c0000000p-7, 0x1.684e520000000p-6, -0x1.2dede00000000p-8, -0x1.4abbae0000000p-5, -0x1.69410c0000000p-8, -0x1.626f380000000p-8, -0x1.2b614c0000000p-6, 0x1.10ceb80000000p-7, -0x1.1f1bbc0000000p-6, -0x1.9c86d80000000p-5, -0x1.2872f20000000p-4, -0x1.d665f00000000p-6, 0x1.2109fa0000000p-6, -0x1.7fcb9a0000000p-5, 0x1.ab026e0000000p-6, -0x1.eb2c180000000p-6, -0x1.5beeda0000000p-7, 0x1.f658b80000000p-6, -0x1.83d4800000000p-6, -0x1.cc7cd40000000p-5, -0x1.224e700000000p-5, -0x1.4556d40000000p-5, -0x1.dbf6e80000000p-6, 0x1.cd8da80000000p-6, 0x1.7ad4320000000p-7, -0x1.fb18780000000p-6, -0x1.36e8300000000p-5, 0x1.5b5b640000000p-5, -0x1.0db0700000000p-8, -0x1.0a04e60000000p-8, -0x1.0116b00000000p-6, -0x1.3a29ea0000000p-10, -0x1.dedda40000000p-5, -0x1.b693020000000p-11, -0x1.a90e0e0000000p-5, -0x1.0091f60000000p-5, -0x1.47e21c0000000p-5, -0x1.3664c40000000p-5, -0x1.00cbce0000000p-5, -0x1.e3ff960000000p-5, -0x1.1c5c640000000p-6, -0x1.dc9e2a0000000p-6, -0x1.6aed160000000p-5, 0x1.b623ac0000000p-6, -0x1.3aa2e80000000p-5, -0x1.8a49180000000p-5, 0x1.9bc0360000000p-5, -0x1.b1a85e0000000p-7, 0x1.d3c9e60000000p-6, 0x1.f55dd40000000p-6, -0x1.0034040000000p-6, -0x1.6bf9b80000000p-5, 0x1.a992e00000000p-7, 0x1.34aa4e0000000p-5, -0x1.3d00360000000p-5, -0x1.bc3d0c0000000p-6, -0x1.d3da480000000p-5, 0x1.2a59b20000000p-10, -0x1.7b4cc80000000p-7, 0x1.3bc8180000000p-6, 0x1.64d96e0000000p-5, -0x1.22d3ac0000000p-5, 0x1.5965e60000000p-5, 0x1.a484500000000p-5, -0x1.77c40a0000000p-5, 0x1.a49e380000000p-9, -0x1.125df20000000p-6, -0x1.094e400000000p-5, -0x1.367a400000000p-9, -0x1.9611420000000p-6, -0x1.017bd20000000p-9, -0x1.dcf9d40000000p-5, -0x1.2b81720000000p-8, -0x1.772eba0000000p-7, -0x1.3c95560000000p-5, -0x1.a07a180000000p-5, 0x1.1b12260000000p-6, 0x1.cdf63c0000000p-7, -0x1.0a43f20000000p-4, -0x1.7477c00000000p-7, 0x1.35ec180000000p-5, -0x1.2a70d80000000p-5}
