/**
  ******************************************************************************
  * @file    weights/fc.cc
  * @author  Pierre-Emmanuel Novac <penovac@unice.fr>, LEAT, CNRS, Université Côte d'Azur, France
  * @version 1.0.0
  * @date    24 march 2020
  * @brief   Template generating plain C code for the implementation of Convolutional Neural Networks on MCU
  */

#include <stdint.h>

#define INPUT_SAMPLES 125
#define FC_UNITS 10


const float dense_51_bias[FC_UNITS] = {0x1.92954c0000000p-4, 0x1.6ac40c0000000p-12, -0x1.9a70220000000p-4, -0x1.e377080000000p-4, 0x1.432c060000000p-7, -0x1.8e0bce0000000p-4, -0x1.ef894a0000000p-4, -0x1.222bb00000000p-3, 0x1.dff8fe0000000p-3, 0x1.36e7680000000p-3}
;

const float dense_51_kernel[FC_UNITS][INPUT_SAMPLES] = {{0x1.37e3700000000p-3, 0x1.86cabe0000000p-4, -0x1.3326240000000p-2, 0x1.eddf460000000p-4, -0x1.10f08c0000000p-2, 0x1.68ed3a0000000p-3, 0x1.f166fc0000000p-3, -0x1.ca0d4e0000000p-6, 0x1.e4bd1e0000000p-3, -0x1.5df1da0000000p-2, -0x1.5265fc0000000p-4, -0x1.fad1d80000000p-4, -0x1.be8c540000000p-3, 0x1.2308740000000p-3, -0x1.dfe4ee0000000p-3, -0x1.8997a60000000p-2, -0x1.dde6f80000000p-3, -0x1.46c49e0000000p-2, 0x1.991f8e0000000p-6, -0x1.6527d80000000p-2, 0x1.01daf80000000p-3, -0x1.6150b20000000p-2, -0x1.24cc640000000p-5, -0x1.ba877a0000000p-3, -0x1.f659a00000000p-8, -0x1.3dafd80000000p-3, -0x1.9541980000000p-4, 0x1.b7048e0000000p-3, 0x1.2402440000000p-5, -0x1.d87c780000000p-3, -0x1.53f96c0000000p-2, -0x1.5655500000000p-5, 0x1.7f0da20000000p-5, 0x1.317cec0000000p-3, -0x1.9b90780000000p-5, 0x1.3cdb2c0000000p-3, 0x1.c684560000000p-3, -0x1.81150c0000000p-3, 0x1.856ba60000000p-3, -0x1.9669a20000000p-2, -0x1.9c5e520000000p-3, -0x1.f1a83c0000000p-5, -0x1.90934e0000000p-5, -0x1.1449be0000000p-8, -0x1.f329240000000p-3, -0x1.279a2e0000000p-2, -0x1.c5ac620000000p-2, -0x1.4327e00000000p-2, -0x1.8c55b60000000p-2, 0x1.6af9900000000p-3, -0x1.b6f1340000000p-3, 0x1.50ce060000000p-3, -0x1.35f9ae0000000p-3, -0x1.93ce200000000p-3, -0x1.9f57540000000p-2, -0x1.73626a0000000p-2, 0x1.fbf6b20000000p-3, -0x1.711af40000000p-2, 0x1.3e884e0000000p-2, 0x1.29b3e60000000p-2, -0x1.d6782c0000000p-4, -0x1.28493e0000000p-6, 0x1.89959e0000000p-3, -0x1.a197860000000p-2, -0x1.76eee40000000p-4, 0x1.a8846e0000000p-3, -0x1.9aa2180000000p-5, -0x1.3795f20000000p-3, -0x1.133bf40000000p-2, 0x1.16c5200000000p-2, -0x1.9454c40000000p-2, -0x1.d978840000000p-5, 0x1.947cf40000000p-3, 0x1.0421c20000000p-2, -0x1.be08b40000000p-5, -0x1.e505e40000000p-3, 0x1.b1fb340000000p-3, 0x1.5e0d6e0000000p-3, 0x1.5823ce0000000p-3, 0x1.2691980000000p-3, 0x1.92de2e0000000p-4, -0x1.d46fdc0000000p-3, -0x1.05ce760000000p-3, -0x1.338b880000000p-4, 0x1.7e02300000000p-3, 0x1.318e520000000p-4, 0x1.7144780000000p-3, -0x1.1d2e220000000p-3, -0x1.85784c0000000p-3, -0x1.d4c1d20000000p-4, -0x1.2042680000000p-2, -0x1.02d19a0000000p-2, -0x1.3dd18a0000000p-3, -0x1.94087c0000000p-2, 0x1.44807a0000000p-3, -0x1.df163c0000000p-3, 0x1.25f5ee0000000p-2, -0x1.fbdca00000000p-3, -0x1.651e560000000p-2, -0x1.cc59c80000000p-2, -0x1.1525400000000p-2, 0x1.7093a20000000p-2, 0x1.aa823c0000000p-3, 0x1.267bbc0000000p-3, 0x1.6379f20000000p-3, -0x1.ca15700000000p-11, 0x1.0d6d320000000p-2, 0x1.18164e0000000p-3, 0x1.4f8d820000000p-3, 0x1.8f5e820000000p-3, -0x1.cb3f9e0000000p-3, 0x1.7304b20000000p-5, -0x1.9bafe60000000p-2, 0x1.6beaf00000000p-3, -0x1.fb726a0000000p-3, -0x1.a7469c0000000p-2, 0x1.f26f420000000p-5, -0x1.3515840000000p-3, -0x1.7715ec0000000p-2, 0x1.77c5c40000000p-3, 0x1.2047820000000p-3, -0x1.27fba00000000p-2, -0x1.4cacfc0000000p-6, -0x1.9d45d60000000p-3, 0x1.511ae00000000p-3}
, {-0x1.43ddae0000000p-4, -0x1.c5f7b00000000p-4, 0x1.c9b7da0000000p-3, 0x1.50505e0000000p-7, 0x1.1dcbba0000000p-3, 0x1.d54d660000000p-3, 0x1.818d2e0000000p-3, -0x1.3b74a00000000p-2, 0x1.262f480000000p-7, 0x1.8c0a3a0000000p-7, -0x1.fbb0fe0000000p-5, -0x1.0f7aa60000000p-2, -0x1.ee62e20000000p-4, -0x1.239eea0000000p-2, 0x1.05b2e60000000p-3, -0x1.156d6c0000000p-4, -0x1.5686d60000000p-2, 0x1.a642c40000000p-3, -0x1.571a160000000p-2, -0x1.fd19da0000000p-3, -0x1.43f9fc0000000p-2, 0x1.f0be280000000p-3, -0x1.144c1c0000000p-6, 0x1.61df6e0000000p-4, 0x1.ebe50e0000000p-3, 0x1.d20be60000000p-3, 0x1.c6d9120000000p-3, -0x1.73f7e80000000p-3, -0x1.3310740000000p-2, -0x1.8edbb00000000p-3, 0x1.4779740000000p-2, -0x1.692d3c0000000p-2, 0x1.a7b6820000000p-5, -0x1.4629560000000p-3, -0x1.7cfdd80000000p-2, -0x1.1cb6480000000p-3, -0x1.6e22a60000000p-2, 0x1.1476000000000p-7, -0x1.a96db80000000p-3, -0x1.488df80000000p-2, -0x1.fb9d780000000p-4, -0x1.a130d80000000p-3, -0x1.08d7d60000000p-2, 0x1.b18dda0000000p-4, 0x1.023f320000000p-2, -0x1.6f68a00000000p-5, -0x1.4ec8c80000000p-2, -0x1.3c22e20000000p-2, -0x1.e426c80000000p-3, -0x1.7035ee0000000p-2, 0x1.93ab920000000p-3, -0x1.d390520000000p-3, -0x1.8b62260000000p-2, 0x1.a3d3720000000p-4, 0x1.5f8f3c0000000p-8, 0x1.79506c0000000p-4, 0x1.422f1a0000000p-2, -0x1.1634cc0000000p-2, 0x1.75fb220000000p-3, 0x1.13f8820000000p-2, -0x1.b0a3e20000000p-5, 0x1.1a4eba0000000p-3, 0x1.5afeda0000000p-3, 0x1.586e2a0000000p-3, 0x1.c5dd0e0000000p-3, -0x1.2cd60a0000000p-2, 0x1.2227b20000000p-2, 0x1.db011e0000000p-4, -0x1.199d9a0000000p-2, -0x1.1cb6080000000p-4, 0x1.1b574a0000000p-3, -0x1.78ebe80000000p-2, 0x1.0594260000000p-2, 0x1.cb64d40000000p-4, -0x1.9ea8180000000p-2, 0x1.ba13ce0000000p-3, 0x1.17cdea0000000p-3, 0x1.d10c680000000p-4, -0x1.9e8d440000000p-3, 0x1.6f46ca0000000p-5, -0x1.6661f00000000p-3, 0x1.11fcd00000000p-3, 0x1.4847d00000000p-3, -0x1.04fe5e0000000p-3, -0x1.4cd9dc0000000p-2, -0x1.a5e9c00000000p-3, -0x1.4bac3c0000000p-3, -0x1.2507cc0000000p-3, 0x1.3c73380000000p-3, 0x1.921dc60000000p-3, -0x1.f3a0280000000p-3, 0x1.3554120000000p-3, 0x1.d9d0c00000000p-3, 0x1.862d2a0000000p-4, -0x1.6bc65a0000000p-2, 0x1.58480c0000000p-3, -0x1.836a6a0000000p-4, 0x1.6a5db80000000p-3, 0x1.da102c0000000p-4, -0x1.1df5a20000000p-3, -0x1.69d4800000000p-4, -0x1.30bb9c0000000p-2, 0x1.fd80a80000000p-3, 0x1.cab3060000000p-3, 0x1.148b600000000p-6, -0x1.c4eb560000000p-5, -0x1.def81c0000000p-7, -0x1.1cc83a0000000p-2, -0x1.5207f20000000p-3, -0x1.d105180000000p-4, 0x1.0a9d640000000p-2, 0x1.e3377c0000000p-3, -0x1.ecedb80000000p-3, 0x1.bc2a800000000p-3, 0x1.c9d2a00000000p-4, 0x1.5125000000000p-3, 0x1.b82f320000000p-3, -0x1.1dc8860000000p-3, 0x1.718f120000000p-3, -0x1.b9107a0000000p-5, -0x1.e544f60000000p-2, 0x1.f2a5300000000p-3, -0x1.6979000000000p-2, 0x1.0cdb800000000p-2, 0x1.1a591c0000000p-3}
, {-0x1.63ad080000000p-3, 0x1.7c36580000000p-3, -0x1.0a8df80000000p-3, -0x1.7f331e0000000p-4, 0x1.166bcc0000000p-2, -0x1.f3c2020000000p-3, 0x1.67f1200000000p-3, 0x1.6e81520000000p-3, -0x1.91ea0c0000000p-3, 0x1.1657000000000p-3, -0x1.f53aa60000000p-5, -0x1.16b9040000000p-3, -0x1.ef666e0000000p-4, -0x1.8856520000000p-3, 0x1.f95c460000000p-4, 0x1.b71ff60000000p-4, -0x1.0985340000000p-3, 0x1.af30e40000000p-3, -0x1.47ad360000000p-5, -0x1.1c86bc0000000p-3, 0x1.0829b40000000p-5, 0x1.cddbf80000000p-3, -0x1.fb59c00000000p-3, -0x1.9f57860000000p-3, -0x1.770ad40000000p-5, -0x1.d4fdda0000000p-6, -0x1.4499e80000000p-2, 0x1.808f420000000p-3, 0x1.425dfa0000000p-3, -0x1.7873120000000p-3, -0x1.a80abe0000000p-4, 0x1.bcda4a0000000p-4, 0x1.b65ebc0000000p-5, 0x1.2d59e20000000p-3, -0x1.7bb4680000000p-3, -0x1.021e4c0000000p-2, 0x1.49c5ec0000000p-3, -0x1.88ecdc0000000p-5, -0x1.f5f0e80000000p-3, -0x1.bf1d780000000p-3, -0x1.35d7bc0000000p-4, 0x1.9c23640000000p-3, 0x1.97a1ea0000000p-5, 0x1.5f86ac0000000p-4, -0x1.9f33f00000000p-4, 0x1.c406620000000p-4, -0x1.5c40980000000p-3, -0x1.a1c96e0000000p-8, 0x1.ce422e0000000p-3, -0x1.4306b40000000p-4, -0x1.467e480000000p-4, -0x1.0667ac0000000p-4, 0x1.15ef580000000p-3, 0x1.9242940000000p-3, -0x1.04cfa20000000p-2, 0x1.9e3c040000000p-4, -0x1.09d4560000000p-2, -0x1.5ce3ca0000000p-3, 0x1.36a0d00000000p-3, 0x1.f917aa0000000p-3, -0x1.31d22c0000000p-5, -0x1.aad0ee0000000p-3, 0x1.5254220000000p-3, -0x1.2c24480000000p-2, -0x1.5512ec0000000p-2, 0x1.5fd4620000000p-3, -0x1.e1e9c40000000p-3, -0x1.45bc300000000p-2, 0x1.638b2e0000000p-3, 0x1.5606ea0000000p-2, 0x1.ab53280000000p-3, -0x1.0f56ec0000000p-2, -0x1.266fc60000000p-2, 0x1.ee53660000000p-3, -0x1.72efb80000000p-2, -0x1.318cf00000000p-2, 0x1.b877560000000p-3, 0x1.e9de6c0000000p-4, 0x1.8d6bd60000000p-3, -0x1.cd65840000000p-6, -0x1.ca1eb80000000p-3, 0x1.13e27a0000000p-3, 0x1.a1c1840000000p-3, 0x1.644c420000000p-3, -0x1.0c6ffa0000000p-2, 0x1.3fd04e0000000p-3, -0x1.34774c0000000p-2, 0x1.2a16820000000p-2, 0x1.ce197e0000000p-3, 0x1.4199d60000000p-3, 0x1.df27640000000p-4, -0x1.670a5a0000000p-3, -0x1.c4e54e0000000p-3, 0x1.47ea060000000p-3, 0x1.15d9e80000000p-8, -0x1.3f51600000000p-3, -0x1.1e14f00000000p-4, -0x1.b3bc6e0000000p-3, -0x1.2abeae0000000p-3, -0x1.01c2b00000000p-2, 0x1.4583860000000p-3, 0x1.f5d6440000000p-3, 0x1.aed86a0000000p-3, -0x1.565c880000000p-2, 0x1.3582700000000p-3, 0x1.a457860000000p-3, 0x1.6707a40000000p-3, -0x1.752fd80000000p-3, 0x1.dc469e0000000p-4, -0x1.c8b8b20000000p-4, -0x1.96a4440000000p-3, -0x1.7f9ef20000000p-3, -0x1.8f142e0000000p-3, -0x1.6692860000000p-2, 0x1.d97f960000000p-3, 0x1.e6a0a80000000p-4, 0x1.c70d400000000p-3, 0x1.4d80f20000000p-2, -0x1.572e820000000p-2, 0x1.90d3340000000p-3, -0x1.4959760000000p-2, 0x1.b8350e0000000p-3, 0x1.c37a040000000p-10, -0x1.09fc0e0000000p-2, -0x1.1940160000000p-2}
, {0x1.665d540000000p-4, 0x1.b5fe7e0000000p-4, 0x1.eddabc0000000p-3, -0x1.1c8e240000000p-6, -0x1.8cf2600000000p-6, -0x1.0176380000000p-2, 0x1.4609580000000p-3, -0x1.0497320000000p-4, -0x1.cad00c0000000p-4, 0x1.77d9ac0000000p-4, -0x1.48481c0000000p-5, -0x1.ac67220000000p-3, 0x1.c68a3c0000000p-3, 0x1.5a00ca0000000p-3, 0x1.3719fc0000000p-3, 0x1.94d03c0000000p-3, -0x1.3ae6be0000000p-2, 0x1.74e5b60000000p-3, -0x1.08173a0000000p-2, -0x1.b146bc0000000p-3, -0x1.3facea0000000p-4, 0x1.b6efc80000000p-3, 0x1.5854720000000p-4, 0x1.8f592a0000000p-4, 0x1.2e128c0000000p-2, -0x1.7c30380000000p-3, -0x1.b93e100000000p-5, 0x1.54f13e0000000p-3, 0x1.3319bc0000000p-5, 0x1.d8a8d60000000p-3, 0x1.c408400000000p-3, 0x1.6c1db60000000p-3, 0x1.b51e6a0000000p-7, 0x1.5dd0b20000000p-5, 0x1.1621940000000p-2, -0x1.376d600000000p-2, 0x1.2d7a340000000p-5, -0x1.4480260000000p-4, -0x1.127c4e0000000p-2, 0x1.5494f60000000p-3, -0x1.17f65e0000000p-4, -0x1.3719d20000000p-4, 0x1.99ae600000000p-3, 0x1.b5fade0000000p-4, -0x1.40fde20000000p-4, 0x1.d167aa0000000p-3, 0x1.42e89c0000000p-4, 0x1.41edac0000000p-5, 0x1.5a69760000000p-3, -0x1.9215680000000p-3, -0x1.77b78a0000000p-2, -0x1.24be7a0000000p-3, -0x1.161c160000000p-3, -0x1.d82ffa0000000p-4, -0x1.6d68b20000000p-2, 0x1.1b74360000000p-3, -0x1.b51d8e0000000p-7, 0x1.0ce3da0000000p-2, -0x1.595c800000000p-3, 0x1.4904160000000p-3, 0x1.45d8ba0000000p-4, -0x1.97a7880000000p-8, 0x1.2505a40000000p-3, -0x1.d6bc4e0000000p-4, -0x1.4ea3b00000000p-2, -0x1.dafae20000000p-3, -0x1.f371760000000p-3, -0x1.78934c0000000p-2, 0x1.79688e0000000p-3, -0x1.9c5a540000000p-5, 0x1.339c0a0000000p-3, -0x1.fd09ec0000000p-3, 0x1.b0b4180000000p-5, -0x1.2a34520000000p-3, 0x1.b88a980000000p-6, -0x1.f20db60000000p-3, 0x1.645aaa0000000p-3, -0x1.3acd920000000p-2, 0x1.4781940000000p-3, 0x1.9a24ba0000000p-3, 0x1.2c04e80000000p-4, 0x1.6d015a0000000p-4, 0x1.55bd0e0000000p-3, -0x1.092dfa0000000p-2, 0x1.084d620000000p-3, 0x1.2516e60000000p-3, -0x1.a833420000000p-3, -0x1.23ada00000000p-3, 0x1.b603780000000p-4, -0x1.9727ec0000000p-3, -0x1.d1401a0000000p-3, 0x1.0939520000000p-2, -0x1.0261340000000p-3, 0x1.226efc0000000p-3, 0x1.dc0cd60000000p-4, 0x1.24ac660000000p-2, -0x1.65faec0000000p-3, 0x1.5bff2c0000000p-3, 0x1.4fb2380000000p-3, 0x1.d5463e0000000p-4, 0x1.b4a90c0000000p-4, -0x1.0894ae0000000p-8, -0x1.0831fc0000000p-2, -0x1.831d500000000p-4, -0x1.15c6060000000p-2, 0x1.06c5ea0000000p-6, 0x1.7d7a7a0000000p-3, 0x1.8ba38e0000000p-3, -0x1.220bae0000000p-3, -0x1.18d6e80000000p-2, -0x1.fcb5f20000000p-3, 0x1.802cd00000000p-3, -0x1.57ba1e0000000p-5, -0x1.0946120000000p-5, 0x1.66a1a20000000p-3, 0x1.53d0be0000000p-5, -0x1.4fbf6e0000000p-2, -0x1.bc0f0a0000000p-5, 0x1.963eea0000000p-3, -0x1.42630e0000000p-4, -0x1.0884ce0000000p-2, -0x1.2443180000000p-2, -0x1.d888ac0000000p-4, -0x1.2d8cac0000000p-2, -0x1.446b740000000p-4}
, {-0x1.ade3980000000p-2, 0x1.ff19380000000p-7, -0x1.c9c7920000000p-3, -0x1.98a3a20000000p-3, -0x1.2f03fe0000000p-2, 0x1.f715f00000000p-4, -0x1.42e4f20000000p-4, 0x1.7f048e0000000p-3, -0x1.8afc840000000p-2, 0x1.360ce00000000p-3, 0x1.fa28820000000p-3, 0x1.92a7fa0000000p-3, -0x1.3c31b40000000p-2, 0x1.5c458a0000000p-3, -0x1.5ffdf80000000p-2, -0x1.7a49140000000p-2, 0x1.1013980000000p-4, -0x1.bb316a0000000p-3, 0x1.73b70e0000000p-3, 0x1.2454ae0000000p-4, -0x1.246bfa0000000p-1, 0x1.91cae60000000p-3, 0x1.4b80800000000p-2, 0x1.2355500000000p-3, 0x1.453d380000000p-6, 0x1.3352f00000000p-3, 0x1.9de24c0000000p-3, -0x1.f3be3e0000000p-5, -0x1.8b582e0000000p-3, 0x1.8027a60000000p-3, -0x1.a174c00000000p-5, 0x1.7e1bae0000000p-5, 0x1.9048260000000p-3, 0x1.0c7ad60000000p-2, -0x1.e471d60000000p-4, -0x1.3344c00000000p-2, -0x1.6456680000000p-2, 0x1.82a2060000000p-4, 0x1.d3870c0000000p-3, -0x1.50022c0000000p-3, -0x1.8d9f080000000p-7, 0x1.d421b00000000p-3, 0x1.2772500000000p-5, -0x1.5c9b040000000p-3, -0x1.2d438e0000000p-3, -0x1.e42b7e0000000p-6, 0x1.9c63b60000000p-4, 0x1.f856f40000000p-3, -0x1.7a7dc00000000p-5, -0x1.5f9eb40000000p-5, 0x1.bd70680000000p-4, -0x1.20d7480000000p-1, -0x1.ce3e280000000p-6, -0x1.4d612c0000000p-6, 0x1.3dad660000000p-3, 0x1.32ee880000000p-5, -0x1.906fe80000000p-3, -0x1.82485a0000000p-3, -0x1.a0a5ca0000000p-3, 0x1.196fe20000000p-3, -0x1.7d02740000000p-3, 0x1.798ae00000000p-3, -0x1.8b5cb00000000p-3, 0x1.1ce2b80000000p-3, 0x1.661af20000000p-3, -0x1.51a30e0000000p-2, 0x1.89dab00000000p-3, 0x1.9037460000000p-5, -0x1.72bc720000000p-3, -0x1.49d2060000000p-5, 0x1.3778220000000p-5, -0x1.d549560000000p-3, -0x1.7f96dc0000000p-3, 0x1.5e74b60000000p-6, -0x1.d003040000000p-3, -0x1.6ece480000000p-2, -0x1.4af5e40000000p-3, 0x1.2d9e240000000p-3, -0x1.b2edbe0000000p-3, -0x1.1aa3160000000p-3, 0x1.7a29f20000000p-4, -0x1.e8b1f80000000p-2, -0x1.d06da20000000p-2, 0x1.3508ac0000000p-3, -0x1.88c2560000000p-2, -0x1.e9c95c0000000p-2, 0x1.708d3a0000000p-3, -0x1.f170f00000000p-4, -0x1.11ab740000000p-2, 0x1.6ad0ae0000000p-3, 0x1.6a7ef40000000p-6, 0x1.ee85dc0000000p-6, 0x1.8be80a0000000p-3, -0x1.53d2a80000000p-2, -0x1.2d6d3a0000000p-2, -0x1.59cb4e0000000p-4, -0x1.fd4b160000000p-5, -0x1.92d0ac0000000p-2, -0x1.f737e20000000p-3, 0x1.8e98c40000000p-4, -0x1.00bd2c0000000p-2, -0x1.c133800000000p-2, -0x1.3b50880000000p-2, 0x1.7448180000000p-3, 0x1.b238b00000000p-3, 0x1.8a2d420000000p-3, 0x1.38aab40000000p-6, -0x1.9992d20000000p-8, 0x1.9f184c0000000p-3, -0x1.5af37a0000000p-2, 0x1.1865080000000p-2, -0x1.96f13e0000000p-3, 0x1.aa0c9a0000000p-3, -0x1.da3bb60000000p-3, -0x1.051a600000000p-2, -0x1.dce0cc0000000p-3, 0x1.04ffe80000000p-2, -0x1.0111ac0000000p-3, -0x1.9a54b20000000p-3, 0x1.e76ffe0000000p-5, -0x1.4741d40000000p-3, -0x1.21e2c20000000p-4, 0x1.cc3e280000000p-5, 0x1.8a67620000000p-3, 0x1.1657760000000p-6}
, {0x1.afac3c0000000p-4, -0x1.2258ec0000000p-3, -0x1.791ac20000000p-5, -0x1.ec3e4a0000000p-5, 0x1.ba99000000000p-5, 0x1.3b37660000000p-3, -0x1.9246320000000p-2, 0x1.a8dc520000000p-4, -0x1.6cb74c0000000p-6, -0x1.b67fb80000000p-3, -0x1.9822c40000000p-2, -0x1.38dd9a0000000p-4, 0x1.e7404a0000000p-3, -0x1.9465a20000000p-3, -0x1.a2ae760000000p-2, 0x1.ba91280000000p-3, 0x1.4344e60000000p-3, -0x1.33a8380000000p-2, 0x1.0eb8c20000000p-4, -0x1.263f7e0000000p-2, 0x1.f341200000000p-4, -0x1.5027420000000p-5, -0x1.4642ba0000000p-3, -0x1.2ac6c40000000p-4, -0x1.02f2bc0000000p-2, -0x1.cf711c0000000p-6, -0x1.6657840000000p-2, 0x1.21feee0000000p-5, -0x1.17f9ee0000000p-3, 0x1.143c620000000p-2, 0x1.f2bbbe0000000p-3, 0x1.5d3d8c0000000p-3, 0x1.57ff6a0000000p-8, -0x1.625ef20000000p-3, -0x1.5108dc0000000p-2, 0x1.6cbe7e0000000p-3, -0x1.10cd780000000p-7, -0x1.a07f960000000p-2, -0x1.b71aa40000000p-3, 0x1.192e160000000p-3, -0x1.c15f6e0000000p-10, -0x1.6d8e700000000p-3, -0x1.e4355a0000000p-3, -0x1.1b9f5a0000000p-6, -0x1.7cecb20000000p-3, -0x1.562fd80000000p-2, 0x1.45919c0000000p-4, 0x1.a2d67e0000000p-5, 0x1.d00a6e0000000p-3, 0x1.3148380000000p-3, -0x1.e1897a0000000p-5, 0x1.5190bc0000000p-5, -0x1.a6e80a0000000p-2, -0x1.d8ecc40000000p-2, -0x1.313f980000000p-3, 0x1.6eb5020000000p-3, 0x1.2c192a0000000p-2, 0x1.0239be0000000p-2, -0x1.1ed8b00000000p-3, 0x1.dc16920000000p-5, 0x1.8c7ada0000000p-4, 0x1.ad8d2e0000000p-3, 0x1.0106800000000p-3, -0x1.d5230c0000000p-5, 0x1.8c80420000000p-3, -0x1.b7eb9c0000000p-3, -0x1.dcab660000000p-3, -0x1.d734ca0000000p-3, -0x1.3f505e0000000p-2, 0x1.d091540000000p-4, 0x1.7c58760000000p-4, 0x1.6571be0000000p-3, -0x1.51ae5c0000000p-5, -0x1.da50da0000000p-4, 0x1.cae3a00000000p-3, 0x1.1adc6e0000000p-2, -0x1.be71a80000000p-3, -0x1.8cf9b00000000p-3, 0x1.7fef1e0000000p-3, 0x1.d0b2600000000p-3, 0x1.1a017e0000000p-7, 0x1.81df880000000p-4, -0x1.8f3e060000000p-3, 0x1.dc7c520000000p-6, -0x1.eb1ffa0000000p-6, 0x1.2efc920000000p-3, 0x1.a224640000000p-3, 0x1.22be5e0000000p-5, -0x1.610ad00000000p-3, 0x1.b641740000000p-4, -0x1.1c441e0000000p-4, -0x1.afceb20000000p-3, -0x1.9c9f680000000p-2, 0x1.af6f020000000p-9, -0x1.136cea0000000p-4, -0x1.b420060000000p-3, 0x1.8c8df80000000p-3, 0x1.bf73080000000p-3, -0x1.6bf43e0000000p-5, 0x1.701cae0000000p-4, -0x1.67373c0000000p-4, 0x1.c1973c0000000p-3, -0x1.af15aa0000000p-4, 0x1.b9046c0000000p-3, -0x1.a850d80000000p-3, 0x1.db73560000000p-4, -0x1.2d4a180000000p-2, 0x1.9584e20000000p-3, -0x1.7bc74a0000000p-4, 0x1.7454260000000p-3, -0x1.f9026c0000000p-3, 0x1.b8a69c0000000p-3, 0x1.88e6a20000000p-4, -0x1.25de7e0000000p-5, -0x1.09c2140000000p-2, 0x1.aa14ea0000000p-3, -0x1.68071c0000000p-2, -0x1.4eef120000000p-6, 0x1.ce57f60000000p-3, -0x1.280c560000000p-2, 0x1.2bff6a0000000p-3, -0x1.0d2faa0000000p-2, -0x1.1039b20000000p-5, 0x1.602ba40000000p-8, -0x1.0615320000000p-3}
, {0x1.ff3ad80000000p-4, -0x1.4c9b4c0000000p-2, 0x1.a7ef4a0000000p-3, 0x1.f424f60000000p-4, 0x1.1e75b60000000p-3, 0x1.c623cc0000000p-3, 0x1.01bd020000000p-3, 0x1.cc9c420000000p-3, -0x1.04b9c00000000p-4, -0x1.4a70080000000p-3, -0x1.017b2c0000000p-3, 0x1.4676b40000000p-3, -0x1.1d12ee0000000p-2, 0x1.b019ac0000000p-4, -0x1.7b1b940000000p-2, 0x1.a6d2ea0000000p-3, 0x1.aa4ab00000000p-3, -0x1.e8234e0000000p-3, 0x1.e628e80000000p-3, -0x1.5478340000000p-4, 0x1.62216a0000000p-4, -0x1.982f660000000p-2, -0x1.855b340000000p-4, -0x1.07216e0000000p-1, 0x1.d611200000000p-3, -0x1.3b34720000000p-3, -0x1.210a240000000p-3, -0x1.1797720000000p-2, -0x1.8e15c00000000p-4, -0x1.452e3c0000000p-3, -0x1.80df1c0000000p-2, 0x1.249a5c0000000p-8, 0x1.5677ca0000000p-3, -0x1.5691ca0000000p-4, 0x1.142fca0000000p-2, 0x1.2816a60000000p-3, -0x1.bf59dc0000000p-4, -0x1.92e91a0000000p-2, 0x1.3a6aca0000000p-3, -0x1.4b1c420000000p-2, 0x1.53dfec0000000p-3, 0x1.cedcfc0000000p-3, -0x1.ab7d980000000p-3, 0x1.88722c0000000p-3, -0x1.1dff340000000p-1, -0x1.83e0720000000p-3, -0x1.0f37100000000p-2, 0x1.b3628c0000000p-3, -0x1.63119a0000000p-3, -0x1.f896440000000p-4, 0x1.5e485a0000000p-3, -0x1.9bae720000000p-3, 0x1.25edf60000000p-2, -0x1.2d50560000000p-2, -0x1.5d9d640000000p-2, -0x1.85b87a0000000p-2, -0x1.aa94220000000p-4, -0x1.117eb20000000p-2, 0x1.156b7a0000000p-2, -0x1.1c3d440000000p-2, -0x1.fcd5ee0000000p-3, 0x1.a8b8b20000000p-3, 0x1.6ce5880000000p-4, -0x1.0ec5b00000000p-2, 0x1.42a6860000000p-3, -0x1.52944c0000000p-2, -0x1.c008960000000p-5, -0x1.90d9ca0000000p-4, -0x1.859f700000000p-6, -0x1.334fba0000000p-3, 0x1.3b08ce0000000p-3, 0x1.a6e6c00000000p-3, 0x1.6598c80000000p-3, 0x1.a773700000000p-3, 0x1.9828c80000000p-3, 0x1.0a4fc00000000p-2, -0x1.ef5ada0000000p-2, 0x1.4bf4dc0000000p-3, -0x1.f73e3a0000000p-4, 0x1.71ea300000000p-3, -0x1.ea30f80000000p-2, -0x1.0603ea0000000p-6, -0x1.2b8a280000000p-3, -0x1.fb696e0000000p-4, 0x1.8ea2940000000p-4, -0x1.b97f540000000p-3, 0x1.81d0ae0000000p-3, 0x1.02f33c0000000p-2, 0x1.00238a0000000p-2, 0x1.7463960000000p-3, 0x1.404ef40000000p-3, -0x1.3ef7fa0000000p-2, -0x1.6c10720000000p-2, -0x1.12a9b00000000p-2, 0x1.1937a60000000p-4, 0x1.b149520000000p-6, 0x1.ee400c0000000p-3, 0x1.eb3e440000000p-10, -0x1.70d2f00000000p-2, -0x1.f034540000000p-2, -0x1.3c61a00000000p-3, -0x1.5c3b960000000p-5, -0x1.49ff0e0000000p-3, 0x1.f6d3160000000p-5, 0x1.5408920000000p-3, -0x1.2ed0020000000p-2, -0x1.d880800000000p-5, -0x1.3a87a00000000p-2, 0x1.6bb3d20000000p-3, 0x1.e41a0a0000000p-3, -0x1.3d5a600000000p-3, -0x1.65937c0000000p-2, -0x1.242ba20000000p-3, -0x1.43174a0000000p-2, -0x1.9a20540000000p-3, -0x1.cb29cc0000000p-2, 0x1.4c650c0000000p-7, -0x1.dc50620000000p-3, 0x1.e8b07e0000000p-3, -0x1.0a26260000000p-2, 0x1.65fe120000000p-3, -0x1.5ee89a0000000p-3, -0x1.8e3cfc0000000p-3, -0x1.43b4360000000p-3, 0x1.1ee7260000000p-3}
, {-0x1.baf18e0000000p-2, 0x1.f2aacc0000000p-4, 0x1.ef02900000000p-3, 0x1.14c35e0000000p-3, 0x1.3c82ea0000000p-3, 0x1.2ea2d20000000p-2, 0x1.7602d80000000p-4, -0x1.5fdeee0000000p-3, 0x1.251bcc0000000p-2, 0x1.639b700000000p-4, 0x1.3e98220000000p-3, -0x1.7b2ed20000000p-3, 0x1.a807080000000p-3, -0x1.1278420000000p-3, 0x1.10eea20000000p-3, -0x1.80cd040000000p-3, -0x1.4f56580000000p-3, -0x1.c535aa0000000p-4, 0x1.2e08860000000p-4, 0x1.16b7d80000000p-4, -0x1.026bae0000000p-2, 0x1.0058960000000p-2, 0x1.7700800000000p-2, -0x1.7126c40000000p-3, -0x1.4b7cc00000000p-4, 0x1.4453240000000p-3, 0x1.7d256a0000000p-3, 0x1.5d275a0000000p-3, -0x1.9105040000000p-2, -0x1.c384540000000p-4, 0x1.0a54500000000p-4, -0x1.234e8c0000000p-2, 0x1.0007e40000000p-3, -0x1.6489280000000p-3, -0x1.05dbae0000000p-4, 0x1.972ec60000000p-3, -0x1.48a25a0000000p-2, 0x1.89b4ae0000000p-3, -0x1.9340ba0000000p-3, -0x1.a8666a0000000p-3, -0x1.6656ec0000000p-3, -0x1.c04a5c0000000p-3, 0x1.199cb60000000p-2, -0x1.8c20220000000p-7, 0x1.be1d280000000p-8, 0x1.fac3fe0000000p-6, 0x1.f052500000000p-6, -0x1.35d13a0000000p-2, 0x1.b177780000000p-3, 0x1.cfcf2e0000000p-4, -0x1.2efc660000000p-2, 0x1.bee4460000000p-5, 0x1.614d900000000p-3, 0x1.c127a20000000p-4, -0x1.2659c40000000p-2, -0x1.3dc5440000000p-2, 0x1.cca8520000000p-7, -0x1.79865c0000000p-2, -0x1.22e4c00000000p-3, -0x1.04c9f60000000p-2, 0x1.53813a0000000p-2, -0x1.bf8b6c0000000p-4, -0x1.b188940000000p-3, 0x1.8417520000000p-3, -0x1.5d4cec0000000p-3, 0x1.dfd15a0000000p-4, -0x1.79435a0000000p-3, -0x1.a688980000000p-4, 0x1.9ea2ae0000000p-3, 0x1.9b4c7e0000000p-3, 0x1.4645cc0000000p-4, -0x1.2170240000000p-4, 0x1.6ca81c0000000p-3, 0x1.47cc2a0000000p-3, 0x1.10cf6a0000000p-4, -0x1.e2d5120000000p-3, 0x1.6f09160000000p-3, -0x1.a8982e0000000p-4, 0x1.63efa20000000p-3, -0x1.3243e40000000p-2, 0x1.e0fa440000000p-4, 0x1.1c92b40000000p-3, 0x1.3e461a0000000p-3, 0x1.8794ea0000000p-4, 0x1.6c07d20000000p-4, 0x1.a530360000000p-4, -0x1.3e165c0000000p-5, -0x1.422a460000000p-3, -0x1.142f720000000p-2, -0x1.d0c0660000000p-3, -0x1.78e6780000000p-3, -0x1.b87a240000000p-4, 0x1.c45f020000000p-3, 0x1.564c580000000p-3, -0x1.64e6760000000p-2, -0x1.6eb9ce0000000p-9, -0x1.78c2b40000000p-5, -0x1.28b3240000000p-2, 0x1.6215dc0000000p-3, 0x1.cc81420000000p-4, 0x1.2a29aa0000000p-3, 0x1.99dbfe0000000p-3, 0x1.53698a0000000p-3, -0x1.2476180000000p-2, -0x1.a9e0fc0000000p-3, 0x1.bd99ca0000000p-3, 0x1.4f63720000000p-3, -0x1.928f940000000p-3, -0x1.22720c0000000p-3, -0x1.19df1c0000000p-2, 0x1.0634240000000p-2, -0x1.8cb0100000000p-4, 0x1.6678340000000p-4, -0x1.8c675a0000000p-7, 0x1.6c9eda0000000p-3, 0x1.b8d3300000000p-3, -0x1.e454d40000000p-3, -0x1.3e979a0000000p-4, -0x1.4825920000000p-3, -0x1.392af80000000p-3, -0x1.f1119e0000000p-3, 0x1.c92f4a0000000p-3, -0x1.c698a60000000p-3, 0x1.62315a0000000p-3, -0x1.0b95560000000p-2}
, {0x1.d8eefc0000000p-4, 0x1.5209940000000p-3, -0x1.4383dc0000000p-3, -0x1.b02abe0000000p-3, 0x1.8240cc0000000p-3, -0x1.c722700000000p-3, 0x1.11d7ee0000000p-3, -0x1.5dcf200000000p-3, -0x1.130ca80000000p-2, -0x1.4e66060000000p-2, 0x1.33bb300000000p-3, -0x1.0039400000000p-2, 0x1.0824880000000p-3, -0x1.3d79400000000p-4, 0x1.c852e60000000p-4, -0x1.9959c00000000p-3, 0x1.3ef8220000000p-3, 0x1.dd3bba0000000p-4, -0x1.f38f860000000p-4, 0x1.2f06360000000p-5, 0x1.1d84240000000p-3, -0x1.25ee960000000p-3, -0x1.bf58940000000p-3, 0x1.d0d8660000000p-4, -0x1.0359500000000p-3, -0x1.0357ce0000000p-3, -0x1.6b0e5e0000000p-3, 0x1.ddea780000000p-3, 0x1.1d744e0000000p-3, 0x1.39554a0000000p-3, -0x1.3c55d20000000p-2, 0x1.b5c8580000000p-5, 0x1.7b967c0000000p-3, -0x1.c190080000000p-4, 0x1.ffdb060000000p-5, -0x1.9581d80000000p-3, 0x1.4978140000000p-3, 0x1.3ffa2c0000000p-3, -0x1.a4281c0000000p-4, 0x1.654a7e0000000p-3, -0x1.7c89b20000000p-3, -0x1.d070dc0000000p-3, -0x1.1cf16e0000000p-2, -0x1.732b600000000p-6, -0x1.2b7a220000000p-2, 0x1.b33e900000000p-3, 0x1.069ff40000000p-4, -0x1.932d6c0000000p-3, 0x1.45efc20000000p-5, 0x1.bef7240000000p-4, 0x1.0f81840000000p-3, 0x1.3a59b00000000p-4, -0x1.afb57a0000000p-3, 0x1.1252ce0000000p-3, 0x1.19c36c0000000p-3, 0x1.459fc60000000p-3, -0x1.321b020000000p-2, -0x1.b1e2240000000p-4, -0x1.34fe5c0000000p-4, -0x1.a56c5e0000000p-5, 0x1.da29e40000000p-6, 0x1.6815f40000000p-3, -0x1.c04f920000000p-5, -0x1.61ce080000000p-2, 0x1.deca0c0000000p-3, 0x1.82d0e00000000p-5, -0x1.b618800000000p-2, 0x1.a7dbe20000000p-4, -0x1.6d72000000000p-3, 0x1.2b2d980000000p-3, 0x1.83d0220000000p-3, 0x1.5f5e200000000p-3, -0x1.846a2e0000000p-2, -0x1.a49dc40000000p-3, 0x1.0256d40000000p-4, 0x1.41dcd00000000p-3, 0x1.1bf5220000000p-3, 0x1.1891280000000p-3, -0x1.5422880000000p-2, -0x1.45de220000000p-3, 0x1.69c7b00000000p-4, -0x1.87d6400000000p-2, 0x1.712b3c0000000p-3, -0x1.40d0ac0000000p-2, 0x1.872bea0000000p-3, 0x1.451f360000000p-3, 0x1.5588d20000000p-3, 0x1.23f5460000000p-4, -0x1.0f92b20000000p-3, 0x1.6300240000000p-3, 0x1.78b3de0000000p-3, -0x1.d2d1c60000000p-3, 0x1.73047a0000000p-4, 0x1.1c0a2a0000000p-3, 0x1.b699f60000000p-5, -0x1.fc35e80000000p-3, -0x1.4732740000000p-3, -0x1.f79f4c0000000p-7, -0x1.5afc560000000p-2, 0x1.8f0ca80000000p-4, -0x1.51baa20000000p-2, -0x1.283c6a0000000p-7, -0x1.0714220000000p-2, -0x1.6892360000000p-4, 0x1.646e820000000p-3, -0x1.4f364e0000000p-2, -0x1.17585a0000000p-3, -0x1.3ba0040000000p-3, -0x1.1cc7d40000000p-3, 0x1.444ef40000000p-3, -0x1.7c373c0000000p-2, -0x1.7e5b360000000p-3, 0x1.3bbfb40000000p-3, 0x1.6ff30c0000000p-3, 0x1.8c7f900000000p-3, -0x1.4ed8dc0000000p-4, -0x1.f3d7980000000p-3, -0x1.7f65e80000000p-3, -0x1.2e1d220000000p-6, -0x1.253f360000000p-2, 0x1.dc8de60000000p-4, -0x1.1834da0000000p-3, -0x1.7a7e260000000p-3, 0x1.d27a1c0000000p-3, 0x1.3ca8d20000000p-3}
, {0x1.a7e5a80000000p-6, 0x1.7e49160000000p-3, -0x1.6e46840000000p-2, 0x1.bbef300000000p-4, -0x1.08b20e0000000p-2, -0x1.c0f9940000000p-4, -0x1.e2a0a60000000p-3, -0x1.7da3f40000000p-3, -0x1.8a24700000000p-3, -0x1.2b55f60000000p-2, -0x1.4e248e0000000p-3, 0x1.c410f80000000p-3, 0x1.b66dd40000000p-3, -0x1.308f520000000p-2, 0x1.f8c6520000000p-4, -0x1.6017ec0000000p-3, 0x1.fb2ce20000000p-4, 0x1.485b8c0000000p-3, -0x1.bfe43c0000000p-2, 0x1.b4e1520000000p-4, 0x1.5103520000000p-5, 0x1.4814b00000000p-3, -0x1.02635c0000000p-3, 0x1.1d89840000000p-3, -0x1.bae94c0000000p-4, -0x1.644f2c0000000p-2, 0x1.78830e0000000p-3, -0x1.5dfb720000000p-3, 0x1.1a7c880000000p-3, 0x1.a7a5b00000000p-3, 0x1.ea63340000000p-6, 0x1.9aae260000000p-4, -0x1.1d250e0000000p-7, 0x1.69a6380000000p-3, 0x1.4954b60000000p-3, -0x1.8d94160000000p-3, -0x1.e1e4ce0000000p-6, 0x1.9108620000000p-3, -0x1.d714d20000000p-5, 0x1.79e9120000000p-4, -0x1.9c6ef80000000p-3, 0x1.f785280000000p-3, 0x1.1617600000000p-2, 0x1.82afce0000000p-4, 0x1.55740e0000000p-2, -0x1.9af42a0000000p-3, 0x1.9fb4540000000p-4, 0x1.b8b2ac0000000p-3, 0x1.957f840000000p-5, 0x1.e2704c0000000p-4, -0x1.3e81ec0000000p-2, 0x1.34ed9c0000000p-4, -0x1.000f620000000p-2, -0x1.6046f20000000p-2, 0x1.490cc80000000p-3, 0x1.7a4ffc0000000p-3, -0x1.aec3ce0000000p-3, 0x1.dcac5e0000000p-3, -0x1.fcf2760000000p-3, -0x1.89a9800000000p-3, 0x1.492a7c0000000p-4, -0x1.5c55f00000000p-2, -0x1.3da8040000000p-4, 0x1.69f8480000000p-3, -0x1.a5beb00000000p-3, 0x1.18e75c0000000p-3, 0x1.84e1fa0000000p-3, 0x1.1c1cda0000000p-4, -0x1.eb6bd60000000p-3, -0x1.a237720000000p-2, -0x1.46b0be0000000p-2, -0x1.cae8620000000p-3, -0x1.adb5c60000000p-4, -0x1.0b53200000000p-4, -0x1.5ac7200000000p-2, -0x1.64dc5a0000000p-6, 0x1.ab9b1c0000000p-3, -0x1.fd87ea0000000p-3, 0x1.2bf8320000000p-3, -0x1.cb8f020000000p-5, 0x1.425a380000000p-4, -0x1.5d3f760000000p-2, -0x1.16ad5c0000000p-2, 0x1.0871700000000p-3, -0x1.7f26a20000000p-3, -0x1.f870860000000p-4, 0x1.60f5e80000000p-3, -0x1.19c60a0000000p-2, 0x1.17e58e0000000p-3, -0x1.d498be0000000p-4, -0x1.04f1280000000p-3, 0x1.9617620000000p-3, 0x1.a4c0ea0000000p-3, -0x1.29bf340000000p-2, 0x1.041d720000000p-3, -0x1.7b75780000000p-3, 0x1.f0f8e60000000p-6, 0x1.0d43f20000000p-4, 0x1.4c767e0000000p-3, 0x1.ea93d20000000p-4, -0x1.4260a80000000p-2, -0x1.b7fd740000000p-3, -0x1.3e6eca0000000p-2, -0x1.343e300000000p-4, -0x1.fb30fe0000000p-3, 0x1.c0ed3c0000000p-3, -0x1.2e55400000000p-3, 0x1.84ff580000000p-3, 0x1.64bc9e0000000p-3, 0x1.313bb40000000p-4, -0x1.4d77e00000000p-8, 0x1.0389ce0000000p-3, 0x1.ac80440000000p-3, 0x1.c3c97e0000000p-3, -0x1.95c05a0000000p-3, 0x1.fc70ce0000000p-3, 0x1.3db7680000000p-3, -0x1.af4c540000000p-2, -0x1.18dcb60000000p-5, 0x1.56d8380000000p-3, 0x1.ca1f180000000p-4, -0x1.3540540000000p-3, -0x1.78a4ba0000000p-7, 0x1.fe006c0000000p-5, -0x1.30ad900000000p-2}
}
;

#undef INPUT_SAMPLES
#undef FC_UNITS