/**
  ******************************************************************************
  * @file    weights/fc.cc
  * @author  Pierre-Emmanuel Novac <penovac@unice.fr>, LEAT, CNRS, Université Côte d'Azur, France
  * @version 1.0.0
  * @date    24 march 2020
  * @brief   Template generating plain C code for the implementation of Convolutional Neural Networks on MCU
  */

#include <stdint.h>

#define INPUT_SAMPLES 8
#define FC_UNITS 128


const float dense_44_bias[FC_UNITS] = {0x1.f432b00000000p-9, 0x1.631e000000000p-2, -0x1.b0846a0000000p-3, -0x1.33d67a0000000p-2, 0x1.6587580000000p-3, 0x1.f29a920000000p-3, 0x1.fbfd1e0000000p-4, -0x1.9ccb4c0000000p-1, 0x1.dcb6a20000000p-3, 0x1.cdff140000000p-2, -0x1.5f23580000000p-1, -0x1.0905820000000p-1, 0x1.a0b7fe0000000p-8, -0x1.1635e00000000p-3, 0x1.89b5f00000000p-2, 0x1.1035200000000p-4, -0x1.2fe3ae0000000p-1, -0x1.4d325a0000000p-1, 0x1.a690100000000p-2, -0x1.2cb7840000000p-4, 0x1.dadbc20000000p-2, 0x1.daaffe0000000p-2, 0x1.e739180000000p-10, -0x1.827cb00000000p-1, -0x1.7ee62a0000000p-2, 0x1.ffec940000000p-11, -0x1.cbbc3e0000000p-2, 0x1.084f400000000p-1, -0x1.0c6d9e0000000p-1, -0x1.5b658c0000000p-1, 0x1.8857760000000p-2, -0x1.2f2cd60000000p-2, -0x1.3178800000000p-1, -0x1.3d2df40000000p-8, -0x1.3458fa0000000p-11, 0x1.35a8f60000000p-4, -0x1.efd8f40000000p-3, -0x1.44d62a0000000p-4, -0x1.3c4ece0000000p-2, 0x1.ac736e0000000p-2, -0x1.1e69c20000000p-1, 0x1.fbabcc0000000p-2, -0x1.f580900000000p-2, -0x1.1b0ad40000000p-1, -0x1.4543780000000p-2, 0x1.dfcd6a0000000p-3, -0x1.f5f8fc0000000p-2, -0x1.ac4cec0000000p-2, 0x1.2b13b60000000p-7, 0x1.4199080000000p-2, 0x1.b10c2c0000000p-2, -0x1.6120a40000000p-2, -0x1.d59c1a0000000p-2, -0x1.b0c5760000000p-1, 0x1.94fe8a0000000p-2, -0x1.ec88ee0000000p-8, 0x1.036bcc0000000p-1, 0x1.1e7fce0000000p-1, -0x1.8454680000000p-1, -0x1.f572980000000p-9, 0x1.5e8bc80000000p-7, 0x1.0c17b00000000p-3, -0x1.90bd3a0000000p-2, 0x1.aeb7160000000p-8, 0x1.c2d6040000000p-2, 0x1.42457e0000000p-2, -0x1.78f5220000000p-1, -0x1.4a18fe0000000p-10, 0x1.1b60c40000000p-2, -0x1.a0037e0000000p-7, -0x1.6b31440000000p-2, -0x1.7810ae0000000p-1, -0x1.39f0b40000000p-1, -0x1.003c4c0000000p-4, 0x1.c8bbc00000000p-2, -0x1.486fba0000000p-1, 0x1.bae1a60000000p-8, -0x1.85ecd20000000p-2, -0x1.99b9b80000000p-10, -0x1.1621120000000p-1, -0x1.4e0dd80000000p-2, -0x1.a889540000000p-4, -0x1.a772f60000000p-4, -0x1.2d794e0000000p-7, -0x1.0d93a20000000p-2, 0x1.36b1d20000000p-2, -0x1.27e7300000000p-1, -0x1.2238f40000000p-6, 0x1.26a69c0000000p-2, 0x1.d46c000000000p-3, 0x1.aa3d640000000p-2, 0x1.2802760000000p-2, -0x1.3d9a060000000p-2, -0x1.41e4400000000p-1, 0x1.b24ba20000000p-2, -0x1.ec21920000000p-8, -0x1.07752a0000000p-3, -0x1.8fdd380000000p-1, -0x1.7673e40000000p-8, 0x1.39db740000000p-2, -0x1.19306c0000000p-1, -0x1.ef7e3a0000000p-2, -0x1.fcf4600000000p-3, -0x1.dfa4980000000p-2, 0x1.eee7300000000p-2, 0x1.facb320000000p-4, -0x1.8ca7f20000000p-1, -0x1.a30f780000000p-3, -0x1.38841a0000000p-2, -0x1.0e47b00000000p-1, -0x1.a741220000000p-3, -0x1.6634bc0000000p-3, -0x1.d6c3740000000p-6, -0x1.c800800000000p-1, 0x1.1953340000000p-1, -0x1.3b80620000000p-10, -0x1.4beb180000000p-1, 0x1.c965940000000p-7, 0x1.7849c40000000p-2, 0x1.a299620000000p-3, -0x1.b92f480000000p-6, 0x1.2c9c400000000p-2, 0x1.2f04740000000p-2, 0x1.c95b9c0000000p-3, 0x1.da28f40000000p-2, -0x1.0329680000000p-5, -0x1.bf6f6c0000000p-5, 0x1.17dc940000000p-1}
;

const float dense_44_kernel[FC_UNITS][INPUT_SAMPLES] = {{-0x1.a6ffb00000000p-5, -0x1.47c35c0000000p-1, 0x1.7f26460000000p-5, -0x1.7e40300000000p-5, -0x1.e7a96a0000000p-3, 0x1.2082920000000p-3, -0x1.ddb6940000000p-2, 0x1.4e9c400000000p-3}
, {0x1.18f24a0000000p-9, -0x1.08edf00000000p-5, -0x1.747c400000000p-3, 0x1.1175f40000000p-3, -0x1.9092aa0000000p-3, 0x1.1316440000000p-2, -0x1.7ea4f00000000p-5, -0x1.3468000000000p-6}
, {-0x1.88d0860000000p-3, 0x1.2ac5d60000000p-2, -0x1.0a64c80000000p-2, 0x1.00160e0000000p-4, -0x1.455d100000000p-3, -0x1.c10a280000000p-6, -0x1.8465a20000000p-3, 0x1.84146e0000000p-4}
, {-0x1.0c2fd00000000p-4, -0x1.ca99260000000p-4, -0x1.3aa6d20000000p-3, 0x1.38d8120000000p-4, -0x1.be9b360000000p-3, -0x1.b47e9c0000000p-6, 0x1.4d1dda0000000p-2, -0x1.9318980000000p-3}
, {0x1.1045fc0000000p-3, -0x1.e750400000000p-7, 0x1.c3d2d80000000p-8, 0x1.d2ba4a0000000p-2, -0x1.d7d2260000000p-5, -0x1.0dd5ce0000000p-2, -0x1.11e2180000000p-3, -0x1.ac3d960000000p-3}
, {-0x1.8fe2da0000000p-7, -0x1.c085360000000p-3, 0x1.50b6480000000p-2, -0x1.27f5be0000000p-9, 0x1.b3b9440000000p-4, -0x1.e7c64c0000000p-5, 0x1.e47b200000000p-6, -0x1.14c98c0000000p-3}
, {-0x1.7913220000000p-4, -0x1.cbac3a0000000p-3, -0x1.9b67b60000000p-3, -0x1.6813740000000p-3, -0x1.b2ad560000000p-4, 0x1.f666a00000000p-3, -0x1.19bcf80000000p-3, -0x1.d5a6fe0000000p-8}
, {0x1.7afde60000000p-3, 0x1.cde80a0000000p-3, 0x1.edc43a0000000p-3, 0x1.3b16840000000p-3, 0x1.924cf00000000p-5, -0x1.14d8a80000000p-1, 0x1.2358f20000000p-10, -0x1.3e63840000000p-7}
, {0x1.3862d80000000p-4, -0x1.2e79e80000000p-5, 0x1.d91d940000000p-4, -0x1.eca3180000000p-2, -0x1.0a05a20000000p-4, -0x1.25f9d00000000p-4, 0x1.3b418c0000000p-3, -0x1.d4af680000000p-4}
, {0x1.6f476e0000000p-7, -0x1.80da1a0000000p-2, -0x1.31d1f60000000p-1, -0x1.a021fe0000000p-6, 0x1.70fcaa0000000p-5, -0x1.2a74a60000000p-4, -0x1.b1c74e0000000p-6, 0x1.b2e8380000000p-7}
, {-0x1.9092920000000p-3, 0x1.9887b00000000p-4, 0x1.5ba1a60000000p-4, -0x1.a37b7c0000000p-3, 0x1.7c11620000000p-8, -0x1.7723240000000p-5, 0x1.f742340000000p-4, 0x1.1d9b500000000p-5}
, {0x1.8231020000000p-5, -0x1.a709080000000p-4, -0x1.3346c60000000p-6, 0x1.7e85540000000p-3, 0x1.5b1a920000000p-4, 0x1.14214e0000000p-3, 0x1.6020bc0000000p-2, -0x1.68ed8c0000000p-3}
, {-0x1.937a940000000p-4, -0x1.2185500000000p-4, -0x1.947ed00000000p-3, 0x1.d1dd280000000p-2, -0x1.63e27c0000000p-3, 0x1.a077100000000p-3, -0x1.309a120000000p-4, -0x1.fd9fae0000000p-5}
, {0x1.afd9560000000p-4, -0x1.26229c0000000p-6, 0x1.9e20940000000p-2, 0x1.80b67c0000000p-5, 0x1.368a4a0000000p-3, -0x1.1541fa0000000p-4, 0x1.9e9c7a0000000p-7, 0x1.f8e6fe0000000p-5}
, {0x1.8c38640000000p-5, -0x1.417e780000000p-6, -0x1.5561dc0000000p-2, 0x1.1ecbaa0000000p-5, 0x1.8841460000000p-3, 0x1.099e8a0000000p-4, -0x1.2329140000000p-1, -0x1.3da81a0000000p-7}
, {0x1.1ec61c0000000p-3, -0x1.07901a0000000p-8, 0x1.3cfd000000000p-7, 0x1.bc571c0000000p-2, 0x1.46597c0000000p-6, -0x1.fa8bea0000000p-3, -0x1.ba9ae00000000p-4, -0x1.309fca0000000p-4}
, {-0x1.eac9a40000000p-7, 0x1.e9644a0000000p-3, 0x1.1184700000000p-2, 0x1.ad43ec0000000p-4, 0x1.76b8940000000p-4, 0x1.564ca80000000p-4, -0x1.1038360000000p-6, -0x1.70c7380000000p-6}
, {0x1.21a27a0000000p-4, 0x1.50eb560000000p-4, 0x1.176eee0000000p-4, -0x1.6d06300000000p-4, -0x1.1d390c0000000p-3, 0x1.3d1b0e0000000p-3, 0x1.6171740000000p-3, -0x1.a806a00000000p-6}
, {-0x1.0ab68e0000000p-4, -0x1.23b8560000000p-1, -0x1.7cb6880000000p-6, -0x1.c681200000000p-7, -0x1.7af2e40000000p-5, 0x1.1d5f680000000p-4, -0x1.45e6000000000p-1, -0x1.6daee60000000p-2}
, {-0x1.81512a0000000p-9, 0x1.d7992e0000000p-3, -0x1.ddb18c0000000p-3, 0x1.6ec9600000000p-2, 0x1.699ea40000000p-3, -0x1.53c6620000000p-2, -0x1.36ccc00000000p-3, 0x1.30930e0000000p-5}
, {0x1.1e94080000000p-3, -0x1.4e0f060000000p-1, 0x1.575fc60000000p-5, -0x1.99e2f00000000p-6, -0x1.011d7e0000000p-6, -0x1.1468a40000000p-4, -0x1.2451de0000000p-5, 0x1.acbd060000000p-8}
, {0x1.649d620000000p-3, 0x1.9d692e0000000p-7, -0x1.f115100000000p-7, -0x1.c3f3740000000p-5, 0x1.2022d20000000p-3, -0x1.a2a75a0000000p-5, -0x1.046f5e0000000p+0, 0x1.81eb980000000p-7}
, {0x1.2747ea0000000p-3, 0x1.10dbe80000000p-3, -0x1.eec1940000000p-3, 0x1.d46e940000000p-5, -0x1.fe478a0000000p-5, -0x1.c04ea40000000p-2, 0x1.61699e0000000p-4, -0x1.976ea80000000p-9}
, {0x1.92ae940000000p-5, 0x1.2f31820000000p-2, -0x1.10b5b60000000p-2, -0x1.afd2620000000p-5, -0x1.51778e0000000p-3, -0x1.5f33ba0000000p-2, -0x1.20edc40000000p-5, -0x1.228c500000000p-4}
, {-0x1.4019860000000p-4, 0x1.7278e60000000p-2, 0x1.f358960000000p-3, 0x1.4b19740000000p-4, -0x1.fd3f860000000p-5, 0x1.b5705a0000000p-4, -0x1.7e03fc0000000p-5, -0x1.6323980000000p-4}
, {0x1.5c656a0000000p-3, -0x1.b36e8e0000000p-5, -0x1.60bddc0000000p-5, 0x1.a6069c0000000p-2, 0x1.f01c3c0000000p-4, 0x1.02b4660000000p-2, -0x1.58dbf60000000p-5, -0x1.ccaa380000000p-7}
, {-0x1.e41da80000000p-4, -0x1.67c14a0000000p-4, -0x1.15fb780000000p-6, 0x1.5216020000000p-3, -0x1.b48f3c0000000p-6, -0x1.51ba920000000p-4, 0x1.3960f00000000p-2, -0x1.48e3dc0000000p-4}
, {0x1.7a17f60000000p-4, -0x1.62084e0000000p-5, -0x1.9e8c980000000p-2, -0x1.96660e0000000p-6, -0x1.dd65920000000p-5, -0x1.0b164c0000000p-4, -0x1.bd85700000000p-4, -0x1.953b220000000p-5}
, {-0x1.89fc6e0000000p-4, 0x1.f0f8220000000p-8, 0x1.18d0fa0000000p-2, 0x1.794dae0000000p-4, -0x1.0a20980000000p-4, 0x1.37d70a0000000p-3, 0x1.8dff0a0000000p-4, -0x1.2401020000000p-7}
, {-0x1.b8ec740000000p-6, 0x1.b7e6460000000p-8, -0x1.10e6c20000000p-6, 0x1.45f1d20000000p-3, -0x1.c0d94a0000000p-4, 0x1.7f32080000000p-3, -0x1.86de5e0000000p-5, -0x1.42c51a0000000p-5}
, {0x1.0f2b900000000p-4, 0x1.ceeee80000000p-9, -0x1.8eb86a0000000p-6, -0x1.5b61700000000p-3, -0x1.445cae0000000p-3, 0x1.6de1900000000p-3, -0x1.f3b4ae0000000p-1, 0x1.cee90e0000000p-7}
, {0x1.38d7100000000p-3, -0x1.8f05d00000000p-6, 0x1.54ddc60000000p-6, 0x1.86ff320000000p-4, -0x1.47b0200000000p-4, 0x1.9bbada0000000p-2, 0x1.e12d8a0000000p-6, -0x1.d27c6c0000000p-6}
, {-0x1.b3e8ee0000000p-4, -0x1.2914640000000p-6, 0x1.ad6f2e0000000p-2, 0x1.1c8e460000000p-3, 0x1.3c1c440000000p-3, 0x1.2d369c0000000p-3, -0x1.1561a80000000p-5, -0x1.1f8c1e0000000p-5}
, {-0x1.44f5520000000p-3, -0x1.183a560000000p-2, -0x1.2e04380000000p-3, -0x1.bc93300000000p-3, 0x1.01d33a0000000p-6, 0x1.198d9a0000000p-4, -0x1.457c4a0000000p-4, 0x1.52e2400000000p-3}
, {-0x1.6910c80000000p-3, 0x1.3ca88c0000000p-2, -0x1.b3b1420000000p-3, 0x1.4d8a000000000p-6, 0x1.89a3dc0000000p-3, -0x1.2f81ec0000000p-6, 0x1.2ab2900000000p-2, 0x1.6923bc0000000p-3}
, {-0x1.47f0460000000p-5, -0x1.e47be60000000p-5, 0x1.9058480000000p-6, 0x1.b9763c0000000p-2, -0x1.33d4540000000p-5, -0x1.0f75500000000p-2, -0x1.1fc39a0000000p-3, -0x1.23f93c0000000p-4}
, {0x1.c2edc20000000p-3, -0x1.7603b00000000p-7, 0x1.0bb2e00000000p-7, 0x1.67e01e0000000p-4, 0x1.4fab300000000p-3, 0x1.3c9b2a0000000p-2, 0x1.f7067e0000000p-3, -0x1.3b568c0000000p-3}
, {-0x1.aa21f80000000p-3, 0x1.674a9e0000000p-2, 0x1.9a359a0000000p-4, -0x1.1c35960000000p-4, -0x1.4b10c60000000p-4, -0x1.21c3fa0000000p-4, -0x1.88b9be0000000p-5, -0x1.fcc21e0000000p-3}
, {-0x1.d553d20000000p-4, -0x1.611c280000000p-5, 0x1.8626e20000000p-2, -0x1.306cbe0000000p-6, 0x1.2eb4b80000000p-3, 0x1.2673be0000000p-5, -0x1.58dbbc0000000p-4, 0x1.8c59120000000p-10}
, {0x1.d7910e0000000p-6, -0x1.e1c65e0000000p-2, -0x1.6760f40000000p-2, -0x1.13a9840000000p-6, -0x1.042fea0000000p-5, -0x1.e66de00000000p-2, -0x1.013e5c0000000p-6, 0x1.28db840000000p-6}
, {0x1.9578c00000000p-3, 0x1.f5e1080000000p-5, -0x1.53070a0000000p-4, 0x1.2606dc0000000p-4, -0x1.efe5cc0000000p-4, 0x1.c88c600000000p-8, 0x1.cd983c0000000p-3, 0x1.ddde940000000p-3}
, {0x1.9315ca0000000p-5, -0x1.fef0880000000p-6, -0x1.8550ca0000000p-2, 0x1.0750300000000p-6, 0x1.8e2d140000000p-3, 0x1.9d046e0000000p-5, -0x1.3f2e920000000p-4, -0x1.725b080000000p-7}
, {0x1.6040360000000p-3, -0x1.e68df60000000p-5, 0x1.0f2ed60000000p-2, 0x1.25d1460000000p-3, 0x1.7a73ac0000000p-4, 0x1.88290e0000000p-6, 0x1.5f3f900000000p-4, 0x1.577bc40000000p-3}
, {0x1.1c921a0000000p-4, -0x1.0a62fc0000000p-2, 0x1.a494c40000000p-6, -0x1.3f065e0000000p-5, 0x1.8d430a0000000p-5, 0x1.005d380000000p-3, -0x1.3c40fa0000000p-2, -0x1.37a49c0000000p-3}
, {0x1.61b2c80000000p-3, -0x1.bcf6440000000p-5, 0x1.990f9a0000000p-2, -0x1.68e75c0000000p-7, 0x1.364ba20000000p-6, 0x1.5c24020000000p-5, -0x1.b791ee0000000p-5, 0x1.39000a0000000p-8}
, {-0x1.3943500000000p-3, -0x1.11ca200000000p-1, 0x1.5d0fcc0000000p-11, 0x1.42438c0000000p-4, -0x1.f680040000000p-4, -0x1.bc70d00000000p-6, -0x1.d6657a0000000p-2, -0x1.9287080000000p-2}
, {-0x1.5155080000000p-4, -0x1.e55a140000000p-2, 0x1.b7ed280000000p-5, 0x1.03945e0000000p-3, -0x1.4bdc560000000p-12, 0x1.1fdb780000000p-7, -0x1.7431320000000p-2, 0x1.6ea9400000000p-3}
, {-0x1.617d060000000p-3, 0x1.99b7540000000p-11, 0x1.0640840000000p-2, 0x1.09eb900000000p-3, 0x1.26e2000000000p-4, 0x1.c651460000000p-2, 0x1.084ff60000000p-6, 0x1.568e580000000p-6}
, {-0x1.5bec760000000p-3, 0x1.bdefe80000000p-2, 0x1.0d0d8a0000000p-5, 0x1.5cb60e0000000p-2, -0x1.d3e31e0000000p-4, -0x1.09a4c20000000p-4, -0x1.1957840000000p-3, -0x1.8908620000000p-3}
, {-0x1.0302660000000p-4, 0x1.3165de0000000p-4, -0x1.2bf7920000000p-2, 0x1.3070a40000000p-5, 0x1.58260c0000000p-3, -0x1.c4e4960000000p-2, 0x1.27454a0000000p-5, -0x1.eb91e80000000p-4}
, {0x1.ab8dda0000000p-3, -0x1.1b7be60000000p-2, 0x1.ff871e0000000p-9, -0x1.26059a0000000p-1, 0x1.1a834c0000000p-3, 0x1.13862a0000000p-2, -0x1.55216a0000000p-10, -0x1.3e945e0000000p-4}
, {-0x1.693a820000000p-5, -0x1.30df180000000p-5, 0x1.1509720000000p-2, 0x1.261bd00000000p-3, 0x1.251c160000000p-3, 0x1.d6b55e0000000p-2, -0x1.15f7b80000000p-6, -0x1.9e20e20000000p-9}
, {-0x1.4e068a0000000p-5, -0x1.5f32ce0000000p-4, -0x1.1cd2ca0000000p-3, 0x1.6cfd100000000p-3, 0x1.2ad3680000000p-3, 0x1.2e09d60000000p-2, -0x1.5b1c860000000p-4, -0x1.433a940000000p-5}
, {-0x1.fc0b6e0000000p-4, 0x1.2a10020000000p-2, -0x1.9783ea0000000p-4, 0x1.528df40000000p-3, -0x1.6b9a900000000p-3, 0x1.aa75380000000p-3, -0x1.3e60080000000p-6, -0x1.e3e09c0000000p-5}
, {0x1.04f4ec0000000p-3, 0x1.6eaf420000000p-4, -0x1.056d0c0000000p-4, -0x1.9ba99c0000000p-5, -0x1.37358a0000000p-3, -0x1.26092e0000000p-5, -0x1.87a60e0000000p-1, -0x1.4bb0400000000p-7}
, {-0x1.3b518e0000000p-4, -0x1.5f6b1a0000000p-7, 0x1.84b49c0000000p-10, 0x1.fe4f4e0000000p-3, 0x1.66fe5a0000000p-4, 0x1.e484e80000000p-2, -0x1.486af60000000p-8, -0x1.2314200000000p-6}
, {-0x1.696dfc0000000p-3, -0x1.909ac00000000p-1, -0x1.4da6ca0000000p-5, -0x1.58eb260000000p-5, 0x1.d5291e0000000p-7, -0x1.48698e0000000p-4, -0x1.3c090c0000000p-5, 0x1.95e89a0000000p-6}
, {0x1.90c6fa0000000p-4, -0x1.9b55180000000p-5, 0x1.4d39e20000000p-5, -0x1.19ddd40000000p-8, -0x1.8ee0c40000000p-7, -0x1.c023be0000000p-2, -0x1.a7f8720000000p-4, -0x1.f69b000000000p-4}
, {-0x1.2658760000000p-6, 0x1.1492a40000000p-3, -0x1.f7bf720000000p-8, -0x1.b45a0a0000000p-5, -0x1.b8dede0000000p-6, 0x1.83758e0000000p-3, -0x1.a42aac0000000p-7, 0x1.a4f4000000000p-11}
, {0x1.9f0a1e0000000p-6, -0x1.4139480000000p-4, -0x1.ecd9fa0000000p-3, -0x1.08c0ea0000000p-2, -0x1.2c104a0000000p-3, 0x1.d028860000000p-2, 0x1.7b26820000000p-13, -0x1.6178740000000p-4}
, {0x1.14530a0000000p-3, 0x1.018a4e0000000p-3, 0x1.347dbc0000000p-6, -0x1.3109ce0000000p-1, 0x1.8a95700000000p-6, 0x1.8923060000000p-6, 0x1.73e9c20000000p-3, 0x1.08a2740000000p-2}
, {-0x1.4fb26a0000000p-4, -0x1.fa03aa0000000p-1, 0x1.617c400000000p-5, -0x1.274a220000000p-4, 0x1.65c4820000000p-3, -0x1.6635220000000p-3, 0x1.0e4bfc0000000p-6, 0x1.2ab3de0000000p-3}
, {-0x1.ab46c40000000p-4, -0x1.850c720000000p-7, 0x1.d1be5a0000000p-5, 0x1.2c10640000000p-3, -0x1.04ad840000000p-3, 0x1.936a660000000p-2, -0x1.e379180000000p-10, 0x1.af5e740000000p-6}
, {0x1.ea89ba0000000p-4, -0x1.1375120000000p-6, 0x1.c40aa00000000p-6, 0x1.ef6c420000000p-2, 0x1.42622e0000000p-4, 0x1.331b580000000p-2, -0x1.473b2c0000000p-4, -0x1.32531e0000000p-4}
, {0x1.3b1b000000000p-4, 0x1.b7298c0000000p-4, -0x1.1c97bc0000000p-4, -0x1.67fa000000000p-4, -0x1.cdeb560000000p-4, -0x1.81a1e80000000p-5, -0x1.053f2a0000000p+0, 0x1.11ee0a0000000p-6}
, {0x1.cfd13c0000000p-4, -0x1.d1f7b20000000p-6, -0x1.cedf8a0000000p-5, -0x1.ccb6200000000p-2, -0x1.4063680000000p-3, 0x1.32d6b40000000p-1, -0x1.d08c200000000p-5, -0x1.08f1960000000p-7}
, {0x1.ac2fa00000000p-4, 0x1.e26ba40000000p-4, 0x1.1118cc0000000p-2, -0x1.c824600000000p-3, 0x1.c472440000000p-7, -0x1.b621b40000000p-5, 0x1.7f61ae0000000p-3, 0x1.7a73b80000000p-7}
, {-0x1.71ed600000000p-3, -0x1.ce759c0000000p-4, -0x1.103bdc0000000p-5, -0x1.6758480000000p-4, 0x1.58431c0000000p-3, -0x1.3a8fd00000000p-3, -0x1.34d9440000000p-3, -0x1.fd503e0000000p-4}
, {0x1.933ace0000000p-3, -0x1.1081f60000000p-4, -0x1.1d7d5a0000000p-1, -0x1.2b7dd40000000p-3, -0x1.4464f40000000p-5, 0x1.0d5a600000000p-6, 0x1.759bbc0000000p-5, 0x1.400d340000000p-3}
, {-0x1.4246180000000p-6, 0x1.9ca16a0000000p-2, -0x1.2bb3500000000p-6, -0x1.b2a2360000000p-6, -0x1.3f5e5c0000000p-5, -0x1.9fbc040000000p-5, 0x1.442d400000000p-2, -0x1.161ff20000000p-3}
, {-0x1.8ef1400000000p-5, -0x1.a3d9a20000000p-2, -0x1.44cd360000000p-4, 0x1.0ce8260000000p-6, -0x1.924b060000000p-3, -0x1.2bc22e0000000p-3, 0x1.0c36120000000p-2, -0x1.cc7aa40000000p-8}
, {0x1.07cf100000000p-5, -0x1.452b4e0000000p-8, 0x1.46e4e00000000p-5, -0x1.b993480000000p-5, 0x1.06bf700000000p-5, -0x1.448c160000000p-6, 0x1.fa6b5c0000000p-3, -0x1.8ab07e0000000p-5}
, {-0x1.f7bd960000000p-4, -0x1.d1b6e40000000p-5, 0x1.8aba0a0000000p-5, -0x1.1bfc260000000p-4, -0x1.acb1fa0000000p-4, 0x1.67e7b80000000p-3, 0x1.d4e4d80000000p-3, -0x1.ee24c00000000p-5}
, {-0x1.80bc620000000p-5, -0x1.18adc60000000p-1, -0x1.3dda100000000p-4, -0x1.2c6ab60000000p-3, 0x1.de056e0000000p-4, 0x1.3fddb80000000p-4, -0x1.54c4940000000p-3, 0x1.f3dc4a0000000p-3}
, {-0x1.21ffaa0000000p-3, -0x1.040d260000000p-5, -0x1.c62af00000000p-3, 0x1.5441780000000p-3, 0x1.13b68e0000000p-3, -0x1.68923c0000000p-2, 0x1.d0b02e0000000p-8, -0x1.cae6fa0000000p-6}
, {-0x1.68007e0000000p-3, -0x1.7acdc40000000p-5, 0x1.2f52b80000000p-4, -0x1.048f180000000p-4, -0x1.03d9980000000p-3, 0x1.841a2c0000000p-3, 0x1.7781dc0000000p-3, -0x1.5fd8b80000000p-8}
, {-0x1.f7af1c0000000p-5, 0x1.819f380000000p-4, -0x1.8dd6820000000p-2, 0x1.31f8f20000000p-6, 0x1.1afd360000000p-3, -0x1.608c8e0000000p-1, 0x1.aaebaa0000000p-8, 0x1.0baef00000000p-3}
, {-0x1.6f49de0000000p-3, 0x1.88070a0000000p-2, -0x1.51419a0000000p-3, -0x1.72071c0000000p-5, 0x1.a3241c0000000p-4, 0x1.03ca780000000p-4, 0x1.1a94040000000p-8, 0x1.64f2d00000000p-4}
, {0x1.a43c300000000p-4, 0x1.4ed0920000000p-2, -0x1.b99f840000000p-5, 0x1.47aad00000000p-2, 0x1.2959880000000p-4, -0x1.5833000000000p-3, -0x1.fdd60a0000000p-3, 0x1.15ca340000000p-2}
, {-0x1.2b3d1a0000000p-7, -0x1.2d8fce0000000p-5, -0x1.2074360000000p-5, 0x1.0a20480000000p-2, -0x1.2620140000000p-3, 0x1.4689020000000p-3, -0x1.0a38180000000p-7, -0x1.bf51100000000p-8}
, {0x1.8c96ec0000000p-5, 0x1.8580140000000p-2, 0x1.9d99f20000000p-4, -0x1.ee4b0e0000000p-5, 0x1.eb56840000000p-5, -0x1.5f95980000000p-7, -0x1.08b0420000000p-3, 0x1.1075a60000000p-3}
, {0x1.5d0ce40000000p-5, -0x1.df0e640000000p-5, -0x1.31ec8c0000000p-3, 0x1.ec82700000000p-5, 0x1.7f43b60000000p-6, -0x1.36bc5a0000000p-5, 0x1.1c41ee0000000p-2, 0x1.7dd3e20000000p-2}
, {-0x1.38fe140000000p-4, -0x1.96a46c0000000p-2, -0x1.ba68920000000p-4, 0x1.8211120000000p-8, 0x1.3e62cc0000000p-5, -0x1.07b40c0000000p-6, 0x1.3b199c0000000p-2, 0x1.8874b20000000p-2}
, {-0x1.232f300000000p-4, -0x1.42ab020000000p-3, 0x1.e8ece80000000p-12, -0x1.9d053e0000000p-5, -0x1.5cbda00000000p-4, -0x1.1839a20000000p-5, 0x1.9665860000000p-2, 0x1.eedc580000000p-2}
, {0x1.2e21ec0000000p-6, -0x1.044c600000000p-7, 0x1.c4c4f40000000p-3, -0x1.009c400000000p-2, 0x1.d2adaa0000000p-5, 0x1.030d200000000p-1, -0x1.74c7260000000p-6, 0x1.c9b9ae0000000p-6}
, {0x1.3a36ae0000000p-6, -0x1.7403840000000p-1, -0x1.6198300000000p-5, -0x1.0709700000000p-3, 0x1.1be33c0000000p-4, 0x1.5559360000000p-3, -0x1.495f160000000p-1, -0x1.f2553c0000000p-5}
, {0x1.b96e6a0000000p-5, -0x1.720e2a0000000p-5, 0x1.57cfe80000000p-2, 0x1.3eea1e0000000p-3, -0x1.8c7d400000000p-3, 0x1.a3c94e0000000p-4, -0x1.0103380000000p-7, 0x1.beaec00000000p-5}
, {0x1.8dc9900000000p-3, -0x1.78d5120000000p-4, -0x1.c049fc0000000p-5, 0x1.5dd67a0000000p-7, 0x1.769e6e0000000p-4, 0x1.565dec0000000p-8, -0x1.b46bea0000000p-2, 0x1.470cd40000000p-2}
, {-0x1.4eacd80000000p-3, -0x1.99a3420000000p-2, 0x1.5d09980000000p-5, -0x1.5a11080000000p-3, -0x1.19d94a0000000p-5, 0x1.d2a7900000000p-3, -0x1.1e3c2c0000000p-7, 0x1.37a0220000000p-7}
, {-0x1.b6c3640000000p-4, 0x1.4658740000000p-2, -0x1.badf9a0000000p-4, -0x1.dd5b660000000p-6, -0x1.3ff7040000000p-3, -0x1.b04b960000000p-9, -0x1.9db1980000000p-2, 0x1.d9d4f80000000p-6}
, {-0x1.3a63560000000p-5, -0x1.f23b6e0000000p-2, 0x1.5334f40000000p-4, 0x1.dd10b80000000p-7, 0x1.babfd20000000p-3, -0x1.71d32a0000000p-2, 0x1.1da7a00000000p-5, -0x1.cc76e80000000p-3}
, {-0x1.6349920000000p-3, -0x1.4289000000000p-5, -0x1.e0565e0000000p-5, -0x1.14b9be0000000p-2, -0x1.8d93e20000000p-4, 0x1.8046840000000p-2, -0x1.a6904a0000000p-2, 0x1.72bc700000000p-10}
, {-0x1.4058a40000000p-3, 0x1.750a320000000p-3, -0x1.4e76ee0000000p-4, 0x1.50afd80000000p-2, -0x1.8c9fa20000000p-3, -0x1.c2a13c0000000p-3, -0x1.38d8f40000000p-6, -0x1.001d360000000p-5}
, {0x1.614ac80000000p-4, -0x1.1b5c920000000p-8, 0x1.2a7a560000000p-3, 0x1.c3d6120000000p-4, -0x1.69b2e40000000p-3, 0x1.4275460000000p-3, 0x1.1b49440000000p-3, -0x1.444d0a0000000p-5}
, {0x1.42ffc60000000p-5, -0x1.fca9320000000p-2, 0x1.dde3320000000p-4, -0x1.389dac0000000p-9, 0x1.30f0c80000000p-5, -0x1.7d6a140000000p-1, -0x1.1bed560000000p-3, -0x1.0bb1160000000p-3}
, {-0x1.7bfc440000000p-3, -0x1.714ffe0000000p-3, -0x1.0f16b60000000p-7, -0x1.d2c37e0000000p-6, 0x1.addf380000000p-3, -0x1.1c129e0000000p-4, 0x1.92c2840000000p-2, -0x1.2f6cb20000000p-3}
, {0x1.1cec220000000p-4, -0x1.e4506a0000000p-2, 0x1.e0fdf40000000p-3, -0x1.58a16e0000000p-2, -0x1.5e05880000000p-4, -0x1.684d620000000p-1, -0x1.0d80440000000p-3, -0x1.12942a0000000p-3}
, {-0x1.663cc60000000p-4, -0x1.8715e00000000p-9, 0x1.2b66e80000000p-5, -0x1.dc4c8c0000000p-4, 0x1.3c499a0000000p-3, -0x1.96b14e0000000p-8, 0x1.c749980000000p-3, -0x1.5633300000000p-6}
, {0x1.24d8b80000000p-3, 0x1.4c34040000000p-6, 0x1.2e8aba0000000p-6, -0x1.1e87440000000p-1, 0x1.3ebe960000000p-3, -0x1.7a28e80000000p-1, 0x1.00a13a0000000p-3, 0x1.ccdb3e0000000p-4}
, {0x1.e139820000000p-8, -0x1.c37cd40000000p-1, -0x1.ff22a80000000p-4, -0x1.2283980000000p-2, -0x1.6301a00000000p-5, -0x1.1260900000000p-8, -0x1.54fd900000000p-1, -0x1.8306ac0000000p-6}
, {-0x1.3671680000000p-3, 0x1.0100060000000p-2, 0x1.f4b0160000000p-3, 0x1.ccf16c0000000p-4, 0x1.d6d8c60000000p-5, 0x1.d9042c0000000p-4, -0x1.c4ef200000000p-6, -0x1.2a6a340000000p-5}
, {0x1.9d68340000000p-5, 0x1.0f7df20000000p-3, 0x1.4532dc0000000p-3, -0x1.1fb0940000000p-2, 0x1.4766480000000p-4, 0x1.ed22c20000000p-4, 0x1.6362940000000p-8, 0x1.3e78220000000p-6}
, {-0x1.3300ac0000000p-7, 0x1.01e5ca0000000p-1, -0x1.18cef60000000p-5, -0x1.4822440000000p-6, 0x1.8d3b040000000p-4, 0x1.2c96580000000p-6, -0x1.57a7fc0000000p-3, 0x1.6cacfa0000000p-4}
, {-0x1.ff3d020000000p-5, -0x1.1e30520000000p-2, -0x1.d181320000000p-5, 0x1.3d2a300000000p-5, -0x1.4548bc0000000p-3, 0x1.ab7a3a0000000p-11, 0x1.9caf8c0000000p-2, -0x1.2d37360000000p-3}
, {0x1.b914840000000p-3, -0x1.ca40c40000000p-6, -0x1.b1a6940000000p-2, -0x1.d3ceb00000000p-8, 0x1.aeab460000000p-3, -0x1.aec0ce0000000p-3, -0x1.427fde0000000p-4, -0x1.00f7c00000000p-8}
, {-0x1.42362c0000000p-5, 0x1.2dcce00000000p-11, 0x1.1d84480000000p-3, 0x1.f99aaa0000000p-3, 0x1.41e8040000000p-3, 0x1.c10af40000000p-2, -0x1.6126da0000000p-6, -0x1.8f38ca0000000p-9}
, {-0x1.5278280000000p-4, 0x1.88a2e20000000p-3, -0x1.5c65140000000p-4, -0x1.7ddde20000000p-2, -0x1.7f30da0000000p-4, 0x1.90a4fe0000000p-3, -0x1.1683be0000000p-6, -0x1.d5d9b00000000p-7}
, {0x1.72d4180000000p-6, -0x1.32076a0000000p-2, -0x1.2b1fc20000000p-2, 0x1.1419f60000000p-2, -0x1.ca66320000000p-5, -0x1.c9bd920000000p-2, 0x1.5fb4880000000p-4, 0x1.6152c20000000p-4}
, {0x1.b82a860000000p-3, 0x1.031c360000000p-2, -0x1.b579a00000000p-5, 0x1.3434ba0000000p-5, -0x1.024e280000000p-4, 0x1.991fc80000000p-8, 0x1.0370840000000p-3, 0x1.43cb6e0000000p-3}
, {0x1.98116c0000000p-3, 0x1.1dbdb20000000p-4, -0x1.d375a60000000p-4, 0x1.de5f180000000p-5, -0x1.15c8240000000p-3, -0x1.34bd900000000p-11, 0x1.a9dcd00000000p-3, 0x1.db2a340000000p-3}
, {-0x1.325a9c0000000p-3, 0x1.f5ef3c0000000p-4, -0x1.2ffaac0000000p-2, -0x1.2e11520000000p-1, -0x1.06d8260000000p-3, -0x1.7960dc0000000p-1, 0x1.58e8de0000000p-4, 0x1.a7871a0000000p-4}
, {-0x1.3a830c0000000p-3, -0x1.efafd00000000p-2, 0x1.74d0f80000000p-2, 0x1.d07ca40000000p-6, -0x1.a09c500000000p-4, 0x1.187aec0000000p-4, -0x1.50ee360000000p-2, -0x1.ae54fc0000000p-3}
, {0x1.73f3660000000p-4, -0x1.9032c40000000p-5, -0x1.333f1e0000000p-4, 0x1.00727e0000000p-5, -0x1.a85f2c0000000p-4, 0x1.51db5c0000000p-2, 0x1.f28c160000000p-3, 0x1.a0a2c80000000p-3}
, {-0x1.6aa4d40000000p-9, 0x1.27a87a0000000p-2, -0x1.3083ba0000000p-3, 0x1.10c82a0000000p-3, 0x1.2acb820000000p-4, 0x1.7f35da0000000p-3, -0x1.c033e40000000p-6, 0x1.e6c39c0000000p-8}
, {-0x1.4a0d500000000p-3, -0x1.67b7160000000p-1, -0x1.2704fe0000000p-1, -0x1.aa13ea0000000p-5, -0x1.60c8c40000000p-5, -0x1.5354760000000p-4, -0x1.3c489e0000000p-6, 0x1.f11f920000000p-7}
, {-0x1.98d2ea0000000p-5, -0x1.0598060000000p-4, -0x1.f0bb800000000p-2, -0x1.0700bc0000000p-10, -0x1.92d03c0000000p-5, 0x1.e9862a0000000p-4, 0x1.6fe1820000000p-3, 0x1.0779ba0000000p-2}
, {-0x1.b3ce9a0000000p-4, 0x1.821b580000000p-3, 0x1.b05bd20000000p-3, 0x1.d052b40000000p-4, -0x1.1af5380000000p-3, 0x1.73de700000000p-4, -0x1.1dd7e80000000p-6, -0x1.5bacce0000000p-6}
, {0x1.d63bf80000000p-5, 0x1.bc73de0000000p-6, 0x1.3e0cc40000000p-5, -0x1.5e15c40000000p-3, -0x1.b379e20000000p-5, 0x1.f7025a0000000p-3, -0x1.c5f0f00000000p-1, 0x1.da14c40000000p-4}
, {0x1.d00ce20000000p-4, -0x1.31e3460000000p-1, -0x1.b8e2320000000p-6, -0x1.0f951e0000000p-4, 0x1.2130f40000000p-3, 0x1.63f8c80000000p-4, -0x1.4fcb960000000p-1, -0x1.2ed3da0000000p-1}
, {-0x1.d2cd1e0000000p-5, -0x1.288d080000000p-2, -0x1.0729300000000p-9, -0x1.5d63f40000000p-5, 0x1.40c2e20000000p-3, -0x1.d6397e0000000p-3, 0x1.ff9eba0000000p-3, -0x1.2accbc0000000p-3}
, {-0x1.290bd80000000p-7, -0x1.484aae0000000p-6, -0x1.3739fe0000000p-5, -0x1.4d37380000000p-2, 0x1.cbdb880000000p-4, 0x1.0297ce0000000p-1, -0x1.264e4a0000000p-4, 0x1.cede860000000p-4}
, {-0x1.675b660000000p-3, -0x1.2a11de0000000p-1, 0x1.74d90e0000000p-7, -0x1.0883cc0000000p-3, 0x1.841eb20000000p-3, 0x1.702c1c0000000p-3, -0x1.4d3d940000000p-1, -0x1.0de8700000000p-1}
, {0x1.2c63d60000000p-3, 0x1.49894e0000000p-5, -0x1.9ee1320000000p-7, -0x1.646a2c0000000p-5, 0x1.b0d7fa0000000p-4, -0x1.42849a0000000p-5, -0x1.924f6a0000000p-1, 0x1.1bc14e0000000p-7}
, {-0x1.6d3e0e0000000p-3, 0x1.5393aa0000000p-8, -0x1.2175640000000p-5, 0x1.89c5140000000p-2, 0x1.230a320000000p-3, 0x1.000f480000000p-2, -0x1.053e560000000p-2, 0x1.70684c0000000p-7}
, {-0x1.15cddc0000000p-5, -0x1.1006580000000p-1, 0x1.7caa680000000p-8, -0x1.7541460000000p-6, -0x1.3a385e0000000p-9, -0x1.4afef00000000p-1, -0x1.028fe80000000p-5, -0x1.2aaf3e0000000p-8}
, {-0x1.24d5500000000p-3, -0x1.62f6e60000000p-4, -0x1.12a3d60000000p-3, -0x1.65229e0000000p-3, -0x1.a8fe160000000p-3, -0x1.00100a0000000p-3, -0x1.47289a0000000p-3, -0x1.820b7c0000000p-6}
, {0x1.1f0d4a0000000p-3, -0x1.77551e0000000p-4, -0x1.2eed200000000p-11, -0x1.8092d40000000p-7, -0x1.a1a81c0000000p-5, -0x1.2fce0e0000000p-5, 0x1.6fec0e0000000p-2, 0x1.5d63ca0000000p-2}
, {-0x1.1a18ee0000000p-5, -0x1.d950220000000p-2, -0x1.76ecfc0000000p-1, -0x1.65a4140000000p-6, 0x1.9b796e0000000p-4, -0x1.9a35ae0000000p-4, -0x1.2179800000000p-5, 0x1.d32cee0000000p-7}
}
;

#undef INPUT_SAMPLES
#undef FC_UNITS