/**
  ******************************************************************************
  * @file    weights/fc.cc
  * @author  Pierre-Emmanuel Novac <penovac@unice.fr>, LEAT, CNRS, Université Côte d'Azur, France
  * @version 1.0.0
  * @date    24 march 2020
  * @brief   Template generating plain C code for the implementation of Convolutional Neural Networks on MCU
  */

#include <stdint.h>

#define INPUT_SAMPLES 1152
#define FC_UNITS 125


const float dense_50_bias[FC_UNITS] = {0x1.36b6720000000p-5, 0x1.9abedc0000000p-6, -0x1.5cc3340000000p-4, -0x1.b5af280000000p-7, 0x1.db53900000000p-7, 0x1.2636dc0000000p-5, 0x1.65e0200000000p-6, 0x1.39cb500000000p-6, 0x1.140f200000000p-7, -0x1.c349460000000p-7, -0x1.932e1c0000000p-7, 0x1.923f860000000p-7, -0x1.c894940000000p-6, 0x1.6482e60000000p-6, -0x1.0a1f3a0000000p-7, -0x1.8678be0000000p-13, 0x1.35cf740000000p-6, 0x1.3ae6a80000000p-6, 0x1.c7f8120000000p-6, 0x1.c930480000000p-8, 0x1.6d435c0000000p-6, -0x1.12edde0000000p-5, 0x1.36f7340000000p-7, 0x1.0e37620000000p-4, 0x1.8baae60000000p-10, -0x1.09786c0000000p-7, -0x1.ebbc6e0000000p-9, -0x1.fa6edc0000000p-7, 0x1.f53b400000000p-7, -0x1.1e9b5c0000000p-8, -0x1.3619840000000p-6, -0x1.3b74720000000p-7, -0x1.bffb220000000p-7, -0x1.db033a0000000p-7, -0x1.3c06360000000p-7, 0x1.a8d11a0000000p-9, 0x1.77b9460000000p-5, 0x1.cc07880000000p-6, 0x1.9bf9160000000p-5, 0x1.5c0fe80000000p-6, -0x1.66ad240000000p-7, 0x1.cbc4e00000000p-7, -0x1.07cb580000000p-6, -0x1.0a8f580000000p-6, 0x1.d39c1e0000000p-7, 0x1.7fce5a0000000p-9, -0x1.57c3080000000p-7, 0x1.c4561e0000000p-7, -0x1.92369e0000000p-6, 0x1.2732740000000p-5, 0x1.8b60880000000p-5, 0x1.86c39a0000000p-5, 0x1.9d21520000000p-6, 0x1.26bc2e0000000p-5, 0x1.4b952a0000000p-4, -0x1.2dc92a0000000p-5, 0x1.cb0c520000000p-6, -0x1.d1c6840000000p-5, 0x1.7e7fc40000000p-6, 0x1.b32d1c0000000p-11, -0x1.68eb6c0000000p-5, 0x1.761b520000000p-5, -0x1.4dfb7e0000000p-5, 0x1.8b28ea0000000p-5, 0x1.55ee680000000p-5, 0x1.afdb960000000p-7, -0x1.1ce7020000000p-10, 0x1.216b5e0000000p-4, -0x1.903bfc0000000p-5, -0x1.e565aa0000000p-6, 0x1.62a85c0000000p-7, 0x1.baca560000000p-7, -0x1.b23e980000000p-7, 0x1.7c413c0000000p-9, 0x1.10a9ee0000000p-9, 0x1.fbc4260000000p-7, -0x1.8d9ea00000000p-7, 0x1.93b7220000000p-5, -0x1.91bfc00000000p-7, 0x1.1384b40000000p-9, 0x1.7fb1360000000p-5, -0x1.569fa80000000p-6, -0x1.5867600000000p-6, 0x1.ff563e0000000p-6, 0x1.0e23700000000p-5, -0x1.0de33a0000000p-6, 0x1.d3737c0000000p-6, 0x1.043b3a0000000p-6, 0x1.50eb300000000p-12, 0x1.16507e0000000p-5, 0x1.e4cba80000000p-5, -0x1.36cc1a0000000p-7, 0x1.f91f780000000p-6, -0x1.95763a0000000p-6, 0x1.39dfa80000000p-6, -0x1.c3a4e80000000p-8, -0x1.9bc1040000000p-9, -0x1.036db80000000p-5, 0x1.6551ce0000000p-7, 0x1.869bfe0000000p-8, -0x1.b2cd600000000p-5, -0x1.8dee200000000p-6, 0x1.2995240000000p-8, 0x1.94acfc0000000p-6, 0x1.627a700000000p-5, 0x1.dde3000000000p-15, -0x1.331c440000000p-5, -0x1.c6f5340000000p-6, 0x1.ec2e840000000p-6, 0x1.85ba020000000p-6, -0x1.09b8880000000p-5, -0x1.09e9de0000000p-6, -0x1.09ee140000000p-7, 0x1.780f280000000p-5, 0x1.59b7d60000000p-7, 0x1.11e1f40000000p-6, 0x1.1b0df20000000p-5, -0x1.07d5d20000000p-6, -0x1.5396680000000p-8, -0x1.7293100000000p-6, 0x1.df17be0000000p-7, -0x1.2209b40000000p-6, -0x1.054ba40000000p-5, 0x1.a180140000000p-6, 0x1.4897240000000p-4}
;

const float dense_50_kernel[FC_UNITS][INPUT_SAMPLES] = {{0x1.90e7560000000p-8, 0x1.5299860000000p-5, 0x1.82aac80000000p-6, 0x1.7e136a0000000p-6, -0x1.e7f8ce0000000p-6, 0x1.3af7ce0000000p-6, -0x1.81985c0000000p-7, -0x1.74b6180000000p-5, 0x1.c6df700000000p-4, -0x1.a0569a0000000p-9, -0x1.cc38700000000p-5, 0x1.21f24a0000000p-3, -0x1.1eec880000000p-6, 0x1.b7fbd20000000p-3, -0x1.7da6940000000p-5, 0x1.da92b00000000p-4, 0x1.a27ae40000000p-9, 0x1.544b380000000p-7, -0x1.ce2afe0000000p-5, 0x1.36d9a80000000p-5, -0x1.e361860000000p-6, 0x1.bbe3920000000p-5, 0x1.69d6e40000000p-4, 0x1.9054c20000000p-5, -0x1.c277240000000p-6, -0x1.0922200000000p-5, 0x1.6e791a0000000p-5, -0x1.4805840000000p-6, 0x1.23a80e0000000p-3, 0x1.2092840000000p-4, 0x1.6a2d9a0000000p-4, 0x1.608c500000000p-4, -0x1.49ecc60000000p-4, 0x1.c242b40000000p-4, 0x1.7764b60000000p-4, 0x1.1c45d40000000p-3, 0x1.72522e0000000p-5, -0x1.55e1560000000p-6, 0x1.1ee18c0000000p-4, -0x1.d6058a0000000p-4, 0x1.02c55e0000000p-4, 0x1.8e504c0000000p-10, -0x1.53b92e0000000p-5, 0x1.6f2f280000000p-5, -0x1.254e6e0000000p-4, 0x1.3d27100000000p-3, 0x1.ef51da0000000p-4, 0x1.03d3280000000p-3, 0x1.fa0f9c0000000p-5, -0x1.5d5ff00000000p-6, -0x1.f83f8a0000000p-5, -0x1.5108aa0000000p-5, 0x1.a55f520000000p-5, -0x1.01b3760000000p-4, 0x1.b6143a0000000p-8, -0x1.469c300000000p-3, -0x1.296b840000000p-4, 0x1.e381020000000p-5, -0x1.0acbb60000000p-4, 0x1.08c2940000000p-6, 0x1.7c05aa0000000p-5, 0x1.1c86160000000p-3, -0x1.522a580000000p-6, -0x1.b4fbea0000000p-6, 0x1.ee2bd20000000p-4, -0x1.54d28e0000000p-5, -0x1.7786600000000p-4, 0x1.be41280000000p-4, -0x1.36426c0000000p-6, 0x1.5e984a0000000p-6, 0x1.52b3a00000000p-4, -0x1.67c0440000000p-5, 0x1.00a7740000000p-6, -0x1.06d2ee0000000p-5, 0x1.d8951a0000000p-6, 0x1.85f1140000000p-5, -0x1.2773ae0000000p-5, 0x1.79b42c0000000p-6, 0x1.8e132c0000000p-5, 0x1.c925fa0000000p-4, -0x1.043c040000000p-7, 0x1.c8cc640000000p-5, -0x1.c8e00e0000000p-3, 0x1.fd0dce0000000p-4, 0x1.1cbd240000000p-4, -0x1.22a4fa0000000p-4, 0x1.26863a0000000p-4, 0x1.445d400000000p-4, -0x1.408d020000000p-6, 0x1.a8587a0000000p-5, 0x1.a082440000000p-6, 0x1.92b33c0000000p-6, 0x1.fb9eb60000000p-6, -0x1.1caef60000000p-7, -0x1.c201440000000p-4, 0x1.536fda0000000p-5, -0x1.db91e00000000p-8, 0x1.a49a760000000p-5, -0x1.da32e80000000p-3, 0x1.f37d380000000p-4, -0x1.3e3cae0000000p-5, 0x1.e1ca240000000p-8, 0x1.09a5280000000p-4, 0x1.2be6cc0000000p-10, 0x1.a879d00000000p-4, 0x1.6904c40000000p-6, 0x1.28d3720000000p-2, 0x1.50c2a80000000p-3, 0x1.9e7e320000000p-5, 0x1.5ca57e0000000p-4, 0x1.fce6880000000p-5, 0x1.43bb740000000p-2, 0x1.6d000c0000000p-6, -0x1.6283740000000p-5, -0x1.3ce5900000000p-3, 0x1.a9b14c0000000p-3, 0x1.ed9ca40000000p-5, 0x1.a9cdf00000000p-4, 0x1.7ad7140000000p-4, 0x1.daab0e0000000p-3, -0x1.5e21be0000000p-7, -0x1.2d12bc0000000p-4, -0x1.cc602e0000000p-5, 0x1.699c320000000p-4, -0x1.5bee660000000p-5, 0x1.0756840000000p-7, 0x1.2393980000000p-7, 0x1.1c52220000000p-4, 0x1.082f340000000p-4, 0x1.33eaa60000000p-4, 0x1.0112c20000000p-4, 0x1.6fc7780000000p-4, 0x1.c05c5e0000000p-5, 0x1.e3deba0000000p-5, 0x1.6e7c600000000p-6, 0x1.cceef00000000p-4, 0x1.245ba60000000p-5, 0x1.17839c0000000p-5, 0x1.be31c00000000p-4, 0x1.76c86e0000000p-6, 0x1.2bd30e0000000p-4, 0x1.5147b60000000p-3, 0x1.a74a5c0000000p-5, 0x1.6f5f820000000p-6, 0x1.640d1a0000000p-4, 0x1.3b8d1c0000000p-9, 0x1.84b17c0000000p-5, 0x1.3476400000000p-3, 0x1.b8a3c60000000p-5, 0x1.ef16e60000000p-4, 0x1.8d694e0000000p-3, 0x1.a632c60000000p-4, 0x1.8a76a40000000p-5, -0x1.5066980000000p-6, 0x1.61da560000000p-7, 0x1.18eeca0000000p-5, -0x1.3dafe00000000p-4, 0x1.ccd3e80000000p-5, 0x1.159cf00000000p-3, 0x1.905f0e0000000p-6, 0x1.b6d9820000000p-4, -0x1.3e45160000000p-7, 0x1.2061860000000p-4, 0x1.2c70e00000000p-4, 0x1.058d860000000p-4, -0x1.c57dec0000000p-9, 0x1.6e0cf40000000p-3, 0x1.1a610e0000000p-4, -0x1.1c006e0000000p-6, -0x1.4d19220000000p-4, -0x1.7753580000000p-6, 0x1.8a80800000000p-4, 0x1.0cfd600000000p-5, 0x1.687ec00000000p-6, -0x1.e05dbe0000000p-5, -0x1.8d9c400000000p-4, -0x1.32eb860000000p-8, 0x1.5522b60000000p-6, 0x1.70507a0000000p-6, 0x1.6645e60000000p-3, 0x1.59e5e80000000p-4, -0x1.6f3f100000000p-5, 0x1.9aad2c0000000p-4, 0x1.fdbdc60000000p-3, 0x1.242d6a0000000p-3, 0x1.b5765c0000000p-7, 0x1.6267320000000p-5, -0x1.5b6c800000000p-8, 0x1.faaa460000000p-4, 0x1.b90f300000000p-6, -0x1.7cd5900000000p-6, 0x1.b77e0c0000000p-6, 0x1.e0626c0000000p-9, -0x1.f208dc0000000p-5, 0x1.093dc60000000p-4, 0x1.2568400000000p-5, 0x1.046e640000000p-6, -0x1.00049e0000000p-3, 0x1.f6d6f80000000p-5, 0x1.1103900000000p-5, 0x1.c2651c0000000p-6, 0x1.769f800000000p-5, -0x1.cb72c20000000p-5, -0x1.d6b99a0000000p-11, 0x1.85d45a0000000p-6, -0x1.3d82480000000p-4, 0x1.03f3400000000p-4, -0x1.d55d3e0000000p-8, 0x1.dad58a0000000p-5, -0x1.b2f2360000000p-4, -0x1.1a4e520000000p-6, -0x1.74c21c0000000p-5, 0x1.69b61a0000000p-5, -0x1.1bf9520000000p-8, 0x1.a412ce0000000p-6, -0x1.4d71ba0000000p-5, -0x1.8462840000000p-11, -0x1.57bae40000000p-5, -0x1.1f13d00000000p-4, -0x1.5631ec0000000p-4, 0x1.21bde20000000p-3, -0x1.8ee9b00000000p-4, 0x1.9276ac0000000p-6, -0x1.bf35660000000p-5, -0x1.b678120000000p-6, -0x1.5b86460000000p-4, -0x1.b22aca0000000p-4, -0x1.a545060000000p-5, 0x1.aa2b620000000p-6, -0x1.ded5fe0000000p-4, -0x1.61ad820000000p-4, -0x1.dd50a00000000p-7, 0x1.b3c9640000000p-5, -0x1.7ba2100000000p-4, -0x1.cd34740000000p-6, -0x1.32e48e0000000p-3, -0x1.e7f7be0000000p-4, -0x1.a60da40000000p-5, -0x1.059e120000000p-4, -0x1.30adae0000000p-4, -0x1.0c65be0000000p-4, -0x1.0088940000000p-3, 0x1.6d04c00000000p-4, -0x1.3643f00000000p-4, 0x1.b3a5f20000000p-4, -0x1.6f9b160000000p-4, 0x1.bcee920000000p-4, 0x1.70fa020000000p-4, -0x1.bfd82e0000000p-4, -0x1.684d760000000p-5, -0x1.aa14d80000000p-5, 0x1.b8d4980000000p-6, -0x1.ecff9c0000000p-9, -0x1.a8c5880000000p-5, 0x1.029f260000000p-4, -0x1.1389520000000p-8, -0x1.588fce0000000p-3, -0x1.1a8f220000000p-4, -0x1.49a3b20000000p-3, 0x1.fa257a0000000p-4, -0x1.8363840000000p-5, 0x1.9154ce0000000p-6, -0x1.3078460000000p-4, -0x1.a8a5680000000p-6, 0x1.44fc500000000p-4, -0x1.f4cc4e0000000p-7, -0x1.1c91d80000000p-4, -0x1.3e76700000000p-3, -0x1.ee3c0a0000000p-4, -0x1.bd05c40000000p-9, -0x1.70b5c40000000p-4, -0x1.a64f2e0000000p-4, 0x1.aa4d3e0000000p-6, -0x1.2d08fe0000000p-3, -0x1.97594a0000000p-3, 0x1.f68a000000000p-5, 0x1.0cdb6e0000000p-6, -0x1.c145d40000000p-5, 0x1.c20d920000000p-7, 0x1.02de2e0000000p-4, -0x1.7d9d780000000p-5, -0x1.2803160000000p-4, -0x1.fed1ce0000000p-4, -0x1.d2ce1e0000000p-4, 0x1.3317bc0000000p-5, -0x1.2233d40000000p-6, -0x1.0e19980000000p-5, -0x1.59bdc80000000p-5, 0x1.0848be0000000p-5, 0x1.33b1640000000p-4, -0x1.f72c040000000p-5, 0x1.05365c0000000p-3, 0x1.1646380000000p-6, 0x1.9bf5260000000p-5, 0x1.96f23e0000000p-5, 0x1.4662ea0000000p-5, -0x1.75fc320000000p-3, 0x1.76b0e40000000p-4, -0x1.7e2ece0000000p-3, -0x1.56871a0000000p-3, -0x1.6ef1a00000000p-4, -0x1.8fcd980000000p-4, -0x1.e3c31c0000000p-6, -0x1.65c6f80000000p-4, 0x1.240d5c0000000p-5, -0x1.6c8f7e0000000p-4, 0x1.1761200000000p-5, -0x1.ac79b00000000p-9, 0x1.60785e0000000p-4, 0x1.92fd360000000p-4, 0x1.b1620c0000000p-6, -0x1.29e3ec0000000p-6, -0x1.69c02c0000000p-4, -0x1.1ca0ac0000000p-4, -0x1.f1d8440000000p-6, 0x1.1982900000000p-6, 0x1.b2cea60000000p-7, 0x1.4ff02e0000000p-4, 0x1.17784c0000000p-3, 0x1.2f1dc40000000p-4, 0x1.faafd80000000p-4, 0x1.3d18080000000p-4, 0x1.887f140000000p-3, -0x1.c54fc60000000p-4, 0x1.717fac0000000p-4, 0x1.4f77720000000p-4, 0x1.2457b20000000p-5, 0x1.4449ee0000000p-3, -0x1.ef81bc0000000p-3, -0x1.8f5e400000000p-5, 0x1.ac510a0000000p-7, 0x1.981dd60000000p-6, -0x1.eb29ca0000000p-4, -0x1.1978f00000000p-4, -0x1.e13efc0000000p-4, -0x1.66207e0000000p-3, -0x1.7165ec0000000p-4, 0x1.047bf80000000p-4, 0x1.7934fe0000000p-3, 0x1.ee8eee0000000p-5, 0x1.b7a8f00000000p-6, 0x1.3736560000000p-4, -0x1.3e453a0000000p-7, 0x1.dbe12a0000000p-4, -0x1.7d32400000000p-6, 0x1.9b1f4a0000000p-5, -0x1.325cfe0000000p-6, 0x1.b131260000000p-6, -0x1.174b6e0000000p-3, -0x1.78bfec0000000p-5, 0x1.1bde160000000p-4, 0x1.ecdef00000000p-7, 0x1.04a17a0000000p-2, 0x1.f5e6380000000p-4, 0x1.be8d800000000p-4, -0x1.aa1c640000000p-7, 0x1.a4c56e0000000p-4, 0x1.f7ca1c0000000p-4, -0x1.29a4ae0000000p-4, -0x1.eab5620000000p-5, 0x1.c9fe5a0000000p-4, -0x1.70ed100000000p-4, 0x1.5a06200000000p-5, 0x1.696ad40000000p-5, 0x1.ef75bc0000000p-5, 0x1.92c2bc0000000p-4, 0x1.52d8520000000p-4, -0x1.5fe88e0000000p-7, 0x1.6ce1660000000p-4, -0x1.03575a0000000p-4, 0x1.e8b1080000000p-4, 0x1.8d1bba0000000p-8, -0x1.52698c0000000p-3, 0x1.43c2d80000000p-3, 0x1.ac0c260000000p-4, -0x1.28a91e0000000p-4, -0x1.8039e00000000p-6, 0x1.3bb0c00000000p-5, 0x1.2e60060000000p-3, 0x1.f3115a0000000p-4, -0x1.10fec00000000p-10, -0x1.7990400000000p-4, 0x1.2245b00000000p-4, -0x1.5d9f460000000p-5, -0x1.afb51e0000000p-5, -0x1.0571ca0000000p-3, 0x1.2f250e0000000p-5, -0x1.157dae0000000p-4, -0x1.fa6cc60000000p-4, -0x1.326be20000000p-6, 0x1.a2aece0000000p-5, -0x1.9aebee0000000p-5, -0x1.6a5c7c0000000p-5, -0x1.f253680000000p-5, -0x1.aaae620000000p-4, 0x1.3e5b3c0000000p-6, -0x1.763fae0000000p-6, -0x1.b3356c0000000p-4, -0x1.f5b8440000000p-8, -0x1.9659040000000p-6, 0x1.0865580000000p-3, -0x1.8dfb060000000p-6, 0x1.c73dac0000000p-6, -0x1.57e19c0000000p-7, -0x1.1d893a0000000p-6, 0x1.267c000000000p-8, -0x1.fd4b840000000p-4, 0x1.1fe26c0000000p-6, 0x1.6136680000000p-4, 0x1.5444600000000p-4, -0x1.3a92420000000p-4, -0x1.7425980000000p-5, 0x1.54c7bc0000000p-3, -0x1.5d68440000000p-4, 0x1.8ca83e0000000p-4, -0x1.b4bcfc0000000p-5, -0x1.5d252e0000000p-4, -0x1.3602b80000000p-4, -0x1.53b7440000000p-3, -0x1.dc80ce0000000p-4, -0x1.8f9b2a0000000p-4, -0x1.c074b60000000p-5, 0x1.3a89d40000000p-5, -0x1.ab0ce60000000p-3, 0x1.465d540000000p-7, -0x1.b76e400000000p-5, -0x1.3d1b3e0000000p-5, -0x1.4b47a20000000p-5, 0x1.1e47ec0000000p-5, 0x1.07983e0000000p-6, 0x1.c2648e0000000p-8, 0x1.76ec8c0000000p-4, -0x1.01e5d00000000p-2, 0x1.07601c0000000p-3, -0x1.7dbcdc0000000p-5, -0x1.543b8e0000000p-7, -0x1.084e560000000p-6, -0x1.db88400000000p-4, -0x1.12881e0000000p-3, -0x1.fd11f20000000p-6, -0x1.1e1d480000000p-6, -0x1.2d86400000000p-2, -0x1.2437080000000p-8, 0x1.84155a0000000p-7, 0x1.b8841c0000000p-3, 0x1.319e2c0000000p-4, -0x1.d35d4e0000000p-5, -0x1.5b0f7a0000000p-6, -0x1.ab83580000000p-6, -0x1.363f0e0000000p-4, -0x1.73f0e60000000p-3, -0x1.0546e00000000p-5, -0x1.daf3960000000p-8, -0x1.2856b20000000p-7, -0x1.89883e0000000p-6, -0x1.5857800000000p-4, -0x1.bf3c1c0000000p-5, -0x1.60477c0000000p-4, 0x1.31b2fe0000000p-4, 0x1.dcb50c0000000p-7, -0x1.78da220000000p-7, -0x1.b479ce0000000p-5, 0x1.95999e0000000p-8, 0x1.19b5c40000000p-7, -0x1.0516880000000p-2, 0x1.aad17c0000000p-4, -0x1.23ae220000000p-4, -0x1.daff400000000p-6, 0x1.06b61c0000000p-6, 0x1.8d4c560000000p-4, -0x1.090be00000000p-4, -0x1.28b04a0000000p-4, 0x1.f5b74c0000000p-7, -0x1.6bcb7a0000000p-3, -0x1.c5c6c00000000p-5, 0x1.eed8c60000000p-6, -0x1.4c8a9e0000000p-8, 0x1.29e9080000000p-3, -0x1.dedef60000000p-4, 0x1.f172f80000000p-7, -0x1.6190400000000p-5, 0x1.d1ee380000000p-5, -0x1.85a24e0000000p-4, 0x1.54f44e0000000p-4, 0x1.4a8e9c0000000p-3, 0x1.894ab80000000p-3, -0x1.269fd20000000p-4, 0x1.8345be0000000p-7, -0x1.6d99120000000p-3, -0x1.7faf8a0000000p-5, -0x1.c9bf6e0000000p-4, 0x1.8e6ed60000000p-5, -0x1.f6af8e0000000p-5, -0x1.180ec00000000p-5, -0x1.c474a00000000p-4, -0x1.b5c7ae0000000p-4, -0x1.10fd320000000p-6, 0x1.f564ee0000000p-4, -0x1.93bd760000000p-4, 0x1.4618d20000000p-4, -0x1.210a120000000p-3, 0x1.6e154e0000000p-5, 0x1.77ac1e0000000p-6, -0x1.c5494a0000000p-6, 0x1.ad76be0000000p-6, -0x1.36a6c60000000p-9, 0x1.9dbfb80000000p-8, 0x1.7cac500000000p-6, -0x1.9a1a2c0000000p-4, -0x1.49ca8e0000000p-3, 0x1.c48b940000000p-10, 0x1.a610200000000p-4, 0x1.f18f280000000p-9, 0x1.a9a4240000000p-4, 0x1.ecda1c0000000p-4, -0x1.337ace0000000p-3, -0x1.2916f60000000p-8, -0x1.fe33fe0000000p-9, -0x1.50c46e0000000p-5, 0x1.e5c6120000000p-4, -0x1.2314cc0000000p-2, -0x1.40898e0000000p-9, 0x1.2242020000000p-6, 0x1.4524d40000000p-7, 0x1.e4e2d60000000p-5, -0x1.0428000000000p-3, -0x1.f090c60000000p-4, -0x1.04b06e0000000p-6, 0x1.007ae20000000p-2, -0x1.62eeba0000000p-4, -0x1.7836220000000p-4, 0x1.16591c0000000p-7, 0x1.2a17080000000p-4, 0x1.ba0bc20000000p-5, 0x1.3f2b4e0000000p-5, -0x1.fe77140000000p-4, -0x1.f7a7580000000p-5, 0x1.4e04a40000000p-4, 0x1.f8f4e60000000p-7, -0x1.e0cf780000000p-5, -0x1.9638520000000p-4, -0x1.b9ea7a0000000p-4, 0x1.886eb20000000p-7, 0x1.15813e0000000p-5, 0x1.735e360000000p-3, 0x1.ecbabe0000000p-5, 0x1.b3be260000000p-5, -0x1.2d9be40000000p-4, -0x1.1253d20000000p-4, 0x1.51e35e0000000p-6, 0x1.8e0c640000000p-4, 0x1.c41cfe0000000p-5, -0x1.2674420000000p-5, -0x1.652bc40000000p-4, 0x1.8065680000000p-4, -0x1.3388200000000p-7, 0x1.6a38740000000p-4, 0x1.63b3860000000p-3, 0x1.4ab11c0000000p-4, 0x1.239e820000000p-4, -0x1.557f520000000p-6, 0x1.6ff3420000000p-7, 0x1.502e540000000p-3, 0x1.6d54b80000000p-5, -0x1.1061d20000000p-5, 0x1.621c760000000p-4, -0x1.6ee1f80000000p-6, -0x1.8e10e60000000p-6, 0x1.5d5aaa0000000p-5, -0x1.6355420000000p-5, 0x1.23ec780000000p-4, 0x1.2cd4600000000p-4, 0x1.8b22be0000000p-8, -0x1.423ed20000000p-3, 0x1.78bcb20000000p-6, 0x1.1f5e180000000p-3, -0x1.33dc480000000p-5, 0x1.34c6aa0000000p-5, 0x1.4952300000000p-6, -0x1.2fab7c0000000p-6, -0x1.430be80000000p-7, 0x1.dda7300000000p-5, -0x1.a1f9960000000p-4, -0x1.ae9fe00000000p-6, 0x1.ccc0220000000p-5, 0x1.a92f400000000p-4, -0x1.3460120000000p-6, -0x1.44d3500000000p-7, 0x1.e4639e0000000p-8, -0x1.6661e00000000p-4, -0x1.4db9780000000p-4, -0x1.9cbdbe0000000p-4, 0x1.b848160000000p-7, 0x1.601bfc0000000p-3, -0x1.1b0a840000000p-4, 0x1.d512060000000p-6, -0x1.5bd61e0000000p-3, -0x1.5b25460000000p-4, 0x1.11a0b20000000p-4, -0x1.07d1260000000p-3, 0x1.a0f4bc0000000p-6, 0x1.b941080000000p-5, 0x1.59e2880000000p-5, 0x1.5b158e0000000p-7, -0x1.a440600000000p-4, -0x1.8221b60000000p-5, -0x1.24b3c60000000p-4, 0x1.575abc0000000p-5, 0x1.0c06220000000p-5, 0x1.4422e40000000p-4, -0x1.2766340000000p-3, -0x1.ba258c0000000p-4, -0x1.ed65820000000p-4, -0x1.2e934a0000000p-5, -0x1.5d41ae0000000p-3, -0x1.9ec4e40000000p-6, 0x1.49f6b00000000p-4, -0x1.7afd2e0000000p-4, -0x1.3d137a0000000p-3, 0x1.9c295a0000000p-5, -0x1.397fa00000000p-3, 0x1.31fdd40000000p-5, 0x1.4b601e0000000p-9, -0x1.258ce20000000p-5, -0x1.bffbe80000000p-3, 0x1.16c81c0000000p-3, -0x1.6730a40000000p-7, 0x1.246c240000000p-3, -0x1.b525c20000000p-4, -0x1.09fec00000000p-3, -0x1.f984f40000000p-6, 0x1.5d8ac20000000p-5, -0x1.7bb82a0000000p-7, 0x1.e79b9a0000000p-8, 0x1.8c6af00000000p-12, 0x1.ff178e0000000p-8, 0x1.c22f940000000p-4, -0x1.caf32a0000000p-4, 0x1.7f16000000000p-5, -0x1.6d54c00000000p-8, 0x1.976a960000000p-8, -0x1.c3c2f40000000p-8, -0x1.84675e0000000p-4, -0x1.fc6cb80000000p-4, -0x1.ca863a0000000p-6, 0x1.5c43d60000000p-4, -0x1.4dd2b40000000p-4, 0x1.e525620000000p-5, 0x1.b003860000000p-4, -0x1.b40ab00000000p-4, -0x1.47874c0000000p-4, -0x1.f9d6300000000p-8, 0x1.46acc00000000p-6, 0x1.e687a00000000p-4, 0x1.a5a8320000000p-6, 0x1.b7befe0000000p-5, -0x1.13f7d40000000p-3, 0x1.2fdf860000000p-3, 0x1.74d5560000000p-5, -0x1.5dc1ee0000000p-4, 0x1.6da7f20000000p-3, 0x1.9c0cfc0000000p-6, 0x1.3153b40000000p-4, -0x1.5f8c580000000p-4, 0x1.5c92760000000p-7, -0x1.10bd6a0000000p-3, 0x1.dd77700000000p-5, 0x1.86786a0000000p-6, -0x1.ff29100000000p-6, -0x1.76be9a0000000p-4, 0x1.ce2c880000000p-15, -0x1.f495a80000000p-6, 0x1.3c5c5e0000000p-6, -0x1.5c22da0000000p-8, 0x1.26514a0000000p-5, -0x1.7dd3560000000p-4, 0x1.7368a20000000p-5, 0x1.b3d00c0000000p-6, -0x1.5b37840000000p-7, 0x1.179c240000000p-5, -0x1.32669c0000000p-3, -0x1.12abe40000000p-2, -0x1.42be140000000p-5, -0x1.8b3f280000000p-4, 0x1.c367ac0000000p-5, -0x1.434f2c0000000p-5, -0x1.fb71c80000000p-3, -0x1.e8a26a0000000p-4, -0x1.6bce080000000p-5, 0x1.0bcd4a0000000p-6, -0x1.18b30c0000000p-5, -0x1.15630e0000000p-4, 0x1.3a63260000000p-6, -0x1.5b332a0000000p-6, -0x1.4e11a60000000p-5, -0x1.007fda0000000p-5, -0x1.08de800000000p-4, -0x1.20ce320000000p-3, -0x1.873b3e0000000p-5, -0x1.fc6fde0000000p-6, -0x1.eed06a0000000p-4, -0x1.4357120000000p-3, -0x1.99a4540000000p-4, 0x1.79a8cc0000000p-4, 0x1.acfd320000000p-3, -0x1.9953ae0000000p-5, -0x1.310c4e0000000p-4, -0x1.d2bf4c0000000p-5, 0x1.82998a0000000p-5, -0x1.9061fe0000000p-6, 0x1.9433060000000p-7, -0x1.5a978e0000000p-3, -0x1.f073fc0000000p-4, -0x1.3b74620000000p-3, 0x1.321baa0000000p-7, 0x1.eda1ca0000000p-5, 0x1.7135a80000000p-4, 0x1.6b37900000000p-5, -0x1.91c8460000000p-5, -0x1.3a0a340000000p-4, 0x1.6543740000000p-6, 0x1.d3a6b80000000p-8, 0x1.64d4960000000p-5, 0x1.f79f160000000p-5, -0x1.e386060000000p-4, 0x1.9278e80000000p-4, -0x1.7b86100000000p-8, 0x1.19d3a40000000p-6, 0x1.ef81040000000p-7, 0x1.2767440000000p-3, 0x1.76d4b40000000p-6, -0x1.3752b20000000p-6, -0x1.8e68100000000p-8, -0x1.7e70fe0000000p-5, -0x1.a931b20000000p-4, 0x1.7fa4a80000000p-4, 0x1.3e7d360000000p-6, 0x1.79784c0000000p-5, -0x1.2d3f920000000p-4, -0x1.79c5360000000p-4, 0x1.b5d6040000000p-5, 0x1.4d99100000000p-5, -0x1.4105600000000p-3, -0x1.e9720a0000000p-3, 0x1.9499b00000000p-5, -0x1.6916760000000p-5, 0x1.b01c600000000p-5, -0x1.b457b20000000p-6, -0x1.4be8020000000p-5, 0x1.67b73c0000000p-3, 0x1.066d940000000p-4, -0x1.10f50c0000000p-3, -0x1.473f560000000p-5, 0x1.e207c20000000p-5, -0x1.13ecbc0000000p-3, -0x1.4231e20000000p-9, -0x1.93d6920000000p-4, -0x1.4479d20000000p-7, -0x1.0b69f60000000p-10, -0x1.47b6420000000p-5, 0x1.0e70b40000000p-9, 0x1.e746720000000p-8, -0x1.4c910a0000000p-6, 0x1.0de3700000000p-4, -0x1.3d71aa0000000p-5, -0x1.f4b48c0000000p-3, -0x1.e5dd440000000p-5, 0x1.1ea2e00000000p-6, -0x1.3fde200000000p-7, -0x1.2074580000000p-5, 0x1.e86e4a0000000p-5, -0x1.af8fea0000000p-7, 0x1.0ad2820000000p-5, -0x1.60d2520000000p-5, -0x1.c01cf60000000p-5, -0x1.e3bf240000000p-7, 0x1.3ce8440000000p-5, -0x1.28979e0000000p-5, -0x1.a311fa0000000p-8, 0x1.5cabc60000000p-4, 0x1.f1ef3a0000000p-5, 0x1.0517a20000000p-7, 0x1.08748c0000000p-3, -0x1.93c6080000000p-5, 0x1.db7df00000000p-4, 0x1.edbfc80000000p-4, 0x1.0c836c0000000p-5, 0x1.b207480000000p-4, -0x1.7db0040000000p-4, 0x1.4d0b6a0000000p-4, 0x1.7aafde0000000p-4, 0x1.0b71880000000p-8, -0x1.1cbd300000000p-6, 0x1.12ac780000000p-4, 0x1.3d71600000000p-5, 0x1.2d5e700000000p-4, 0x1.d1f7d00000000p-4, -0x1.30e5900000000p-6, -0x1.adc0740000000p-5, -0x1.138b6e0000000p-7, 0x1.635dfc0000000p-5, 0x1.ebac340000000p-5, -0x1.0dda160000000p-4, -0x1.75a4520000000p-5, -0x1.57279a0000000p-9, 0x1.73a6a20000000p-6, -0x1.700ede0000000p-3, -0x1.b3defc0000000p-6, 0x1.e9d0dc0000000p-5, -0x1.56821e0000000p-5, 0x1.16aa480000000p-5, -0x1.01e3d20000000p-5, 0x1.2678e60000000p-3, 0x1.35e0500000000p-4, 0x1.6131940000000p-6, -0x1.daf2940000000p-3, 0x1.0f1e0a0000000p-7, -0x1.f620c20000000p-8, 0x1.8baf6c0000000p-4, 0x1.1323cc0000000p-5, -0x1.a0139c0000000p-5, -0x1.39b1ac0000000p-5, 0x1.dba87e0000000p-5, -0x1.3911660000000p-4, 0x1.57d3880000000p-5, -0x1.840d460000000p-5, 0x1.d212240000000p-7, 0x1.46285e0000000p-7, -0x1.434ac40000000p-6, -0x1.8928d60000000p-4, -0x1.43eca40000000p-4, 0x1.b09f780000000p-4, 0x1.185b240000000p-3, 0x1.8ab3bc0000000p-4, -0x1.0e44a80000000p-2, 0x1.5f2f560000000p-6, 0x1.818d7a0000000p-5, 0x1.4811060000000p-4, -0x1.2aa6220000000p-4, -0x1.381b680000000p-3, -0x1.03f6500000000p-3, 0x1.678d820000000p-7, -0x1.ee8d060000000p-5, 0x1.3c51fc0000000p-8, -0x1.ea9b8a0000000p-5, -0x1.78f1100000000p-5, -0x1.cb3bfc0000000p-7, -0x1.9aefbc0000000p-5, -0x1.82aabe0000000p-10, 0x1.cc25b20000000p-6, -0x1.198eb00000000p-8, 0x1.877b6a0000000p-3, -0x1.db17820000000p-5, 0x1.cb5ea40000000p-5, 0x1.a419700000000p-7, 0x1.197bc00000000p-6, 0x1.6689560000000p-6, -0x1.7d63ec0000000p-6, -0x1.dfed560000000p-5, -0x1.4e66e20000000p-8, 0x1.8313880000000p-7, 0x1.6ddd660000000p-5, -0x1.a8ee340000000p-5, 0x1.7a6d440000000p-4, -0x1.c178140000000p-4, -0x1.47e2260000000p-4, -0x1.cbc8520000000p-6, -0x1.315ff00000000p-3, -0x1.ca06e40000000p-4, -0x1.e5e0360000000p-6, -0x1.388c1c0000000p-7, 0x1.5069180000000p-4, 0x1.f866800000000p-6, -0x1.74ad6a0000000p-6, -0x1.47f6980000000p-3, 0x1.0c67a60000000p-4, -0x1.5737240000000p-4, -0x1.90b9e20000000p-3, 0x1.174c2c0000000p-6, -0x1.3102fa0000000p-8, 0x1.cdf8c40000000p-7, 0x1.d5382c0000000p-7, -0x1.9c2d620000000p-4, 0x1.2f32b00000000p-5, 0x1.6dce1c0000000p-6, -0x1.4d41d80000000p-3, -0x1.97ebd00000000p-7, -0x1.7d16aa0000000p-4, -0x1.425fac0000000p-6, 0x1.9baf060000000p-5, -0x1.3d29f20000000p-4, -0x1.53aed20000000p-4, -0x1.adc6ce0000000p-7, -0x1.619e900000000p-3, -0x1.7e44100000000p-5, -0x1.5cd3f80000000p-5, -0x1.c6a9c40000000p-3, 0x1.c2183e0000000p-5, -0x1.894fa00000000p-5, 0x1.70230c0000000p-3, 0x1.ae27200000000p-10, -0x1.593e3c0000000p-3, 0x1.23fb6c0000000p-4, 0x1.5486b00000000p-5, 0x1.939d3a0000000p-3, -0x1.f55e2c0000000p-4, -0x1.9aa7800000000p-3, 0x1.39438c0000000p-3, -0x1.2e59540000000p-3, 0x1.9d5c1a0000000p-4, 0x1.d863000000000p-3, 0x1.57f9840000000p-3, -0x1.e1020a0000000p-2, 0x1.a8dbde0000000p-5, -0x1.370d040000000p-3, 0x1.5ac1380000000p-4, 0x1.9140f60000000p-4, -0x1.6125ce0000000p-3, 0x1.427d700000000p-5, -0x1.bc25e20000000p-6, 0x1.fbb2660000000p-4, -0x1.0109760000000p-2, -0x1.6a21c60000000p-6, -0x1.1270760000000p-4, 0x1.834b520000000p-3, -0x1.fd72300000000p-4, 0x1.4d355a0000000p-3, 0x1.0300480000000p-5, -0x1.152d360000000p-2, -0x1.654d960000000p-4, -0x1.0a99620000000p-3, 0x1.4eba3a0000000p-4, -0x1.1118440000000p-2, -0x1.a45abe0000000p-3, 0x1.0a514e0000000p-3, -0x1.e1195c0000000p-5, 0x1.0ded8a0000000p-4, -0x1.7f6f1e0000000p-4, -0x1.0bf3ba0000000p-2, 0x1.cc97700000000p-5, -0x1.5744b80000000p-2, 0x1.45ab200000000p-3, -0x1.edbd900000000p-4, 0x1.0534460000000p-2, -0x1.3b1e060000000p-2, 0x1.df337c0000000p-5, -0x1.1a9d3c0000000p-3, 0x1.4d9dc40000000p-4, 0x1.b315e00000000p-3, -0x1.51905e0000000p-2, -0x1.ccd21a0000000p-4, 0x1.0e56260000000p-3, 0x1.10b7540000000p-3, -0x1.4678460000000p-2, 0x1.f947a80000000p-5, -0x1.6620b20000000p-4, 0x1.3ec56e0000000p-3, -0x1.3bdfa80000000p-2, 0x1.03e5ca0000000p-2, -0x1.92c5ce0000000p-5, -0x1.1889900000000p-4, 0x1.aecd060000000p-5, 0x1.a953a00000000p-5, -0x1.2e11640000000p-4, 0x1.41864c0000000p-6, -0x1.611c720000000p-5, 0x1.6897fa0000000p-5, 0x1.524eb60000000p-5, 0x1.ab6b460000000p-4, 0x1.3a426e0000000p-7, 0x1.e567600000000p-6, 0x1.0c9bd40000000p-4, -0x1.4351000000000p-8, -0x1.50999e0000000p-5, 0x1.3390400000000p-7, -0x1.9c1e2c0000000p-7, 0x1.adebe00000000p-7, -0x1.d2258e0000000p-6, 0x1.c014000000000p-5, -0x1.1325420000000p-5, -0x1.9457080000000p-5, 0x1.9f32aa0000000p-5, -0x1.e9e4fe0000000p-5, -0x1.8603840000000p-4, -0x1.71d3420000000p-4, -0x1.b26d2e0000000p-7, 0x1.12ea840000000p-4, -0x1.a26aea0000000p-7, 0x1.77de420000000p-3, 0x1.e0caba0000000p-6, -0x1.35586c0000000p-4, 0x1.724d180000000p-5, 0x1.793dea0000000p-3, 0x1.4ca9b00000000p-5, 0x1.a38a0e0000000p-5, -0x1.3949ac0000000p-3, 0x1.186f5e0000000p-3, -0x1.1cc9940000000p-4, 0x1.6022720000000p-5, 0x1.f187be0000000p-4, 0x1.5208a60000000p-4, -0x1.0f4d7c0000000p-6, 0x1.7cbdee0000000p-4, -0x1.5716480000000p-4, 0x1.da78d80000000p-4, 0x1.8580a40000000p-5, -0x1.adf0140000000p-6, -0x1.e265360000000p-5, 0x1.28a6780000000p-4, -0x1.42c74e0000000p-5, 0x1.58e5a40000000p-4, -0x1.72bcee0000000p-3, -0x1.c0a8ba0000000p-8, 0x1.5172440000000p-3, 0x1.1c30fc0000000p-5, -0x1.36eb680000000p-3, -0x1.47cdc40000000p-3, -0x1.1ce0120000000p-7, 0x1.f8a3020000000p-5, 0x1.1430140000000p-3, -0x1.85ce4a0000000p-5, -0x1.6600240000000p-5, 0x1.ed16020000000p-9, 0x1.aaf0e40000000p-4, -0x1.52b3c80000000p-7, 0x1.3995540000000p-3, -0x1.1f3c4c0000000p-7, -0x1.8475bc0000000p-6, 0x1.f498dc0000000p-4, 0x1.2d77e20000000p-2, 0x1.16d9260000000p-5, -0x1.32891a0000000p-6, -0x1.25707a0000000p-3, 0x1.a0ade20000000p-5, 0x1.dfad120000000p-4, 0x1.84323a0000000p-5, 0x1.77b8580000000p-3, 0x1.0edcb20000000p-7, -0x1.3652160000000p-5, 0x1.3bcafe0000000p-6, -0x1.3dbee60000000p-7, -0x1.eb63fa0000000p-5, 0x1.83fee00000000p-5, -0x1.554ff80000000p-5, 0x1.352d900000000p-10, 0x1.98be1a0000000p-3, 0x1.c6b2f80000000p-6, 0x1.5decf40000000p-5, 0x1.d3deb00000000p-4, 0x1.149e7e0000000p-2, -0x1.632d920000000p-9, -0x1.3242bc0000000p-5, 0x1.eedc820000000p-7, 0x1.1c336e0000000p-4, -0x1.34aa5c0000000p-5, 0x1.3fffcc0000000p-3, 0x1.6975240000000p-3, 0x1.9792100000000p-5, 0x1.2dab180000000p-3, 0x1.f4571e0000000p-5, 0x1.7e06b60000000p-4, 0x1.8b4a020000000p-4, 0x1.b293900000000p-4, 0x1.a3d8f40000000p-3, -0x1.8b89ca0000000p-2, 0x1.2e1a280000000p-7, 0x1.d946200000000p-5, 0x1.82f8ac0000000p-6, -0x1.e7f5740000000p-4, -0x1.04dc680000000p-2, -0x1.5c95f40000000p-3, -0x1.f528220000000p-6, 0x1.1389900000000p-3, 0x1.027b420000000p-11, 0x1.24b8a20000000p-4, 0x1.3441240000000p-4, 0x1.0180800000000p-5, 0x1.a680ce0000000p-4, 0x1.cdc8000000000p-5, 0x1.0d45000000000p-3, 0x1.1ea7a40000000p-4, 0x1.8e454e0000000p-6, -0x1.03b02c0000000p-5, -0x1.effeb60000000p-7, 0x1.9fa4c60000000p-5, 0x1.8ef3800000000p-4, 0x1.c8d6320000000p-6, -0x1.3eea100000000p-5, -0x1.1869f40000000p-4, 0x1.0b21d80000000p-6, 0x1.f71d5c0000000p-7, 0x1.ba1eee0000000p-5, -0x1.a403e60000000p-5, -0x1.7446dc0000000p-3, 0x1.02cfa80000000p-3, -0x1.70d34c0000000p-3, -0x1.f5815a0000000p-4, -0x1.6f46980000000p-3, 0x1.8aae500000000p-7, -0x1.6b756c0000000p-5, -0x1.f7d98e0000000p-3, -0x1.27aafe0000000p-3, 0x1.5e3b3a0000000p-3, -0x1.0575100000000p-5, 0x1.c8a04e0000000p-3, -0x1.5a92be0000000p-4, 0x1.eda1a80000000p-4, 0x1.2cfd100000000p-3, -0x1.3b97fe0000000p-4, -0x1.3cd9d80000000p-2, -0x1.a88e900000000p-6, 0x1.50dd700000000p-3, 0x1.4cd6de0000000p-4, -0x1.08bde60000000p-2, -0x1.3d92860000000p-4, -0x1.23e1160000000p-3, -0x1.c02a8a0000000p-11, -0x1.81a1000000000p-4, 0x1.feeb900000000p-6, -0x1.556a1a0000000p-2, -0x1.effeea0000000p-4, 0x1.c1d0780000000p-6, 0x1.ae238e0000000p-6, 0x1.0d87960000000p-5, -0x1.e7aa140000000p-4, -0x1.1c083c0000000p-3, -0x1.a9ecfc0000000p-5, -0x1.02ac980000000p-5, 0x1.28a5280000000p-7, -0x1.41f7140000000p-3, -0x1.aae16a0000000p-5, -0x1.8844560000000p-3, -0x1.d85c040000000p-5, -0x1.e2f3cc0000000p-5, 0x1.182eea0000000p-2, -0x1.244ac80000000p-6, 0x1.9267fe0000000p-4, -0x1.4f44900000000p-4, -0x1.4510fa0000000p-7, 0x1.3021b60000000p-5, -0x1.a302ca0000000p-5, -0x1.5ca32a0000000p-3, -0x1.6c51580000000p-4, 0x1.3f63140000000p-5, -0x1.4567f40000000p-4, -0x1.53742a0000000p-4, -0x1.53767e0000000p-5, -0x1.1b35880000000p-3, -0x1.5e84720000000p-3, 0x1.0f58c00000000p-6, -0x1.6cfe000000000p-5, -0x1.04da060000000p-3}
, {-0x1.845e320000000p-5, 0x1.1da5160000000p-5, 0x1.06bdac0000000p-4, -0x1.43f6080000000p-3, 0x1.2eb9c20000000p-7, -0x1.31bd940000000p-3, 0x1.25f3e60000000p-4, -0x1.017e820000000p-6, -0x1.7ad0280000000p-5, -0x1.1acaba0000000p-5, -0x1.59ce7e0000000p-3, 0x1.8809de0000000p-4, -0x1.1998720000000p-4, -0x1.b713e60000000p-4, -0x1.e67ea00000000p-4, 0x1.1369b60000000p-6, -0x1.0c84620000000p-4, -0x1.b0f3920000000p-5, -0x1.6f0d860000000p-4, -0x1.676ff40000000p-5, 0x1.115bd40000000p-5, -0x1.1c5f4e0000000p-4, -0x1.498cc20000000p-4, -0x1.1faf460000000p-4, 0x1.d02ea60000000p-5, 0x1.d3c1a60000000p-8, -0x1.49a08e0000000p-5, -0x1.7e41ac0000000p-9, 0x1.543f540000000p-6, -0x1.8eea780000000p-5, -0x1.5273a20000000p-8, 0x1.eff56c0000000p-7, -0x1.22c8a00000000p-4, -0x1.a4bc5c0000000p-3, -0x1.31bc7c0000000p-6, -0x1.5989b40000000p-6, 0x1.3b43b00000000p-9, -0x1.e0bd240000000p-5, -0x1.dc46260000000p-3, 0x1.25e7080000000p-3, 0x1.5b752a0000000p-5, -0x1.c3185c0000000p-5, 0x1.df66100000000p-4, 0x1.dcc5c80000000p-6, -0x1.271e680000000p-3, -0x1.2f5f120000000p-3, -0x1.99b0660000000p-4, 0x1.4eabe60000000p-5, -0x1.2744c00000000p-4, -0x1.9bbbae0000000p-4, 0x1.27b27e0000000p-4, 0x1.694cee0000000p-4, -0x1.594cba0000000p-9, -0x1.3c457a0000000p-5, 0x1.83befa0000000p-4, 0x1.cb31420000000p-9, -0x1.836b960000000p-3, -0x1.27bff40000000p-7, -0x1.7af9700000000p-5, -0x1.9207d00000000p-4, -0x1.bbf2f00000000p-4, -0x1.575d8e0000000p-4, -0x1.1611ba0000000p-3, -0x1.d8987e0000000p-5, -0x1.4bf9e00000000p-4, -0x1.f140fa0000000p-6, -0x1.17c2b40000000p-4, 0x1.a2a8920000000p-4, -0x1.dfb8540000000p-5, 0x1.145e480000000p-5, -0x1.1eb0b40000000p-2, 0x1.f3c3020000000p-4, -0x1.97f6520000000p-5, 0x1.87329a0000000p-6, 0x1.39ff120000000p-4, -0x1.c586d00000000p-4, -0x1.6efb7a0000000p-6, -0x1.16c7800000000p-3, -0x1.ebe8d80000000p-5, -0x1.a495020000000p-4, 0x1.94eadc0000000p-5, -0x1.6a69020000000p-5, 0x1.715e4c0000000p-3, 0x1.78def80000000p-5, -0x1.0ec19e0000000p-3, 0x1.47be560000000p-6, 0x1.1cdeb40000000p-4, -0x1.944c920000000p-6, -0x1.885cd00000000p-3, 0x1.19fb6c0000000p-5, 0x1.0cbe660000000p-5, -0x1.1d39d80000000p-6, -0x1.c1d78c0000000p-3, 0x1.fcf6520000000p-5, 0x1.26ac280000000p-6, 0x1.7ac5780000000p-4, 0x1.e1716e0000000p-5, 0x1.8816400000000p-6, 0x1.ba681c0000000p-6, -0x1.cbf0620000000p-6, -0x1.e17e040000000p-12, 0x1.3186c60000000p-7, -0x1.32a38a0000000p-4, -0x1.aa576c0000000p-5, -0x1.5409a40000000p-5, -0x1.0cf7640000000p-5, 0x1.0f119c0000000p-7, -0x1.3fced60000000p-4, 0x1.d50cde0000000p-4, -0x1.72d5fe0000000p-3, -0x1.5b9abc0000000p-4, -0x1.a011fe0000000p-3, 0x1.6225420000000p-4, -0x1.8be2060000000p-4, 0x1.bbce740000000p-4, 0x1.4f97720000000p-5, -0x1.333e080000000p-5, -0x1.5c44c00000000p-5, 0x1.88e9700000000p-5, 0x1.41efb00000000p-5, -0x1.97e9520000000p-3, 0x1.73bcee0000000p-5, 0x1.47e9620000000p-5, 0x1.bb8f100000000p-5, -0x1.a6bcb20000000p-4, 0x1.2394340000000p-6, -0x1.1d9d180000000p-5, -0x1.c2dff40000000p-4, 0x1.9934080000000p-4, -0x1.ddd0700000000p-4, 0x1.226ec00000000p-7, -0x1.257ca00000000p-4, -0x1.5de52c0000000p-6, -0x1.a663b80000000p-6, -0x1.1481a20000000p-2, -0x1.d082dc0000000p-4, 0x1.89355c0000000p-7, 0x1.9531b20000000p-8, -0x1.8dec640000000p-2, -0x1.335c9c0000000p-4, 0x1.218e740000000p-5, -0x1.db13ae0000000p-4, -0x1.6aa56e0000000p-7, -0x1.b85f000000000p-3, 0x1.85ee820000000p-5, -0x1.6b737a0000000p-3, -0x1.9f99a00000000p-4, -0x1.c5342a0000000p-3, -0x1.210ace0000000p-4, -0x1.e14a880000000p-4, 0x1.516b240000000p-6, -0x1.f5d4f80000000p-3, 0x1.bdb75c0000000p-4, -0x1.0814160000000p-6, 0x1.6f59a80000000p-8, -0x1.64f9ae0000000p-4, -0x1.1374b00000000p-4, 0x1.7c37b20000000p-4, -0x1.0869940000000p-3, -0x1.bd53e40000000p-4, 0x1.04163e0000000p-6, -0x1.10060a0000000p-4, 0x1.0bd7a00000000p-4, -0x1.15c9c00000000p-2, -0x1.186c6e0000000p-6, -0x1.1d4e000000000p-4, -0x1.6e195e0000000p-2, -0x1.3a00c00000000p-5, 0x1.114ea20000000p-5, 0x1.a4f55a0000000p-5, -0x1.158b220000000p-4, -0x1.c531f40000000p-3, 0x1.ab367c0000000p-5, 0x1.6b5c500000000p-6, -0x1.b4bfce0000000p-5, -0x1.0308ca0000000p-4, 0x1.aee2b80000000p-6, -0x1.4940de0000000p-5, 0x1.5c65380000000p-7, -0x1.1d2b920000000p-3, -0x1.2702aa0000000p-4, 0x1.df0b4c0000000p-8, -0x1.20c94c0000000p-5, -0x1.687be40000000p-3, -0x1.dbf91c0000000p-5, -0x1.2661880000000p-8, 0x1.d5815c0000000p-5, -0x1.5acdd60000000p-4, -0x1.7a2d980000000p-5, 0x1.aab96a0000000p-5, -0x1.7c10400000000p-6, -0x1.90f5a20000000p-4, -0x1.20fa3e0000000p-4, -0x1.4492be0000000p-4, -0x1.39e3c20000000p-6, 0x1.0f58ee0000000p-3, -0x1.4ec9080000000p-4, -0x1.233a6c0000000p-6, 0x1.3bdca60000000p-4, -0x1.2078820000000p-5, -0x1.986afa0000000p-6, 0x1.3886d60000000p-7, -0x1.a898c20000000p-5, 0x1.893cb00000000p-4, -0x1.ad33740000000p-9, -0x1.97b5700000000p-4, -0x1.d41b120000000p-5, -0x1.04d6620000000p-5, 0x1.c749e40000000p-4, -0x1.f506300000000p-3, -0x1.5373800000000p-4, 0x1.5440780000000p-5, 0x1.9df39c0000000p-6, -0x1.c445ac0000000p-6, -0x1.238f8e0000000p-5, -0x1.fba6f60000000p-6, -0x1.382a140000000p-4, -0x1.d0023e0000000p-5, 0x1.755ef20000000p-5, -0x1.5347460000000p-4, 0x1.7040da0000000p-3, -0x1.21c3980000000p-7, -0x1.b8061e0000000p-4, -0x1.8ddcf40000000p-4, -0x1.82a6dc0000000p-3, -0x1.df3bd40000000p-4, 0x1.2398fc0000000p-5, 0x1.f379a40000000p-5, -0x1.204d400000000p-4, 0x1.0a09740000000p-4, 0x1.aa18a80000000p-6, 0x1.4ee2aa0000000p-3, -0x1.4ba03c0000000p-12, 0x1.5a33960000000p-4, -0x1.785c9a0000000p-4, -0x1.661cc40000000p-2, -0x1.5bef240000000p-4, -0x1.f943600000000p-4, 0x1.e85cb20000000p-5, 0x1.5e5f7a0000000p-3, -0x1.3a22620000000p-6, -0x1.4841b40000000p-2, -0x1.e8644a0000000p-4, -0x1.ede4d40000000p-8, 0x1.a18d240000000p-6, 0x1.818b720000000p-5, -0x1.3a58420000000p-3, -0x1.0c32660000000p-3, -0x1.bab9020000000p-4, -0x1.659fa60000000p-6, -0x1.b36b4e0000000p-4, -0x1.39f6200000000p-3, -0x1.4cd6460000000p-3, -0x1.dc4fae0000000p-8, 0x1.3dcf160000000p-6, -0x1.1258c20000000p-4, 0x1.07b31e0000000p-7, -0x1.a52d120000000p-4, 0x1.c533840000000p-6, 0x1.bb69360000000p-5, 0x1.0d40080000000p-5, -0x1.235d7e0000000p-6, 0x1.2443dc0000000p-3, 0x1.2cd2380000000p-4, 0x1.15b2600000000p-9, 0x1.781a7c0000000p-4, 0x1.37744a0000000p-4, -0x1.7570260000000p-2, -0x1.64ddf60000000p-7, -0x1.8626f60000000p-5, -0x1.7b2cbe0000000p-6, 0x1.9058fa0000000p-4, 0x1.40aba80000000p-3, -0x1.0a873a0000000p-2, 0x1.97676a0000000p-4, -0x1.f62aae0000000p-5, -0x1.0e38fc0000000p-6, 0x1.8297e40000000p-6, -0x1.ebeffa0000000p-6, 0x1.5076700000000p-5, 0x1.c8ba920000000p-8, 0x1.7c77f20000000p-4, 0x1.5dc1a40000000p-5, -0x1.31e5dc0000000p-6, -0x1.fcb87e0000000p-4, 0x1.47e8820000000p-8, -0x1.16f9280000000p-9, 0x1.2e3e320000000p-4, 0x1.7fd2f40000000p-4, 0x1.7116340000000p-5, -0x1.29a2d80000000p-4, -0x1.46aefc0000000p-2, -0x1.38829c0000000p-5, 0x1.7c80f60000000p-5, -0x1.2cb44c0000000p-5, -0x1.6366f60000000p-5, -0x1.d958360000000p-2, -0x1.0dfea80000000p-4, 0x1.27b2000000000p-4, -0x1.0528580000000p-3, 0x1.2d25420000000p-3, -0x1.0632da0000000p-2, -0x1.30c5120000000p-3, -0x1.4a9a320000000p-6, 0x1.811bac0000000p-4, 0x1.df44e00000000p-5, 0x1.64caca0000000p-6, 0x1.7a37a20000000p-4, -0x1.2667300000000p-5, 0x1.1e25760000000p-3, 0x1.789b240000000p-4, -0x1.6f195c0000000p-7, -0x1.3914f60000000p-3, 0x1.d952960000000p-4, 0x1.26d5a80000000p-4, -0x1.eacfe00000000p-5, -0x1.704ee80000000p-2, -0x1.5773ce0000000p-4, 0x1.ac49460000000p-6, 0x1.1304880000000p-8, 0x1.b1e2340000000p-3, 0x1.55ab700000000p-4, -0x1.7570aa0000000p-4, -0x1.0615300000000p-1, 0x1.098f7a0000000p-5, 0x1.7084de0000000p-5, -0x1.be8aee0000000p-3, -0x1.42d8140000000p-4, -0x1.19ce6a0000000p-2, -0x1.35dd140000000p-3, -0x1.d104ec0000000p-11, -0x1.0938660000000p-5, 0x1.ac4ee20000000p-4, -0x1.a261a40000000p-4, -0x1.94bfe00000000p-3, -0x1.ed60720000000p-2, -0x1.e850ee0000000p-6, 0x1.2fc9280000000p-8, 0x1.07b7ae0000000p-3, -0x1.bf084e0000000p-6, -0x1.be7c220000000p-3, 0x1.168ee80000000p-4, -0x1.40ffda0000000p-8, -0x1.fc40500000000p-4, -0x1.37f5d80000000p-4, 0x1.761a4e0000000p-4, 0x1.e2a37e0000000p-6, 0x1.8fa9c00000000p-5, -0x1.7002320000000p-4, -0x1.21a4e20000000p-3, -0x1.6ed0180000000p-3, 0x1.8ee4da0000000p-4, -0x1.36639e0000000p-7, -0x1.848b660000000p-5, -0x1.05cd7e0000000p-2, -0x1.c2d0180000000p-3, 0x1.fe4fee0000000p-11, 0x1.24745a0000000p-5, -0x1.8393620000000p-3, -0x1.3efbc60000000p-3, 0x1.86c4ec0000000p-5, -0x1.9d73300000000p-6, -0x1.0328fc0000000p-2, 0x1.52897e0000000p-5, -0x1.081a600000000p-3, -0x1.4d287a0000000p-7, -0x1.534b0e0000000p-2, -0x1.112db80000000p-2, 0x1.06f3360000000p-5, 0x1.33952a0000000p-5, -0x1.0e09cc0000000p-3, -0x1.6539220000000p-3, -0x1.b16ea20000000p-5, 0x1.a19a7e0000000p-5, -0x1.ee146c0000000p-4, -0x1.590d720000000p-4, -0x1.3453460000000p-5, 0x1.9ddab00000000p-4, -0x1.ab2aa20000000p-4, 0x1.8216440000000p-4, 0x1.b822440000000p-5, -0x1.8cd3fe0000000p-4, -0x1.20c8c40000000p-4, 0x1.f4adee0000000p-5, -0x1.ca36c60000000p-7, 0x1.7808780000000p-4, 0x1.8f08ee0000000p-6, -0x1.a55be60000000p-7, 0x1.e2d2a60000000p-5, 0x1.6a9b2a0000000p-4, -0x1.31e42e0000000p-6, 0x1.4eb0740000000p-5, -0x1.f479540000000p-6, 0x1.946aa80000000p-5, 0x1.ad06680000000p-5, 0x1.aa22d00000000p-6, 0x1.6311b60000000p-5, 0x1.2b67800000000p-4, 0x1.7e70040000000p-6, 0x1.2830bc0000000p-6, 0x1.6d816e0000000p-4, 0x1.8dcb040000000p-3, 0x1.4dce0a0000000p-5, -0x1.31168a0000000p-7, 0x1.83b1d40000000p-4, 0x1.24931a0000000p-3, 0x1.0256500000000p-6, 0x1.092f200000000p-3, -0x1.93f0dc0000000p-8, 0x1.349ff20000000p-5, 0x1.4cbace0000000p-4, 0x1.ef83f20000000p-5, -0x1.d1339e0000000p-4, 0x1.dd185c0000000p-5, -0x1.65dd8a0000000p-6, 0x1.a242840000000p-5, 0x1.0bba4e0000000p-4, -0x1.b277480000000p-5, 0x1.c4a6f60000000p-7, -0x1.e5168e0000000p-8, -0x1.5666540000000p-5, -0x1.caecfe0000000p-8, -0x1.fbfd080000000p-7, 0x1.b8f1000000000p-4, -0x1.1cc3bc0000000p-6, -0x1.3e52e20000000p-8, -0x1.419ebc0000000p-4, -0x1.659d5a0000000p-4, -0x1.398e540000000p-3, -0x1.914e700000000p-4, -0x1.45cfca0000000p-4, -0x1.58006c0000000p-3, 0x1.3558d20000000p-2, 0x1.7deeca0000000p-6, 0x1.4afd1e0000000p-5, 0x1.c3a65c0000000p-5, -0x1.456b280000000p-5, -0x1.a5ad020000000p-7, 0x1.71f5ee0000000p-5, 0x1.3ff3340000000p-7, -0x1.d2a9240000000p-7, 0x1.fcf0ac0000000p-4, -0x1.289d9a0000000p-4, -0x1.e083120000000p-8, -0x1.c66f320000000p-5, 0x1.d9f8aa0000000p-6, -0x1.3b29ac0000000p-3, -0x1.3846280000000p-3, 0x1.da75940000000p-4, 0x1.1a19060000000p-4, -0x1.ab73e60000000p-4, 0x1.34dac60000000p-6, -0x1.4d1b260000000p-7, 0x1.a540e60000000p-3, -0x1.8d19840000000p-4, 0x1.649bb80000000p-6, 0x1.1b296e0000000p-5, -0x1.7ac75c0000000p-6, -0x1.d674620000000p-4, -0x1.ba9ed60000000p-4, 0x1.0aeeb00000000p-4, -0x1.5245da0000000p-3, 0x1.af93780000000p-6, -0x1.6717f00000000p-7, 0x1.5ba5540000000p-3, 0x1.dda31a0000000p-8, 0x1.a7e1c60000000p-4, -0x1.0738c40000000p-12, -0x1.082a4c0000000p-3, 0x1.3d822a0000000p-4, 0x1.265bd40000000p-4, 0x1.cfdb4a0000000p-5, -0x1.0944e80000000p-6, 0x1.d55acc0000000p-3, -0x1.36e55a0000000p-4, 0x1.0a958a0000000p-5, -0x1.b5cf960000000p-3, -0x1.ff9cbc0000000p-5, -0x1.bbaf6c0000000p-4, 0x1.8ebe340000000p-6, -0x1.39548a0000000p-5, 0x1.c7d5920000000p-4, -0x1.6246380000000p-5, 0x1.01cbc00000000p-4, 0x1.158ce60000000p-7, 0x1.6ea9d80000000p-4, -0x1.ef779c0000000p-6, -0x1.4bd94c0000000p-3, 0x1.ca27580000000p-5, -0x1.3c149c0000000p-4, 0x1.65a1540000000p-4, 0x1.349a620000000p-5, 0x1.a87a100000000p-5, -0x1.0383860000000p-4, -0x1.2ea3a80000000p-4, -0x1.4db15a0000000p-5, 0x1.bc70b00000000p-5, -0x1.bbb7d40000000p-6, -0x1.bf96b60000000p-5, 0x1.0937ea0000000p-3, -0x1.700e860000000p-3, 0x1.fc2fe00000000p-6, -0x1.3213380000000p-8, -0x1.7b2b920000000p-5, 0x1.de18980000000p-5, 0x1.a5f7e00000000p-6, -0x1.1e21e00000000p-3, -0x1.a6aa600000000p-4, 0x1.5583500000000p-7, -0x1.371e7e0000000p-6, -0x1.4dcc360000000p-5, 0x1.427ed00000000p-10, 0x1.61a95e0000000p-7, 0x1.02a5420000000p-4, -0x1.3b7ee80000000p-3, 0x1.0dd4b20000000p-7, 0x1.bb721a0000000p-8, -0x1.4e08120000000p-4, -0x1.7c17040000000p-4, -0x1.154d000000000p-4, 0x1.e1733a0000000p-5, -0x1.6e48080000000p-4, -0x1.f70dea0000000p-4, 0x1.7a7dc80000000p-6, -0x1.942dbe0000000p-6, 0x1.537ae40000000p-3, 0x1.81dd140000000p-3, 0x1.2b06940000000p-3, -0x1.0785160000000p-3, 0x1.c667480000000p-5, -0x1.f6cd000000000p-5, 0x1.fd676c0000000p-5, 0x1.8bf68c0000000p-6, -0x1.2223f80000000p-3, 0x1.541ce60000000p-6, -0x1.51d9780000000p-4, 0x1.e9a13a0000000p-7, -0x1.48fa8c0000000p-3, -0x1.36acfe0000000p-4, -0x1.70d03a0000000p-6, 0x1.1b39e20000000p-3, -0x1.6c0dca0000000p-3, 0x1.699a300000000p-5, 0x1.dfbab60000000p-3, -0x1.edc0a40000000p-5, 0x1.4361aa0000000p-4, -0x1.2e29800000000p-3, 0x1.e156740000000p-4, 0x1.c876940000000p-7, -0x1.bba5ee0000000p-6, 0x1.71fc940000000p-5, 0x1.bb03ee0000000p-4, 0x1.1e0e080000000p-5, -0x1.baadbc0000000p-4, -0x1.502f080000000p-3, 0x1.00da3c0000000p-3, -0x1.b179780000000p-3, 0x1.1744fe0000000p-2, -0x1.986a3a0000000p-3, 0x1.e3cdd00000000p-3, -0x1.932f5a0000000p-3, 0x1.04934c0000000p-3, 0x1.d68e5e0000000p-5, 0x1.a6dca20000000p-4, 0x1.0e0fb80000000p-4, -0x1.ddc6280000000p-5, 0x1.918ce80000000p-5, 0x1.64d8ce0000000p-4, 0x1.dbb0d20000000p-4, -0x1.1448280000000p-3, 0x1.1a10520000000p-3, 0x1.ae49840000000p-4, 0x1.5bafb80000000p-4, 0x1.3568f40000000p-7, 0x1.c859c20000000p-4, 0x1.4c8ee00000000p-3, 0x1.1c67940000000p-7, 0x1.81c3c80000000p-4, -0x1.371dbe0000000p-5, 0x1.3ba6820000000p-5, 0x1.ee0e920000000p-5, 0x1.d4e3e60000000p-7, 0x1.187c9c0000000p-6, -0x1.2b055e0000000p-4, -0x1.5459000000000p-4, -0x1.4ef4480000000p-6, 0x1.7df7000000000p-4, 0x1.aeca9e0000000p-5, 0x1.e8e8f80000000p-5, 0x1.5854440000000p-4, 0x1.535a9c0000000p-4, -0x1.000a560000000p-6, -0x1.0525560000000p-6, 0x1.59870c0000000p-5, -0x1.5f917a0000000p-7, -0x1.b562be0000000p-8, -0x1.e8932a0000000p-5, -0x1.afb0f20000000p-6, -0x1.6436100000000p-8, 0x1.1cc7c20000000p-4, -0x1.af05960000000p-6, -0x1.95edc00000000p-4, 0x1.40edda0000000p-5, -0x1.ea16c60000000p-5, -0x1.54f2da0000000p-4, -0x1.6f0f7c0000000p-4, -0x1.a9eaec0000000p-4, 0x1.14773c0000000p-4, -0x1.e4616e0000000p-5, 0x1.c7cbf80000000p-9, 0x1.06d2480000000p-8, 0x1.cf2e820000000p-5, 0x1.f97c300000000p-4, -0x1.6e53ca0000000p-5, -0x1.e2b7c20000000p-6, 0x1.e247fc0000000p-5, 0x1.48e6960000000p-4, 0x1.f9c5c20000000p-6, -0x1.6a48820000000p-7, -0x1.1537020000000p-3, -0x1.1f39040000000p-7, -0x1.0a300e0000000p-4, -0x1.73092e0000000p-8, 0x1.0152a80000000p-6, 0x1.4a4a760000000p-7, -0x1.49e8780000000p-3, -0x1.2f451e0000000p-6, -0x1.5ceb760000000p-4, 0x1.c073220000000p-6, 0x1.d1dea60000000p-12, 0x1.0142ac0000000p-4, -0x1.1adc060000000p-3, -0x1.38d44e0000000p-3, 0x1.6926e40000000p-5, -0x1.070cd60000000p-4, 0x1.0c71ce0000000p-5, -0x1.03670c0000000p-5, 0x1.69bb2a0000000p-6, -0x1.3507b00000000p-6, 0x1.cd219e0000000p-4, 0x1.ddae8c0000000p-5, -0x1.ca7ece0000000p-9, 0x1.13fba40000000p-6, -0x1.b969be0000000p-8, 0x1.90370a0000000p-4, 0x1.81af500000000p-4, -0x1.42cc9a0000000p-5, 0x1.5fd20c0000000p-5, 0x1.4b04440000000p-4, 0x1.9da98e0000000p-4, 0x1.d717b00000000p-6, -0x1.4626a00000000p-3, 0x1.c0b2d80000000p-5, -0x1.ff0d100000000p-6, 0x1.fded320000000p-7, -0x1.87445a0000000p-4, 0x1.025f7c0000000p-5, 0x1.faa9740000000p-7, 0x1.651a760000000p-7, -0x1.3704380000000p-5, -0x1.074d500000000p-4, 0x1.67cc0a0000000p-6, 0x1.02e1260000000p-4, -0x1.9d4ba40000000p-4, 0x1.6349b20000000p-7, 0x1.7ad49a0000000p-4, -0x1.83f6dc0000000p-6, -0x1.5092ac0000000p-6, -0x1.6d18300000000p-5, -0x1.7a02780000000p-5, -0x1.1f22d00000000p-4, 0x1.d8625a0000000p-5, 0x1.2fee700000000p-8, 0x1.26ee820000000p-5, -0x1.589d920000000p-4, 0x1.4c2b000000000p-4, 0x1.02fd140000000p-3, 0x1.3c1dd20000000p-11, 0x1.69e9fc0000000p-3, 0x1.ddce3e0000000p-5, 0x1.21f7220000000p-4, 0x1.8548ea0000000p-7, -0x1.47cc740000000p-13, -0x1.06919e0000000p-3, -0x1.c589c60000000p-4, -0x1.baf5ee0000000p-4, -0x1.82bc4c0000000p-4, -0x1.3725180000000p-5, -0x1.35628c0000000p-4, -0x1.b248440000000p-4, 0x1.2b8ca00000000p-6, 0x1.9f56700000000p-5, 0x1.5bb23e0000000p-3, 0x1.8a79da0000000p-5, -0x1.e2dee00000000p-7, 0x1.bafcf20000000p-4, -0x1.b145e80000000p-5, -0x1.6843700000000p-5, -0x1.36e4780000000p-8, 0x1.b86ef20000000p-5, -0x1.56c79a0000000p-4, 0x1.c895c00000000p-4, -0x1.beadec0000000p-7, 0x1.9be5b80000000p-6, -0x1.05e9800000000p-4, -0x1.b1d6380000000p-5, 0x1.98653c0000000p-3, 0x1.09fac60000000p-2, 0x1.71c8ea0000000p-12, -0x1.4f430c0000000p-4, 0x1.90ad320000000p-3, 0x1.4db29c0000000p-4, -0x1.1ed2aa0000000p-5, 0x1.97886e0000000p-5, 0x1.38d9e60000000p-5, -0x1.a1ed1c0000000p-6, -0x1.1f22f80000000p-2, 0x1.eb72800000000p-4, 0x1.d6946e0000000p-6, 0x1.7734440000000p-4, -0x1.0f769c0000000p-3, -0x1.aed7200000000p-5, 0x1.6bbc1e0000000p-5, 0x1.ce5e740000000p-4, 0x1.52cdbc0000000p-4, -0x1.03131e0000000p-4, -0x1.d357be0000000p-5, 0x1.3ee4c60000000p-4, 0x1.5599ac0000000p-4, -0x1.858cce0000000p-3, 0x1.f525d00000000p-5, -0x1.bb00f00000000p-6, 0x1.2ae21c0000000p-3, 0x1.adea7a0000000p-4, 0x1.1ccffa0000000p-4, -0x1.2bbab40000000p-4, 0x1.8cc7a40000000p-5, -0x1.0a12b60000000p-4, 0x1.0985c40000000p-2, 0x1.4331fe0000000p-5, -0x1.3c78d20000000p-4, -0x1.8a65c80000000p-5, 0x1.ac38c00000000p-3, 0x1.1b25220000000p-3, -0x1.6621980000000p-5, -0x1.4945020000000p-5, 0x1.5d0b0e0000000p-2, 0x1.59ac540000000p-4, 0x1.558af20000000p-3, -0x1.377a620000000p-7, 0x1.387bb20000000p-5, 0x1.5e6efc0000000p-7, 0x1.420a720000000p-3, 0x1.526cc80000000p-6, 0x1.785fac0000000p-3, 0x1.4587960000000p-3, -0x1.1345280000000p-4, -0x1.f3c4400000000p-8, 0x1.5a056a0000000p-3, 0x1.f951d40000000p-5, 0x1.f1b0e40000000p-4, -0x1.30c3c60000000p-8, 0x1.0324560000000p-4, -0x1.ce58620000000p-4, 0x1.3661c00000000p-4, -0x1.afd7e00000000p-6, -0x1.56bb8e0000000p-4, -0x1.54da600000000p-5, -0x1.3a91480000000p-10, 0x1.4be8520000000p-8, 0x1.d772980000000p-7, -0x1.f4f2e20000000p-6, -0x1.0dd5540000000p-5, 0x1.d40e9c0000000p-6, 0x1.b68d660000000p-7, -0x1.bcccdc0000000p-4, -0x1.1a62000000000p-5, 0x1.2bda860000000p-9, 0x1.6e30000000000p-5, 0x1.df59200000000p-7, 0x1.d46a780000000p-5, -0x1.c811980000000p-6, -0x1.26e8340000000p-6, 0x1.ad44da0000000p-6, -0x1.1ada6c0000000p-4, -0x1.6550980000000p-6, -0x1.18bad40000000p-4, -0x1.0119560000000p-3, 0x1.4f6cfc0000000p-9, 0x1.90a65c0000000p-6, 0x1.3ad0ea0000000p-7, 0x1.5284f60000000p-6, -0x1.1a11bc0000000p-3, -0x1.7e19ba0000000p-4, -0x1.f98ce80000000p-4, 0x1.6cf2900000000p-7, -0x1.0b8fda0000000p-6, -0x1.6081f80000000p-7, 0x1.a2f8640000000p-7, 0x1.f109200000000p-12, -0x1.e19ec40000000p-6, -0x1.9308ca0000000p-4, -0x1.5ce7b60000000p-5, 0x1.211eb00000000p-3, 0x1.2fb5da0000000p-8, -0x1.928a320000000p-8, 0x1.f539000000000p-6, -0x1.5ee8440000000p-6, 0x1.5499f60000000p-4, -0x1.21cbc00000000p-5, -0x1.0a59220000000p-4, 0x1.3f8d280000000p-5, -0x1.5fcb640000000p-4, 0x1.9f86c20000000p-4, 0x1.8dfbb00000000p-5, -0x1.8772f20000000p-6, -0x1.cdc5d80000000p-3, 0x1.58f4d80000000p-4, 0x1.2613060000000p-6, 0x1.6607e00000000p-5, -0x1.1f180e0000000p-7, -0x1.99794a0000000p-5, -0x1.6597860000000p-6, -0x1.1c295c0000000p-6, 0x1.09f3e20000000p-9, -0x1.e98ca20000000p-4, -0x1.ddec320000000p-4, -0x1.36a96a0000000p-4, -0x1.cb59e20000000p-6, 0x1.f778400000000p-4, 0x1.0599ba0000000p-3, -0x1.09695c0000000p-5, -0x1.16793e0000000p-6, -0x1.ae8f7a0000000p-7, 0x1.3eca4c0000000p-3, -0x1.3b0e040000000p-4, -0x1.8145b80000000p-5, -0x1.57f7540000000p-7, 0x1.41d70e0000000p-4, 0x1.215bbe0000000p-4, -0x1.2248f60000000p-4, 0x1.674eea0000000p-6, -0x1.af80740000000p-5, -0x1.6d07b20000000p-3, 0x1.0c9a0a0000000p-5, -0x1.da733a0000000p-7, -0x1.c69ebc0000000p-5, 0x1.738dba0000000p-4, -0x1.64a76e0000000p-4, -0x1.80b47a0000000p-4, 0x1.8eed780000000p-6, -0x1.c65c1e0000000p-5, 0x1.434d660000000p-4, -0x1.7731600000000p-9, -0x1.3421900000000p-5, 0x1.2cddaa0000000p-4, -0x1.3d7c620000000p-4, -0x1.96a3f80000000p-5, -0x1.b719b60000000p-5, 0x1.f0cffe0000000p-6, -0x1.b291360000000p-3, -0x1.9927da0000000p-6, -0x1.dc24680000000p-9, -0x1.51f81c0000000p-8, -0x1.072b440000000p-5, 0x1.c3fb060000000p-7, -0x1.b955d00000000p-6, 0x1.2bc1400000000p-4, 0x1.4e6e180000000p-6, -0x1.ff08260000000p-5, -0x1.f9943e0000000p-6, -0x1.77c7f40000000p-6, -0x1.b28c940000000p-3, -0x1.0cf9cc0000000p-5, 0x1.2c1c400000000p-4, 0x1.0b3d9e0000000p-5, -0x1.357b860000000p-3, -0x1.38819a0000000p-3, -0x1.4065ee0000000p-4, -0x1.336e5c0000000p-5, -0x1.1293260000000p-4, 0x1.2557100000000p-8, 0x1.96d0600000000p-6, 0x1.7036b80000000p-8, -0x1.385b6c0000000p-4, -0x1.f330960000000p-6, 0x1.b931600000000p-6, 0x1.fc97e40000000p-8, -0x1.a251680000000p-5, -0x1.378b3a0000000p-3, -0x1.907efa0000000p-5, -0x1.5422220000000p-3, 0x1.8f5f160000000p-4, -0x1.b576d80000000p-8, -0x1.7212aa0000000p-6, -0x1.92e9ae0000000p-4, 0x1.e98d7c0000000p-6, -0x1.a9deac0000000p-6, -0x1.162b1e0000000p-6, 0x1.77030e0000000p-5, -0x1.444e6a0000000p-6, 0x1.1fa2040000000p-11, -0x1.b01a9c0000000p-5, 0x1.547a100000000p-4, 0x1.a8bd520000000p-4, -0x1.0758a60000000p-5, -0x1.64426a0000000p-6, -0x1.5d656e0000000p-6, -0x1.34bee80000000p-5, -0x1.b5ca980000000p-5, -0x1.b942380000000p-5, 0x1.7328f40000000p-5, 0x1.16ba700000000p-3, 0x1.8b3a820000000p-6, 0x1.a827780000000p-4, 0x1.1b4d160000000p-7, -0x1.f274c20000000p-8, -0x1.e32dea0000000p-6, 0x1.0892420000000p-4, 0x1.5889700000000p-6, 0x1.217a5e0000000p-7, -0x1.43d9aa0000000p-8, 0x1.c14f720000000p-9, 0x1.f623320000000p-5, -0x1.29780c0000000p-6, -0x1.7c47e20000000p-4, 0x1.422fac0000000p-6, -0x1.4c9bf00000000p-8, 0x1.1f69be0000000p-4, -0x1.d2c2fa0000000p-6, 0x1.cba88c0000000p-4, -0x1.c42e720000000p-8, 0x1.52d6a20000000p-3, -0x1.6477140000000p-5, 0x1.4026c00000000p-8, 0x1.2685c60000000p-6, 0x1.62afc40000000p-4, 0x1.d4108a0000000p-3, -0x1.3ff7e20000000p-5, 0x1.d79ca00000000p-8, 0x1.6636b40000000p-3, 0x1.0456680000000p-6, -0x1.19215a0000000p-5, -0x1.9385de0000000p-4, 0x1.0acc380000000p-3, -0x1.a232500000000p-5, 0x1.33bd200000000p-7, -0x1.618b0e0000000p-8, -0x1.206f680000000p-3, 0x1.bfeea80000000p-4, 0x1.b00a740000000p-5, 0x1.02719e0000000p-8, 0x1.79420e0000000p-5, -0x1.8650fc0000000p-6, -0x1.4181740000000p-4, 0x1.e5741c0000000p-4, -0x1.d6efe00000000p-10, 0x1.0c2f880000000p-4, -0x1.6c8e260000000p-8, 0x1.d5a7280000000p-6, -0x1.47cc820000000p-3, -0x1.a36aae0000000p-3, -0x1.4c5d5a0000000p-6, -0x1.1460ea0000000p-7, -0x1.42f7fa0000000p-3, -0x1.fe73960000000p-3, 0x1.6706be0000000p-4, -0x1.6a4ea00000000p-5, 0x1.31f2280000000p-3, -0x1.9e09980000000p-6, 0x1.0974280000000p-4, 0x1.3be8a60000000p-6, -0x1.73fbf40000000p-5, -0x1.7915d00000000p-6, 0x1.0b83f40000000p-4, 0x1.a8db1a0000000p-6, -0x1.13cbf00000000p-4, -0x1.ac94920000000p-7, -0x1.4c7d220000000p-6, 0x1.2794180000000p-2, 0x1.bd03580000000p-5, -0x1.5882320000000p-4, -0x1.5d1e260000000p-3, 0x1.a4fa460000000p-3, 0x1.7a67f80000000p-4, -0x1.25f5840000000p-5, -0x1.c721d20000000p-4, -0x1.e321ce0000000p-3, 0x1.5360920000000p-4, -0x1.2994960000000p-3, 0x1.18e3680000000p-3, -0x1.8b78040000000p-3, 0x1.911c8e0000000p-5, -0x1.0b94640000000p-5, 0x1.682fe00000000p-5, 0x1.eae8200000000p-6, 0x1.45cff40000000p-5, -0x1.36ba0a0000000p-3, 0x1.4f92a80000000p-4, 0x1.96621c0000000p-5, -0x1.e87cc20000000p-7, -0x1.7f35700000000p-5, -0x1.d5d7600000000p-6, -0x1.227ace0000000p-5, -0x1.277e040000000p-6, 0x1.955b840000000p-3, 0x1.4b9dc00000000p-5, 0x1.d2a2200000000p-4, 0x1.5781d00000000p-5, 0x1.8e1ad40000000p-7, 0x1.51ac340000000p-5, 0x1.f6c9c40000000p-6, -0x1.6bd11a0000000p-8, -0x1.f7ef3a0000000p-4, 0x1.abf57e0000000p-4, 0x1.e257200000000p-5, -0x1.118bde0000000p-3, -0x1.d3f55e0000000p-3, 0x1.40f9700000000p-5, 0x1.5fa32e0000000p-5, -0x1.f927320000000p-5, -0x1.3e668c0000000p-4, 0x1.a156e00000000p-4, -0x1.6aa86a0000000p-5, -0x1.08b6060000000p-4, 0x1.1169e60000000p-4, 0x1.d5863c0000000p-5, -0x1.fe2e360000000p-3, -0x1.36691c0000000p-5, 0x1.baabd40000000p-5, -0x1.e684300000000p-5, 0x1.3e3cac0000000p-8, 0x1.124afe0000000p-4, -0x1.0eac8a0000000p-3, 0x1.3966020000000p-7, -0x1.4662de0000000p-4, -0x1.3c0bde0000000p-5, 0x1.fd75140000000p-6, 0x1.13b5ba0000000p-7, -0x1.d057be0000000p-6, 0x1.dd139a0000000p-4, -0x1.a35e760000000p-4, 0x1.614b140000000p-4, 0x1.3eb95a0000000p-7, -0x1.d8de420000000p-4, 0x1.70042c0000000p-7, -0x1.9e2a100000000p-6, -0x1.c708020000000p-8, -0x1.3ff91a0000000p-4, -0x1.5479d00000000p-5, -0x1.451b600000000p-4, -0x1.9b539e0000000p-5, -0x1.29821e0000000p-3, -0x1.2259680000000p-3, -0x1.28c4f40000000p-4, -0x1.5fc3860000000p-4, -0x1.811b1c0000000p-5, -0x1.d6714e0000000p-4, -0x1.03c71e0000000p-6, 0x1.7be8420000000p-6, -0x1.ddd4180000000p-4, -0x1.74988e0000000p-7, -0x1.2776ec0000000p-6, -0x1.8991b80000000p-5, 0x1.46572c0000000p-6, -0x1.b583ba0000000p-3, 0x1.153e720000000p-6, -0x1.e330b40000000p-5, 0x1.3f08e60000000p-4, 0x1.f8cba20000000p-6, 0x1.78c0b80000000p-4, -0x1.9548080000000p-4, 0x1.ac8b660000000p-4, 0x1.1af7a00000000p-5, -0x1.5b5a7e0000000p-4, -0x1.78be780000000p-6, 0x1.affb820000000p-5, -0x1.0bd3560000000p-4, -0x1.d9fb680000000p-4, -0x1.300a3e0000000p-6, 0x1.6927b80000000p-5, -0x1.0385e80000000p-5, -0x1.fcba080000000p-4, -0x1.3cb61e0000000p-4, -0x1.eec68a0000000p-7, -0x1.9e70480000000p-4, -0x1.1bf9020000000p-4, -0x1.1376780000000p-8, 0x1.b3fd020000000p-4, 0x1.2d916e0000000p-6, -0x1.6111480000000p-5, -0x1.7475620000000p-4, 0x1.49fede0000000p-4, 0x1.920a160000000p-3, -0x1.ddd2b20000000p-5, -0x1.5e23bc0000000p-4, 0x1.059a720000000p-4, 0x1.34371a0000000p-4, 0x1.1786220000000p-4, -0x1.20af860000000p-6, 0x1.c548ae0000000p-4, 0x1.6a44f40000000p-3, -0x1.0ad20c0000000p-5, -0x1.3101500000000p-4, 0x1.da7e560000000p-5, -0x1.011eac0000000p-5, 0x1.abbe360000000p-5, -0x1.a828b60000000p-9, -0x1.c9aa360000000p-4, 0x1.1635380000000p-3, 0x1.17c5660000000p-4, -0x1.9bc0380000000p-5, 0x1.6333280000000p-5, 0x1.82b9a40000000p-3, -0x1.0870e00000000p-6, 0x1.88ba820000000p-4, 0x1.80737e0000000p-5, -0x1.79f5060000000p-7, -0x1.96d1680000000p-4, 0x1.1b089c0000000p-4, 0x1.99a1160000000p-5, 0x1.6ff6660000000p-6, 0x1.4203440000000p-6, -0x1.02c0ac0000000p-3, 0x1.058f080000000p-2, 0x1.db183a0000000p-3, 0x1.2a2bc80000000p-4, 0x1.28e05e0000000p-3, 0x1.81fbd20000000p-5, 0x1.db4d8a0000000p-4, 0x1.18b08c0000000p-4, 0x1.406e900000000p-5, 0x1.fc68ba0000000p-4, -0x1.0999a80000000p-10, -0x1.ce53280000000p-5, -0x1.8685960000000p-4, -0x1.b2e4680000000p-6, -0x1.acaa080000000p-5, 0x1.3a41740000000p-3, 0x1.188b260000000p-3, 0x1.ec4a680000000p-4, 0x1.3fbd3e0000000p-3, 0x1.981fd20000000p-5, 0x1.27ff720000000p-3, -0x1.a8ce160000000p-6, 0x1.f2bc4e0000000p-3, 0x1.e551580000000p-4, 0x1.a15ed60000000p-3, 0x1.45cf920000000p-4, 0x1.209df60000000p-6, -0x1.9b786e0000000p-5, 0x1.4e0fec0000000p-5}
, {0x1.bc90b60000000p-6, 0x1.0efa620000000p-5, -0x1.b3665e0000000p-5, -0x1.c543040000000p-5, 0x1.c5191c0000000p-5, 0x1.6a3b920000000p-5, 0x1.ede9620000000p-5, 0x1.5868520000000p-4, -0x1.cf4fd00000000p-4, -0x1.e8eb3a0000000p-11, 0x1.019ae80000000p-4, -0x1.81cff60000000p-5, 0x1.07f5d20000000p-7, 0x1.9ec08e0000000p-4, -0x1.54f8bc0000000p-6, -0x1.2dad660000000p-3, -0x1.4dff760000000p-4, 0x1.935f560000000p-6, 0x1.9c5b080000000p-6, -0x1.3266a40000000p-6, 0x1.6844900000000p-5, -0x1.3188360000000p-5, -0x1.a96da60000000p-7, -0x1.1631a80000000p-7, 0x1.966dd60000000p-6, 0x1.4355a80000000p-3, 0x1.9823cc0000000p-5, -0x1.94404e0000000p-5, 0x1.2bfae40000000p-6, -0x1.1dff780000000p-4, 0x1.58e0c40000000p-4, 0x1.698a080000000p-4, -0x1.82b64a0000000p-5, -0x1.48579c0000000p-4, -0x1.29533a0000000p-4, -0x1.7352000000000p-4, -0x1.cc475e0000000p-4, -0x1.0d3da40000000p-3, 0x1.30b22c0000000p-3, -0x1.ac65ac0000000p-4, 0x1.23c49a0000000p-6, 0x1.0fa85a0000000p-6, 0x1.48247a0000000p-6, 0x1.5466b80000000p-4, 0x1.952b800000000p-5, 0x1.684e1e0000000p-6, -0x1.6848e20000000p-6, -0x1.55f9a00000000p-5, 0x1.51c3a20000000p-5, 0x1.b41b580000000p-6, -0x1.d378140000000p-4, 0x1.cacbb20000000p-7, -0x1.82d4520000000p-5, 0x1.9dca6e0000000p-7, -0x1.1799260000000p-3, 0x1.6428640000000p-4, 0x1.56d5aa0000000p-3, -0x1.4cad700000000p-4, -0x1.f344460000000p-4, -0x1.7369440000000p-6, -0x1.2d82640000000p-4, -0x1.a9ce2c0000000p-5, 0x1.2d5e9a0000000p-3, -0x1.755f780000000p-4, -0x1.b25e140000000p-5, -0x1.cce28a0000000p-5, 0x1.0fad180000000p-6, -0x1.e353660000000p-8, -0x1.7c139c0000000p-4, -0x1.650d280000000p-6, 0x1.e7a2680000000p-9, -0x1.6261900000000p-3, 0x1.b0b1fc0000000p-5, -0x1.871ad40000000p-5, -0x1.a238520000000p-3, 0x1.2465c40000000p-7, 0x1.0229f60000000p-4, 0x1.0dc17c0000000p-6, -0x1.19ee520000000p-5, -0x1.793f620000000p-4, -0x1.fd1cf60000000p-7, -0x1.1ab8680000000p-7, -0x1.8a91880000000p-3, -0x1.e362660000000p-6, 0x1.3143240000000p-6, -0x1.2b36220000000p-4, -0x1.21f1d00000000p-4, -0x1.9165280000000p-4, -0x1.71d06e0000000p-4, -0x1.2211ec0000000p-4, -0x1.6a04ca0000000p-4, -0x1.04d4820000000p-4, 0x1.59d4dc0000000p-3, 0x1.9c87a60000000p-7, -0x1.60ac6c0000000p-4, -0x1.419a620000000p-4, -0x1.91150e0000000p-4, 0x1.0efd800000000p-5, 0x1.9cdfd00000000p-10, -0x1.ecb3700000000p-5, -0x1.526cea0000000p-4, 0x1.6b5b4e0000000p-5, -0x1.74c9d80000000p-6, -0x1.be54180000000p-3, 0x1.2b3a460000000p-5, -0x1.5e32660000000p-8, -0x1.0afcda0000000p-2, 0x1.5758ba0000000p-7, 0x1.c96ebc0000000p-6, 0x1.2f0ad00000000p-4, 0x1.0cb6a00000000p-4, -0x1.6592460000000p-3, 0x1.11c6680000000p-6, -0x1.cdf9cc0000000p-7, -0x1.0a84300000000p-4, -0x1.18ea5a0000000p-3, -0x1.84ee500000000p-5, -0x1.3b9d280000000p-9, -0x1.04552a0000000p-4, -0x1.314e600000000p-3, -0x1.babf5c0000000p-11, -0x1.2426d20000000p-5, -0x1.0438da0000000p-3, -0x1.3befd60000000p-3, -0x1.d86ed00000000p-4, -0x1.9ed3c80000000p-5, -0x1.16f98a0000000p-3, -0x1.959ec80000000p-4, 0x1.9228d40000000p-5, -0x1.6f38420000000p-5, -0x1.b878f40000000p-4, 0x1.fc9c940000000p-5, -0x1.1fface0000000p-5, -0x1.1b44ec0000000p-3, -0x1.799d740000000p-4, -0x1.55e6040000000p-8, 0x1.182afa0000000p-3, -0x1.bd9f520000000p-6, 0x1.079c940000000p-3, -0x1.1cbc8c0000000p-4, 0x1.5263c40000000p-4, 0x1.5bb0560000000p-3, 0x1.66a3aa0000000p-4, 0x1.482ee40000000p-8, 0x1.61c70e0000000p-4, 0x1.cf29520000000p-6, -0x1.4008c60000000p-5, 0x1.0510740000000p-5, -0x1.4fef3c0000000p-5, -0x1.8e80fc0000000p-6, 0x1.609e8c0000000p-8, 0x1.2faac20000000p-4, 0x1.3493be0000000p-6, -0x1.08b60c0000000p-3, -0x1.285c6a0000000p-3, -0x1.cb40a40000000p-5, -0x1.0435220000000p-6, -0x1.0a6ed00000000p-4, -0x1.5eff140000000p-7, 0x1.58db700000000p-5, 0x1.b16d0e0000000p-7, 0x1.af53cc0000000p-8, -0x1.7e63820000000p-5, 0x1.47c4b00000000p-3, 0x1.0431820000000p-5, 0x1.4f87da0000000p-5, 0x1.294c6c0000000p-4, 0x1.5636d20000000p-3, -0x1.735e5e0000000p-4, 0x1.74c22c0000000p-4, -0x1.efbb200000000p-5, -0x1.f91dbe0000000p-4, -0x1.258dca0000000p-5, -0x1.7e3a020000000p-5, 0x1.dfff660000000p-4, 0x1.5f76100000000p-14, 0x1.bf53cc0000000p-6, 0x1.6c3c980000000p-12, 0x1.e9117e0000000p-6, 0x1.2c95e40000000p-5, -0x1.d949600000000p-5, 0x1.f06ae60000000p-4, 0x1.cfd5620000000p-5, 0x1.3ee28e0000000p-11, 0x1.a9e8a60000000p-4, 0x1.362daa0000000p-5, 0x1.79d3ce0000000p-4, 0x1.610b2c0000000p-4, 0x1.3be6240000000p-3, 0x1.8dad0a0000000p-4, 0x1.6b5e900000000p-4, 0x1.9f308e0000000p-7, 0x1.5d303c0000000p-4, -0x1.18a1c80000000p-5, -0x1.632c300000000p-6, 0x1.b7aaa20000000p-5, -0x1.9c5d8a0000000p-5, 0x1.b335180000000p-6, -0x1.7103d60000000p-5, -0x1.6570e60000000p-5, -0x1.e676760000000p-5, -0x1.61d7680000000p-4, -0x1.53fb020000000p-4, -0x1.36c8460000000p-4, 0x1.164ac40000000p-4, -0x1.7a101c0000000p-4, -0x1.1af5440000000p-3, -0x1.993db20000000p-7, 0x1.068ab60000000p-7, 0x1.1a0a460000000p-3, -0x1.fb51680000000p-5, -0x1.1ee3ee0000000p-6, -0x1.9909ac0000000p-5, -0x1.e2fc9c0000000p-7, 0x1.ad34240000000p-5, -0x1.14fc000000000p-4, 0x1.11ad5a0000000p-4, 0x1.d435fc0000000p-5, -0x1.ca9da40000000p-11, 0x1.37f03e0000000p-6, -0x1.b444b80000000p-4, 0x1.1318060000000p-8, -0x1.a466d80000000p-5, 0x1.6b70fc0000000p-5, 0x1.4056080000000p-5, 0x1.5a24e40000000p-5, 0x1.38cb420000000p-4, -0x1.124e340000000p-6, -0x1.8f7c2a0000000p-5, -0x1.c76a020000000p-5, -0x1.28d19c0000000p-4, -0x1.8d1e960000000p-8, -0x1.92c1d80000000p-4, 0x1.efbd900000000p-5, 0x1.f657540000000p-5, 0x1.01f6400000000p-3, 0x1.e717680000000p-4, -0x1.36043a0000000p-6, 0x1.02bdaa0000000p-6, -0x1.648e520000000p-9, 0x1.55525a0000000p-4, 0x1.3bc22c0000000p-4, 0x1.2eae3e0000000p-5, 0x1.91b98e0000000p-4, -0x1.20e3780000000p-4, 0x1.20f8160000000p-5, -0x1.41969a0000000p-5, -0x1.aa82180000000p-9, 0x1.c912440000000p-3, -0x1.1873660000000p-4, -0x1.0e11e40000000p-3, 0x1.30125e0000000p-3, -0x1.99c08a0000000p-6, -0x1.a124b60000000p-6, -0x1.ef700a0000000p-6, -0x1.13f79a0000000p-4, 0x1.1d33f80000000p-5, 0x1.cb3e100000000p-6, 0x1.800e980000000p-3, -0x1.aaa9560000000p-3, 0x1.89a0a80000000p-6, -0x1.3034f80000000p-6, -0x1.efa0d40000000p-5, -0x1.49fd020000000p-7, -0x1.8e44bc0000000p-4, -0x1.29e6420000000p-6, 0x1.f6278e0000000p-5, -0x1.2171780000000p-3, 0x1.b26ffc0000000p-5, -0x1.03e9e80000000p-2, -0x1.d28ad40000000p-4, -0x1.f706160000000p-4, 0x1.7b3aba0000000p-3, -0x1.58892c0000000p-3, 0x1.66c5cc0000000p-3, -0x1.3254f80000000p-3, -0x1.48b16c0000000p-4, -0x1.39a0840000000p-6, 0x1.0e4e0e0000000p-4, -0x1.7c6b6e0000000p-4, -0x1.15fd7c0000000p-4, 0x1.0b02400000000p-4, -0x1.c024b60000000p-6, 0x1.ad7aec0000000p-6, -0x1.3566d60000000p-3, 0x1.acb1100000000p-5, 0x1.6da02c0000000p-7, -0x1.82ae0a0000000p-7, -0x1.059cae0000000p-5, -0x1.fa06580000000p-5, 0x1.aac8e20000000p-4, 0x1.88fb7e0000000p-3, 0x1.6dcade0000000p-5, 0x1.19bed80000000p-4, -0x1.4116720000000p-3, -0x1.6028860000000p-6, 0x1.7d05840000000p-3, 0x1.20e7b00000000p-3, 0x1.dfbfdc0000000p-4, 0x1.a85a120000000p-4, -0x1.70fc800000000p-4, 0x1.3c12240000000p-6, -0x1.db76900000000p-4, 0x1.4b4a240000000p-4, 0x1.bbb0e00000000p-4, -0x1.e746320000000p-6, 0x1.567e5c0000000p-4, 0x1.e991240000000p-4, 0x1.d4460c0000000p-4, 0x1.0bbc5a0000000p-6, 0x1.bbd2fe0000000p-8, -0x1.b354de0000000p-6, -0x1.3aa0c80000000p-4, -0x1.5b483c0000000p-5, 0x1.2d633e0000000p-5, 0x1.9fb04e0000000p-8, 0x1.05f8560000000p-3, 0x1.a25be60000000p-9, 0x1.a91e4a0000000p-4, 0x1.5e3c340000000p-5, -0x1.3beb1c0000000p-3, -0x1.403db20000000p-5, -0x1.299d6e0000000p-3, 0x1.2ad8080000000p-3, -0x1.7ecbf20000000p-4, 0x1.05406c0000000p-4, 0x1.06d5920000000p-4, -0x1.f6a06c0000000p-5, 0x1.2dc3520000000p-7, 0x1.9b28900000000p-4, -0x1.28beaa0000000p-3, 0x1.8332cc0000000p-7, -0x1.5c06220000000p-3, 0x1.0a69140000000p-4, -0x1.f102b20000000p-6, 0x1.80e69c0000000p-4, -0x1.abdafa0000000p-4, 0x1.0b93880000000p-9, -0x1.0ae6dc0000000p-2, 0x1.d989ea0000000p-5, 0x1.c0438a0000000p-5, -0x1.d61ab60000000p-6, 0x1.31b6180000000p-5, 0x1.2c05580000000p-4, 0x1.2a50800000000p-3, -0x1.12fe940000000p-4, 0x1.ab00960000000p-11, 0x1.f258b00000000p-4, 0x1.c012fc0000000p-4, 0x1.3bdcd40000000p-3, 0x1.81514a0000000p-4, -0x1.a273260000000p-6, -0x1.dc8a5a0000000p-4, -0x1.fbbe1c0000000p-5, -0x1.b6a2e60000000p-7, 0x1.c44ed60000000p-4, -0x1.0dbe4a0000000p-3, -0x1.8c984a0000000p-4, 0x1.ac1b420000000p-4, -0x1.b9f0de0000000p-5, 0x1.c63bd60000000p-6, -0x1.d5ed720000000p-6, 0x1.82dc380000000p-5, -0x1.6ca00c0000000p-7, 0x1.a933760000000p-5, -0x1.29354a0000000p-4, 0x1.8ea24a0000000p-3, 0x1.5d24820000000p-4, -0x1.dbb0380000000p-4, -0x1.56002e0000000p-5, -0x1.f2383c0000000p-5, -0x1.2dad760000000p-4, 0x1.0c1cd80000000p-5, -0x1.15e3100000000p-5, -0x1.274a000000000p-3, -0x1.f3760e0000000p-7, 0x1.dd578e0000000p-6, -0x1.1b77d20000000p-4, -0x1.ee68c60000000p-4, -0x1.47d14c0000000p-3, 0x1.82c5a40000000p-4, -0x1.78758a0000000p-6, -0x1.3aee7c0000000p-4, -0x1.b5dbd00000000p-3, -0x1.0833dc0000000p-3, -0x1.c6bec60000000p-4, 0x1.8b52920000000p-3, -0x1.023e9a0000000p-2, -0x1.60bb520000000p-3, -0x1.6348420000000p-3, 0x1.fea5fc0000000p-4, 0x1.1ca4920000000p-7, -0x1.56a9440000000p-3, -0x1.303f5e0000000p-2, 0x1.0153bc0000000p-4, 0x1.3c90240000000p-4, 0x1.3640a60000000p-4, -0x1.9d2c1a0000000p-3, -0x1.068cc20000000p-3, 0x1.ece6220000000p-4, -0x1.dee0600000000p-5, -0x1.2469860000000p-4, 0x1.205bbc0000000p-4, -0x1.238f280000000p-7, 0x1.711bb60000000p-6, -0x1.0bb9e80000000p-3, -0x1.ead1000000000p-7, -0x1.1045c20000000p-4, -0x1.bcf5840000000p-9, -0x1.52b9640000000p-4, -0x1.a00f120000000p-5, -0x1.c2a2420000000p-4, 0x1.aed3ec0000000p-9, -0x1.a7d8320000000p-2, 0x1.b528a40000000p-6, -0x1.8b93940000000p-8, -0x1.e5857a0000000p-9, -0x1.42a5cc0000000p-3, 0x1.cac3e40000000p-3, -0x1.53be660000000p-3, -0x1.54f5800000000p-12, -0x1.1e8e5e0000000p-2, 0x1.56fbcc0000000p-4, 0x1.543d680000000p-4, -0x1.24ee860000000p-6, -0x1.4933780000000p-2, 0x1.7342d00000000p-5, -0x1.ff17580000000p-4, 0x1.cbf65e0000000p-4, -0x1.d94da80000000p-3, -0x1.86c98a0000000p-3, -0x1.d838740000000p-8, 0x1.2b75b80000000p-3, -0x1.9fdfd00000000p-3, 0x1.1bca000000000p-3, -0x1.ac57280000000p-4, 0x1.300eb80000000p-8, -0x1.54f9bc0000000p-3, -0x1.596c240000000p-7, 0x1.a957fa0000000p-7, -0x1.4723f00000000p-4, -0x1.86d1340000000p-5, 0x1.12b1ae0000000p-3, -0x1.404cc00000000p-4, -0x1.aac3a80000000p-5, -0x1.3b27440000000p-2, -0x1.9d12200000000p-3, -0x1.e10d760000000p-4, -0x1.9f7f8c0000000p-4, -0x1.fef2d80000000p-3, 0x1.522d760000000p-4, 0x1.29faf20000000p-3, -0x1.12c4160000000p-3, 0x1.73c14e0000000p-7, 0x1.ff47760000000p-4, -0x1.256ee20000000p-3, 0x1.d17f700000000p-4, 0x1.3f0f6c0000000p-2, 0x1.44c71a0000000p-3, -0x1.0599e00000000p-3, 0x1.58bbdc0000000p-5, -0x1.2139ac0000000p-2, -0x1.f1826a0000000p-4, -0x1.b880ba0000000p-2, 0x1.3ee5c60000000p-3, -0x1.a6f30a0000000p-2, 0x1.f364240000000p-6, -0x1.6c30600000000p-3, -0x1.0dbf5a0000000p-2, -0x1.b3cb460000000p-4, -0x1.e58fc00000000p-3, -0x1.a84b460000000p-4, -0x1.e05f7c0000000p-3, 0x1.7654440000000p-4, -0x1.59834c0000000p-2, -0x1.1664d80000000p-2, -0x1.e64e2e0000000p-3, 0x1.d8fdd20000000p-5, -0x1.5c41300000000p-2, -0x1.a584ea0000000p-3, -0x1.15691a0000000p-3, -0x1.03b3220000000p-5, -0x1.009d500000000p-5, 0x1.b4b44e0000000p-6, -0x1.a86d140000000p-8, -0x1.1bddf40000000p-3, -0x1.fa2e600000000p-4, 0x1.61b4300000000p-5, -0x1.2cfc640000000p-3, 0x1.f1f4460000000p-4, -0x1.44a0ce0000000p-5, 0x1.16452c0000000p-4, -0x1.e2e4660000000p-7, -0x1.14d7340000000p-9, 0x1.6236be0000000p-4, 0x1.1d39ae0000000p-3, -0x1.e547120000000p-4, 0x1.997c1a0000000p-9, -0x1.8891ce0000000p-4, 0x1.0bd6a00000000p-6, 0x1.a7131e0000000p-5, -0x1.15bda00000000p-3, -0x1.1632680000000p-4, 0x1.465e820000000p-5, -0x1.a6d32e0000000p-6, -0x1.31dbec0000000p-4, 0x1.54fab80000000p-7, 0x1.2a9da20000000p-4, 0x1.6920f20000000p-5, 0x1.5f4eba0000000p-3, 0x1.02ba960000000p-3, -0x1.4619d20000000p-5, 0x1.ea04700000000p-6, -0x1.0a51f20000000p-3, 0x1.3a315c0000000p-6, 0x1.a53ab20000000p-4, -0x1.54df8e0000000p-3, -0x1.11ac2a0000000p-3, -0x1.fd2c180000000p-5, -0x1.7635080000000p-5, -0x1.076ad80000000p-3, -0x1.7af3c20000000p-4, 0x1.5c0e240000000p-6, -0x1.89ae2c0000000p-9, -0x1.fb59d80000000p-3, -0x1.d8756c0000000p-5, -0x1.4b32be0000000p-5, -0x1.e390f80000000p-5, -0x1.5956c00000000p-4, -0x1.714a920000000p-4, 0x1.e751840000000p-6, -0x1.09fb3e0000000p-5, -0x1.e919160000000p-9, -0x1.8ec6480000000p-4, -0x1.1025280000000p-4, 0x1.0694720000000p-4, -0x1.b9f9700000000p-4, -0x1.2ed28a0000000p-3, 0x1.0f7cf40000000p-4, 0x1.e793100000000p-6, -0x1.666d4e0000000p-6, -0x1.12a7160000000p-3, -0x1.9772a40000000p-6, -0x1.0d65000000000p-4, -0x1.4a61d60000000p-4, -0x1.386fb20000000p-5, 0x1.301d6a0000000p-4, -0x1.ab851a0000000p-6, -0x1.dc03d00000000p-6, -0x1.5047360000000p-3, 0x1.4f2e820000000p-6, -0x1.0191fe0000000p-3, -0x1.3073240000000p-5, -0x1.5cfdfc0000000p-3, -0x1.0db8f00000000p-4, -0x1.46c5fe0000000p-6, -0x1.90ee3a0000000p-3, -0x1.67e7c00000000p-4, 0x1.526fa80000000p-4, -0x1.c0d0f40000000p-5, -0x1.92d1ea0000000p-5, -0x1.0291a20000000p-5, -0x1.547e560000000p-5, 0x1.0c42ae0000000p-3, -0x1.a8fa6c0000000p-4, -0x1.8a43020000000p-3, -0x1.01db6a0000000p-4, -0x1.60a16e0000000p-4, -0x1.f823ea0000000p-5, -0x1.955e120000000p-3, -0x1.20865c0000000p-7, -0x1.2e8afc0000000p-4, 0x1.10cc100000000p-5, -0x1.3454600000000p-4, -0x1.e151320000000p-4, -0x1.2374c20000000p-2, -0x1.5a49ba0000000p-7, -0x1.a58d8c0000000p-3, -0x1.29431e0000000p-2, -0x1.574b5c0000000p-4, -0x1.08fbd00000000p-7, -0x1.313b7c0000000p-4, -0x1.aac43a0000000p-3, -0x1.4594bc0000000p-3, -0x1.439bbe0000000p-3, -0x1.4281960000000p-3, -0x1.cef9b40000000p-3, -0x1.1682100000000p-5, -0x1.1b33360000000p-2, -0x1.041f000000000p-3, -0x1.1565f80000000p-2, -0x1.7591400000000p-3, -0x1.a2d0680000000p-3, -0x1.ad933a0000000p-5, -0x1.16239e0000000p-2, -0x1.b587440000000p-4, -0x1.3f37700000000p-2, -0x1.7dd8b80000000p-3, -0x1.28b9020000000p-4, 0x1.cbde440000000p-7, 0x1.c7d5e40000000p-5, -0x1.03eb2e0000000p-3, -0x1.421c820000000p-3, -0x1.4a27800000000p-4, 0x1.a181820000000p-7, -0x1.ecb6fc0000000p-4, -0x1.2576300000000p-2, -0x1.7109200000000p-4, -0x1.168dc00000000p-3, -0x1.4a10b40000000p-5, -0x1.9166000000000p-3, -0x1.6371a20000000p-9, 0x1.d4a4b40000000p-6, -0x1.8047cc0000000p-4, -0x1.edf94a0000000p-3, 0x1.710f9a0000000p-7, -0x1.ab6a9c0000000p-4, -0x1.126d800000000p-4, -0x1.280c0c0000000p-2, 0x1.e7f20e0000000p-7, -0x1.cf41920000000p-3, -0x1.cf96b60000000p-3, -0x1.7c412e0000000p-3, -0x1.2d39200000000p-2, -0x1.5243a00000000p-3, -0x1.bde69c0000000p-3, -0x1.6ae4b20000000p-3, -0x1.2803fc0000000p-2, -0x1.6fdd7c0000000p-3, -0x1.2f56700000000p-7, -0x1.682d280000000p-3, -0x1.693b100000000p-2, -0x1.c325f80000000p-7, -0x1.73355c0000000p-7, -0x1.90979c0000000p-3, -0x1.3c775c0000000p-4, -0x1.0a651c0000000p-3, 0x1.02f52e0000000p-4, -0x1.4fd9ca0000000p-2, -0x1.3b78aa0000000p-4, 0x1.6f31340000000p-3, 0x1.7c58cc0000000p-5, 0x1.26da240000000p-4, -0x1.9e51840000000p-4, 0x1.3993a40000000p-4, -0x1.5d704c0000000p-10, 0x1.a5774c0000000p-4, 0x1.8e81600000000p-5, 0x1.c0eafc0000000p-7, 0x1.040acc0000000p-4, -0x1.2bf72a0000000p-4, -0x1.fa5e520000000p-4, -0x1.5cb4100000000p-4, 0x1.eb38020000000p-4, 0x1.a000d00000000p-3, -0x1.28ee220000000p-5, -0x1.ccf2740000000p-6, -0x1.7e360e0000000p-3, 0x1.6c05ac0000000p-5, -0x1.0b7e800000000p-2, 0x1.557cd60000000p-3, 0x1.b4dca20000000p-4, 0x1.64a3d00000000p-4, -0x1.99c1740000000p-5, -0x1.10aade0000000p-3, 0x1.194e160000000p-4, -0x1.f30d980000000p-5, 0x1.e2a54a0000000p-3, -0x1.1f551c0000000p-4, 0x1.7ecac40000000p-4, 0x1.01caf20000000p-3, 0x1.39b62c0000000p-5, 0x1.64d28a0000000p-4, -0x1.09c9020000000p-6, 0x1.2337160000000p-3, 0x1.00563e0000000p-6, 0x1.7832320000000p-4, -0x1.520ce00000000p-13, -0x1.7c39140000000p-7, -0x1.6a5c3a0000000p-4, -0x1.6e2d940000000p-3, 0x1.85f1b80000000p-6, 0x1.3481ea0000000p-5, -0x1.426d4e0000000p-5, 0x1.2cbe700000000p-3, -0x1.4b59a80000000p-4, -0x1.42d8b60000000p-4, -0x1.c1de680000000p-4, 0x1.8115960000000p-4, 0x1.9fd7220000000p-6, 0x1.2d18980000000p-4, 0x1.cf6d800000000p-5, 0x1.8608940000000p-8, -0x1.2824e00000000p-4, 0x1.5a86840000000p-3, 0x1.008d4c0000000p-4, 0x1.4d83ba0000000p-5, -0x1.cb4cb40000000p-4, 0x1.a3dadc0000000p-4, 0x1.3729ba0000000p-3, -0x1.404e360000000p-5, 0x1.3a9ab20000000p-4, 0x1.246cf80000000p-5, 0x1.56a2700000000p-6, 0x1.abed3e0000000p-4, 0x1.12e9660000000p-5, -0x1.02ef400000000p-4, -0x1.219eb20000000p-3, 0x1.5b67240000000p-4, 0x1.b5dbe80000000p-6, -0x1.3da3400000000p-4, -0x1.44e7d60000000p-8, -0x1.9bf1260000000p-4, -0x1.6421fe0000000p-5, 0x1.818cc00000000p-5, 0x1.ee9e160000000p-10, 0x1.00177a0000000p-3, -0x1.a9c2dc0000000p-4, -0x1.034be60000000p-7, -0x1.eb4ca20000000p-3, 0x1.4d56b40000000p-5, -0x1.2dba140000000p-5, -0x1.671d040000000p-5, -0x1.30280e0000000p-4, -0x1.de031e0000000p-4, -0x1.7194a20000000p-6, 0x1.bb34be0000000p-5, -0x1.983bf60000000p-4, -0x1.3b62fe0000000p-4, 0x1.fd79440000000p-5, 0x1.eb626a0000000p-6, -0x1.3151b40000000p-5, 0x1.3eaf360000000p-7, 0x1.1ab32c0000000p-7, 0x1.870f560000000p-7, -0x1.a06d980000000p-6, -0x1.4e3d1a0000000p-4, -0x1.2a1ff40000000p-3, -0x1.4d6e740000000p-3, -0x1.7a2cfc0000000p-3, 0x1.0340040000000p-6, 0x1.c936740000000p-8, -0x1.9c97340000000p-3, -0x1.75cacc0000000p-4, -0x1.1c20680000000p-4, -0x1.6e45420000000p-8, -0x1.4ae0a60000000p-6, 0x1.7a24b60000000p-4, -0x1.7a94c60000000p-4, 0x1.7e18f20000000p-5, 0x1.d23dc60000000p-5, -0x1.58872a0000000p-3, -0x1.be84a40000000p-3, 0x1.3159a60000000p-6, -0x1.9e5a020000000p-4, -0x1.e220460000000p-5, -0x1.1137b60000000p-5, -0x1.1f0c0e0000000p-3, -0x1.c5373a0000000p-3, -0x1.1849da0000000p-4, 0x1.61132e0000000p-7, -0x1.efdda00000000p-8, -0x1.4353000000000p-3, -0x1.1938e60000000p-4, -0x1.af95680000000p-4, -0x1.81dede0000000p-3, -0x1.4b25c00000000p-3, -0x1.fe202e0000000p-4, 0x1.1414520000000p-5, 0x1.90c97a0000000p-4, -0x1.4c566e0000000p-3, 0x1.8ff3fa0000000p-3, -0x1.51402a0000000p-7, 0x1.8012d40000000p-4, -0x1.b60b140000000p-6, 0x1.9913be0000000p-8, -0x1.8fd9380000000p-6, 0x1.b319ac0000000p-3, -0x1.c033f40000000p-6, 0x1.25f2720000000p-5, -0x1.9950660000000p-5, 0x1.7664340000000p-5, -0x1.dfb81a0000000p-4, -0x1.299ca40000000p-3, 0x1.ce07360000000p-5, 0x1.92507a0000000p-3, -0x1.172b5a0000000p-5, 0x1.3d298c0000000p-3, -0x1.c48d380000000p-3, 0x1.4e39e80000000p-5, 0x1.ac28b40000000p-4, 0x1.fa54620000000p-5, 0x1.810d2c0000000p-4, 0x1.423a5a0000000p-2, 0x1.7839dc0000000p-4, -0x1.3841700000000p-8, 0x1.cf2db80000000p-6, 0x1.7d17060000000p-5, -0x1.43cdb00000000p-3, 0x1.0f8dbc0000000p-3, -0x1.bbe18c0000000p-4, -0x1.b794900000000p-5, 0x1.5be0ee0000000p-5, -0x1.5c70480000000p-5, 0x1.51f5a60000000p-5, 0x1.fff50e0000000p-6, 0x1.d0d2960000000p-7, -0x1.85a9700000000p-9, 0x1.0808da0000000p-4, 0x1.356cf20000000p-3, 0x1.be8e640000000p-5, -0x1.7c711c0000000p-5, 0x1.f52f140000000p-4, -0x1.6a90ba0000000p-4, -0x1.4d73f60000000p-5, -0x1.ecc2c40000000p-3, 0x1.8e0ad60000000p-3, 0x1.0ac58a0000000p-3, 0x1.833ef00000000p-6, -0x1.1833220000000p-2, -0x1.6ad6560000000p-3, -0x1.0bec300000000p-5, 0x1.136c8e0000000p-5, -0x1.0953340000000p-2, -0x1.487d280000000p-3, 0x1.c5f0000000000p-3, 0x1.ffcc020000000p-9, -0x1.14ccbc0000000p-3, 0x1.9f3ea40000000p-4, 0x1.46a56a0000000p-7, -0x1.fb53f00000000p-6, 0x1.58d72e0000000p-5, 0x1.b286940000000p-3, -0x1.4c9eea0000000p-3, -0x1.bbb9ac0000000p-7, -0x1.8e95ac0000000p-3, -0x1.d4ff060000000p-5, -0x1.4b4be60000000p-5, 0x1.17d82c0000000p-4, 0x1.21835e0000000p-7, -0x1.c15ed40000000p-8, 0x1.71740c0000000p-5, 0x1.921bd40000000p-4, 0x1.48f2020000000p-3, 0x1.2e03fa0000000p-3, 0x1.b7d6120000000p-9, 0x1.25ddf60000000p-4, -0x1.868b0e0000000p-5, 0x1.9ef4ee0000000p-3, -0x1.aa8ec80000000p-3, 0x1.8948d80000000p-3, -0x1.ddcd400000000p-5, -0x1.48348a0000000p-5, 0x1.8ce3a80000000p-6, 0x1.e089960000000p-10, -0x1.c5a3440000000p-4, -0x1.76f4340000000p-4, 0x1.71af560000000p-3, 0x1.0329720000000p-3, 0x1.723c100000000p-5, -0x1.6bf2f80000000p-7, 0x1.54ff960000000p-6, 0x1.873cdc0000000p-5, -0x1.30abbc0000000p-4, 0x1.2883760000000p-4, -0x1.d71dd80000000p-4, -0x1.bf78600000000p-5, -0x1.c080c00000000p-4, 0x1.58b1be0000000p-4, -0x1.147bd20000000p-6, -0x1.2dfc040000000p-6, -0x1.0a09b40000000p-4, 0x1.0a488a0000000p-7, 0x1.20b2600000000p-4, -0x1.d3e9ee0000000p-4, 0x1.ab77ae0000000p-5, -0x1.3c7bcc0000000p-5, 0x1.4611840000000p-8, -0x1.abe8ee0000000p-6, -0x1.a53d7c0000000p-5, 0x1.5a38160000000p-4, 0x1.234bd00000000p-3, -0x1.c862220000000p-5, -0x1.6e40b40000000p-5, 0x1.fd29280000000p-7, -0x1.dbca840000000p-10, 0x1.eec9020000000p-6, 0x1.0f5dd20000000p-5, -0x1.0e93940000000p-6, 0x1.d3f2400000000p-5, 0x1.ca9dd80000000p-5, 0x1.8539ac0000000p-5, -0x1.7379c00000000p-5, -0x1.509fee0000000p-6, -0x1.19535e0000000p-7, -0x1.ae91580000000p-7, -0x1.b3316c0000000p-5, 0x1.aff8420000000p-7, -0x1.2694ce0000000p-4, 0x1.0f03ac0000000p-6, -0x1.7d20f80000000p-5, -0x1.71f6ce0000000p-8, -0x1.5321ae0000000p-6, -0x1.4435420000000p-3, -0x1.2b49ca0000000p-3, -0x1.6ad1280000000p-5, -0x1.0553020000000p-5, 0x1.9df2a60000000p-12, 0x1.3db89c0000000p-6, -0x1.9d47200000000p-7, -0x1.423a780000000p-3, -0x1.baf7e60000000p-5, -0x1.6e38ac0000000p-5, -0x1.a2b2aa0000000p-4, -0x1.d43c7c0000000p-4, -0x1.1f63540000000p-4, -0x1.012efe0000000p-4, 0x1.af7d520000000p-8, -0x1.bf4fce0000000p-4, -0x1.e119860000000p-5, -0x1.072f000000000p-3, 0x1.1cc3d00000000p-4, -0x1.fed1300000000p-6, 0x1.428f0e0000000p-5, 0x1.61ce560000000p-5, -0x1.ede5f40000000p-4, -0x1.2b54160000000p-4, 0x1.607c940000000p-6, -0x1.1de0f00000000p-3, -0x1.07dc000000000p-2, -0x1.481bb20000000p-4, -0x1.552c380000000p-4, -0x1.b486120000000p-3, -0x1.531b060000000p-3, -0x1.6150700000000p-5, -0x1.623e040000000p-2, 0x1.01f48a0000000p-4, 0x1.f805c80000000p-5, 0x1.0437d60000000p-6, -0x1.64a50c0000000p-4, -0x1.0e3a280000000p-6, -0x1.e078640000000p-3, -0x1.cf47c40000000p-4, -0x1.45e5fe0000000p-3, -0x1.18f61a0000000p-3, -0x1.68bc340000000p-3, -0x1.7ad2380000000p-3, -0x1.5efcbc0000000p-4, -0x1.256e060000000p-5, -0x1.01c61a0000000p-2, -0x1.1c74020000000p-2, -0x1.db0b660000000p-5, 0x1.291fe80000000p-5, -0x1.29dc300000000p-3, -0x1.13f0900000000p-3, -0x1.8ee7440000000p-3, 0x1.5aa5640000000p-5, -0x1.e801c60000000p-4, 0x1.08a99a0000000p-5, -0x1.f4c1ba0000000p-4, 0x1.0e9e280000000p-4, 0x1.3659c60000000p-4, 0x1.aaf7ae0000000p-7, 0x1.a144820000000p-5, 0x1.3d1c0c0000000p-5, 0x1.c7ee660000000p-3, 0x1.bbd7e20000000p-4, 0x1.efc4320000000p-6, -0x1.1ad7360000000p-6, 0x1.3b8d100000000p-3, 0x1.5cb83c0000000p-3, 0x1.c09c240000000p-5, 0x1.4704a60000000p-4, 0x1.744aca0000000p-6, 0x1.a98cce0000000p-4, 0x1.5d8ce00000000p-9, -0x1.7266060000000p-5, -0x1.1eff900000000p-7, 0x1.520ff20000000p-4, 0x1.1238380000000p-4, 0x1.4a4a840000000p-4, 0x1.2382e00000000p-3, 0x1.26a4880000000p-3, -0x1.07c3d60000000p-6, 0x1.e7390a0000000p-5, 0x1.07549c0000000p-3, 0x1.ecd20a0000000p-4, 0x1.96dd8a0000000p-3, 0x1.6ffd520000000p-6, 0x1.44cd140000000p-4, 0x1.4d5ed00000000p-5, 0x1.9f91fc0000000p-5, 0x1.a626000000000p-6, 0x1.94978a0000000p-3, -0x1.aad1520000000p-5, -0x1.81bd200000000p-5, 0x1.49a40e0000000p-4, 0x1.ae9c4a0000000p-3, -0x1.ac57fa0000000p-5, 0x1.7c895a0000000p-4, -0x1.b1ae920000000p-5, 0x1.a999300000000p-3, 0x1.68fe640000000p-7, 0x1.fd718c0000000p-7, -0x1.23eaa40000000p-8, -0x1.6076b40000000p-4, -0x1.adff6c0000000p-5, -0x1.3ce0820000000p-4, -0x1.3bd34a0000000p-3, 0x1.58971a0000000p-4, 0x1.3781660000000p-5, 0x1.9af90a0000000p-5, 0x1.4e8d080000000p-5, 0x1.986b3c0000000p-4, 0x1.638cb00000000p-5, -0x1.4e9cf00000000p-4, -0x1.3d208c0000000p-3, 0x1.b2ae8c0000000p-4, 0x1.ec1b100000000p-4, 0x1.0652980000000p-4, -0x1.5442100000000p-5, 0x1.c19e240000000p-3, 0x1.1bf86c0000000p-4, 0x1.011dca0000000p-4, -0x1.0000ba0000000p-10, -0x1.9168980000000p-4, -0x1.fec55a0000000p-6, 0x1.0ebb620000000p-4, -0x1.052aae0000000p-9, 0x1.b8fa400000000p-5, 0x1.ce398a0000000p-7, 0x1.0078840000000p-3, -0x1.b152000000000p-5, -0x1.3ace3a0000000p-7, -0x1.90270a0000000p-4, 0x1.6f72ce0000000p-3, -0x1.a2200c0000000p-5, -0x1.75d9ba0000000p-4, -0x1.a4d61a0000000p-7, 0x1.2c91340000000p-4, -0x1.a189d80000000p-3, 0x1.6a0ba40000000p-7, 0x1.43bfa60000000p-4, -0x1.df43420000000p-5, 0x1.f2bbf60000000p-4, 0x1.b3a7a60000000p-5, 0x1.e510ac0000000p-5, 0x1.337a120000000p-5, 0x1.3e12100000000p-4, 0x1.4a9aca0000000p-7, 0x1.0fdb2a0000000p-6, -0x1.0cc4600000000p-6, 0x1.1198700000000p-3, 0x1.04f6e80000000p-4, 0x1.2d416a0000000p-5, -0x1.0ad0b60000000p-8, -0x1.8fc8b80000000p-5, -0x1.d0b1a60000000p-8, 0x1.fcab4c0000000p-5, 0x1.6a0c7e0000000p-4, -0x1.9a23320000000p-4, -0x1.a83a2c0000000p-4, 0x1.f2c4d60000000p-5, -0x1.1325d60000000p-5, -0x1.8c29ca0000000p-5, 0x1.57c1ae0000000p-4, -0x1.ca57b60000000p-5, 0x1.e606c20000000p-5, -0x1.03fff00000000p-2, 0x1.e3800e0000000p-5, -0x1.8191580000000p-4, -0x1.4cc9680000000p-12, -0x1.4237280000000p-4, 0x1.9654b60000000p-5, 0x1.0e194a0000000p-6, 0x1.40b3880000000p-4, -0x1.4b78a00000000p-5, 0x1.6b05b80000000p-6, 0x1.fc1d260000000p-4, -0x1.e432c60000000p-7, 0x1.78ff2e0000000p-4, -0x1.ddc8160000000p-7, 0x1.26b5d60000000p-6, 0x1.131a9c0000000p-5, 0x1.01b2c60000000p-4, 0x1.717a880000000p-4, -0x1.03f0840000000p-5, 0x1.ec00c80000000p-5, -0x1.4db1040000000p-4, -0x1.7d0b1a0000000p-5, -0x1.ae07f40000000p-6, -0x1.2e07140000000p-5, -0x1.384ee00000000p-2, -0x1.a7903a0000000p-3, -0x1.05c2320000000p-5, -0x1.d00f8c0000000p-3, 0x1.b6cec20000000p-3, -0x1.4e69160000000p-6, -0x1.f724c40000000p-4, 0x1.a24d9a0000000p-5, -0x1.8197460000000p-4, -0x1.3e75ee0000000p-4, 0x1.52b62e0000000p-6, 0x1.3ce0740000000p-7, -0x1.00a77e0000000p-3, -0x1.c061f00000000p-6, -0x1.ca66280000000p-4, 0x1.4abaf00000000p-8, 0x1.edfc4a0000000p-7, -0x1.156f0e0000000p-2, -0x1.0843620000000p-3, 0x1.c2bfb60000000p-4, -0x1.cfb13c0000000p-5, -0x1.3c2fce0000000p-3, -0x1.2241fc0000000p-7, -0x1.e336a40000000p-4, -0x1.e522800000000p-7, -0x1.961b2a0000000p-3, 0x1.71972e0000000p-5, 0x1.833d080000000p-9, -0x1.444d100000000p-4, -0x1.341ffe0000000p-3, -0x1.b4e9ec0000000p-6, 0x1.61a8a80000000p-4, -0x1.eb97760000000p-4, -0x1.c8fa040000000p-3, -0x1.5832e20000000p-4, -0x1.745f060000000p-4, -0x1.95c3560000000p-12, -0x1.94e9520000000p-5, -0x1.07bf5e0000000p-3, -0x1.2d04820000000p-3, -0x1.232cd40000000p-2, -0x1.aee9fc0000000p-5, 0x1.0301280000000p-4, -0x1.366e3a0000000p-3, -0x1.0150e80000000p-4, -0x1.14b61a0000000p-3, -0x1.7adbf40000000p-4, -0x1.ebba6a0000000p-4, -0x1.fe2f000000000p-5, -0x1.8967480000000p-3, -0x1.a1fc420000000p-4, -0x1.d7db200000000p-4, -0x1.d524ea0000000p-5, -0x1.961b360000000p-4, -0x1.51939a0000000p-4, -0x1.6a54680000000p-4, -0x1.23fbc20000000p-5, -0x1.7fa5320000000p-3, -0x1.8310e60000000p-3, -0x1.4889000000000p-3}
