/**
  ******************************************************************************
  * @file    weights/fc.cc
  * @author  Pierre-Emmanuel Novac <penovac@unice.fr>, LEAT, CNRS, Université Côte d'Azur, France
  * @version 1.0.0
  * @date    24 march 2020
  * @brief   Template generating plain C code for the implementation of Convolutional Neural Networks on MCU
  */

#include <stdint.h>

#define INPUT_SAMPLES 100
#define FC_UNITS 10


const float dense_47_bias[FC_UNITS] = {0x1.3d8ad00000000p-4, -0x1.e2e39c0000000p-3, 0x1.cdd10a0000000p-6, -0x1.13bd9c0000000p-5, -0x1.29c46a0000000p-3, -0x1.bc0c200000000p-5, -0x1.c79e220000000p-5, -0x1.a3d3e80000000p-3, 0x1.8443300000000p-2, 0x1.6eb5f40000000p-4}
;

const float dense_47_kernel[FC_UNITS][INPUT_SAMPLES] = {{0x1.f95efe0000000p-3, 0x1.f2ffcc0000000p-4, 0x1.11d9e20000000p-4, 0x1.0ed9ba0000000p-3, 0x1.bca9540000000p-3, -0x1.9a97180000000p-2, -0x1.4ffe320000000p-2, -0x1.6675b80000000p-3, -0x1.0618540000000p-4, -0x1.6b643e0000000p-2, 0x1.ca56940000000p-3, 0x1.18ae1a0000000p-5, -0x1.752fd00000000p-3, -0x1.227c360000000p-1, -0x1.003ea40000000p-2, -0x1.3a543a0000000p-2, -0x1.812c9c0000000p-2, -0x1.6a69a20000000p-4, -0x1.16e7080000000p-3, 0x1.0773b20000000p-5, 0x1.4a29b00000000p-4, -0x1.f5376a0000000p-3, -0x1.d099600000000p-2, 0x1.52d23e0000000p-3, -0x1.a205d60000000p-3, 0x1.e49af40000000p-9, 0x1.a5494c0000000p-3, -0x1.243f400000000p-5, -0x1.d5c3ae0000000p-3, -0x1.ae48fe0000000p-3, -0x1.88ae860000000p-3, 0x1.d2e6fc0000000p-3, -0x1.8c3b9c0000000p-4, -0x1.36dac60000000p-4, -0x1.351ea40000000p-2, 0x1.3a825a0000000p-4, -0x1.0663060000000p-2, -0x1.76c4000000000p-3, -0x1.4c8cb00000000p-2, 0x1.3453d00000000p-3, 0x1.987ac80000000p-4, 0x1.cbeaba0000000p-3, -0x1.c62d3a0000000p-2, -0x1.e1e6860000000p-2, -0x1.b0ae080000000p-3, 0x1.b920fa0000000p-3, 0x1.3c286a0000000p-2, 0x1.1be65a0000000p-2, 0x1.7d21b40000000p-3, 0x1.5dd0440000000p-4, -0x1.44a5d20000000p-2, -0x1.ea8a800000000p-4, -0x1.4476140000000p-2, -0x1.ad4b0a0000000p-3, 0x1.b0ba5e0000000p-5, 0x1.0e825e0000000p-3, -0x1.8fbd540000000p-2, -0x1.9a46740000000p-5, -0x1.5f68d40000000p-2, 0x1.351d680000000p-2, -0x1.9655360000000p-2, 0x1.0e36320000000p-3, -0x1.756d3c0000000p-8, 0x1.c6f4700000000p-3, 0x1.0509fa0000000p-2, -0x1.a257840000000p-2, 0x1.80e62c0000000p-3, -0x1.05cd000000000p-2, -0x1.ddd0540000000p-2, 0x1.c1b3400000000p-4, -0x1.34415a0000000p-2, -0x1.22d64a0000000p-4, 0x1.4fe0ba0000000p-3, -0x1.764e460000000p-2, -0x1.b193260000000p-2, -0x1.c9b9120000000p-5, -0x1.c0d9ae0000000p-3, 0x1.399d420000000p-3, 0x1.b38f220000000p-3, -0x1.b379b60000000p-2, 0x1.ce864c0000000p-4, -0x1.6b58a60000000p-2, -0x1.3859080000000p-3, -0x1.f38c080000000p-3, -0x1.03a2440000000p-2, 0x1.0a17e20000000p-2, 0x1.7782d40000000p-3, -0x1.2d0b4e0000000p-2, 0x1.a3edd60000000p-3, 0x1.c178ac0000000p-3, -0x1.26db700000000p-2, -0x1.c60a940000000p-6, 0x1.33957a0000000p-6, -0x1.18e0380000000p-5, 0x1.e69fea0000000p-3, -0x1.0fb6c60000000p-2, -0x1.d845e00000000p-3, -0x1.b4ad2a0000000p-6, 0x1.d703380000000p-3, 0x1.19ed280000000p-4}
, {0x1.803af00000000p-3, -0x1.367ae80000000p-2, 0x1.41c0e60000000p-3, -0x1.8462a60000000p-2, 0x1.7de4220000000p-3, 0x1.c2689c0000000p-3, 0x1.c19f060000000p-3, 0x1.5f7d080000000p-3, -0x1.12b4400000000p-3, 0x1.5b1d260000000p-3, -0x1.b04f8e0000000p-4, 0x1.e521920000000p-3, 0x1.0cf9300000000p-2, 0x1.07072c0000000p-2, -0x1.59114e0000000p-2, -0x1.7abe5e0000000p-4, 0x1.f7ef080000000p-3, 0x1.1e3ec60000000p-3, -0x1.2aee600000000p-3, -0x1.bc0ecc0000000p-2, 0x1.154ea80000000p-3, 0x1.c35c220000000p-4, 0x1.029a7c0000000p-2, 0x1.e426620000000p-4, 0x1.b2c01e0000000p-4, 0x1.63797c0000000p-3, -0x1.c967be0000000p-2, -0x1.b416040000000p-5, 0x1.a07f1c0000000p-4, 0x1.8281ea0000000p-3, 0x1.3f63020000000p-4, -0x1.818ff60000000p-2, 0x1.67494a0000000p-4, -0x1.253cfa0000000p-2, 0x1.e8370a0000000p-3, 0x1.3126e20000000p-3, -0x1.5269f20000000p-2, -0x1.6748b00000000p-7, 0x1.3df9540000000p-2, -0x1.4a36d80000000p-3, -0x1.0654d20000000p-2, 0x1.46bc300000000p-3, -0x1.f921c60000000p-3, 0x1.15ff020000000p-3, -0x1.b7aff20000000p-3, -0x1.d97c4e0000000p-3, 0x1.40b7280000000p-2, 0x1.66ff7a0000000p-2, 0x1.d193960000000p-4, -0x1.f7542e0000000p-2, 0x1.32932a0000000p-3, -0x1.24aab80000000p-5, -0x1.6bf3900000000p-3, -0x1.7c29ca0000000p-4, 0x1.b263f00000000p-3, -0x1.c4d8300000000p-3, -0x1.8b150e0000000p-2, 0x1.da750a0000000p-4, -0x1.ea95820000000p-3, -0x1.b679ec0000000p-5, 0x1.6b65f20000000p-3, 0x1.7432cc0000000p-3, -0x1.862de80000000p-3, 0x1.a743b40000000p-3, 0x1.438de40000000p-2, -0x1.031fe20000000p-3, -0x1.b9c2a20000000p-4, 0x1.a044580000000p-5, 0x1.bef8be0000000p-3, -0x1.2a906e0000000p-1, -0x1.bb57f20000000p-5, 0x1.588baa0000000p-5, -0x1.9f58cc0000000p-2, 0x1.d895540000000p-3, -0x1.48a3fa0000000p-5, 0x1.399d100000000p-4, -0x1.23fd980000000p-3, -0x1.0acfde0000000p-2, -0x1.eefd040000000p-2, 0x1.ae810e0000000p-4, 0x1.3948200000000p-3, -0x1.5269580000000p-3, -0x1.6a12a20000000p-3, 0x1.2ff6980000000p-3, -0x1.6566320000000p-4, -0x1.c83a9c0000000p-3, 0x1.f10f2a0000000p-3, 0x1.7e4f6a0000000p-3, -0x1.1c28440000000p-3, -0x1.b85d3e0000000p-6, 0x1.a4f3fc0000000p-5, 0x1.b07fe40000000p-3, -0x1.89aa7e0000000p-2, 0x1.620c540000000p-3, 0x1.59cb340000000p-3, -0x1.968d120000000p-3, -0x1.bcf8760000000p-4, -0x1.0e332e0000000p-2, -0x1.074ace0000000p-4, -0x1.69592e0000000p-4}
, {-0x1.68ad6c0000000p-3, -0x1.df54aa0000000p-2, 0x1.50cab60000000p-3, 0x1.01a57e0000000p-5, 0x1.b159ce0000000p-3, -0x1.146ff40000000p-3, -0x1.92c4c40000000p-3, 0x1.aed9060000000p-3, -0x1.45d55e0000000p-3, -0x1.07d2d80000000p-2, 0x1.f9b5f60000000p-3, -0x1.5010180000000p-4, -0x1.be0f680000000p-2, -0x1.70ffa80000000p-3, 0x1.6df09c0000000p-8, 0x1.d270600000000p-3, -0x1.2d099a0000000p-2, 0x1.2b26ce0000000p-3, 0x1.233f220000000p-3, -0x1.1d7d580000000p-2, 0x1.c7cf820000000p-3, 0x1.9e0f280000000p-3, 0x1.1e7c460000000p-2, 0x1.a86ef80000000p-3, 0x1.4d1c720000000p-3, -0x1.80146a0000000p-3, -0x1.1cee340000000p-2, 0x1.614d180000000p-4, -0x1.7922ac0000000p-2, 0x1.5afc6a0000000p-3, 0x1.0f903c0000000p-3, -0x1.14c1140000000p-3, 0x1.615c900000000p-6, -0x1.2798da0000000p-2, 0x1.f0538e0000000p-3, -0x1.a5f58a0000000p-3, 0x1.b561a00000000p-3, 0x1.779f480000000p-5, -0x1.df69000000000p-6, 0x1.b2b7900000000p-3, -0x1.0ec0d60000000p-2, -0x1.0e2d2c0000000p-3, -0x1.38ce880000000p-2, 0x1.ec3c100000000p-3, 0x1.6e5b900000000p-10, 0x1.af3eb60000000p-3, -0x1.18db9a0000000p-3, 0x1.200d460000000p-7, -0x1.1f2bc80000000p-4, 0x1.3f81ec0000000p-4, 0x1.1a1e040000000p-3, 0x1.81b7960000000p-3, -0x1.521c440000000p-3, -0x1.39db700000000p-3, -0x1.3951760000000p-3, 0x1.064b7a0000000p-3, -0x1.3d017a0000000p-3, 0x1.0ebf7a0000000p-3, -0x1.f6ddfc0000000p-3, -0x1.3a3c1a0000000p-3, -0x1.c346e00000000p-3, -0x1.0994c00000000p-5, 0x1.4ef6780000000p-3, -0x1.d21e2a0000000p-3, 0x1.2bef0c0000000p-2, 0x1.e4ef780000000p-5, 0x1.9204060000000p-3, -0x1.194d960000000p-2, -0x1.9190700000000p-2, -0x1.02fc560000000p-1, 0x1.55ab9e0000000p-3, 0x1.9bb1d60000000p-3, 0x1.0a03100000000p-3, -0x1.6e28ee0000000p-2, -0x1.0b286a0000000p-1, -0x1.17947e0000000p-3, -0x1.7ad87a0000000p-7, 0x1.53bc4a0000000p-3, -0x1.337f240000000p-3, -0x1.91c31e0000000p-5, -0x1.49d5260000000p-2, -0x1.c044820000000p-5, 0x1.801dae0000000p-3, 0x1.6b7ae00000000p-3, -0x1.f29bc80000000p-4, -0x1.6961380000000p-3, -0x1.c2089e0000000p-3, -0x1.5a8ace0000000p-2, 0x1.3baaf20000000p-3, 0x1.ee185e0000000p-3, 0x1.54858e0000000p-3, 0x1.e467e80000000p-3, -0x1.c4933c0000000p-3, 0x1.5f10f20000000p-3, -0x1.06a4c60000000p-4, 0x1.0fa2180000000p-4, -0x1.4866880000000p-3, -0x1.0eb3860000000p-12, -0x1.39fe520000000p-5, -0x1.48f0160000000p-4}
, {0x1.8ad7840000000p-5, -0x1.07e8f60000000p-4, -0x1.b37e4c0000000p-3, 0x1.4431a20000000p-4, -0x1.3b819e0000000p-4, -0x1.3a13b80000000p-4, 0x1.5f2ca40000000p-3, -0x1.7fc18e0000000p-3, -0x1.18427c0000000p-6, -0x1.3888740000000p-2, 0x1.c432020000000p-4, -0x1.2ab07a0000000p-2, -0x1.d10dd80000000p-4, 0x1.5eac380000000p-3, 0x1.86a3460000000p-3, 0x1.7c29040000000p-4, 0x1.34e7800000000p-2, -0x1.4a501e0000000p-3, 0x1.20624e0000000p-3, 0x1.9afa020000000p-4, -0x1.152afa0000000p-2, 0x1.3e9a9c0000000p-3, -0x1.3f4b5e0000000p-3, 0x1.0c0db40000000p-7, -0x1.4684520000000p-4, 0x1.8fd7840000000p-3, -0x1.46b9d60000000p-2, -0x1.9636c40000000p-3, -0x1.adb4b00000000p-3, -0x1.413e740000000p-3, 0x1.d077a60000000p-4, 0x1.798b580000000p-3, 0x1.df75800000000p-5, 0x1.3364220000000p-5, 0x1.eb97020000000p-3, -0x1.6ed82e0000000p-2, -0x1.0c7ca40000000p-4, -0x1.63cf180000000p-3, -0x1.67fbce0000000p-3, 0x1.8c6a8e0000000p-3, 0x1.e4291c0000000p-3, -0x1.2888be0000000p-2, 0x1.09494a0000000p-4, 0x1.b8ae420000000p-3, 0x1.610bf40000000p-2, 0x1.cfabd60000000p-6, 0x1.e648d20000000p-4, -0x1.4dc9920000000p-3, -0x1.4c0ec60000000p-2, 0x1.4a102e0000000p-4, 0x1.5439840000000p-3, 0x1.9040520000000p-3, 0x1.8546cc0000000p-3, 0x1.c4e6f60000000p-4, -0x1.b01f300000000p-3, 0x1.dbbb860000000p-5, 0x1.29dc300000000p-2, 0x1.fb4fb00000000p-4, 0x1.44e8ee0000000p-3, -0x1.951b740000000p-4, -0x1.35c0660000000p-2, -0x1.253c160000000p-3, -0x1.6fc2f60000000p-8, -0x1.1eea8e0000000p-2, -0x1.1895320000000p-4, 0x1.392f4e0000000p-4, 0x1.8227ca0000000p-3, 0x1.cab7660000000p-3, -0x1.61c7060000000p-3, -0x1.0f3a560000000p-2, -0x1.7170260000000p-5, -0x1.24c9fc0000000p-2, -0x1.7556140000000p-3, 0x1.a997a00000000p-3, 0x1.23c42c0000000p-3, -0x1.0d490c0000000p-2, -0x1.88a0c20000000p-3, -0x1.090b960000000p-2, -0x1.5b17e60000000p-3, -0x1.e7c7200000000p-3, -0x1.149f640000000p-9, -0x1.1811360000000p-3, -0x1.20561c0000000p-3, 0x1.791d460000000p-3, 0x1.f024ca0000000p-3, -0x1.6fa7a00000000p-3, -0x1.3622c60000000p-6, -0x1.10d4640000000p-4, -0x1.d940a40000000p-3, 0x1.c6e9880000000p-4, 0x1.4ce43a0000000p-3, -0x1.580da80000000p-3, -0x1.730b7c0000000p-2, 0x1.78aff80000000p-3, 0x1.19676c0000000p-2, 0x1.625a640000000p-3, 0x1.3080780000000p-3, -0x1.2dcdb20000000p-2, 0x1.07b01c0000000p-3, -0x1.15bf2c0000000p-2}
, {-0x1.9ab4b80000000p-2, 0x1.43b69c0000000p-4, 0x1.6d7a3c0000000p-4, 0x1.e3a4fe0000000p-4, -0x1.68b7c60000000p-2, 0x1.0370020000000p-2, -0x1.f759840000000p-4, -0x1.24bcdc0000000p-3, 0x1.8657c60000000p-5, 0x1.284b520000000p-3, -0x1.673f260000000p-4, 0x1.4387a80000000p-2, 0x1.9906e20000000p-3, -0x1.f98da80000000p-3, -0x1.5095e60000000p-3, -0x1.f68b180000000p-3, -0x1.9e2ab40000000p-3, -0x1.b971340000000p-9, -0x1.7f74b80000000p-2, -0x1.0195940000000p-2, 0x1.afbf9e0000000p-3, -0x1.144aca0000000p-2, -0x1.deb7840000000p-4, -0x1.3daae60000000p-2, 0x1.24d2ce0000000p-3, -0x1.05ee280000000p-3, 0x1.6ada280000000p-6, 0x1.43df860000000p-4, -0x1.d9b7640000000p-3, 0x1.e239580000000p-3, -0x1.c356020000000p-2, 0x1.92cdb00000000p-3, 0x1.208b2c0000000p-3, -0x1.4951400000000p-5, -0x1.5939800000000p-2, 0x1.4fa7c20000000p-3, 0x1.9c632e0000000p-3, 0x1.070d740000000p-2, -0x1.03fd5c0000000p-3, -0x1.f090760000000p-2, -0x1.d0f11c0000000p-4, -0x1.358ac40000000p-2, 0x1.b29d4c0000000p-5, -0x1.447a260000000p-2, 0x1.41aff80000000p-3, -0x1.e6c0ea0000000p-3, -0x1.492e4c0000000p-2, -0x1.48bb2e0000000p-11, 0x1.3c17ea0000000p-3, -0x1.31cd2a0000000p-2, -0x1.4a50a80000000p-2, -0x1.743e1c0000000p-3, -0x1.6690180000000p-2, 0x1.ca052a0000000p-3, 0x1.30d65e0000000p-3, -0x1.be45b20000000p-5, 0x1.70226c0000000p-4, 0x1.e3ed6e0000000p-4, 0x1.299faa0000000p-3, -0x1.2a2a1e0000000p-2, 0x1.39185e0000000p-6, 0x1.34d3ae0000000p-3, 0x1.cf31220000000p-4, -0x1.6f6bbe0000000p-3, 0x1.796a800000000p-3, -0x1.cefacc0000000p-2, -0x1.a223be0000000p-2, -0x1.90bc240000000p-3, 0x1.550d8c0000000p-7, -0x1.7201380000000p-3, -0x1.38c18a0000000p-4, 0x1.0833520000000p-2, 0x1.44b70a0000000p-3, 0x1.ddd1d00000000p-3, 0x1.47790c0000000p-3, -0x1.22a8ca0000000p-3, -0x1.5aec860000000p-3, -0x1.7888c20000000p-5, -0x1.4f19400000000p-3, 0x1.13dc440000000p-3, 0x1.39033e0000000p-3, 0x1.80ad720000000p-3, 0x1.b698ac0000000p-3, 0x1.25d0c20000000p-3, -0x1.815ada0000000p-2, 0x1.3f308a0000000p-2, -0x1.914c800000000p-2, 0x1.6e812c0000000p-3, 0x1.82aeea0000000p-3, 0x1.2c87b20000000p-4, 0x1.1890c00000000p-3, 0x1.73e34c0000000p-3, -0x1.9fbcd00000000p-3, -0x1.b7e2360000000p-3, -0x1.14be0c0000000p-2, -0x1.3484d40000000p-4, 0x1.40864e0000000p-3, 0x1.efa21e0000000p-5, -0x1.e190c00000000p-3, 0x1.0a13ba0000000p-3}
, {-0x1.3d237a0000000p-3, -0x1.e966460000000p-4, 0x1.2768200000000p-5, 0x1.3914f40000000p-4, -0x1.160b420000000p-4, -0x1.681f920000000p-3, 0x1.d8e9da0000000p-3, -0x1.9216640000000p-3, -0x1.ca5d880000000p-4, 0x1.0dff740000000p-3, -0x1.3aa1500000000p-2, -0x1.5ca0620000000p-3, 0x1.8ea9540000000p-3, -0x1.e7a4860000000p-3, 0x1.c389d00000000p-3, -0x1.c2682e0000000p-3, 0x1.3cbbae0000000p-2, 0x1.015a460000000p-3, -0x1.88763c0000000p-3, 0x1.7e18760000000p-4, -0x1.bdfeaa0000000p-7, -0x1.262faa0000000p-3, -0x1.d044800000000p-5, 0x1.e8a7360000000p-4, -0x1.443bd80000000p-2, 0x1.7964de0000000p-3, 0x1.87fc740000000p-3, -0x1.0bf9680000000p-2, 0x1.5bc8ca0000000p-3, 0x1.8bc1820000000p-4, -0x1.45e10c0000000p-2, -0x1.2466140000000p-3, -0x1.2e22f20000000p-4, -0x1.b964de0000000p-3, 0x1.8192340000000p-3, -0x1.4040520000000p-2, 0x1.ecbd960000000p-9, -0x1.c12d820000000p-3, 0x1.b39abe0000000p-5, 0x1.a5b7500000000p-3, 0x1.23c2500000000p-2, 0x1.b31eae0000000p-5, 0x1.25a39a0000000p-4, -0x1.bc7b3e0000000p-3, -0x1.0a20a00000000p-2, 0x1.09ffb80000000p-6, 0x1.108be60000000p-2, 0x1.1730480000000p-8, 0x1.13b6a40000000p-3, 0x1.9d484e0000000p-4, -0x1.c306740000000p-2, -0x1.6a7aa20000000p-2, -0x1.2e81e00000000p-3, -0x1.596a760000000p-5, -0x1.051dfe0000000p-1, 0x1.5a60140000000p-3, 0x1.18f6520000000p-2, -0x1.f922a20000000p-2, 0x1.5b9a320000000p-3, -0x1.1c2aaa0000000p-11, 0x1.1442400000000p-3, -0x1.fdb5a20000000p-3, 0x1.1bd6da0000000p-4, -0x1.e10bfe0000000p-3, -0x1.3811a60000000p-3, 0x1.7974ae0000000p-7, -0x1.2e64340000000p-2, 0x1.99c46e0000000p-3, 0x1.a4e87a0000000p-3, 0x1.a09c0c0000000p-3, -0x1.56b68a0000000p-2, -0x1.1782620000000p-2, -0x1.c809be0000000p-3, 0x1.6a91a00000000p-4, 0x1.08552e0000000p-4, 0x1.703ab80000000p-3, 0x1.6d91d80000000p-8, -0x1.a0b5f00000000p-3, 0x1.8bf51a0000000p-3, -0x1.82768a0000000p-2, -0x1.88e5160000000p-5, 0x1.a0f29e0000000p-3, -0x1.f8ad220000000p-3, -0x1.20dfd40000000p-2, 0x1.0b9cde0000000p-2, -0x1.00b01e0000000p-3, 0x1.3f59860000000p-3, -0x1.089c1a0000000p-3, -0x1.4a31fc0000000p-3, -0x1.8232200000000p-6, -0x1.416fc00000000p-2, -0x1.0028360000000p-2, -0x1.bf098a0000000p-5, 0x1.5bd3260000000p-3, -0x1.1730020000000p-5, 0x1.6be5620000000p-3, 0x1.7c78340000000p-4, 0x1.1b58ca0000000p-3, 0x1.8c18ce0000000p-3, -0x1.49dda00000000p-2}
, {-0x1.52e8a00000000p-3, 0x1.4df2d00000000p-3, 0x1.3171f80000000p-3, 0x1.15f4e60000000p-3, -0x1.62f9dc0000000p-3, -0x1.739a6e0000000p-2, -0x1.b806b20000000p-3, 0x1.f4a91a0000000p-3, -0x1.45f0de0000000p-4, -0x1.831a9e0000000p-3, -0x1.a300780000000p-3, 0x1.47de3a0000000p-2, 0x1.6021080000000p-3, -0x1.7617340000000p-3, 0x1.ca50660000000p-4, -0x1.092a000000000p-2, 0x1.02894c0000000p-5, -0x1.e0eda00000000p-2, -0x1.ea3b5a0000000p-3, -0x1.f791e00000000p-3, 0x1.9350f60000000p-3, -0x1.2fe53a0000000p-2, -0x1.3cd66a0000000p-3, -0x1.8da1ec0000000p-8, -0x1.69a8300000000p-2, -0x1.6100260000000p-2, 0x1.8e024c0000000p-3, 0x1.a7f6680000000p-2, 0x1.da7cbe0000000p-3, 0x1.bb2ee20000000p-3, -0x1.064e2a0000000p-1, 0x1.9512580000000p-3, 0x1.6301560000000p-3, 0x1.c6ad940000000p-3, -0x1.9d6c000000000p-4, 0x1.3ad8c00000000p-3, 0x1.c7b4580000000p-4, -0x1.dc7fd20000000p-3, -0x1.7a9b6e0000000p-2, -0x1.081a340000000p-2, 0x1.f873160000000p-8, 0x1.8c65500000000p-7, -0x1.e854100000000p-2, -0x1.4e7f3a0000000p-2, -0x1.07b4b60000000p-2, -0x1.bd51a80000000p-3, 0x1.ebb1440000000p-5, -0x1.3740540000000p-3, 0x1.8a96860000000p-3, -0x1.70a6360000000p-2, -0x1.fbd4700000000p-3, -0x1.19c7780000000p-1, -0x1.24f51e0000000p-3, -0x1.cd1a2c0000000p-3, 0x1.1ff7900000000p-3, 0x1.a98b520000000p-3, -0x1.74ce540000000p-2, -0x1.40415c0000000p-2, -0x1.e596200000000p-3, -0x1.6289ce0000000p-4, -0x1.4bd17e0000000p-3, 0x1.6eb8840000000p-3, -0x1.cffeec0000000p-3, -0x1.076ae00000000p-2, 0x1.bb88b60000000p-3, 0x1.0f26740000000p-4, -0x1.2b1bc00000000p-2, -0x1.7829ca0000000p-3, 0x1.4216180000000p-3, 0x1.a7a84c0000000p-3, -0x1.5191940000000p-2, 0x1.4f4d720000000p-5, 0x1.cb62ea0000000p-5, -0x1.8d9b240000000p-3, -0x1.4593740000000p-2, 0x1.d247aa0000000p-3, -0x1.eb8f260000000p-3, -0x1.aa8d7c0000000p-5, 0x1.747c500000000p-3, -0x1.cc2f540000000p-2, -0x1.741c120000000p-3, -0x1.20b8300000000p-3, 0x1.272b300000000p-2, -0x1.2138020000000p-2, 0x1.9a8cf40000000p-3, -0x1.c9f0580000000p-4, -0x1.e217ce0000000p-6, -0x1.67113a0000000p-2, 0x1.b973080000000p-3, -0x1.f0873e0000000p-3, -0x1.1402e20000000p-2, 0x1.17720c0000000p-2, 0x1.b84ad80000000p-2, 0x1.b7f9e60000000p-3, 0x1.fd2a580000000p-3, -0x1.4be18e0000000p-2, -0x1.0898420000000p-1, 0x1.da5b260000000p-4, 0x1.e58c700000000p-3, -0x1.6a20b40000000p-2}
, {-0x1.4b89380000000p-5, 0x1.6e0f3e0000000p-3, -0x1.f4d8520000000p-3, -0x1.8434dc0000000p-2, 0x1.f7cb300000000p-4, 0x1.e0c56e0000000p-3, -0x1.32a3520000000p-2, -0x1.983cba0000000p-3, 0x1.4178b80000000p-3, 0x1.b03ca40000000p-11, -0x1.1207fc0000000p-4, -0x1.9dd4840000000p-2, 0x1.d136420000000p-3, 0x1.3857780000000p-2, -0x1.b77ed00000000p-3, 0x1.4bbf720000000p-3, 0x1.797d2a0000000p-3, 0x1.6bfa880000000p-3, -0x1.1050960000000p-2, -0x1.5ebee80000000p-11, -0x1.c34a340000000p-3, 0x1.76dc640000000p-3, 0x1.969ac40000000p-4, 0x1.9929780000000p-4, -0x1.3845a20000000p-2, 0x1.67dbc60000000p-4, 0x1.8e5f3c0000000p-5, 0x1.63bb200000000p-2, -0x1.289f840000000p-2, -0x1.fc68420000000p-3, 0x1.e870f00000000p-4, -0x1.b9385c0000000p-3, 0x1.eb552e0000000p-3, -0x1.093f260000000p-2, 0x1.e37d8a0000000p-5, -0x1.08cd4a0000000p-2, -0x1.4cce640000000p-2, 0x1.49f80e0000000p-4, 0x1.570a660000000p-2, 0x1.db8a7a0000000p-3, 0x1.fbc9020000000p-5, 0x1.fe151a0000000p-4, -0x1.6b6a2c0000000p-6, 0x1.13ae580000000p-2, 0x1.537b7a0000000p-7, 0x1.7e481c0000000p-3, 0x1.20cf920000000p-5, -0x1.6796480000000p-3, -0x1.9beffe0000000p-3, 0x1.6dd6d80000000p-4, -0x1.fee9040000000p-7, 0x1.ab0b160000000p-3, 0x1.6684be0000000p-3, 0x1.af652c0000000p-3, -0x1.0d47a20000000p-3, -0x1.63722e0000000p-2, 0x1.a79d460000000p-9, 0x1.133d0a0000000p-3, 0x1.4f00040000000p-3, 0x1.2bf3ac0000000p-2, -0x1.7a9be00000000p-3, -0x1.1ab5e60000000p-3, -0x1.2499b60000000p-3, 0x1.55f3be0000000p-3, 0x1.272b080000000p-2, 0x1.7165720000000p-6, 0x1.a360580000000p-5, 0x1.9298ea0000000p-3, -0x1.7195240000000p-3, 0x1.876a2c0000000p-5, 0x1.3f92660000000p-3, -0x1.9227b20000000p-4, -0x1.a4e3da0000000p-3, -0x1.a1a61a0000000p-3, -0x1.73c34a0000000p-3, 0x1.37ecfa0000000p-3, -0x1.d57d4e0000000p-3, -0x1.3514fe0000000p-3, 0x1.41d5ec0000000p-3, 0x1.b78aa20000000p-3, 0x1.6472880000000p-3, 0x1.c7767a0000000p-4, 0x1.e563000000000p-3, -0x1.00f7460000000p-3, -0x1.0b86ec0000000p-2, 0x1.3713180000000p-2, -0x1.1373420000000p-2, -0x1.cd294e0000000p-4, -0x1.5dbc440000000p-3, -0x1.ec55160000000p-4, 0x1.7679b00000000p-3, 0x1.0129a40000000p-3, -0x1.3eb5a20000000p-3, -0x1.3b83e20000000p-3, -0x1.20e3bc0000000p-3, -0x1.c159d40000000p-2, 0x1.368f7e0000000p-3, -0x1.8868c20000000p-2, -0x1.c0b0040000000p-2, 0x1.12f3f20000000p-3}
, {0x1.5d810e0000000p-3, -0x1.a086300000000p-2, 0x1.9d5f2a0000000p-3, 0x1.8a6c720000000p-6, -0x1.0027060000000p-4, -0x1.0ec2dc0000000p-3, -0x1.871ce00000000p-2, -0x1.2bd11c0000000p-5, 0x1.57901c0000000p-3, 0x1.467cc60000000p-5, -0x1.aec2a20000000p-4, -0x1.c1c4520000000p-4, -0x1.1b1fa20000000p-4, -0x1.cd5e1a0000000p-3, 0x1.760e380000000p-3, 0x1.25b8a40000000p-3, 0x1.b0d4e40000000p-6, -0x1.7767b80000000p-2, 0x1.74f0e00000000p-3, 0x1.0dc3b40000000p-4, -0x1.814eb40000000p-4, 0x1.6bb7a60000000p-3, -0x1.863b1e0000000p-3, -0x1.0809420000000p-2, 0x1.2be2b00000000p-3, -0x1.91e5ca0000000p-2, 0x1.310eb60000000p-3, -0x1.1c49360000000p-3, 0x1.4e6c120000000p-3, 0x1.9903ea0000000p-4, 0x1.72eed60000000p-4, 0x1.1b71360000000p-4, -0x1.d850b20000000p-3, -0x1.608f240000000p-2, 0x1.6786580000000p-3, 0x1.14e8dc0000000p-3, -0x1.16aab60000000p-3, -0x1.a0a31e0000000p-2, -0x1.35e7c20000000p-2, -0x1.4f12c60000000p-5, -0x1.1e05e00000000p-3, 0x1.430b7c0000000p-3, 0x1.2064fe0000000p-4, -0x1.0e9b5e0000000p-4, -0x1.cbb8e40000000p-4, 0x1.43b09e0000000p-3, -0x1.8c412a0000000p-8, 0x1.c0ff2a0000000p-5, 0x1.5d11f60000000p-3, 0x1.a34c640000000p-5, 0x1.d453580000000p-4, 0x1.4a68220000000p-3, -0x1.1dfc2e0000000p-5, -0x1.808c400000000p-3, -0x1.221f240000000p-7, 0x1.6057b40000000p-3, -0x1.509cd40000000p-4, 0x1.05bdd20000000p-3, 0x1.1bb94e0000000p-3, -0x1.abc68e0000000p-3, 0x1.7a89920000000p-3, 0x1.74e8140000000p-3, -0x1.406c480000000p-2, 0x1.cf759e0000000p-4, -0x1.0c85980000000p-3, 0x1.f47e040000000p-5, 0x1.8b06f40000000p-4, 0x1.0190420000000p-3, -0x1.bb38780000000p-4, -0x1.34f1ee0000000p-3, -0x1.9700780000000p-3, -0x1.5364520000000p-2, -0x1.5861d20000000p-4, -0x1.6736660000000p-3, -0x1.06fa500000000p-2, 0x1.e5ce7a0000000p-3, 0x1.a185a20000000p-2, 0x1.9c29de0000000p-3, 0x1.27f1de0000000p-3, -0x1.4ee7e00000000p-2, -0x1.e34ca60000000p-3, 0x1.1efb6e0000000p-3, 0x1.58224a0000000p-4, -0x1.57c0c80000000p-3, -0x1.85b1a80000000p-3, -0x1.2ae4400000000p-3, -0x1.07359a0000000p-1, 0x1.a1c3240000000p-3, -0x1.3c870c0000000p-2, -0x1.7e24840000000p-4, -0x1.814eba0000000p-3, -0x1.c491760000000p-3, -0x1.3ad5540000000p-2, 0x1.9b38aa0000000p-4, -0x1.35ad980000000p-6, 0x1.40c6a00000000p-3, 0x1.5492e80000000p-3, 0x1.5972c00000000p-4, 0x1.6f00720000000p-3, 0x1.08261a0000000p-5}
, {0x1.3386c40000000p-3, 0x1.6579ba0000000p-3, -0x1.2894dc0000000p-2, -0x1.2dd36a0000000p-3, -0x1.84dfd00000000p-2, 0x1.e8d17e0000000p-3, 0x1.3a00f40000000p-4, -0x1.a14fa80000000p-2, 0x1.7c69280000000p-5, 0x1.8877780000000p-4, -0x1.b5c4da0000000p-5, -0x1.46cccc0000000p-2, -0x1.f5e2e80000000p-3, -0x1.5eb5bc0000000p-2, 0x1.9aa5220000000p-3, -0x1.d21d7a0000000p-2, 0x1.396a200000000p-4, 0x1.16df2e0000000p-3, -0x1.74b1da0000000p-2, 0x1.0ee1fa0000000p-4, -0x1.eb153c0000000p-4, -0x1.6d58ce0000000p-2, -0x1.4bd3640000000p-3, -0x1.712de00000000p-2, 0x1.c630e00000000p-4, 0x1.a548760000000p-4, 0x1.b0cef20000000p-4, -0x1.8e403e0000000p-4, -0x1.c2a9dc0000000p-3, -0x1.76625c0000000p-2, -0x1.7bf65c0000000p-6, -0x1.645d2a0000000p-6, -0x1.c073ac0000000p-2, 0x1.e1fe2a0000000p-3, 0x1.b2fa3e0000000p-4, 0x1.124aba0000000p-4, 0x1.a12fb80000000p-3, 0x1.0179060000000p-2, -0x1.e98ff20000000p-3, 0x1.a15f200000000p-5, -0x1.de90d00000000p-3, 0x1.e6d6900000000p-5, 0x1.3a7e060000000p-6, -0x1.d4c3720000000p-2, -0x1.5b22f60000000p-2, -0x1.4dd5600000000p-2, 0x1.6552b80000000p-11, -0x1.a4b46e0000000p-5, -0x1.b2d1120000000p-3, 0x1.401a900000000p-4, -0x1.6a34440000000p-4, 0x1.48fc3a0000000p-3, 0x1.e99d9c0000000p-3, 0x1.e68f940000000p-3, 0x1.84741a0000000p-3, 0x1.9a26ce0000000p-4, 0x1.25056e0000000p-2, 0x1.ce4dca0000000p-4, 0x1.494aae0000000p-3, -0x1.62b0b80000000p-3, 0x1.5f05880000000p-3, -0x1.57155e0000000p-2, -0x1.e9e0a20000000p-3, 0x1.04ce5e0000000p-3, -0x1.d410d00000000p-3, -0x1.faf8b80000000p-2, 0x1.2140d20000000p-3, 0x1.5cb4460000000p-3, 0x1.04c2ec0000000p-3, -0x1.fc616c0000000p-8, 0x1.7440120000000p-3, -0x1.a6664a0000000p-3, 0x1.ce41420000000p-4, 0x1.c5defa0000000p-3, 0x1.f0d2520000000p-4, -0x1.b782dc0000000p-3, -0x1.4bfd8a0000000p-2, 0x1.a16d740000000p-5, 0x1.3f36260000000p-3, 0x1.0576040000000p-3, 0x1.389c460000000p-3, 0x1.7103d20000000p-3, 0x1.54cc9a0000000p-3, 0x1.9a9ad60000000p-3, -0x1.6ed35e0000000p-3, -0x1.7a4afe0000000p-4, -0x1.585b140000000p-3, 0x1.fb07960000000p-4, 0x1.9eeef40000000p-3, 0x1.dde9020000000p-7, -0x1.f29d1e0000000p-3, -0x1.8a98ce0000000p-2, -0x1.4968700000000p-2, -0x1.297bac0000000p-2, -0x1.53a9240000000p-2, 0x1.4bc4e00000000p-3, 0x1.0decb80000000p-3, 0x1.ec2e480000000p-5, -0x1.2da5680000000p-3, 0x1.18abee0000000p-3}
}
;

#undef INPUT_SAMPLES
#undef FC_UNITS