/**
  ******************************************************************************
  * @file    weights/fc.cc
  * @author  Pierre-Emmanuel Novac <penovac@unice.fr>, LEAT, CNRS, Université Côte d'Azur, France
  * @version 1.0.0
  * @date    24 march 2020
  * @brief   Template generating plain C code for the implementation of Convolutional Neural Networks on MCU
  */

#include <stdint.h>

#define INPUT_SAMPLES 800
#define FC_UNITS 100


const float dense_4_bias[FC_UNITS] = {0x1.ea56980000000p-6, -0x1.067f0e0000000p-7, 0x1.9470b20000000p-5, -0x1.4259640000000p-5, -0x1.44d1040000000p-8, -0x1.c23ca80000000p-7, 0x1.1954a00000000p-6, -0x1.5f39000000000p-10, -0x1.5f24560000000p-5, -0x1.e8f2220000000p-12, -0x1.07740e0000000p-5, -0x1.554a1c0000000p-7, -0x1.6a0aa60000000p-5, 0x1.8e83060000000p-6, 0x1.1adf2a0000000p-8, 0x1.7af3e20000000p-5, 0x1.ee021c0000000p-10, 0x1.378a4e0000000p-6, 0x1.1f599c0000000p-5, 0x1.d75ad40000000p-7, 0x1.38f61c0000000p-5, -0x1.1fa05a0000000p-5, -0x1.c711b80000000p-6, 0x1.3b37bc0000000p-8, 0x1.5ba4de0000000p-5, -0x1.6df9940000000p-6, 0x1.1424300000000p-7, -0x1.bbb0800000000p-7, 0x1.14739e0000000p-5, -0x1.678b380000000p-7, -0x1.2c4ed40000000p-5, -0x1.bb2d160000000p-5, -0x1.5694880000000p-7, 0x1.35d3ba0000000p-5, -0x1.df170e0000000p-9, -0x1.1862420000000p-5, -0x1.ef847a0000000p-6, -0x1.64b0ba0000000p-6, 0x1.62657c0000000p-6, 0x1.a93a900000000p-5, -0x1.f072380000000p-7, -0x1.43bf0c0000000p-7, -0x1.4543d20000000p-6, 0x1.957fe00000000p-6, -0x1.141cfe0000000p-6, -0x1.771f1e0000000p-7, 0x1.3930940000000p-8, 0x1.7826c60000000p-8, -0x1.86734c0000000p-7, -0x1.73d1a20000000p-7, -0x1.e23a600000000p-8, 0x1.0f316e0000000p-7, 0x1.a141020000000p-6, 0x1.73ee480000000p-6, -0x1.40f7b00000000p-8, -0x1.4e2d580000000p-7, -0x1.255b140000000p-6, 0x1.1e4d360000000p-6, -0x1.2fcff00000000p-5, -0x1.2899e20000000p-7, 0x1.2631080000000p-5, -0x1.fb46460000000p-7, 0x1.d29a6e0000000p-7, 0x1.5cfbe60000000p-7, -0x1.4a4f6a0000000p-6, 0x1.9a00340000000p-8, -0x1.b7b1280000000p-8, -0x1.e9e2600000000p-9, 0x1.4f51ec0000000p-6, 0x1.8d72340000000p-7, -0x1.21cf680000000p-6, 0x1.dd8d540000000p-8, 0x1.1f72e20000000p-5, -0x1.c175f20000000p-6, 0x1.4ae3760000000p-5, -0x1.5a66680000000p-6, -0x1.1804b80000000p-10, -0x1.f7eae60000000p-7, -0x1.ea117e0000000p-6, 0x1.914aa20000000p-7, -0x1.39da540000000p-6, -0x1.0fc2ea0000000p-6, -0x1.00a0480000000p-7, -0x1.a57d4c0000000p-7, 0x1.036c1e0000000p-7, 0x1.647d960000000p-5, -0x1.2c9e940000000p-5, -0x1.beaa400000000p-8, 0x1.c118b40000000p-6, -0x1.a7df8a0000000p-8, -0x1.afeac40000000p-6, -0x1.3428760000000p-7, 0x1.3951800000000p-7, 0x1.7f42520000000p-6, -0x1.b950aa0000000p-7, 0x1.553bcc0000000p-7, -0x1.106fb60000000p-8, 0x1.c612360000000p-11, 0x1.11def00000000p-7, -0x1.63f9920000000p-7}
;

const float dense_4_kernel[FC_UNITS][INPUT_SAMPLES] = {{0x1.525f3a0000000p-4, -0x1.0e89020000000p-3, -0x1.0065480000000p-4, 0x1.e4f0460000000p-5, -0x1.b3177e0000000p-6, 0x1.fceef80000000p-4, -0x1.0511ba0000000p-4, 0x1.3aff600000000p-4, -0x1.a471900000000p-6, 0x1.5bbb8a0000000p-6, 0x1.9a54c80000000p-5, 0x1.f3e7cc0000000p-4, -0x1.0c5ca20000000p-3, 0x1.2ce9600000000p-3, -0x1.9200c00000000p-7, 0x1.77d55e0000000p-4, -0x1.b300260000000p-4, -0x1.25c0be0000000p-6, 0x1.fa9f5e0000000p-5, 0x1.35fe160000000p-9, 0x1.22cc740000000p-5, 0x1.125ae40000000p-4, -0x1.85856c0000000p-8, -0x1.cc2ef60000000p-9, -0x1.478ff20000000p-5, -0x1.34cf0a0000000p-5, -0x1.df50020000000p-6, -0x1.b52ca40000000p-4, 0x1.e5787e0000000p-7, 0x1.02be000000000p-2, 0x1.292b940000000p-4, 0x1.50c9c20000000p-7, -0x1.5ee4460000000p-3, -0x1.20c2f20000000p-2, -0x1.5c85000000000p-2, -0x1.5b8b8a0000000p-4, -0x1.22dd2c0000000p-3, -0x1.13b88c0000000p-10, -0x1.8dceb60000000p-3, 0x1.857a000000000p-5, -0x1.ea2dc20000000p-6, -0x1.11ecbc0000000p-4, -0x1.e0fffc0000000p-4, -0x1.9292a20000000p-4, -0x1.98afdc0000000p-3, -0x1.aff9ba0000000p-5, -0x1.edf2d40000000p-4, 0x1.998db60000000p-3, -0x1.fe6caa0000000p-5, -0x1.3f904c0000000p-4, -0x1.b749cc0000000p-5, 0x1.514a200000000p-6, -0x1.4992660000000p-3, -0x1.107fca0000000p-5, 0x1.9d21360000000p-4, -0x1.0393e60000000p-2, -0x1.4ab00c0000000p-3, 0x1.51409e0000000p-6, 0x1.5d82f40000000p-4, -0x1.4c04f80000000p-4, -0x1.ad97ee0000000p-3, 0x1.ec95740000000p-4, -0x1.27e58c0000000p-6, -0x1.07fa500000000p-3, 0x1.88e7840000000p-4, -0x1.419fa20000000p-2, -0x1.4b1e500000000p-3, 0x1.b3ebb60000000p-4, -0x1.ee0d7a0000000p-4, 0x1.ffc87c0000000p-4, -0x1.f0cacc0000000p-5, 0x1.ea17400000000p-11, -0x1.6414e60000000p-5, -0x1.0949520000000p-6, -0x1.3290e00000000p-3, -0x1.9279b80000000p-4, -0x1.79187a0000000p-4, -0x1.b706900000000p-11, -0x1.650a2c0000000p-4, 0x1.67863c0000000p-4, 0x1.ba97d40000000p-4, 0x1.a7d0000000000p-10, 0x1.cc32dc0000000p-4, -0x1.7da8540000000p-5, -0x1.9b390a0000000p-4, -0x1.3b75f80000000p-12, 0x1.ccc9560000000p-6, -0x1.327bea0000000p-3, 0x1.48abf40000000p-6, 0x1.f47a9c0000000p-4, 0x1.55261e0000000p-4, 0x1.657c900000000p-4, 0x1.6544c00000000p-6, 0x1.214e320000000p-3, 0x1.779d860000000p-5, -0x1.d04ed40000000p-4, -0x1.00ed880000000p-3, -0x1.57afc00000000p-2, -0x1.23eb500000000p-5, 0x1.34fea80000000p-3, -0x1.74de9a0000000p-6, -0x1.2caf800000000p-4, -0x1.be539e0000000p-5, 0x1.c7034e0000000p-6, -0x1.9925800000000p-6, 0x1.1ce4f00000000p-11, -0x1.451d360000000p-3, -0x1.d8c2180000000p-4, 0x1.04b99e0000000p-4, 0x1.5206960000000p-4, 0x1.a771a80000000p-6, 0x1.02b4f20000000p-3, 0x1.1963160000000p-4, -0x1.550a320000000p-4, 0x1.d9e48a0000000p-7, 0x1.a0891e0000000p-5, 0x1.4421ce0000000p-4, -0x1.30f09c0000000p-11, 0x1.c20e200000000p-6, -0x1.1236e20000000p-3, 0x1.1c4ffe0000000p-3, 0x1.f45ddc0000000p-5, 0x1.068a980000000p-4, 0x1.0be1d00000000p-3, 0x1.36d2380000000p-6, -0x1.ced6fa0000000p-8, -0x1.89b1080000000p-8, 0x1.b410020000000p-6, -0x1.61853a0000000p-8, -0x1.21c2060000000p-5, 0x1.ebc3c00000000p-5, 0x1.b557320000000p-4, 0x1.47acee0000000p-6, -0x1.ed17a80000000p-6, 0x1.0841ac0000000p-5, -0x1.ce55600000000p-6, -0x1.23beb60000000p-6, -0x1.f602800000000p-5, 0x1.2a3fae0000000p-4, -0x1.9206200000000p-7, -0x1.20ecb80000000p-11, 0x1.a987100000000p-4, 0x1.d85b400000000p-4, -0x1.3166260000000p-3, 0x1.7f2b9a0000000p-4, 0x1.deb3120000000p-5, 0x1.b3a96e0000000p-4, 0x1.f343c20000000p-5, 0x1.17d1a80000000p-5, 0x1.f199300000000p-4, -0x1.77114e0000000p-6, 0x1.0e54e20000000p-4, 0x1.f4f2340000000p-6, -0x1.68ce480000000p-3, 0x1.c99f860000000p-4, -0x1.3ed1040000000p-4, 0x1.6b2c060000000p-5, 0x1.6a2fc40000000p-9, 0x1.e8ed6e0000000p-6, -0x1.412f1a0000000p-5, -0x1.bf3bb00000000p-5, -0x1.613fd60000000p-6, -0x1.eaf7980000000p-5, 0x1.afccf60000000p-4, -0x1.b15ce20000000p-3, 0x1.cc37160000000p-4, 0x1.9efeb20000000p-5, 0x1.e9ca380000000p-4, 0x1.5c2aa80000000p-3, -0x1.08c3ee0000000p-6, 0x1.2af0920000000p-3, -0x1.f7d5060000000p-4, -0x1.eee2880000000p-6, 0x1.c64dac0000000p-5, 0x1.fd92640000000p-5, 0x1.265d5a0000000p-4, -0x1.5ff3020000000p-4, 0x1.f5c62a0000000p-6, -0x1.a50dcc0000000p-6, 0x1.43b1140000000p-6, 0x1.7197ae0000000p-6, -0x1.3cd0da0000000p-4, -0x1.99c6720000000p-5, -0x1.82ffc40000000p-5, 0x1.12acae0000000p-3, 0x1.c0da540000000p-4, 0x1.06887a0000000p-4, 0x1.239ba60000000p-4, -0x1.d1a8c20000000p-5, 0x1.0269d60000000p-3, -0x1.c1fdd00000000p-7, -0x1.99aa6c0000000p-4, -0x1.22c79e0000000p-5, -0x1.f8e82e0000000p-3, -0x1.7a86680000000p-3, 0x1.01fea80000000p-4, -0x1.e05fd60000000p-7, 0x1.8b582a0000000p-8, -0x1.25d9320000000p-6, 0x1.cc1a060000000p-5, 0x1.8b25e80000000p-5, 0x1.df26be0000000p-4, -0x1.1df01a0000000p-5, -0x1.df22d00000000p-7, -0x1.0690140000000p-4, 0x1.c229040000000p-6, -0x1.5343940000000p-5, 0x1.c163f20000000p-4, -0x1.04fed00000000p-3, 0x1.1c95580000000p-5, 0x1.01cca40000000p-4, -0x1.2e50d00000000p-6, 0x1.0d55ce0000000p-3, -0x1.9bf3520000000p-3, 0x1.27c78c0000000p-6, -0x1.e352ce0000000p-3, -0x1.2c75940000000p-5, 0x1.2f1b0e0000000p-4, -0x1.c07e4c0000000p-5, 0x1.0c5aa60000000p-4, -0x1.1034b40000000p-3, 0x1.51726a0000000p-4, -0x1.0a885c0000000p-8, -0x1.13c5140000000p-5, -0x1.1dcd960000000p-4, -0x1.1483f40000000p-3, -0x1.5a876e0000000p-3, 0x1.d8bbee0000000p-3, -0x1.84c8f80000000p-4, 0x1.c6de1e0000000p-6, -0x1.43217e0000000p-3, 0x1.9270fe0000000p-4, -0x1.4ca1ba0000000p-4, -0x1.afd64a0000000p-9, 0x1.a501420000000p-5, -0x1.80e2660000000p-3, -0x1.735fd20000000p-3, -0x1.d72f700000000p-6, -0x1.0315b80000000p-3, 0x1.b605140000000p-4, -0x1.3253000000000p-5, -0x1.944a920000000p-4, -0x1.4fe15e0000000p-7, -0x1.a3f6100000000p-4, -0x1.44e1d40000000p-5, 0x1.4a23320000000p-7, 0x1.59d3420000000p-5, -0x1.08cd000000000p-6, -0x1.558eba0000000p-2, 0x1.15ffd00000000p-4, 0x1.0630a00000000p-6, 0x1.17d5880000000p-3, -0x1.c280140000000p-5, 0x1.90ee680000000p-4, 0x1.7bd6ce0000000p-5, -0x1.fa1e560000000p-5, -0x1.0065120000000p-4, 0x1.298fb40000000p-5, 0x1.15d5a80000000p-4, -0x1.ab17c80000000p-7, 0x1.4c7f960000000p-5, -0x1.250cc00000000p-3, 0x1.1e9bc80000000p-4, 0x1.f66b6e0000000p-8, 0x1.3467580000000p-3, 0x1.45dbe80000000p-4, -0x1.5ab66a0000000p-6, -0x1.1081140000000p-5, -0x1.34a9e60000000p-6, -0x1.b95c200000000p-4, 0x1.9f5f140000000p-7, -0x1.fbf3700000000p-6, 0x1.77c3fa0000000p-5, -0x1.4c95d00000000p-8, -0x1.672b700000000p-6, 0x1.fc1b3a0000000p-5, -0x1.03f8fe0000000p-5, -0x1.54d3ce0000000p-5, -0x1.bb708a0000000p-5, -0x1.249ce60000000p-6, 0x1.2b51c60000000p-5, -0x1.26548e0000000p-3, -0x1.54185e0000000p-7, 0x1.0b6ec20000000p-3, 0x1.7bd4440000000p-3, -0x1.198df80000000p-4, 0x1.2514280000000p-4, 0x1.1d32680000000p-4, 0x1.8731f80000000p-5, 0x1.9ef6960000000p-5, 0x1.1039020000000p-3, -0x1.c3b4ba0000000p-4, -0x1.5337f80000000p-4, -0x1.49d43c0000000p-5, 0x1.7a49740000000p-3, -0x1.2b6ea80000000p-2, 0x1.2c04f80000000p-6, -0x1.8dc9e20000000p-4, -0x1.512cf20000000p-6, -0x1.605c980000000p-7, 0x1.7ae44e0000000p-3, -0x1.38649a0000000p-4, 0x1.865f440000000p-4, -0x1.4688460000000p-5, -0x1.4445360000000p-4, -0x1.0aa1580000000p-4, 0x1.70cfdc0000000p-4, 0x1.3739a20000000p-3, 0x1.605f4a0000000p-4, -0x1.2bc1220000000p-4, -0x1.01e6360000000p-3, 0x1.046dae0000000p-5, 0x1.e5d6fa0000000p-4, -0x1.0833680000000p-9, -0x1.410c500000000p-5, -0x1.3ec07c0000000p-3, -0x1.3563aa0000000p-4, -0x1.1a68480000000p-3, -0x1.f1501e0000000p-4, -0x1.8f52be0000000p-4, 0x1.054f320000000p-6, -0x1.48f45a0000000p-2, -0x1.2937500000000p-3, 0x1.38ed580000000p-3, -0x1.ee6dc80000000p-4, 0x1.47670a0000000p-4, -0x1.b98ef00000000p-3, 0x1.1067f40000000p-3, -0x1.c77b9a0000000p-4, -0x1.59c6000000000p-5, -0x1.34904e0000000p-3, 0x1.e1a12c0000000p-7, -0x1.923c440000000p-3, 0x1.e8d4b40000000p-5, -0x1.814b260000000p-3, 0x1.b8dcac0000000p-4, -0x1.b442a00000000p-3, -0x1.52a65a0000000p-6, -0x1.18c9ae0000000p-3, 0x1.31f1500000000p-5, -0x1.83a2300000000p-11, -0x1.28b1700000000p-3, -0x1.7d17440000000p-6, -0x1.c3393e0000000p-3, -0x1.88edce0000000p-4, 0x1.c974c60000000p-4, 0x1.499e3e0000000p-4, 0x1.a8ef800000000p-5, -0x1.a920060000000p-5, 0x1.f8b3b00000000p-4, 0x1.fa97140000000p-4, -0x1.1fedbe0000000p-7, 0x1.7df5800000000p-4, -0x1.85c9700000000p-2, -0x1.958bb00000000p-3, 0x1.3cca780000000p-8, -0x1.0d9c000000000p-4, 0x1.2a6f100000000p-4, -0x1.9ca0820000000p-3, -0x1.1b21d40000000p-3, 0x1.20be600000000p-7, 0x1.b487bc0000000p-4, 0x1.b651040000000p-6, 0x1.4cf0320000000p-4, -0x1.9ed0280000000p-3, 0x1.38e02c0000000p-4, -0x1.cc5d340000000p-4, 0x1.eb07cc0000000p-6, 0x1.a4b78a0000000p-6, 0x1.5987e60000000p-7, 0x1.8c70520000000p-4, 0x1.72e9b00000000p-8, -0x1.0d4dcc0000000p-8, -0x1.e090a40000000p-5, -0x1.170bb20000000p-5, -0x1.a347960000000p-3, -0x1.0b2c5e0000000p-2, 0x1.6d6eaa0000000p-3, -0x1.5dc41a0000000p-5, 0x1.1ac1680000000p-6, 0x1.eedbd00000000p-7, -0x1.9a07360000000p-5, 0x1.55c0580000000p-4, -0x1.3e005e0000000p-4, -0x1.b711c60000000p-4, -0x1.fcb4c40000000p-4, 0x1.61cbfc0000000p-5, 0x1.2391200000000p-5, 0x1.43b4320000000p-4, -0x1.9b1ea00000000p-6, -0x1.8494320000000p-3, 0x1.99c4a60000000p-5, -0x1.7a551c0000000p-3, 0x1.5abdd60000000p-6, 0x1.e71f920000000p-5, -0x1.2e15f60000000p-4, -0x1.1017560000000p-4, 0x1.0ef6e20000000p-5, -0x1.25575c0000000p-5, -0x1.437f5c0000000p-5, -0x1.6eefc20000000p-4, 0x1.381a0c0000000p-6, -0x1.8d263a0000000p-5, 0x1.263df20000000p-6, 0x1.1d5f9c0000000p-4, -0x1.4ec9da0000000p-5, -0x1.95beba0000000p-4, -0x1.7945ce0000000p-6, -0x1.eb00ce0000000p-4, -0x1.9858f80000000p-4, 0x1.4c79b20000000p-5, -0x1.4b7e360000000p-7, -0x1.4c7c040000000p-5, 0x1.e8cd000000000p-4, -0x1.3e889e0000000p-4, 0x1.b469280000000p-5, -0x1.7f25240000000p-6, 0x1.2569a20000000p-3, 0x1.8434ee0000000p-7, 0x1.0e6f460000000p-5, 0x1.cd3ce00000000p-5, 0x1.345b380000000p-3, 0x1.1939cc0000000p-3, 0x1.fd86200000000p-7, 0x1.e51be80000000p-4, -0x1.c923260000000p-6, -0x1.e37a740000000p-4, 0x1.2017aa0000000p-5, 0x1.e0862e0000000p-4, -0x1.0714200000000p-5, -0x1.3ed8da0000000p-5, -0x1.9167c20000000p-6, 0x1.76061c0000000p-4, -0x1.bfce020000000p-5, -0x1.0f29540000000p-4, 0x1.5b06500000000p-5, 0x1.a9c2bc0000000p-5, 0x1.7ca0b80000000p-4, -0x1.e795660000000p-5, 0x1.355d060000000p-3, 0x1.7186ba0000000p-4, 0x1.0a0a660000000p-4, -0x1.a9be9c0000000p-5, 0x1.b1b9a40000000p-4, 0x1.321bde0000000p-6, 0x1.df452e0000000p-4, 0x1.e1fa0e0000000p-5, -0x1.1c80b20000000p-3, 0x1.f9fad40000000p-4, 0x1.70a6e20000000p-4, -0x1.9b07c60000000p-5, -0x1.4634040000000p-4, 0x1.4fab7c0000000p-5, -0x1.08fedc0000000p-4, 0x1.050d040000000p-3, 0x1.89c9540000000p-3, 0x1.a9a09c0000000p-4, 0x1.9441d80000000p-6, -0x1.197aa00000000p-2, 0x1.10b05c0000000p-3, 0x1.7ebeba0000000p-6, 0x1.2f1c920000000p-4, 0x1.dd4fb20000000p-4, -0x1.6fb4a80000000p-4, -0x1.7e44ee0000000p-3, -0x1.04e9f40000000p-4, 0x1.b217660000000p-7, 0x1.77711e0000000p-3, -0x1.09557c0000000p-5, -0x1.61cfd00000000p-4, -0x1.7ad67e0000000p-5, 0x1.16abf80000000p-6, 0x1.7453da0000000p-4, 0x1.5306b60000000p-6, 0x1.8f639e0000000p-4, 0x1.d0c7200000000p-7, 0x1.828a100000000p-3, -0x1.7f1f7c0000000p-4, 0x1.7bab520000000p-3, -0x1.96e8b00000000p-4, 0x1.8439bc0000000p-8, 0x1.1a356e0000000p-4, -0x1.78caf80000000p-5, -0x1.7161c80000000p-4, -0x1.c5fb320000000p-5, 0x1.88ada80000000p-7, -0x1.5708680000000p-3, 0x1.24d7100000000p-5, -0x1.a04b160000000p-4, -0x1.3246a20000000p-3, 0x1.88ecf40000000p-3, -0x1.d6ea060000000p-4, -0x1.8416f80000000p-3, 0x1.1f2e340000000p-4, -0x1.7f12660000000p-4, -0x1.1ea6f80000000p-4, -0x1.52b3680000000p-5, 0x1.6bc95c0000000p-3, 0x1.2cf1e00000000p-6, 0x1.2bc74e0000000p-5, -0x1.2c85840000000p-7, -0x1.0550020000000p-2, 0x1.81060e0000000p-5, 0x1.f50c520000000p-5, -0x1.dece5c0000000p-3, -0x1.6ca4920000000p-7, 0x1.632fb00000000p-7, -0x1.4cd6540000000p-5, -0x1.a1a45c0000000p-6, 0x1.1544620000000p-4, 0x1.444dac0000000p-5, -0x1.c2c4b20000000p-4, 0x1.2d102a0000000p-5, -0x1.e0e4c40000000p-4, -0x1.8205420000000p-5, -0x1.1303760000000p-4, -0x1.497cce0000000p-9, 0x1.7400700000000p-4, -0x1.639fd80000000p-3, -0x1.9c74c80000000p-4, -0x1.8c6d880000000p-3, 0x1.1336a40000000p-4, 0x1.2bb01a0000000p-4, -0x1.cccf800000000p-4, 0x1.2cdc0e0000000p-6, 0x1.fbc2480000000p-5, -0x1.f8d0aa0000000p-6, -0x1.885b4e0000000p-5, -0x1.5ba0660000000p-3, 0x1.3303860000000p-4, -0x1.01eff60000000p-6, -0x1.e8f0ca0000000p-7, 0x1.6b9cd60000000p-4, -0x1.bde3dc0000000p-3, -0x1.47002c0000000p-4, 0x1.321ed80000000p-4, -0x1.2d429e0000000p-2, -0x1.5875000000000p-10, 0x1.6669ac0000000p-3, -0x1.a8fdc00000000p-4, -0x1.a0e4880000000p-8, 0x1.e3fb600000000p-7, -0x1.76939e0000000p-6, 0x1.0cec3c0000000p-3, 0x1.d12a980000000p-5, -0x1.8011bc0000000p-4, 0x1.3c83700000000p-4, -0x1.0f8ea40000000p-5, 0x1.83bc560000000p-5, 0x1.1dc1560000000p-4, -0x1.3d2d380000000p-8, 0x1.05937a0000000p-4, -0x1.1aafbe0000000p-5, 0x1.34de720000000p-5, -0x1.8ba3ec0000000p-4, 0x1.9c51b40000000p-4, -0x1.aa96c40000000p-9, -0x1.1601b40000000p-7, -0x1.72a10c0000000p-5, 0x1.4cc23c0000000p-4, -0x1.10705a0000000p-3, 0x1.593e9e0000000p-4, -0x1.f7579c0000000p-5, 0x1.17f8e00000000p-4, -0x1.10e0540000000p-6, -0x1.8c4ff80000000p-4, 0x1.9d54300000000p-5, -0x1.d7eac00000000p-5, -0x1.c3271c0000000p-5, -0x1.5a128c0000000p-4, 0x1.f2b0600000000p-5, 0x1.ec740c0000000p-6, 0x1.134bfa0000000p-3, 0x1.8f976c0000000p-4, 0x1.1d69680000000p-3, -0x1.7a4fc00000000p-4, 0x1.dddac20000000p-6, 0x1.181a380000000p-5, 0x1.a234a60000000p-4, 0x1.72cb980000000p-5, -0x1.cc06480000000p-6, -0x1.8998020000000p-6, 0x1.578d1c0000000p-4, 0x1.5d23240000000p-6, 0x1.42d9700000000p-4, 0x1.6a4b360000000p-3, -0x1.110ffc0000000p-3, 0x1.ff76880000000p-6, -0x1.4e05f40000000p-5, -0x1.39cd7c0000000p-7, -0x1.c979320000000p-4, -0x1.139f0c0000000p-4, 0x1.0c29a20000000p-4, -0x1.f7016e0000000p-5, -0x1.65b8e40000000p-7, 0x1.efd0fc0000000p-6, -0x1.0cab0a0000000p-3, -0x1.3883180000000p-4, -0x1.93fcd40000000p-4, -0x1.b23c240000000p-6, -0x1.19e4560000000p-7, 0x1.7befa60000000p-3, -0x1.ca0a760000000p-5, 0x1.3f31100000000p-4, 0x1.94eac40000000p-4, -0x1.1b30060000000p-6, 0x1.250dae0000000p-3, -0x1.0801a80000000p-3, 0x1.b17d240000000p-6, -0x1.952f9a0000000p-3, -0x1.4387000000000p-3, 0x1.24d5b20000000p-3, -0x1.8546340000000p-3, -0x1.7e8d440000000p-6, -0x1.3452b00000000p-4, 0x1.26c1c80000000p-3, -0x1.2b0efa0000000p-3, -0x1.a8b2a00000000p-3, -0x1.43f7640000000p-3, -0x1.f15af60000000p-5, -0x1.18cda20000000p-3, 0x1.de79f60000000p-3, -0x1.d0a5740000000p-4, 0x1.19ef2e0000000p-3, -0x1.8001bc0000000p-5, 0x1.55c7080000000p-6, -0x1.21b8c80000000p-4, 0x1.648e660000000p-5, -0x1.1ca0200000000p-3, 0x1.07c0c60000000p-4, 0x1.21c0a80000000p-3, -0x1.c0c7ac0000000p-4, -0x1.5eb2a40000000p-4, 0x1.52b65c0000000p-4, -0x1.af49a20000000p-4, -0x1.d964a80000000p-6, 0x1.39115a0000000p-3, 0x1.13f92e0000000p-4, 0x1.985a2a0000000p-6, -0x1.90de480000000p-3, 0x1.16642a0000000p-4, 0x1.0e24320000000p-4, 0x1.cbc3b80000000p-5, -0x1.539ef60000000p-3, -0x1.1500c60000000p-7, 0x1.d751d40000000p-5, -0x1.f591360000000p-4, -0x1.b5f2920000000p-6, -0x1.12da400000000p-3, -0x1.1476ea0000000p-3, 0x1.60250c0000000p-4, -0x1.f415820000000p-4, -0x1.c0d7f20000000p-4, -0x1.b35fc20000000p-6, 0x1.6350360000000p-4, -0x1.14432c0000000p-2, 0x1.68f7aa0000000p-4, 0x1.cd70e20000000p-4, 0x1.b5020e0000000p-4, -0x1.c5149e0000000p-3, 0x1.de485a0000000p-5, -0x1.ddea3a0000000p-10, -0x1.7e628c0000000p-5, 0x1.a9693e0000000p-5, -0x1.c62e780000000p-5, 0x1.2e8f1c0000000p-7, -0x1.89ebb20000000p-4, 0x1.18c5ba0000000p-7, 0x1.4f9b800000000p-4, -0x1.15fbca0000000p-10, -0x1.0c86800000000p-4, -0x1.a4bb940000000p-5, 0x1.f91e7e0000000p-7, 0x1.9ebaf00000000p-5, 0x1.f1185c0000000p-13, -0x1.1735080000000p-2, 0x1.4851e20000000p-6, -0x1.48152e0000000p-4, -0x1.4cc0dc0000000p-5, -0x1.7321dc0000000p-4, -0x1.35c5760000000p-3, -0x1.af3e4e0000000p-5, -0x1.159cfa0000000p-5, -0x1.c1d98c0000000p-4, -0x1.770a640000000p-8, 0x1.172bb60000000p-3, 0x1.8c5caa0000000p-5, -0x1.774f500000000p-4, -0x1.5ed37e0000000p-5, -0x1.0b12100000000p-5, -0x1.36f7540000000p-4, 0x1.2df03a0000000p-5, -0x1.07f1040000000p-4, -0x1.1706980000000p-4, -0x1.10238c0000000p-5, 0x1.8fcd240000000p-5, -0x1.8b3ca80000000p-6, -0x1.79f60e0000000p-4, 0x1.d370c40000000p-6, -0x1.5c0b7e0000000p-4, 0x1.6feb940000000p-4, 0x1.2a2bf80000000p-3, 0x1.e783580000000p-6, 0x1.b8b3820000000p-6, 0x1.17ed8a0000000p-2, 0x1.80622c0000000p-6, -0x1.0ce7a20000000p-7, -0x1.2336220000000p-3, 0x1.8cc67e0000000p-4, 0x1.478b0e0000000p-5, 0x1.7999740000000p-3, -0x1.6d26860000000p-9, 0x1.43287a0000000p-7, 0x1.2334fa0000000p-7, 0x1.045de60000000p-7, 0x1.08b5f80000000p-3, 0x1.0615760000000p-3, -0x1.cd09ca0000000p-6, 0x1.5c85540000000p-4, 0x1.b53d2c0000000p-7, 0x1.6ad54e0000000p-5, 0x1.35212e0000000p-3, 0x1.971b300000000p-3, -0x1.a1ba220000000p-6, -0x1.3916ea0000000p-6, 0x1.ab09440000000p-6, 0x1.c9e2680000000p-6, 0x1.2070aa0000000p-3, 0x1.20cbbe0000000p-6, -0x1.9531740000000p-6, 0x1.6ea47e0000000p-3, -0x1.0676020000000p-5, 0x1.5380ea0000000p-3, -0x1.66dd320000000p-6, -0x1.5584f60000000p-5, 0x1.a79e820000000p-5, -0x1.d1d8aa0000000p-2, 0x1.647cd40000000p-14, 0x1.43d67a0000000p-8, 0x1.bdeb700000000p-4, -0x1.3978600000000p-7, -0x1.bc51a60000000p-10, -0x1.f1c3ae0000000p-5, -0x1.44242a0000000p-4, 0x1.803a840000000p-6, 0x1.2157d80000000p-4, 0x1.02e1120000000p-5, 0x1.1b97520000000p-7, 0x1.7aa0ea0000000p-6, -0x1.bcfca60000000p-4, 0x1.1d24fe0000000p-6, -0x1.6659720000000p-5, 0x1.4941140000000p-4, 0x1.0958f40000000p-4, 0x1.558c1e0000000p-4, 0x1.e427400000000p-4, 0x1.49250a0000000p-6, -0x1.7fa7660000000p-7, 0x1.cbcd460000000p-5, 0x1.5e1a100000000p-5, 0x1.20f5040000000p-4, 0x1.10d7460000000p-4, -0x1.de37560000000p-9, -0x1.ba163a0000000p-6, -0x1.7451600000000p-4, -0x1.9ce52c0000000p-3, 0x1.a6a8680000000p-4, 0x1.23e1c20000000p-3, -0x1.0f91fa0000000p-2, -0x1.66f39e0000000p-10, -0x1.24705e0000000p-4, 0x1.dd3b6a0000000p-6, -0x1.2244420000000p-4, -0x1.cdb8ea0000000p-5, -0x1.3a72920000000p-3, 0x1.f864640000000p-5, -0x1.fd06ac0000000p-3, 0x1.0686780000000p-4, -0x1.19d2500000000p-2, -0x1.4676b60000000p-3, -0x1.181e2e0000000p-2, -0x1.256a740000000p-5, -0x1.f1c55a0000000p-4, -0x1.5b2ce80000000p-5, -0x1.f06e940000000p-10, -0x1.188c4e0000000p-2, -0x1.a2f2220000000p-3, -0x1.8d65f40000000p-4, -0x1.43682c0000000p-3, 0x1.16c4980000000p-5, -0x1.e63a380000000p-5, 0x1.f9b4320000000p-6, -0x1.58c4340000000p-4, -0x1.5f0fa00000000p-5, -0x1.c018b80000000p-10, -0x1.bbf0e40000000p-6, 0x1.1c7eb80000000p-6, 0x1.199f520000000p-5, 0x1.2ae6d20000000p-4, -0x1.e962580000000p-4}
, {-0x1.9790820000000p-6, -0x1.e7a1480000000p-4, -0x1.8e91ba0000000p-6, -0x1.7071d60000000p-6, -0x1.2f75660000000p-3, 0x1.55fef60000000p-4, -0x1.b701f20000000p-8, -0x1.da21fc0000000p-3, -0x1.f6d7660000000p-4, -0x1.d0e9b20000000p-4, -0x1.2169220000000p-4, 0x1.34b5640000000p-9, 0x1.dba3300000000p-8, -0x1.a558580000000p-4, 0x1.9ecea00000000p-9, 0x1.1f59900000000p-3, -0x1.f16f320000000p-4, 0x1.d17a120000000p-4, 0x1.c2ac140000000p-5, -0x1.5596a60000000p-5, -0x1.023ee80000000p-5, -0x1.239aa60000000p-7, 0x1.7c2eca0000000p-5, -0x1.564f9e0000000p-6, 0x1.6b284c0000000p-8, 0x1.0d7fcc0000000p-4, -0x1.1cf9120000000p-4, -0x1.3090d00000000p-4, -0x1.2437f40000000p-3, 0x1.6f75340000000p-5, -0x1.480c2c0000000p-3, -0x1.498ea60000000p-5, 0x1.a5640a0000000p-7, -0x1.2bbd500000000p-5, -0x1.c670100000000p-4, -0x1.4c33720000000p-12, -0x1.c603000000000p-5, -0x1.0dd9d60000000p-3, -0x1.708f560000000p-6, 0x1.0a96ae0000000p-3, 0x1.43518c0000000p-4, 0x1.88b54e0000000p-6, -0x1.9afa8c0000000p-5, -0x1.8e7d260000000p-7, 0x1.12108a0000000p-5, 0x1.01ee4c0000000p-6, 0x1.00f0c00000000p-4, -0x1.cda7ca0000000p-4, -0x1.13336a0000000p-3, 0x1.6b48d60000000p-5, -0x1.7755240000000p-5, -0x1.f63f700000000p-5, -0x1.a9c3180000000p-4, -0x1.af7ba00000000p-5, -0x1.3566d80000000p-4, -0x1.6919120000000p-4, -0x1.dde2c00000000p-5, -0x1.bee1b60000000p-7, -0x1.3ca96a0000000p-3, -0x1.1834d60000000p-6, -0x1.39205a0000000p-3, -0x1.4b1afa0000000p-2, -0x1.f92cbc0000000p-4, -0x1.b802820000000p-6, 0x1.3430800000000p-3, 0x1.6f12560000000p-4, 0x1.a20d860000000p-5, -0x1.b42a9a0000000p-5, -0x1.8cb1c60000000p-6, -0x1.4d1de80000000p-3, 0x1.049ef00000000p-4, -0x1.218f1a0000000p-3, -0x1.e5ea2a0000000p-9, 0x1.bf576c0000000p-7, 0x1.05803a0000000p-5, 0x1.098ada0000000p-9, -0x1.02ae0e0000000p-4, 0x1.a31f080000000p-5, 0x1.de8d200000000p-4, -0x1.13d07a0000000p-3, -0x1.124bbc0000000p-4, 0x1.64427a0000000p-5, -0x1.30d91a0000000p-4, -0x1.2035cc0000000p-3, 0x1.a2f2160000000p-7, -0x1.8574160000000p-4, -0x1.da109e0000000p-5, 0x1.c3ecc60000000p-4, -0x1.dbe1400000000p-8, -0x1.6658940000000p-3, -0x1.f8dbde0000000p-6, 0x1.53de7a0000000p-6, 0x1.94fc2c0000000p-5, -0x1.c87a800000000p-5, 0x1.18bfec0000000p-8, -0x1.9c805a0000000p-6, 0x1.329e660000000p-5, 0x1.0ff95a0000000p-7, 0x1.b533cc0000000p-4, -0x1.46506c0000000p-8, 0x1.9cfa960000000p-4, -0x1.834e8c0000000p-4, -0x1.89693c0000000p-4, -0x1.a078940000000p-7, 0x1.0b068a0000000p-7, -0x1.7146740000000p-4, -0x1.e8ba160000000p-6, -0x1.13d0f60000000p-5, -0x1.5ebd580000000p-6, 0x1.28c2860000000p-3, 0x1.cb1f280000000p-5, -0x1.2bf0e00000000p-4, 0x1.3d4d6e0000000p-6, -0x1.40d9360000000p-8, 0x1.3cc5240000000p-4, -0x1.ccaa880000000p-5, 0x1.9fc87e0000000p-7, -0x1.2b3f400000000p-4, -0x1.4d331c0000000p-4, 0x1.9b43cc0000000p-4, -0x1.c7f8620000000p-6, -0x1.29f58c0000000p-4, 0x1.814fde0000000p-6, -0x1.1947640000000p-4, 0x1.e436ae0000000p-5, 0x1.6a08460000000p-3, -0x1.7910240000000p-8, 0x1.d6df4c0000000p-7, -0x1.062f920000000p-3, -0x1.867a1c0000000p-10, -0x1.419cf20000000p-4, -0x1.81001a0000000p-3, 0x1.0d55e40000000p-5, -0x1.f36f880000000p-5, 0x1.acf2340000000p-10, -0x1.5e29480000000p-4, 0x1.51451a0000000p-4, 0x1.5b4f5c0000000p-4, -0x1.4cc64e0000000p-9, -0x1.4c53fc0000000p-7, -0x1.149db60000000p-9, -0x1.2b76700000000p-3, -0x1.7dbdb40000000p-4, 0x1.a92de40000000p-7, -0x1.4904a00000000p-4, 0x1.00ac040000000p-4, -0x1.64ae8e0000000p-7, -0x1.6082620000000p-5, -0x1.4a95140000000p-5, -0x1.7602940000000p-3, 0x1.4c1d040000000p-5, -0x1.163e7a0000000p-4, 0x1.803c080000000p-4, 0x1.3643640000000p-5, -0x1.bf78b40000000p-7, -0x1.255d8e0000000p-4, -0x1.7e85160000000p-3, -0x1.e742660000000p-6, 0x1.a0e3320000000p-7, 0x1.e9fa300000000p-4, -0x1.72afb20000000p-6, -0x1.0b49d00000000p-4, -0x1.a63fca0000000p-4, -0x1.d7d12e0000000p-4, 0x1.99922c0000000p-6, 0x1.01696e0000000p-4, 0x1.32f13c0000000p-10, -0x1.85514c0000000p-4, -0x1.4190920000000p-8, -0x1.5375d40000000p-6, 0x1.135b600000000p-3, -0x1.ad67820000000p-6, 0x1.d609a00000000p-5, -0x1.3d7df00000000p-4, -0x1.88eda60000000p-5, -0x1.aa427e0000000p-5, -0x1.860fa00000000p-3, -0x1.2df4760000000p-5, 0x1.3501120000000p-4, -0x1.2c48b40000000p-7, 0x1.c152040000000p-6, -0x1.d2620e0000000p-4, -0x1.388cd40000000p-3, 0x1.2adaea0000000p-9, -0x1.20b7ae0000000p-4, -0x1.e5593e0000000p-6, -0x1.2887ca0000000p-4, 0x1.9e136c0000000p-9, -0x1.9f31060000000p-4, -0x1.292f900000000p-4, -0x1.acfec20000000p-6, 0x1.f45c4a0000000p-5, -0x1.7c22d60000000p-4, 0x1.36fe780000000p-7, -0x1.4708180000000p-4, -0x1.7f48200000000p-4, 0x1.ec13320000000p-8, -0x1.4956040000000p-3, 0x1.02f3d00000000p-5, 0x1.6ea75e0000000p-5, -0x1.662d520000000p-6, -0x1.24c71c0000000p-6, -0x1.d98a280000000p-6, 0x1.412f140000000p-5, -0x1.ad75700000000p-10, -0x1.bd1f440000000p-5, 0x1.63bfc00000000p-3, -0x1.d1d0f60000000p-6, -0x1.697a1c0000000p-4, -0x1.3461280000000p-5, -0x1.64c36c0000000p-6, 0x1.efdf560000000p-6, 0x1.75ce860000000p-4, 0x1.32839c0000000p-10, 0x1.3a985e0000000p-5, -0x1.13512a0000000p-4, 0x1.4340a60000000p-3, -0x1.8024500000000p-4, -0x1.4829e80000000p-4, -0x1.c38ffe0000000p-5, -0x1.706e7c0000000p-4, 0x1.963fb00000000p-9, 0x1.511c9c0000000p-6, -0x1.fb0ca00000000p-6, -0x1.1ac7da0000000p-4, 0x1.8b86a60000000p-4, 0x1.54d3ec0000000p-4, 0x1.9284b20000000p-6, 0x1.2abb260000000p-4, 0x1.57066c0000000p-6, 0x1.98a4360000000p-4, 0x1.4e0fea0000000p-4, 0x1.2469c80000000p-5, -0x1.2029040000000p-5, -0x1.4e37840000000p-3, -0x1.3f8cc40000000p-5, -0x1.29e64e0000000p-4, -0x1.aa13920000000p-5, 0x1.0755f20000000p-7, -0x1.22ad960000000p-4, -0x1.3462a60000000p-4, -0x1.bc4ca80000000p-3, -0x1.0524600000000p-7, 0x1.4f14880000000p-4, 0x1.0c20cc0000000p-6, -0x1.9a6b980000000p-8, 0x1.1dbef60000000p-3, 0x1.aaa2f80000000p-4, 0x1.cd93fc0000000p-3, -0x1.04ec500000000p-3, -0x1.4710200000000p-7, 0x1.aa3a900000000p-5, 0x1.6fa5200000000p-6, 0x1.e932900000000p-4, 0x1.dc79640000000p-4, 0x1.3cfae80000000p-4, -0x1.78fbca0000000p-5, 0x1.1abdf80000000p-5, 0x1.719a280000000p-4, -0x1.9104760000000p-3, 0x1.e86f500000000p-4, -0x1.39c8520000000p-8, 0x1.9599340000000p-4, 0x1.7f39600000000p-4, 0x1.ffc5100000000p-4, 0x1.ba1d8a0000000p-5, 0x1.3aa02a0000000p-5, 0x1.d8b3e40000000p-5, 0x1.9d687c0000000p-5, -0x1.548cbe0000000p-8, 0x1.a6c1d40000000p-6, -0x1.2dc0b00000000p-8, 0x1.12aeea0000000p-6, 0x1.14b91c0000000p-3, 0x1.2d17900000000p-3, 0x1.5559c20000000p-4, 0x1.b9b7760000000p-8, 0x1.1b2d8e0000000p-4, 0x1.4572080000000p-4, 0x1.5d5eea0000000p-5, 0x1.c3bfd60000000p-4, -0x1.0485220000000p-5, 0x1.08f4360000000p-5, -0x1.e412480000000p-9, 0x1.da907a0000000p-4, 0x1.914ba80000000p-4, 0x1.444d420000000p-3, 0x1.70578a0000000p-10, -0x1.29fa5c0000000p-8, -0x1.20a78e0000000p-4, 0x1.37c9a40000000p-8, 0x1.c08a160000000p-7, 0x1.05447a0000000p-4, -0x1.c5ae200000000p-5, 0x1.4b2bde0000000p-6, -0x1.9ae0920000000p-4, 0x1.95f5040000000p-4, 0x1.10960c0000000p-5, 0x1.8baaf20000000p-4, -0x1.a780720000000p-8, 0x1.1386f40000000p-4, 0x1.46ef800000000p-5, -0x1.ae73480000000p-7, 0x1.2c7c440000000p-4, 0x1.c546da0000000p-6, 0x1.7e84ba0000000p-5, 0x1.e953620000000p-8, 0x1.4812e00000000p-4, -0x1.3aff9c0000000p-5, 0x1.5c592c0000000p-5, -0x1.5908180000000p-4, -0x1.b4802e0000000p-6, -0x1.e202f80000000p-4, -0x1.c958320000000p-10, 0x1.66b06e0000000p-5, -0x1.410ec80000000p-3, 0x1.0f20320000000p-3, 0x1.bed8500000000p-8, 0x1.017bac0000000p-3, -0x1.3a5e020000000p-6, 0x1.62f0940000000p-5, -0x1.94abe40000000p-4, -0x1.5406000000000p-4, 0x1.21b6e20000000p-5, 0x1.dbc4fc0000000p-5, -0x1.7cda6a0000000p-6, 0x1.3f49d20000000p-4, -0x1.1f6c8c0000000p-13, 0x1.328a600000000p-5, -0x1.463a8e0000000p-9, -0x1.aa4c480000000p-8, 0x1.38cd140000000p-5, 0x1.a102a80000000p-4, -0x1.80c8520000000p-7, 0x1.7638c80000000p-3, -0x1.df844c0000000p-5, -0x1.ae697c0000000p-7, 0x1.c560980000000p-4, -0x1.db77ae0000000p-7, 0x1.80f4fa0000000p-6, -0x1.c02c320000000p-6, 0x1.83c7640000000p-7, -0x1.3e85cc0000000p-4, -0x1.ee28400000000p-4, 0x1.883db80000000p-10, -0x1.a00fc20000000p-4, -0x1.de9b2a0000000p-6, 0x1.1471fe0000000p-5, -0x1.a335e60000000p-7, 0x1.46ecee0000000p-4, 0x1.6f54260000000p-4, 0x1.4fd8e20000000p-4, -0x1.98659e0000000p-4, -0x1.2606b00000000p-4, -0x1.7820280000000p-7, -0x1.3023d40000000p-4, -0x1.c8a13c0000000p-7, 0x1.7585040000000p-3, -0x1.6077260000000p-5, 0x1.6faab40000000p-5, -0x1.97175a0000000p-5, 0x1.0e3f760000000p-4, -0x1.4de6fc0000000p-3, 0x1.1c7da80000000p-6, -0x1.2bd6d40000000p-3, 0x1.7359fe0000000p-5, -0x1.93b1d40000000p-3, 0x1.b31db60000000p-5, 0x1.3164c00000000p-6, -0x1.cb36f40000000p-7, -0x1.c91bfa0000000p-4, 0x1.51cc100000000p-4, 0x1.5c46c80000000p-8, 0x1.01ea280000000p-5, -0x1.977fd80000000p-5, -0x1.b800760000000p-5, -0x1.7620160000000p-4, -0x1.383fb20000000p-8, 0x1.1dcf3a0000000p-8, 0x1.a2922c0000000p-5, -0x1.80e9800000000p-6, 0x1.8856200000000p-5, 0x1.63cf080000000p-9, 0x1.0e61080000000p-4, 0x1.37708c0000000p-5, -0x1.ad18a20000000p-5, 0x1.1e91ac0000000p-4, 0x1.3a26120000000p-4, -0x1.59b58a0000000p-4, 0x1.268a6c0000000p-3, -0x1.8282fe0000000p-6, 0x1.95894c0000000p-4, -0x1.eb27520000000p-4, 0x1.f108fe0000000p-6, -0x1.b3a02c0000000p-3, -0x1.f3a6920000000p-4, -0x1.378a5c0000000p-3, 0x1.7cad2c0000000p-3, -0x1.20e8680000000p-4, 0x1.11fb980000000p-3, 0x1.378c0a0000000p-8, 0x1.9f6daa0000000p-5, -0x1.9fb30e0000000p-4, -0x1.00521c0000000p-3, -0x1.c32ba60000000p-3, 0x1.25a7ba0000000p-6, 0x1.bce7340000000p-5, -0x1.26b3680000000p-6, -0x1.2bcba40000000p-5, 0x1.0c39300000000p-2, 0x1.1daea20000000p-5, 0x1.722d080000000p-3, 0x1.1c57920000000p-3, 0x1.f413c40000000p-3, 0x1.79dcbc0000000p-5, -0x1.60c3a60000000p-3, 0x1.3ce0bc0000000p-4, 0x1.7765600000000p-3, 0x1.2ee4a80000000p-4, -0x1.f713b20000000p-7, -0x1.ed6d140000000p-5, 0x1.9c31fc0000000p-11, 0x1.340e6c0000000p-6, -0x1.22cf680000000p-5, -0x1.3e8da80000000p-3, -0x1.da8d580000000p-4, -0x1.309ea00000000p-4, -0x1.c984520000000p-5, -0x1.d0944e0000000p-5, 0x1.34b27c0000000p-4, 0x1.6424f20000000p-8, 0x1.9a13260000000p-5, 0x1.2c51a80000000p-4, 0x1.2919ba0000000p-4, 0x1.6549180000000p-6, -0x1.3351500000000p-4, -0x1.6bf7c80000000p-3, -0x1.4612c20000000p-9, 0x1.2128d40000000p-5, 0x1.11b4620000000p-3, 0x1.35ea3c0000000p-4, 0x1.810fda0000000p-3, -0x1.b9b3320000000p-4, -0x1.9a8f980000000p-4, 0x1.42ed380000000p-3, 0x1.020ce80000000p-3, -0x1.9aa9400000000p-4, -0x1.34fdc00000000p-3, 0x1.5303d80000000p-4, 0x1.8f71420000000p-3, -0x1.5176640000000p-5, -0x1.b458e00000000p-5, -0x1.3bd6b80000000p-2, 0x1.fa951e0000000p-8, -0x1.1b7c580000000p-4, 0x1.04f72e0000000p-4, -0x1.10cd2c0000000p-3, -0x1.54a6f20000000p-3, -0x1.54389e0000000p-3, 0x1.f531980000000p-5, -0x1.12a64e0000000p-5, 0x1.7b2da00000000p-4, 0x1.93940e0000000p-5, -0x1.41bd4a0000000p-5, -0x1.bfd1cc0000000p-5, -0x1.54048a0000000p-4, -0x1.0762760000000p-6, 0x1.a174e40000000p-5, 0x1.440e620000000p-5, 0x1.4751280000000p-8, -0x1.bceaec0000000p-7, -0x1.c3e8a40000000p-5, 0x1.c1feda0000000p-6, -0x1.bd850a0000000p-7, -0x1.af20720000000p-7, -0x1.a7825a0000000p-4, 0x1.3dbf580000000p-5, 0x1.62757c0000000p-5, 0x1.61f3dc0000000p-4, -0x1.0471be0000000p-3, 0x1.c751640000000p-6, -0x1.63bcfe0000000p-4, -0x1.18c1120000000p-4, -0x1.e763f60000000p-4, -0x1.ca7b580000000p-6, -0x1.f330160000000p-5, 0x1.dd33320000000p-3, -0x1.03f72c0000000p-3, 0x1.90af5c0000000p-8, 0x1.6241420000000p-4, 0x1.440e640000000p-3, 0x1.91d80e0000000p-3, 0x1.10b2a20000000p-4, 0x1.6c52720000000p-7, 0x1.1a4fec0000000p-2, 0x1.2da6ce0000000p-3, 0x1.65b6be0000000p-6, 0x1.1a320c0000000p-3, -0x1.4928780000000p-5, -0x1.d4e7280000000p-6, 0x1.b6def40000000p-4, -0x1.e98b5a0000000p-6, 0x1.5ff4ac0000000p-3, 0x1.8153be0000000p-7, -0x1.c8b6980000000p-4, -0x1.092aa40000000p-3, 0x1.68441a0000000p-8, -0x1.394a360000000p-6, 0x1.ab791a0000000p-6, 0x1.4be3400000000p-6, 0x1.4383ca0000000p-4, 0x1.abce840000000p-5, -0x1.28c2040000000p-5, -0x1.ec08340000000p-4, -0x1.707f560000000p-3, 0x1.b877ca0000000p-5, -0x1.8708440000000p-3, 0x1.ecbd700000000p-4, 0x1.d7adea0000000p-7, -0x1.f6399e0000000p-3, -0x1.48986a0000000p-5, -0x1.2477c60000000p-3, 0x1.8464a80000000p-6, 0x1.c57ee80000000p-3, 0x1.34c6320000000p-4, -0x1.b5654e0000000p-7, -0x1.5d46f20000000p-5, 0x1.b616540000000p-6, -0x1.bd0a720000000p-4, 0x1.4d9ac60000000p-12, -0x1.efde1a0000000p-6, 0x1.7e16940000000p-3, -0x1.8b860c0000000p-4, 0x1.1eda560000000p-3, -0x1.ea681c0000000p-4, -0x1.74dcc60000000p-3, -0x1.7bdb080000000p-6, 0x1.a4aa100000000p-5, -0x1.46ec640000000p-5, -0x1.5422840000000p-3, -0x1.e1f29e0000000p-5, -0x1.305e840000000p-4, -0x1.6904780000000p-4, -0x1.4894320000000p-3, 0x1.d790280000000p-4, -0x1.c432820000000p-5, -0x1.cf6b780000000p-4, 0x1.b3e6a00000000p-3, -0x1.586b7a0000000p-4, 0x1.774ce80000000p-4, 0x1.466b5e0000000p-8, -0x1.7166ae0000000p-4, -0x1.41e3920000000p-5, -0x1.a2fe2e0000000p-4, -0x1.a27c040000000p-6, -0x1.9ba7ea0000000p-5, 0x1.1e194c0000000p-4, 0x1.919fce0000000p-6, -0x1.e8ac380000000p-4, 0x1.7b74a80000000p-7, -0x1.909cf00000000p-4, 0x1.95baf60000000p-5, 0x1.6226680000000p-4, -0x1.255ae00000000p-5, -0x1.6f1d9e0000000p-3, 0x1.33dd140000000p-7, -0x1.1a830c0000000p-3, -0x1.8f04b40000000p-5, -0x1.9c53900000000p-4, 0x1.8779b40000000p-3, -0x1.e98c840000000p-5, 0x1.8b65c80000000p-6, 0x1.5c214c0000000p-3, -0x1.0819020000000p-5, -0x1.2c2c980000000p-4, -0x1.4a79760000000p-3, 0x1.8c226a0000000p-5, -0x1.4290440000000p-4, 0x1.52726a0000000p-6, 0x1.aa121e0000000p-6, 0x1.cbdb420000000p-5, 0x1.b3c34e0000000p-9, 0x1.7ef8360000000p-8, 0x1.06b7d20000000p-6, -0x1.82d8560000000p-4, -0x1.646df80000000p-5, -0x1.0a81ec0000000p-3, -0x1.1018160000000p-7, -0x1.8e3cae0000000p-4, 0x1.2f2c360000000p-3, 0x1.45e27a0000000p-6, 0x1.2d46a00000000p-7, 0x1.090c720000000p-5, -0x1.5a6ed20000000p-5, 0x1.4651200000000p-9, 0x1.d5bc520000000p-6, -0x1.3968c60000000p-4, -0x1.13353e0000000p-3, 0x1.32665e0000000p-5, 0x1.bcd7480000000p-6, -0x1.3c5fbc0000000p-4, 0x1.123c840000000p-8, -0x1.5b1ffe0000000p-5, 0x1.f780ee0000000p-4, 0x1.52af8e0000000p-4, 0x1.665c640000000p-6, 0x1.8bd7a80000000p-5, -0x1.0e60a80000000p-4, 0x1.2a87480000000p-4, -0x1.7c0c4c0000000p-3, -0x1.efe8a40000000p-4, 0x1.5d3e940000000p-4, -0x1.30fc7e0000000p-5, 0x1.5b8f900000000p-5, -0x1.111e120000000p-3, 0x1.3946400000000p-5, -0x1.0b219e0000000p-2, -0x1.b94d120000000p-3, -0x1.6ddb0c0000000p-3, -0x1.4b25300000000p-7, -0x1.69d82a0000000p-3, -0x1.c5a8680000000p-5, -0x1.8912e00000000p-5, 0x1.6b1d1e0000000p-4, 0x1.fa72320000000p-6, -0x1.24c87e0000000p-5, 0x1.2f34fa0000000p-6, -0x1.3d6c080000000p-5, -0x1.3d06b20000000p-4, 0x1.9c7e980000000p-4, 0x1.847a480000000p-7, -0x1.d2d0580000000p-5, -0x1.ad8d7e0000000p-3, 0x1.5cc2700000000p-4, 0x1.056c0e0000000p-4, -0x1.3893f60000000p-5, 0x1.872c520000000p-4, -0x1.0a8ba80000000p-5, 0x1.8efc880000000p-3, -0x1.eac3f40000000p-4, 0x1.e9baee0000000p-4, 0x1.1fc2cc0000000p-4, 0x1.dcef9c0000000p-5, 0x1.58b6c40000000p-6, 0x1.b302ec0000000p-5, -0x1.772c1c0000000p-5, 0x1.9fe5940000000p-4, 0x1.71f8460000000p-6, 0x1.1ab1120000000p-5, -0x1.423c840000000p-8, -0x1.9b021a0000000p-7, 0x1.07b63e0000000p-5, 0x1.8c0afe0000000p-3, -0x1.11c3500000000p-5, 0x1.1f36380000000p-2, -0x1.6465220000000p-4, -0x1.62e66c0000000p-4, -0x1.ce0b3a0000000p-5, -0x1.f6980c0000000p-10, 0x1.4644cc0000000p-4, 0x1.6c3f000000000p-3, -0x1.c7c98a0000000p-7, 0x1.ecd4c60000000p-7, 0x1.e564040000000p-6, 0x1.7eb2b60000000p-5, 0x1.0e74580000000p-4, 0x1.2f2d060000000p-6, -0x1.1f40b40000000p-4, -0x1.3c5d200000000p-5, 0x1.2b34060000000p-5, 0x1.2eb6580000000p-5, -0x1.35802a0000000p-5, 0x1.0a6c620000000p-6, -0x1.5475880000000p-4, -0x1.0418640000000p-8, 0x1.0c3cec0000000p-3, -0x1.0258460000000p-5, -0x1.4927980000000p-4, 0x1.c305b80000000p-3, -0x1.0c28780000000p-3, 0x1.a74e2c0000000p-6, 0x1.48ffe00000000p-6, -0x1.12f3e20000000p-5, 0x1.f68c300000000p-4, 0x1.7d69560000000p-5, -0x1.62f3f80000000p-7, 0x1.1db3160000000p-4, 0x1.0d76c60000000p-5, -0x1.99d05a0000000p-8, 0x1.a9af100000000p-6, 0x1.c9dbba0000000p-5, -0x1.8a96d80000000p-7, -0x1.2d2e1c0000000p-5, -0x1.de13540000000p-4, 0x1.e120ee0000000p-6, 0x1.0716840000000p-5, -0x1.aacb3c0000000p-4, 0x1.1558860000000p-7, 0x1.5753680000000p-4, -0x1.b33ff80000000p-6, 0x1.97e6d00000000p-7, -0x1.38ac960000000p-5, 0x1.b2f1040000000p-5, 0x1.00f0480000000p-5, 0x1.1fba720000000p-4, -0x1.3caf0c0000000p-5, -0x1.4319680000000p-4, 0x1.15c74c0000000p-3, 0x1.129ee40000000p-4, -0x1.6206ac0000000p-6, 0x1.d566640000000p-4, -0x1.2cd20c0000000p-4, -0x1.9cd7920000000p-4, -0x1.126d320000000p-6, -0x1.0d8ee00000000p-3, 0x1.4dfbb60000000p-3, -0x1.ced4c40000000p-7, -0x1.7e25640000000p-5, 0x1.650c560000000p-5, -0x1.6feb8e0000000p-7, -0x1.34820a0000000p-7, -0x1.3c9cea0000000p-6, -0x1.8d04800000000p-6, 0x1.7befae0000000p-5, -0x1.b4ca040000000p-7, 0x1.75d7840000000p-5, 0x1.389ad20000000p-4, -0x1.4c67380000000p-9, 0x1.71e6540000000p-6, 0x1.1254760000000p-3, 0x1.4eb0660000000p-3, -0x1.1eb3380000000p-6, 0x1.e6e8620000000p-7, 0x1.6a62440000000p-5, 0x1.b6d38e0000000p-5, 0x1.50f7000000000p-4, -0x1.5e3b180000000p-3, -0x1.23ed160000000p-3, -0x1.4bfdb80000000p-5, 0x1.8214fc0000000p-4, -0x1.b58aec0000000p-4, -0x1.2ab9420000000p-5, -0x1.0e54680000000p-5, 0x1.2315e40000000p-3, -0x1.04da9a0000000p-3, -0x1.54b40c0000000p-4, -0x1.1b5c440000000p-3, 0x1.1da7e00000000p-3, -0x1.6ed9460000000p-4, -0x1.d89e1e0000000p-4, -0x1.0c9e520000000p-9, 0x1.79ad120000000p-5, 0x1.9ba7d40000000p-5, -0x1.126b080000000p-7, 0x1.fb7b5e0000000p-4, 0x1.38ac5e0000000p-4, -0x1.5f01020000000p-4, -0x1.9fd64c0000000p-6, -0x1.0da5100000000p-4, -0x1.4a6e960000000p-3, 0x1.11c2dc0000000p-5, -0x1.aa10280000000p-8, 0x1.6f96c40000000p-4, 0x1.355b440000000p-3, 0x1.b46d700000000p-7, -0x1.9d5fb80000000p-6, 0x1.68ecf80000000p-4, 0x1.4a0ebc0000000p-5, -0x1.14bf860000000p-2, -0x1.5494020000000p-3, -0x1.138e580000000p-3, 0x1.4b36260000000p-3, -0x1.0427de0000000p-3, -0x1.b7d6120000000p-4, -0x1.3177320000000p-2, -0x1.fa50280000000p-5, -0x1.3325740000000p-2, -0x1.479c500000000p-3, -0x1.ddebe60000000p-5, -0x1.ea01700000000p-4, -0x1.10d65e0000000p-2, -0x1.a05bba0000000p-8, -0x1.5fe7d60000000p-2, -0x1.dcffa20000000p-5, 0x1.99fa1c0000000p-6, -0x1.9250460000000p-3, -0x1.055ffe0000000p-4, 0x1.3904740000000p-9, -0x1.43019c0000000p-2, 0x1.70e4d80000000p-5, 0x1.c9b4c80000000p-6, -0x1.a7f9960000000p-3, -0x1.8667e00000000p-3, 0x1.d5036e0000000p-5, -0x1.a520bc0000000p-5, -0x1.78c6120000000p-4, -0x1.9dcc0e0000000p-4, 0x1.372c4e0000000p-6, 0x1.5752b40000000p-13, -0x1.dbae3c0000000p-3}
, {-0x1.2172ca0000000p-4, 0x1.222b840000000p-4, -0x1.994ff20000000p-5, 0x1.f092040000000p-6, -0x1.ea93220000000p-7, -0x1.edb3600000000p-7, -0x1.34d9fa0000000p-5, 0x1.3175fc0000000p-4, 0x1.fd83fe0000000p-4, 0x1.2b6fae0000000p-4, 0x1.04c8d60000000p-4, 0x1.d4b3320000000p-5, 0x1.9c51f40000000p-4, -0x1.5498b20000000p-5, 0x1.8d65c00000000p-5, -0x1.d0cdae0000000p-5, 0x1.2b083e0000000p-6, 0x1.61181e0000000p-5, 0x1.15c39a0000000p-5, 0x1.8cbec00000000p-7, -0x1.79744c0000000p-5, -0x1.df48860000000p-7, -0x1.cdf14e0000000p-4, -0x1.a497720000000p-4, 0x1.7c54e60000000p-5, 0x1.054e180000000p-3, 0x1.8e73980000000p-5, 0x1.03aa2a0000000p-5, -0x1.3a1a5a0000000p-5, 0x1.0994de0000000p-7, -0x1.5de6c20000000p-5, -0x1.9aad9e0000000p-8, 0x1.af50520000000p-5, -0x1.9f47d40000000p-5, -0x1.457ce40000000p-4, 0x1.3cff000000000p-4, 0x1.00021e0000000p-6, 0x1.5b29040000000p-5, 0x1.4a9ad40000000p-5, 0x1.8bc1cc0000000p-5, 0x1.059e840000000p-7, -0x1.5b363c0000000p-4, -0x1.63ce240000000p-4, 0x1.74e0fc0000000p-6, -0x1.f8e7ae0000000p-4, 0x1.a243d00000000p-6, 0x1.f5e2820000000p-6, -0x1.97269a0000000p-6, -0x1.7700aa0000000p-4, -0x1.9dfa3c0000000p-5, -0x1.9e4afc0000000p-8, 0x1.cb4c5c0000000p-4, 0x1.f3347c0000000p-8, -0x1.82457e0000000p-3, 0x1.6b61b40000000p-9, 0x1.8fa33c0000000p-4, -0x1.b657280000000p-5, 0x1.de00220000000p-5, 0x1.820e360000000p-5, 0x1.7a0df60000000p-4, 0x1.d1f8b00000000p-8, 0x1.a3c3a60000000p-5, 0x1.7a63e40000000p-5, -0x1.7337560000000p-10, 0x1.9444be0000000p-6, 0x1.04b38c0000000p-4, 0x1.c6a90a0000000p-5, 0x1.429cb60000000p-5, -0x1.c98cd20000000p-5, 0x1.c931860000000p-4, 0x1.cb38640000000p-5, 0x1.2135000000000p-4, 0x1.bd74f20000000p-5, 0x1.44d47e0000000p-8, 0x1.849e100000000p-6, 0x1.bfec640000000p-4, -0x1.aa60980000000p-6, 0x1.6f947a0000000p-4, 0x1.7ae2a20000000p-3, 0x1.e0ed2a0000000p-7, -0x1.4cbefe0000000p-4, 0x1.0ddd7a0000000p-4, -0x1.3ed0aa0000000p-8, 0x1.9653560000000p-5, -0x1.ec633a0000000p-6, -0x1.172ac00000000p-7, 0x1.1b70320000000p-3, 0x1.18da100000000p-4, -0x1.0b2d120000000p-3, -0x1.dddc560000000p-4, -0x1.5b70040000000p-5, 0x1.6fe3ec0000000p-4, -0x1.1d1e1e0000000p-4, -0x1.09fc240000000p-4, 0x1.937c620000000p-4, -0x1.3fcfa60000000p-5, 0x1.3489580000000p-3, -0x1.241e820000000p-3, 0x1.a563280000000p-6, 0x1.05ced40000000p-4, -0x1.9894060000000p-5, 0x1.4c25da0000000p-5, 0x1.d70e820000000p-9, -0x1.7d6fde0000000p-5, 0x1.ebda8a0000000p-6, 0x1.a6c4c20000000p-8, 0x1.1a9b3e0000000p-4, 0x1.3dcf480000000p-3, 0x1.b5fc220000000p-4, 0x1.a249660000000p-3, 0x1.5ed9c60000000p-6, -0x1.5f3bc20000000p-7, -0x1.9435580000000p-5, -0x1.2c6ba60000000p-7, 0x1.4c53560000000p-5, 0x1.e8ee2a0000000p-5, -0x1.56ed8e0000000p-8, 0x1.9690640000000p-4, 0x1.fdefee0000000p-5, -0x1.32745e0000000p-4, -0x1.341d900000000p-3, 0x1.af85500000000p-4, 0x1.cc82660000000p-5, 0x1.8fe1660000000p-5, -0x1.30b4140000000p-8, -0x1.a2668c0000000p-9, -0x1.9c8dc80000000p-6, 0x1.7643fc0000000p-5, 0x1.f46d960000000p-5, -0x1.c4562a0000000p-6, -0x1.6c63ca0000000p-5, -0x1.d06a5a0000000p-5, 0x1.2421340000000p-5, -0x1.69e18c0000000p-5, -0x1.ba3a780000000p-6, -0x1.303fba0000000p-5, -0x1.baf8e60000000p-5, 0x1.175c680000000p-5, 0x1.33efce0000000p-7, -0x1.c721d20000000p-10, 0x1.7a1d600000000p-4, 0x1.0781ca0000000p-7, 0x1.2464ce0000000p-5, 0x1.677b8c0000000p-5, 0x1.b296a00000000p-9, 0x1.8bab240000000p-5, -0x1.75f1200000000p-5, -0x1.87011c0000000p-5, 0x1.5547460000000p-6, -0x1.1712440000000p-4, -0x1.3506160000000p-6, 0x1.886b7e0000000p-10, 0x1.f8fcca0000000p-6, -0x1.0a58aa0000000p-4, -0x1.43728c0000000p-4, 0x1.36245c0000000p-7, 0x1.1d86e80000000p-9, 0x1.8b07180000000p-4, -0x1.14ce1e0000000p-3, -0x1.a5529c0000000p-4, 0x1.6a2a620000000p-5, -0x1.672b3c0000000p-7, -0x1.110e820000000p-3, 0x1.da2f8e0000000p-9, -0x1.d2a5dc0000000p-4, -0x1.9aad040000000p-5, 0x1.d97fee0000000p-4, 0x1.12e6620000000p-3, -0x1.71f2ec0000000p-6, 0x1.04b5460000000p-6, 0x1.b0ad420000000p-3, 0x1.0f6cc00000000p-3, -0x1.08013c0000000p-5, -0x1.16af240000000p-5, 0x1.b73fd40000000p-4, -0x1.f3bd900000000p-4, -0x1.59f2660000000p-3, 0x1.01baaa0000000p-2, 0x1.03d64a0000000p-6, 0x1.c4e43a0000000p-5, 0x1.ba9eb80000000p-6, -0x1.b205480000000p-4, -0x1.1702620000000p-4, 0x1.82c0b60000000p-6, -0x1.0b2f0a0000000p-3, -0x1.098f580000000p-4, 0x1.c9a51a0000000p-4, 0x1.39ac160000000p-3, -0x1.579b320000000p-7, -0x1.75d00a0000000p-8, 0x1.c5da4c0000000p-7, -0x1.0a6fa00000000p-6, 0x1.b596540000000p-5, 0x1.8488980000000p-6, -0x1.7b6d3a0000000p-6, -0x1.a8c8900000000p-4, -0x1.d463880000000p-4, -0x1.ff91760000000p-5, -0x1.e2262e0000000p-7, -0x1.ec48120000000p-10, -0x1.27b4a40000000p-3, 0x1.e5d96a0000000p-8, 0x1.9ffbcc0000000p-3, -0x1.00d7280000000p-15, 0x1.1cd0160000000p-3, -0x1.7d7af80000000p-7, 0x1.64e6960000000p-4, -0x1.9760020000000p-5, -0x1.3498ee0000000p-3, 0x1.0227500000000p-6, 0x1.4735f00000000p-5, -0x1.49ba900000000p-4, -0x1.e7850c0000000p-7, -0x1.6395820000000p-2, -0x1.48edc00000000p-4, 0x1.03ee180000000p-4, -0x1.56eea40000000p-5, -0x1.968c620000000p-3, 0x1.6a59720000000p-5, -0x1.ddc4460000000p-5, -0x1.02991c0000000p-4, -0x1.4aeab80000000p-6, -0x1.2053dc0000000p-3, -0x1.e89f5c0000000p-6, 0x1.b8a6a80000000p-4, 0x1.1d257e0000000p-4, -0x1.140f160000000p-3, -0x1.007b260000000p-3, -0x1.7a0ba40000000p-5, -0x1.a0c0e40000000p-9, 0x1.662fc80000000p-6, -0x1.94efee0000000p-5, -0x1.fe39040000000p-8, -0x1.8297500000000p-5, 0x1.c610a40000000p-6, -0x1.33768e0000000p-5, 0x1.20169a0000000p-4, 0x1.f085400000000p-7, 0x1.57d8120000000p-3, -0x1.43ad900000000p-6, -0x1.d1825c0000000p-5, 0x1.31c9260000000p-3, 0x1.0081180000000p-6, -0x1.821cc40000000p-5, 0x1.18e1960000000p-4, -0x1.8f36b60000000p-3, -0x1.635ade0000000p-4, 0x1.2bbdda0000000p-5, -0x1.0aab3e0000000p-4, -0x1.06ae940000000p-4, -0x1.5b58c80000000p-5, -0x1.c860aa0000000p-6, -0x1.1f40260000000p-3, -0x1.c17dac0000000p-4, -0x1.a0ef460000000p-5, -0x1.9e93ba0000000p-6, 0x1.37fbc00000000p-4, -0x1.5edb060000000p-3, -0x1.23b7dc0000000p-7, -0x1.516d540000000p-3, 0x1.4a918c0000000p-4, -0x1.78fcae0000000p-8, -0x1.2fd6b00000000p-4, 0x1.cc04c80000000p-6, -0x1.638ca80000000p-6, 0x1.7f11da0000000p-4, 0x1.6abdbc0000000p-3, -0x1.f2c85e0000000p-7, -0x1.2ff6040000000p-6, 0x1.ce45f00000000p-5, 0x1.40e9660000000p-4, -0x1.205d0e0000000p-3, -0x1.71ac5e0000000p-3, 0x1.1303da0000000p-4, -0x1.1b63e40000000p-9, 0x1.62ab660000000p-6, 0x1.fe382c0000000p-9, -0x1.3130280000000p-3, -0x1.a251200000000p-6, -0x1.c15a220000000p-11, 0x1.ab8e920000000p-8, -0x1.e8f79e0000000p-4, 0x1.aafeea0000000p-5, -0x1.999c4c0000000p-5, -0x1.9368080000000p-4, -0x1.1994ba0000000p-4, -0x1.7c31840000000p-4, -0x1.81c2c00000000p-8, 0x1.e36dc20000000p-4, -0x1.7c68320000000p-4, -0x1.a22df80000000p-7, 0x1.4e227a0000000p-7, 0x1.3dd2c80000000p-6, -0x1.b60eca0000000p-5, 0x1.1237400000000p-5, 0x1.d110b40000000p-3, -0x1.a8bd460000000p-5, 0x1.7523fa0000000p-5, -0x1.8937f00000000p-6, 0x1.3124720000000p-5, 0x1.c7346a0000000p-5, 0x1.21db9c0000000p-3, 0x1.bb8bb80000000p-5, -0x1.bc74540000000p-6, -0x1.a02c1a0000000p-6, -0x1.1857da0000000p-7, -0x1.58a16c0000000p-4, -0x1.079f480000000p-13, 0x1.e433aa0000000p-4, -0x1.73f6840000000p-4, 0x1.04d4ee0000000p-4, -0x1.930dc20000000p-5, -0x1.c45bfe0000000p-4, -0x1.a717080000000p-9, 0x1.03fb820000000p-3, -0x1.580f0e0000000p-4, -0x1.094b840000000p-3, 0x1.0edd340000000p-5, -0x1.5d1b740000000p-7, 0x1.a4bd5a0000000p-5, 0x1.28b6aa0000000p-4, -0x1.5e0c4c0000000p-7, 0x1.0590a80000000p-4, 0x1.8b5d360000000p-4, 0x1.4e60be0000000p-4, 0x1.10133a0000000p-3, 0x1.c9548a0000000p-5, 0x1.39f1120000000p-4, 0x1.8572120000000p-3, -0x1.01eb900000000p-2, 0x1.9c08d80000000p-3, -0x1.9b87e00000000p-7, 0x1.c2ae500000000p-4, -0x1.37633e0000000p-5, 0x1.60ed600000000p-3, -0x1.e7a5e60000000p-4, -0x1.e709740000000p-8, 0x1.327dee0000000p-3, 0x1.9f020e0000000p-4, -0x1.989a2c0000000p-7, -0x1.dc96a20000000p-5, -0x1.cfcc2a0000000p-5, -0x1.9fd0560000000p-5, 0x1.9354480000000p-5, 0x1.66132a0000000p-4, 0x1.f88d900000000p-4, 0x1.f5a5520000000p-6, 0x1.61c70e0000000p-6, -0x1.949ca60000000p-12, -0x1.34fbc60000000p-3, 0x1.aaaa300000000p-5, -0x1.bb69320000000p-4, -0x1.37a3540000000p-5, 0x1.6fb4aa0000000p-8, 0x1.326ff80000000p-5, -0x1.fd77fa0000000p-5, 0x1.985e3c0000000p-9, -0x1.01ab3e0000000p-4, -0x1.de5e420000000p-4, 0x1.318ca80000000p-4, 0x1.2f2d300000000p-5, -0x1.19cb860000000p-6, 0x1.f052320000000p-3, 0x1.e1212a0000000p-6, 0x1.51d74c0000000p-3, -0x1.3d11d20000000p-4, 0x1.71310c0000000p-7, -0x1.c333cc0000000p-3, -0x1.6ef1860000000p-3, 0x1.dae48a0000000p-4, -0x1.062a160000000p-8, -0x1.1fcd960000000p-3, 0x1.2d6f1e0000000p-3, -0x1.9bd1860000000p-3, -0x1.0cf3480000000p-4, 0x1.dc13c00000000p-5, -0x1.1c917c0000000p-6, 0x1.b7d2340000000p-4, -0x1.0b2a200000000p-5, 0x1.b5d5420000000p-9, -0x1.db03540000000p-3, -0x1.216ca00000000p-4, -0x1.2cfd580000000p-3, 0x1.a51dae0000000p-5, 0x1.bc4afa0000000p-4, -0x1.ac5ec00000000p-3, -0x1.27b7160000000p-3, -0x1.6b36600000000p-2, -0x1.1088c80000000p-3, -0x1.221ab00000000p-3, -0x1.f2f4400000000p-7, 0x1.17bd280000000p-5, -0x1.f304c60000000p-4, 0x1.facdb20000000p-7, -0x1.24ae300000000p-4, 0x1.2fc5800000000p-6, -0x1.0400fe0000000p-3, 0x1.6f00160000000p-6, 0x1.b609500000000p-3, -0x1.8d6cb20000000p-3, -0x1.a074080000000p-3, -0x1.a59d420000000p-5, 0x1.13ce7a0000000p-5, 0x1.366e540000000p-3, 0x1.fe90d40000000p-5, -0x1.6c52940000000p-2, 0x1.9c77aa0000000p-4, 0x1.101bb60000000p-4, -0x1.a398760000000p-3, -0x1.b4ca4a0000000p-3, 0x1.bd15280000000p-5, -0x1.189b340000000p-3, 0x1.0eb09c0000000p-8, -0x1.1490bc0000000p-6, 0x1.93251a0000000p-4, -0x1.ff996c0000000p-6, -0x1.a969c40000000p-5, -0x1.25efda0000000p-3, 0x1.23b8c00000000p-5, -0x1.4af0620000000p-6, 0x1.66eb840000000p-10, -0x1.3b64c20000000p-5, -0x1.6025b80000000p-4, 0x1.f7f16a0000000p-9, -0x1.d740ce0000000p-5, 0x1.81e3c20000000p-4, 0x1.8feab40000000p-4, -0x1.4386400000000p-5, -0x1.6487fe0000000p-4, -0x1.f3fd400000000p-3, -0x1.9afc3e0000000p-7, 0x1.b9dde80000000p-7, -0x1.9512820000000p-5, 0x1.b90a240000000p-7, 0x1.43b4e60000000p-7, 0x1.38ccc40000000p-4, 0x1.a7f34e0000000p-6, -0x1.1632d00000000p-3, 0x1.ede5ae0000000p-4, 0x1.ebfb460000000p-5, -0x1.8428320000000p-4, 0x1.ba91220000000p-7, -0x1.541dc40000000p-3, -0x1.9c4f980000000p-6, 0x1.54775c0000000p-5, -0x1.9d5dee0000000p-5, 0x1.50c1360000000p-4, 0x1.3bbcec0000000p-4, -0x1.3376980000000p-3, -0x1.c7acde0000000p-4, -0x1.58a5520000000p-7, 0x1.743a9a0000000p-4, 0x1.2165c80000000p-3, -0x1.5112780000000p-5, -0x1.794b0a0000000p-6, 0x1.bd28060000000p-3, -0x1.09ffb00000000p-3, 0x1.f54d2c0000000p-4, -0x1.c67a060000000p-9, -0x1.178c6c0000000p-4, 0x1.1f53420000000p-5, -0x1.20ebd80000000p-5, 0x1.673f8c0000000p-8, 0x1.ea04580000000p-5, 0x1.10f6c20000000p-3, -0x1.fc9c6c0000000p-11, 0x1.35060c0000000p-7, -0x1.9feda60000000p-3, -0x1.0029020000000p-6, 0x1.b926100000000p-4, 0x1.eb16f60000000p-4, 0x1.bf633a0000000p-7, -0x1.165f320000000p-3, -0x1.4c3cea0000000p-6, -0x1.1c70bc0000000p-7, 0x1.f98f120000000p-8, 0x1.4ea91c0000000p-3, -0x1.99cc900000000p-5, 0x1.f640840000000p-3, -0x1.58d1aa0000000p-7, -0x1.4bc8380000000p-6, -0x1.15243e0000000p-7, -0x1.b7fee00000000p-4, 0x1.465b2e0000000p-4, 0x1.4a75300000000p-6, -0x1.f2c1f80000000p-7, -0x1.a85e4e0000000p-4, 0x1.418d140000000p-3, -0x1.5204ee0000000p-8, 0x1.a7dc4e0000000p-4, -0x1.62de7e0000000p-5, -0x1.75b5720000000p-5, -0x1.92d3de0000000p-3, 0x1.490f7a0000000p-4, -0x1.f170bc0000000p-4, -0x1.1fdc540000000p-5, 0x1.23854e0000000p-3, 0x1.a773560000000p-9, 0x1.8ae6900000000p-5, 0x1.dc6f620000000p-6, -0x1.17db3a0000000p-4, 0x1.6718d20000000p-4, 0x1.2ab64c0000000p-4, -0x1.c3bd500000000p-7, 0x1.72af920000000p-3, 0x1.7740be0000000p-4, 0x1.86fd2c0000000p-4, 0x1.75e8e80000000p-3, -0x1.ba82c40000000p-6, 0x1.b7c6ca0000000p-3, 0x1.c319980000000p-4, -0x1.7608300000000p-5, -0x1.c3abe80000000p-4, -0x1.b8f60a0000000p-4, -0x1.4950e40000000p-3, -0x1.9e6b560000000p-5, -0x1.3b854a0000000p-5, 0x1.003f360000000p-4, -0x1.a0ca7c0000000p-2, 0x1.e3b98c0000000p-4, -0x1.b57b640000000p-3, 0x1.6d1f720000000p-6, 0x1.4a42a20000000p-4, -0x1.79a1be0000000p-3, -0x1.5dd77c0000000p-2, 0x1.00a1fa0000000p-3, -0x1.af93440000000p-3, 0x1.c433c20000000p-3, -0x1.8881ba0000000p-4, -0x1.bf49240000000p-5, 0x1.697c780000000p-6, 0x1.7da1540000000p-5, 0x1.a3edec0000000p-4, -0x1.d5b5e20000000p-5, 0x1.7ba5280000000p-4, -0x1.7b54fc0000000p-4, -0x1.12e0d60000000p-3, 0x1.6ee4a60000000p-6, -0x1.0aa36c0000000p-5, 0x1.8e764c0000000p-7, -0x1.ae28a80000000p-8, 0x1.daec680000000p-4, 0x1.93e68c0000000p-4, 0x1.5409a40000000p-6, 0x1.c392fe0000000p-6, -0x1.dd61320000000p-4, -0x1.8639140000000p-6, -0x1.7464b40000000p-5, -0x1.e755e00000000p-5, 0x1.d0e8b00000000p-6, -0x1.23d84c0000000p-3, 0x1.d366b00000000p-5, -0x1.6a2a5a0000000p-2, -0x1.dcf5ba0000000p-5, -0x1.b458420000000p-5, -0x1.3495620000000p-5, -0x1.0cebce0000000p-3, 0x1.7ce0300000000p-4, -0x1.8ac2580000000p-8, 0x1.1a5df20000000p-2, 0x1.06e17a0000000p-5, 0x1.bb04b40000000p-7, -0x1.94385c0000000p-5, 0x1.6f6ce20000000p-5, -0x1.09a0e20000000p-4, 0x1.10876e0000000p-4, 0x1.ddc9920000000p-7, -0x1.7b5d420000000p-6, -0x1.c7f1300000000p-3, -0x1.5246d80000000p-4, -0x1.30c9dc0000000p-5, -0x1.dcd3320000000p-4, 0x1.fd4da20000000p-5, 0x1.73f4ca0000000p-5, 0x1.22176e0000000p-4, -0x1.0d4b9c0000000p-6, 0x1.6a2b880000000p-5, 0x1.3905300000000p-5, 0x1.70c6320000000p-5, -0x1.97f1500000000p-4, -0x1.2e2f460000000p-11, -0x1.fedb7e0000000p-11, -0x1.dced560000000p-4, -0x1.97975e0000000p-4, -0x1.7f6a6c0000000p-7, -0x1.324c740000000p-4, 0x1.16edb60000000p-4, -0x1.7fcdfe0000000p-4, -0x1.f31eb40000000p-8, -0x1.bda6400000000p-6, 0x1.0e8e2a0000000p-4, -0x1.8b94c00000000p-7, 0x1.5179940000000p-6, 0x1.e0e61e0000000p-4, 0x1.a57b780000000p-6, -0x1.ed4c300000000p-5, -0x1.bbc8f20000000p-4, -0x1.81a8000000000p-5, -0x1.2276400000000p-3, -0x1.1c93460000000p-9, 0x1.bd95d00000000p-4, 0x1.38fc580000000p-4, -0x1.a712e00000000p-4, -0x1.2c36580000000p-3, -0x1.d715a40000000p-7, -0x1.49e1f60000000p-4, -0x1.778b720000000p-4, 0x1.d4c0780000000p-4, 0x1.61f8380000000p-5, 0x1.0396500000000p-3, 0x1.98001a0000000p-7, -0x1.2f9a380000000p-3, -0x1.8dde900000000p-5, 0x1.65b0ac0000000p-5, -0x1.a6b40c0000000p-9, 0x1.6283ce0000000p-7, -0x1.e3d9ba0000000p-3, -0x1.2348d40000000p-4, -0x1.80bd8a0000000p-5, 0x1.16d64c0000000p-5, 0x1.10d7500000000p-4, -0x1.3d27560000000p-8, 0x1.d65a6c0000000p-7, -0x1.d9df3c0000000p-8, -0x1.d8d08e0000000p-4, 0x1.c236040000000p-7, -0x1.4d4d200000000p-4, -0x1.82a9ca0000000p-9, 0x1.a86c6e0000000p-6, -0x1.837e880000000p-8, -0x1.418bb40000000p-4, 0x1.f529a80000000p-4, 0x1.86862c0000000p-7, -0x1.27d3ea0000000p-4, -0x1.45ea420000000p-4, -0x1.cda2ba0000000p-4, -0x1.bd0ac20000000p-3, -0x1.7cc2920000000p-3, -0x1.06e74e0000000p-3, -0x1.b37a9e0000000p-4, 0x1.0e14ec0000000p-4, 0x1.9026140000000p-4, 0x1.8f2cf60000000p-7, -0x1.57c0a40000000p-4, 0x1.a49a1e0000000p-5, 0x1.6b035c0000000p-6, -0x1.3a17aa0000000p-2, 0x1.eb99b60000000p-6, -0x1.1c9e080000000p-2, -0x1.e623920000000p-5, 0x1.17db2a0000000p-2, -0x1.ad8af20000000p-6, -0x1.3393920000000p-4, 0x1.32bf760000000p-5, -0x1.6edd0a0000000p-5, -0x1.128fe20000000p-8, -0x1.fe49140000000p-3, 0x1.f0e0b60000000p-4, -0x1.f275d40000000p-6, 0x1.f6391a0000000p-4, -0x1.8ac3680000000p-6, -0x1.0b76360000000p-4, -0x1.a501040000000p-6, 0x1.b2ac580000000p-4, -0x1.978e100000000p-4, 0x1.03a4060000000p-6, 0x1.6fedd60000000p-4, -0x1.f68a8a0000000p-5, 0x1.4e59460000000p-4, 0x1.6972600000000p-4, 0x1.406a180000000p-4, -0x1.f053840000000p-5, 0x1.2132e80000000p-6, -0x1.3901600000000p-3, 0x1.99c3460000000p-7, -0x1.d0e7600000000p-3, -0x1.007cfa0000000p-4, 0x1.a4f9ea0000000p-3, -0x1.efdc1e0000000p-3, -0x1.68d18e0000000p-4, -0x1.4463780000000p-2, 0x1.c2b7fc0000000p-6, 0x1.47a3500000000p-3, -0x1.cf573e0000000p-4, 0x1.b587700000000p-5, 0x1.44f5ea0000000p-4, -0x1.196fc40000000p-10, -0x1.c0e1940000000p-9, -0x1.a9b0be0000000p-4, 0x1.59ba820000000p-4, -0x1.c631340000000p-7, 0x1.81cb400000000p-4, 0x1.bec7ac0000000p-4, -0x1.efbfb20000000p-3, -0x1.7e2c0c0000000p-3, -0x1.3398b80000000p-9, -0x1.3e10aa0000000p-3, -0x1.2aa5460000000p-4, 0x1.9001000000000p-4, -0x1.5fa0ae0000000p-3, -0x1.bf19780000000p-6, 0x1.0939520000000p-3, -0x1.0e28960000000p-6, 0x1.6cbbd80000000p-5, 0x1.52cda80000000p-4, -0x1.88d9700000000p-5, -0x1.77d6dc0000000p-7, -0x1.4158c00000000p-3, 0x1.67d9840000000p-5, 0x1.10cf7e0000000p-3, -0x1.b0a88c0000000p-4, -0x1.c9c4a40000000p-5, -0x1.ae0f2e0000000p-7, -0x1.7940d40000000p-5, 0x1.4c0ce80000000p-4, -0x1.9498c40000000p-3, 0x1.8043de0000000p-6, 0x1.ebffd20000000p-5, 0x1.252bda0000000p-6, -0x1.54d93a0000000p-6, -0x1.6160200000000p-3, 0x1.9be7980000000p-4, 0x1.d772720000000p-7, -0x1.7437640000000p-3, 0x1.1fa03c0000000p-4, -0x1.cdf8880000000p-3, -0x1.043ba60000000p-3, -0x1.4de9b00000000p-6, -0x1.7966e60000000p-4, 0x1.0cf8340000000p-4, 0x1.1013300000000p-4, -0x1.93b8ea0000000p-8, -0x1.6681b80000000p-5, -0x1.bcb5e20000000p-5, -0x1.8676fe0000000p-4, -0x1.0b37ce0000000p-4, -0x1.fe12700000000p-11, -0x1.392e600000000p-3, 0x1.3da3f60000000p-5, -0x1.7894960000000p-4, 0x1.5a4b080000000p-7, 0x1.7cf0300000000p-5, 0x1.e98a760000000p-5, -0x1.6705b00000000p-7, 0x1.955f920000000p-5, 0x1.390a2c0000000p-5, 0x1.c065360000000p-6, 0x1.c02b980000000p-4, -0x1.efe7660000000p-5, 0x1.a548140000000p-4, 0x1.4bd2140000000p-3, 0x1.8b2a440000000p-10, -0x1.4266560000000p-5, 0x1.94cd360000000p-4, -0x1.f4e3d60000000p-5, -0x1.3db4dc0000000p-4, 0x1.fc8a4e0000000p-5, -0x1.cc744e0000000p-4, -0x1.54d3ce0000000p-6, 0x1.c6b7960000000p-5, -0x1.dfdd060000000p-6, 0x1.de89b00000000p-5, -0x1.62dc8a0000000p-3, 0x1.46e26c0000000p-5, -0x1.4d5a860000000p-7, -0x1.6089920000000p-4, -0x1.f4b86e0000000p-7, -0x1.f300d80000000p-6, -0x1.19355e0000000p-5, -0x1.c404b60000000p-7, -0x1.3ae3a20000000p-3, -0x1.79c88a0000000p-5, 0x1.3bdddc0000000p-6, 0x1.296df80000000p-4, 0x1.00cb720000000p-5, 0x1.888de00000000p-10, -0x1.e667820000000p-3, -0x1.9f3a5e0000000p-4, -0x1.3f02cc0000000p-8, 0x1.9dd7460000000p-4, -0x1.2bcd640000000p-5, 0x1.a0aea40000000p-4, 0x1.34d1f00000000p-8, -0x1.abdfdc0000000p-5, -0x1.c522e20000000p-7, -0x1.1b38980000000p-4, -0x1.cf4d740000000p-6, -0x1.a22bae0000000p-9, 0x1.9a51d00000000p-9, 0x1.a93be40000000p-8, 0x1.8d290c0000000p-4, -0x1.c9dc840000000p-4, 0x1.bf9ff60000000p-5, 0x1.349be80000000p-6, 0x1.bcc5480000000p-8, -0x1.07e25c0000000p-5, 0x1.725b780000000p-4, -0x1.d4fa0a0000000p-7, 0x1.9e4b680000000p-8, 0x1.adf5120000000p-7}
, {-0x1.29f15c0000000p-6, 0x1.470a320000000p-7, 0x1.b7fd020000000p-3, -0x1.4e4fbe0000000p-5, 0x1.2503480000000p-3, 0x1.16ca0c0000000p-4, -0x1.7e49c60000000p-6, 0x1.ea1d960000000p-3, -0x1.214fb60000000p-6, 0x1.1a29d40000000p-5, 0x1.642fa20000000p-4, 0x1.2400a20000000p-4, -0x1.42b5c60000000p-5, -0x1.8a66c20000000p-5, 0x1.ddc1f80000000p-7, -0x1.ba7d9c0000000p-7, 0x1.d806ac0000000p-4, -0x1.3a9ade0000000p-5, 0x1.7e3aa00000000p-7, 0x1.0fb9640000000p-6, 0x1.66213a0000000p-3, 0x1.c7fbc20000000p-4, 0x1.83b3a20000000p-4, 0x1.7a9b460000000p-9, 0x1.f70c1c0000000p-8, -0x1.40fa0a0000000p-6, 0x1.3d6aac0000000p-4, 0x1.18bd460000000p-3, 0x1.ca6bd20000000p-5, -0x1.07bd720000000p-4, 0x1.881e140000000p-3, 0x1.42e5d40000000p-4, -0x1.257fb20000000p-4, 0x1.8791f60000000p-3, 0x1.44bdc00000000p-4, 0x1.7e45a20000000p-4, 0x1.3476c60000000p-4, -0x1.3814440000000p-5, -0x1.78d2980000000p-6, 0x1.515d600000000p-4, 0x1.14ccc80000000p-4, 0x1.3eb1f00000000p-4, -0x1.19bbfc0000000p-3, 0x1.460f220000000p-6, -0x1.251dce0000000p-6, -0x1.326c440000000p-4, -0x1.a2a49e0000000p-6, -0x1.2322ae0000000p-3, 0x1.20235a0000000p-3, -0x1.0d883e0000000p-7, 0x1.c7ee1e0000000p-5, 0x1.e6d7f00000000p-8, 0x1.0b38120000000p-4, 0x1.1527380000000p-4, 0x1.abc84e0000000p-4, 0x1.a3e4760000000p-5, 0x1.06ad9a0000000p-4, 0x1.bcb6320000000p-7, 0x1.4492400000000p-5, 0x1.23850c0000000p-6, 0x1.126e080000000p-3, 0x1.b40c780000000p-4, 0x1.e4fa0e0000000p-4, 0x1.ab704a0000000p-4, -0x1.a86b6e0000000p-4, 0x1.8c87160000000p-3, 0x1.8518e60000000p-10, -0x1.1eb7c20000000p-6, 0x1.7a72840000000p-6, 0x1.5a8bb60000000p-3, 0x1.a442a40000000p-5, 0x1.9047100000000p-5, 0x1.1e11da0000000p-5, 0x1.893fce0000000p-7, -0x1.b2da660000000p-4, 0x1.3298c60000000p-4, -0x1.1a1d7c0000000p-7, -0x1.066f9c0000000p-6, 0x1.6df1560000000p-4, -0x1.7262620000000p-4, -0x1.70a6280000000p-3, -0x1.5605420000000p-9, 0x1.61e6d00000000p-6, 0x1.3860820000000p-5, -0x1.c546de0000000p-5, -0x1.361fa80000000p-7, -0x1.b131380000000p-4, 0x1.b529b40000000p-5, -0x1.589dd40000000p-5, 0x1.0a5a2e0000000p-6, 0x1.2af2040000000p-6, 0x1.64a37a0000000p-5, 0x1.f3fa7e0000000p-4, 0x1.02861c0000000p-7, 0x1.2661c20000000p-5, 0x1.4d3dae0000000p-5, 0x1.e882ea0000000p-4, 0x1.99a1f60000000p-5, -0x1.838c200000000p-6, -0x1.3535960000000p-3, -0x1.ad28dc0000000p-4, 0x1.5c76020000000p-3, 0x1.901ba80000000p-5, -0x1.0aa4f80000000p-7, -0x1.20fab60000000p-5, 0x1.6997660000000p-5, -0x1.6e5f800000000p-6, 0x1.8639380000000p-4, 0x1.645c0e0000000p-8, -0x1.f006fe0000000p-5, 0x1.d6270e0000000p-4, -0x1.bcf8c80000000p-3, -0x1.d82c100000000p-3, 0x1.98d4fe0000000p-6, 0x1.1659ea0000000p-4, -0x1.2e72960000000p-6, 0x1.4054380000000p-5, -0x1.1478320000000p-3, -0x1.e4c0560000000p-6, -0x1.34e5ac0000000p-5, -0x1.1239d80000000p-4, 0x1.52be060000000p-5, -0x1.941fd80000000p-4, -0x1.c2680a0000000p-6, -0x1.3b75f00000000p-4, -0x1.6d73c00000000p-6, 0x1.6167dc0000000p-5, -0x1.3e92000000000p-6, 0x1.b5b0400000000p-6, -0x1.069d340000000p-6, -0x1.84e4d40000000p-3, -0x1.7e4abc0000000p-3, -0x1.c3dd9a0000000p-4, 0x1.6e77c00000000p-7, -0x1.3b9c860000000p-6, -0x1.7794a80000000p-3, -0x1.62e1800000000p-7, -0x1.0cebf20000000p-7, -0x1.5c2dd20000000p-6, 0x1.7ec17e0000000p-5, -0x1.0fe2e00000000p-5, 0x1.b4bdcc0000000p-9, 0x1.8edb3c0000000p-5, -0x1.1dcf7c0000000p-4, -0x1.d2bb060000000p-3, -0x1.e6ccb60000000p-10, 0x1.3725b40000000p-3, -0x1.709e3e0000000p-7, -0x1.58a0080000000p-7, -0x1.0425f40000000p-4, -0x1.1cce4e0000000p-3, -0x1.13bc6c0000000p-3, -0x1.55e3bc0000000p-3, 0x1.8676520000000p-5, -0x1.6dbe700000000p-4, -0x1.9c88cc0000000p-3, -0x1.36d5400000000p-4, 0x1.91824e0000000p-6, -0x1.84fb3c0000000p-4, -0x1.61640e0000000p-4, -0x1.272ed20000000p-4, 0x1.b6c6300000000p-7, 0x1.21265e0000000p-6, -0x1.0c5e600000000p-7, 0x1.01e0c80000000p-5, 0x1.0d16c80000000p-4, -0x1.70c03c0000000p-3, 0x1.9caeb60000000p-4, -0x1.6a03860000000p-7, 0x1.4b97460000000p-5, -0x1.40f0880000000p-4, -0x1.9a029a0000000p-4, -0x1.060c480000000p-3, 0x1.da5ab80000000p-8, -0x1.5c1b180000000p-3, 0x1.db52000000000p-3, 0x1.e52bc80000000p-9, -0x1.07ce180000000p-3, -0x1.4123d80000000p-4, 0x1.6a25240000000p-4, -0x1.7d649c0000000p-6, 0x1.8c9d5c0000000p-3, 0x1.902d940000000p-4, 0x1.ef12da0000000p-6, -0x1.26e34a0000000p-8, 0x1.4975980000000p-3, 0x1.4108840000000p-6, 0x1.2b89780000000p-4, -0x1.4693900000000p-8, -0x1.349a840000000p-10, -0x1.3a82220000000p-5, 0x1.dea2de0000000p-4, 0x1.dabcc20000000p-7, -0x1.0b59e20000000p-5, 0x1.3536180000000p-4, 0x1.ea49100000000p-4, -0x1.34480a0000000p-4, 0x1.63036a0000000p-3, -0x1.6f025c0000000p-5, 0x1.449df00000000p-4, -0x1.5950ae0000000p-5, -0x1.078baa0000000p-3, -0x1.9a78c20000000p-5, -0x1.83680e0000000p-5, -0x1.eed3900000000p-5, -0x1.df878c0000000p-6, -0x1.24cbf20000000p-4, 0x1.2892b40000000p-3, -0x1.57b0c00000000p-4, -0x1.ce7f880000000p-6, -0x1.1bd59e0000000p-3, -0x1.9c76540000000p-5, -0x1.9734280000000p-5, 0x1.203f800000000p-3, 0x1.4e7a540000000p-4, -0x1.ff57ec0000000p-8, 0x1.0aa69c0000000p-4, 0x1.5aa58e0000000p-10, -0x1.89cdd20000000p-3, 0x1.bf6a060000000p-5, 0x1.3022d80000000p-5, -0x1.9467400000000p-6, -0x1.4a2a0c0000000p-5, 0x1.3cc0ac0000000p-5, 0x1.15596c0000000p-5, 0x1.9af9f00000000p-5, -0x1.937e880000000p-4, -0x1.db7af80000000p-5, -0x1.73ff0c0000000p-4, 0x1.ee33400000000p-4, 0x1.4cef5e0000000p-4, 0x1.68a6760000000p-4, -0x1.e6603c0000000p-6, 0x1.2e55be0000000p-4, -0x1.04f8b00000000p-4, 0x1.6305c00000000p-6, -0x1.aa1e0a0000000p-3, -0x1.e827ec0000000p-5, 0x1.7b8ca60000000p-5, 0x1.e2f23e0000000p-11, -0x1.b306220000000p-3, -0x1.dcc03c0000000p-4, -0x1.c79fd20000000p-4, -0x1.03c6e80000000p-3, 0x1.a2d2fc0000000p-5, -0x1.1b91c20000000p-3, -0x1.a394ee0000000p-4, -0x1.d2cb0e0000000p-4, 0x1.bc41f40000000p-5, 0x1.b117c40000000p-5, -0x1.6bee620000000p-3, -0x1.48dc4c0000000p-4, -0x1.26a13c0000000p-4, -0x1.fb0d120000000p-4, -0x1.5b20640000000p-4, -0x1.4d34820000000p-5, -0x1.7d25080000000p-4, -0x1.79a8d80000000p-5, -0x1.b971760000000p-5, 0x1.a920780000000p-5, -0x1.73ed0a0000000p-4, 0x1.fe94460000000p-4, 0x1.1287500000000p-4, 0x1.46a8b60000000p-5, -0x1.c78bee0000000p-3, -0x1.b16d3c0000000p-5, -0x1.7847460000000p-6, 0x1.5701bc0000000p-8, -0x1.0bf6820000000p-4, 0x1.393a7a0000000p-3, 0x1.4cabf40000000p-5, -0x1.39dd9e0000000p-3, -0x1.39b6e40000000p-3, 0x1.8c768a0000000p-7, -0x1.9701b80000000p-4, -0x1.196d260000000p-5, -0x1.3c55f60000000p-5, -0x1.52309e0000000p-3, -0x1.ca28560000000p-6, -0x1.7618d60000000p-4, -0x1.8e32a00000000p-3, 0x1.7100900000000p-3, 0x1.4d3e600000000p-5, -0x1.d65f000000000p-3, -0x1.91a6920000000p-3, -0x1.fe3c1e0000000p-5, -0x1.6e94ce0000000p-3, -0x1.6d9b9e0000000p-4, 0x1.203b8c0000000p-4, -0x1.7a17120000000p-3, -0x1.e1c0100000000p-3, 0x1.33a1320000000p-6, -0x1.72e9640000000p-3, 0x1.7eabf20000000p-3, -0x1.f708160000000p-9, 0x1.3907540000000p-7, -0x1.7df8920000000p-3, -0x1.a1bf3e0000000p-3, 0x1.2e8baa0000000p-6, 0x1.e28b180000000p-4, -0x1.2c54c80000000p-4, 0x1.3126300000000p-3, -0x1.90ccc80000000p-6, 0x1.6dff820000000p-4, -0x1.4f77b60000000p-4, -0x1.6de3f40000000p-6, 0x1.7621800000000p-7, -0x1.2478080000000p-8, -0x1.44c5d40000000p-3, -0x1.dd34860000000p-5, 0x1.8690e40000000p-6, -0x1.0213b40000000p-2, -0x1.2883940000000p-2, 0x1.4e98ce0000000p-4, -0x1.e78e6a0000000p-5, -0x1.169d0e0000000p-3, -0x1.53e5600000000p-4, 0x1.30d3140000000p-3, -0x1.6273ea0000000p-2, -0x1.8598400000000p-4, -0x1.655f7e0000000p-5, 0x1.1d94600000000p-6, -0x1.ef4e7e0000000p-6, 0x1.317a9e0000000p-7, -0x1.1b5bdc0000000p-4, 0x1.bf37000000000p-7, -0x1.f7198e0000000p-4, 0x1.1f09c20000000p-4, -0x1.06f6760000000p-4, 0x1.bff1ca0000000p-4, -0x1.fc30040000000p-7, 0x1.8501fe0000000p-4, -0x1.9c01800000000p-5, 0x1.9852100000000p-5, -0x1.c90e040000000p-5, -0x1.5b75c40000000p-3, -0x1.119a4e0000000p-3, -0x1.7a3ca20000000p-9, -0x1.9443f20000000p-6, 0x1.444e940000000p-5, 0x1.bea03c0000000p-6, -0x1.b977780000000p-5, -0x1.bd86d00000000p-7, -0x1.c68f0c0000000p-5, -0x1.70cb5a0000000p-4, -0x1.b4afe20000000p-6, -0x1.bb289e0000000p-6, 0x1.d141ec0000000p-6, 0x1.0217d00000000p-4, -0x1.0f991e0000000p-9, -0x1.4063e00000000p-3, 0x1.c6b53e0000000p-6, -0x1.4b54ea0000000p-6, 0x1.0cd0980000000p-5, -0x1.02461c0000000p-6, 0x1.f0ebd00000000p-4, 0x1.289d9e0000000p-8, 0x1.89748c0000000p-4, -0x1.9a96020000000p-6, -0x1.f00caa0000000p-5, 0x1.2989b00000000p-6, 0x1.0d733e0000000p-5, 0x1.de0ba00000000p-9, 0x1.3f2da60000000p-5, 0x1.f24b220000000p-5, 0x1.877ade0000000p-5, 0x1.cf1eaa0000000p-6, -0x1.8aad060000000p-5, -0x1.d715780000000p-7, -0x1.a2e0700000000p-5, -0x1.63b57e0000000p-3, -0x1.8eebc80000000p-4, -0x1.ec8ed60000000p-8, -0x1.0a20800000000p-5, -0x1.eda2580000000p-4, 0x1.ab79de0000000p-4, 0x1.8091840000000p-6, -0x1.5da5280000000p-7, -0x1.57d77a0000000p-4, 0x1.1c03560000000p-4, -0x1.58527a0000000p-5, -0x1.ba8ff20000000p-5, -0x1.625c6e0000000p-6, 0x1.1de0580000000p-7, -0x1.929a200000000p-4, 0x1.b631fc0000000p-4, 0x1.f7b0ee0000000p-5, 0x1.6661760000000p-4, 0x1.0cf7da0000000p-3, -0x1.6289140000000p-4, -0x1.0feaf20000000p-3, 0x1.1e77e80000000p-3, -0x1.237fa20000000p-6, 0x1.6f3d320000000p-3, 0x1.ea0a760000000p-5, -0x1.4d8a140000000p-5, -0x1.6a7ae80000000p-4, -0x1.10bf500000000p-3, -0x1.fa61e80000000p-7, -0x1.78cf3c0000000p-5, 0x1.efe3160000000p-6, -0x1.2c845c0000000p-4, 0x1.0f6a020000000p-5, -0x1.aafe6a0000000p-6, 0x1.7ae7aa0000000p-5, -0x1.10715c0000000p-5, 0x1.55e6480000000p-7, 0x1.e5b5ac0000000p-5, 0x1.d074cc0000000p-5, -0x1.abf7860000000p-5, -0x1.6956d40000000p-3, 0x1.6b23380000000p-3, 0x1.6516e60000000p-5, -0x1.e4ba9e0000000p-4, 0x1.f6aff80000000p-6, 0x1.5479fc0000000p-3, -0x1.69acd60000000p-5, -0x1.a887e20000000p-5, 0x1.498ec00000000p-4, 0x1.56a83a0000000p-5, 0x1.75f6a80000000p-4, -0x1.48e47e0000000p-4, -0x1.f78a020000000p-4, 0x1.294de00000000p-4, -0x1.234a360000000p-3, 0x1.5e5d8a0000000p-3, 0x1.6494b80000000p-4, -0x1.4904f00000000p-4, -0x1.9d472c0000000p-4, -0x1.22ed3c0000000p-4, -0x1.8c37640000000p-9, 0x1.1b48c80000000p-3, 0x1.22e5920000000p-4, 0x1.18d2080000000p-6, 0x1.b3c51a0000000p-6, 0x1.7ab3e40000000p-10, 0x1.602fae0000000p-6, -0x1.6c82340000000p-5, 0x1.61d18a0000000p-3, -0x1.7a4a080000000p-6, 0x1.fecad80000000p-7, -0x1.3c61fc0000000p-3, -0x1.bac7240000000p-8, 0x1.958ace0000000p-4, 0x1.416ed80000000p-4, 0x1.2c89d00000000p-4, 0x1.9a8a920000000p-3, 0x1.b1df840000000p-5, 0x1.dc86ce0000000p-7, -0x1.1556f40000000p-3, -0x1.e52dee0000000p-6, 0x1.b10aea0000000p-3, -0x1.3d5f3e0000000p-8, 0x1.c1172c0000000p-4, -0x1.94efd80000000p-5, 0x1.122a060000000p-4, -0x1.808cbc0000000p-6, -0x1.762afa0000000p-5, 0x1.44202c0000000p-5, 0x1.603eb20000000p-11, 0x1.5639ea0000000p-6, -0x1.4e36340000000p-7, -0x1.9e2b900000000p-7, 0x1.7b1c860000000p-3, 0x1.22a5160000000p-4, -0x1.c581ae0000000p-5, -0x1.7486d00000000p-4, 0x1.8378240000000p-6, -0x1.ceeabc0000000p-4, 0x1.27a6820000000p-5, 0x1.435f400000000p-4, -0x1.3fb4440000000p-4, 0x1.151a240000000p-5, 0x1.2f3b240000000p-3, 0x1.9bba960000000p-7, 0x1.4d56fa0000000p-4, 0x1.e17e260000000p-8, 0x1.96d5e80000000p-6, -0x1.b7fb660000000p-6, -0x1.32f1680000000p-4, -0x1.49393a0000000p-6, -0x1.3bc7b00000000p-4, -0x1.f24c400000000p-5, -0x1.c0a02a0000000p-5, -0x1.e9f1140000000p-5, 0x1.49c2940000000p-3, 0x1.6551660000000p-5, -0x1.dab7380000000p-6, 0x1.ad9a1a0000000p-4, -0x1.72dbaa0000000p-4, 0x1.c233a60000000p-4, 0x1.193fe40000000p-3, 0x1.ccbb8e0000000p-4, 0x1.0a45440000000p-5, 0x1.d71b940000000p-7, -0x1.e335260000000p-3, -0x1.685c2a0000000p-4, 0x1.942f1a0000000p-6, -0x1.62938e0000000p-6, 0x1.7f263e0000000p-4, 0x1.fb291a0000000p-6, -0x1.785bea0000000p-4, -0x1.e6d9c80000000p-7, 0x1.9ba3fe0000000p-5, -0x1.4b92700000000p-5, 0x1.e405f40000000p-4, -0x1.25a51c0000000p-5, -0x1.e3feae0000000p-8, 0x1.0fd3240000000p-5, -0x1.452f7a0000000p-5, -0x1.eff26e0000000p-6, 0x1.8812f80000000p-6, -0x1.bb325e0000000p-6, 0x1.bf62000000000p-5, 0x1.e263420000000p-6, -0x1.8e1d580000000p-3, 0x1.09ecb20000000p-4, -0x1.0c679c0000000p-5, -0x1.cfd31a0000000p-7, -0x1.3141200000000p-4, 0x1.8b224e0000000p-4, 0x1.0c185a0000000p-9, 0x1.936a480000000p-6, 0x1.e47ed40000000p-4, 0x1.6655be0000000p-4, -0x1.7c7dde0000000p-5, 0x1.b7f12c0000000p-4, -0x1.bd67e60000000p-3, 0x1.2a83240000000p-5, 0x1.31b6800000000p-4, 0x1.c12ff20000000p-10, 0x1.37f13a0000000p-4, -0x1.00c3fe0000000p-4, -0x1.bd83e00000000p-5, 0x1.6b0f420000000p-7, -0x1.11b51a0000000p-10, 0x1.655cce0000000p-5, -0x1.22002a0000000p-5, 0x1.2a6f000000000p-5, -0x1.f52a4a0000000p-4, 0x1.b410fe0000000p-5, -0x1.2294f60000000p-3, -0x1.f188d20000000p-4, 0x1.e870880000000p-6, -0x1.c800ac0000000p-4, 0x1.dc46ec0000000p-4, 0x1.4081500000000p-4, -0x1.50b1ae0000000p-3, 0x1.1f9d3a0000000p-6, -0x1.8589f00000000p-3, -0x1.2d51f60000000p-7, -0x1.30f5c80000000p-6, -0x1.0f9a960000000p-6, 0x1.33c0900000000p-5, 0x1.cbd0fe0000000p-4, -0x1.6102b60000000p-8, -0x1.a5c9700000000p-5, -0x1.c864c40000000p-6, -0x1.91b1ee0000000p-6, -0x1.0a9aea0000000p-4, 0x1.32bd060000000p-6, 0x1.e1aa640000000p-6, 0x1.3a58120000000p-4, -0x1.19b4e60000000p-4, 0x1.c5f01e0000000p-6, -0x1.357a3a0000000p-6, -0x1.8346fe0000000p-6, 0x1.25acec0000000p-3, 0x1.918b660000000p-5, -0x1.0645ca0000000p-2, -0x1.56e2180000000p-5, 0x1.0095560000000p-5, 0x1.403fe40000000p-6, -0x1.9a4efa0000000p-4, -0x1.2e82ce0000000p-5, 0x1.52979e0000000p-5, 0x1.567f840000000p-4, 0x1.276f500000000p-4, -0x1.7dc6e00000000p-6, -0x1.aacab40000000p-5, 0x1.6f4cbc0000000p-6, 0x1.16391e0000000p-4, -0x1.2f9a620000000p-3, 0x1.070f9a0000000p-4, 0x1.7592440000000p-5, 0x1.8164580000000p-5, -0x1.ca0cbc0000000p-8, 0x1.7128040000000p-5, -0x1.3df93e0000000p-4, -0x1.0a3c140000000p-4, 0x1.27ea6c0000000p-5, -0x1.19712a0000000p-6, -0x1.48af740000000p-3, -0x1.c4df100000000p-8, 0x1.3c78340000000p-5, -0x1.3924fa0000000p-5, -0x1.32a5820000000p-6, -0x1.b2c8c20000000p-4, 0x1.1d6fb20000000p-4, 0x1.b3bc200000000p-5, 0x1.f596be0000000p-5, -0x1.9be8320000000p-5, 0x1.3229720000000p-4, 0x1.03cb8c0000000p-6, -0x1.81ec4e0000000p-4, 0x1.417a0a0000000p-6, -0x1.9332680000000p-6, -0x1.5b5ca20000000p-4, -0x1.e91c0a0000000p-5, -0x1.844eb40000000p-3, -0x1.044ac60000000p-4, -0x1.24b4740000000p-5, -0x1.8c4c920000000p-9, 0x1.9c11a60000000p-6, -0x1.9f5bc40000000p-5, 0x1.9c49300000000p-8, -0x1.2c1a4a0000000p-6, -0x1.5f526e0000000p-5, -0x1.8967c80000000p-6, 0x1.21201e0000000p-4, -0x1.e447820000000p-5, 0x1.b6cd2a0000000p-4, -0x1.306c5c0000000p-6, -0x1.d69cd80000000p-5, -0x1.9e7f6e0000000p-4, 0x1.239f3a0000000p-6, 0x1.2c59e40000000p-3, 0x1.fac32e0000000p-8, -0x1.60d7c20000000p-4, -0x1.1379080000000p-3, 0x1.8139340000000p-9, -0x1.7c53480000000p-7, -0x1.7ce2820000000p-3, 0x1.0661ca0000000p-5, -0x1.f8738a0000000p-4, 0x1.093e840000000p-3, -0x1.12dc300000000p-3, -0x1.2f080e0000000p-5, 0x1.ddb7cc0000000p-5, -0x1.eda6f20000000p-4, 0x1.39cfde0000000p-6, 0x1.0d57b20000000p-8, 0x1.c75d400000000p-5, 0x1.4d0fa60000000p-4, 0x1.3f2a520000000p-4, 0x1.01664a0000000p-5, 0x1.99246a0000000p-5, 0x1.8a6a440000000p-11, 0x1.1ecbce0000000p-3, 0x1.8a5f1c0000000p-5, 0x1.df7f1c0000000p-5, 0x1.a37c180000000p-9, 0x1.7742ca0000000p-6, -0x1.0d3e9e0000000p-9, -0x1.7d21f40000000p-5, 0x1.6e7d500000000p-4, 0x1.58b9660000000p-4, 0x1.ff37580000000p-5, 0x1.0d8e080000000p-4, 0x1.ed74a80000000p-5, 0x1.53470a0000000p-4, -0x1.5191bc0000000p-6, 0x1.b386020000000p-5, -0x1.1200f20000000p-5, 0x1.26a7940000000p-4, 0x1.16b98c0000000p-4, -0x1.77e0160000000p-6, -0x1.b53de60000000p-8, 0x1.db864c0000000p-4, -0x1.a7a98a0000000p-5, 0x1.8876ea0000000p-6, 0x1.c964a60000000p-4, -0x1.641d1e0000000p-7, -0x1.fd4c6c0000000p-8, 0x1.0d345a0000000p-5, 0x1.18cd080000000p-3, -0x1.ea93200000000p-8, -0x1.6401a40000000p-4, 0x1.8d38560000000p-4, 0x1.313e3c0000000p-7, 0x1.8189420000000p-5, -0x1.70d3ec0000000p-4, 0x1.9b116c0000000p-4, -0x1.7536140000000p-7, 0x1.1b81d80000000p-5, -0x1.15558e0000000p-4, 0x1.0e0a220000000p-4, 0x1.b4135e0000000p-4, 0x1.7bf7c20000000p-5, -0x1.922afe0000000p-6, 0x1.3308ec0000000p-6, -0x1.42e5b60000000p-4, 0x1.5e76a60000000p-4, 0x1.2c56220000000p-3, 0x1.ad02180000000p-5, -0x1.b658b00000000p-6, -0x1.0a34d00000000p-8, 0x1.efd3180000000p-6, -0x1.0609340000000p-8, 0x1.a73e480000000p-5, 0x1.1fb5e80000000p-6, -0x1.6e838e0000000p-3, -0x1.4781e40000000p-4, -0x1.1e9cca0000000p-5, -0x1.7625560000000p-4, -0x1.798ffe0000000p-7, -0x1.ec246e0000000p-5, 0x1.3c350c0000000p-8, 0x1.b624100000000p-7, -0x1.220a9a0000000p-3, -0x1.d4e6f40000000p-7, 0x1.67df0e0000000p-5, -0x1.9932a80000000p-5, 0x1.a541620000000p-5, -0x1.724ddc0000000p-5, -0x1.650fc80000000p-9, -0x1.066f3c0000000p-4, -0x1.3120ee0000000p-4, -0x1.4fb96e0000000p-5, -0x1.94b8780000000p-4, -0x1.c2338a0000000p-6, -0x1.0c4dd20000000p-3, -0x1.b2bd7c0000000p-6, -0x1.4f94800000000p-4, 0x1.7786520000000p-6, 0x1.bec68e0000000p-4, -0x1.3cd1ba0000000p-7, -0x1.079eea0000000p-7, -0x1.fe0b540000000p-6, -0x1.220fac0000000p-2, -0x1.ce20080000000p-5, 0x1.aad94c0000000p-4, -0x1.66ac340000000p-5, -0x1.ed12500000000p-6, -0x1.94615c0000000p-6, 0x1.71df7c0000000p-6, 0x1.9166200000000p-3, 0x1.000e660000000p-3, -0x1.4f6a720000000p-8, -0x1.4b09460000000p-7, 0x1.59e6200000000p-6, 0x1.ffb46e0000000p-5, 0x1.c6dcd00000000p-5, -0x1.9c86740000000p-5, 0x1.75f06a0000000p-5, -0x1.c5c9b40000000p-5, -0x1.158c8c0000000p-5, -0x1.16cd720000000p-4, 0x1.0f088e0000000p-4, 0x1.b7caa80000000p-5, 0x1.0a8a220000000p-4, -0x1.ba90020000000p-8, -0x1.4f8eb40000000p-4, -0x1.0f21f80000000p-8, -0x1.15307e0000000p-5, -0x1.0ae46c0000000p-5, -0x1.312d840000000p-8, -0x1.7d25320000000p-7, 0x1.3dc74c0000000p-11, 0x1.0e59740000000p-4, -0x1.9124cc0000000p-5, 0x1.54c2bc0000000p-4, -0x1.3978a60000000p-4, 0x1.50f9cc0000000p-6, 0x1.bfdade0000000p-8, 0x1.bece080000000p-4, -0x1.f9660a0000000p-6, -0x1.18af0c0000000p-4, 0x1.7d540c0000000p-2, 0x1.e518ac0000000p-7, 0x1.4de5620000000p-4, -0x1.9d21c00000000p-6, 0x1.7fa4720000000p-8, 0x1.eb4ccc0000000p-5, 0x1.4b70be0000000p-7, 0x1.8eebc20000000p-6, 0x1.9e440a0000000p-3, 0x1.f01a200000000p-4, 0x1.30bd900000000p-3, 0x1.301e5c0000000p-4, 0x1.2117fe0000000p-2, 0x1.23d1f60000000p-3, 0x1.c71e2e0000000p-3, 0x1.fa216a0000000p-6, -0x1.2429820000000p-4, 0x1.0e09960000000p-3, 0x1.dbea260000000p-5, 0x1.32dedc0000000p-4, 0x1.a51fe60000000p-4, -0x1.50bb440000000p-4, 0x1.b7adec0000000p-7, 0x1.f13d960000000p-4, -0x1.d8b0720000000p-5, -0x1.16a9720000000p-6, -0x1.8cf6500000000p-4, -0x1.0c231e0000000p-7, -0x1.ae5e4c0000000p-7, -0x1.73ae4a0000000p-4, -0x1.e310ee0000000p-4, 0x1.e86b820000000p-9}
, {-0x1.abfc5c0000000p-4, -0x1.6b463e0000000p-6, 0x1.26d7e40000000p-5, 0x1.1c60560000000p-8, -0x1.24075a0000000p-5, 0x1.807b440000000p-6, -0x1.3fbcd20000000p-4, 0x1.88557a0000000p-3, -0x1.960f460000000p-4, -0x1.6f0cbe0000000p-4, -0x1.9ddece0000000p-5, 0x1.5bbf080000000p-7, 0x1.c9e2e80000000p-5, -0x1.1b2cc00000000p-4, 0x1.0576fa0000000p-6, -0x1.e1e6960000000p-6, 0x1.8ad7ba0000000p-6, 0x1.40cfc60000000p-4, 0x1.ef48cc0000000p-5, 0x1.9dbaa60000000p-4, 0x1.0d76160000000p-4, -0x1.1bae0e0000000p-5, 0x1.5da7be0000000p-5, 0x1.05f66e0000000p-5, 0x1.11f0d40000000p-3, 0x1.284bf00000000p-3, -0x1.86f61c0000000p-10, -0x1.e15ab80000000p-4, 0x1.910d120000000p-6, -0x1.1df8f80000000p-4, -0x1.5dc9020000000p-6, 0x1.5489c20000000p-6, -0x1.7e5db80000000p-8, -0x1.ef6a8a0000000p-7, 0x1.449dac0000000p-4, 0x1.49e7520000000p-7, 0x1.4c28060000000p-8, 0x1.a149ac0000000p-4, -0x1.895bb80000000p-4, -0x1.12d0940000000p-7, -0x1.9da3700000000p-5, 0x1.ee8fe60000000p-5, -0x1.8032b00000000p-5, 0x1.668d920000000p-8, 0x1.feb3b80000000p-8, 0x1.536f6a0000000p-5, -0x1.e7c9700000000p-4, -0x1.0b9cf40000000p-6, 0x1.ad3c1e0000000p-7, -0x1.2416960000000p-6, -0x1.26dae80000000p-5, 0x1.648cb00000000p-5, 0x1.34b3720000000p-4, 0x1.6086f40000000p-5, 0x1.2f8dee0000000p-3, -0x1.b3288c0000000p-7, -0x1.c9d08e0000000p-4, 0x1.46cd740000000p-6, -0x1.ea322c0000000p-5, -0x1.9ccc7a0000000p-7, 0x1.3783f40000000p-3, 0x1.15b7080000000p-3, 0x1.9b06220000000p-6, 0x1.264d7a0000000p-3, -0x1.4ae73a0000000p-4, 0x1.a91b960000000p-5, 0x1.0854ea0000000p-6, -0x1.36c6d60000000p-4, 0x1.475dac0000000p-4, -0x1.73dac80000000p-6, -0x1.cd6edc0000000p-5, 0x1.be08400000000p-5, 0x1.08ab300000000p-8, 0x1.3746020000000p-5, 0x1.b818f60000000p-7, 0x1.16b1760000000p-6, -0x1.9d98aa0000000p-5, 0x1.9dc9040000000p-6, 0x1.a3189a0000000p-6, 0x1.d619300000000p-9, 0x1.83d5060000000p-6, 0x1.8cb93c0000000p-4, -0x1.853be80000000p-8, -0x1.6d482e0000000p-5, 0x1.2fc14a0000000p-6, -0x1.a199d40000000p-9, 0x1.f8fb920000000p-4, -0x1.8037420000000p-5, 0x1.bda7680000000p-5, -0x1.e2f5b20000000p-7, -0x1.ad14fa0000000p-5, 0x1.0f7a920000000p-3, 0x1.50bf2e0000000p-3, 0x1.6821fa0000000p-6, -0x1.5a73b80000000p-4, 0x1.3b9c2c0000000p-8, -0x1.20f4160000000p-6, -0x1.a2c9180000000p-5, -0x1.5d73ec0000000p-3, 0x1.629b3a0000000p-5, -0x1.1cc6d20000000p-3, 0x1.c3d8120000000p-6, 0x1.11fb820000000p-3, -0x1.433e540000000p-4, 0x1.0df62e0000000p-5, -0x1.17df420000000p-3, 0x1.6ab43a0000000p-6, 0x1.f649200000000p-5, 0x1.db76aa0000000p-5, 0x1.a61e5c0000000p-5, 0x1.747a020000000p-4, -0x1.ef89a20000000p-5, -0x1.fdffbe0000000p-9, 0x1.002c660000000p-5, 0x1.3ab08a0000000p-4, 0x1.609d1e0000000p-3, -0x1.64b1240000000p-5, 0x1.f796da0000000p-5, 0x1.a5b7a80000000p-6, -0x1.df3c120000000p-4, 0x1.4c30ce0000000p-4, 0x1.36ec060000000p-4, 0x1.00f12c0000000p-4, -0x1.8291520000000p-3, 0x1.6ea5200000000p-5, -0x1.cdd0dc0000000p-5, -0x1.39f6320000000p-3, -0x1.c57a6a0000000p-3, -0x1.0aa3b80000000p-6, 0x1.15acd40000000p-7, -0x1.26f4a00000000p-7, -0x1.bd1b320000000p-4, -0x1.e6d8ce0000000p-4, -0x1.355fb00000000p-7, -0x1.e1d3da0000000p-7, -0x1.0f59fe0000000p-4, -0x1.49a4b60000000p-4, -0x1.633bd00000000p-3, -0x1.6d1ce60000000p-4, -0x1.72c0ce0000000p-4, -0x1.72018c0000000p-3, -0x1.b9797e0000000p-4, -0x1.e3e8320000000p-5, -0x1.68f8920000000p-3, -0x1.1793640000000p-4, 0x1.7025400000000p-5, 0x1.ec3a780000000p-4, -0x1.a0d0300000000p-5, -0x1.0fa12e0000000p-3, -0x1.7cb6820000000p-3, -0x1.8088ca0000000p-5, -0x1.b3ebb40000000p-6, -0x1.b2b14e0000000p-4, -0x1.4ce7ca0000000p-6, -0x1.00af7a0000000p-5, -0x1.5ad3620000000p-4, -0x1.e88a1a0000000p-6, -0x1.e502ea0000000p-4, -0x1.d0ff460000000p-4, -0x1.0924ee0000000p-3, -0x1.69f73a0000000p-7, -0x1.fe6b0c0000000p-5, -0x1.970a4a0000000p-4, -0x1.4292080000000p-5, -0x1.0800840000000p-4, -0x1.ba64c40000000p-7, -0x1.c6b9200000000p-5, 0x1.03a1680000000p-4, -0x1.3a97080000000p-7, -0x1.5a34fa0000000p-6, 0x1.0be6360000000p-3, -0x1.96d4100000000p-4, 0x1.451d580000000p-5, -0x1.613fd60000000p-4, 0x1.1104400000000p-4, 0x1.5946c20000000p-4, 0x1.91ad860000000p-4, 0x1.fdea200000000p-6, -0x1.0858b40000000p-8, -0x1.276d360000000p-5, 0x1.a8162e0000000p-6, 0x1.5b3fae0000000p-4, 0x1.8afba00000000p-6, -0x1.0f00fe0000000p-3, 0x1.c06dc60000000p-5, -0x1.867f3a0000000p-4, 0x1.9800b80000000p-5, -0x1.b8edbc0000000p-4, 0x1.0d23a20000000p-6, 0x1.0308800000000p-4, 0x1.e8572c0000000p-8, 0x1.a345340000000p-6, -0x1.aca2660000000p-6, 0x1.024f860000000p-6, -0x1.ee5d880000000p-5, -0x1.a56aa00000000p-6, 0x1.cd97140000000p-4, 0x1.fd3d0c0000000p-5, -0x1.56f6ea0000000p-4, 0x1.0ae59e0000000p-5, -0x1.8b93200000000p-5, -0x1.1da5340000000p-3, -0x1.26acb80000000p-4, -0x1.0b70820000000p-7, 0x1.e888ac0000000p-4, 0x1.c3def40000000p-4, -0x1.9686d40000000p-6, 0x1.8ad5ac0000000p-3, 0x1.de75ce0000000p-4, -0x1.f276980000000p-4, -0x1.e4ff280000000p-4, -0x1.254cfe0000000p-3, -0x1.5191a40000000p-3, 0x1.22e2520000000p-3, 0x1.3e7c2a0000000p-6, 0x1.ca74c80000000p-12, 0x1.8cc33e0000000p-4, -0x1.a4061a0000000p-7, -0x1.7a0d500000000p-5, 0x1.ccf7ba0000000p-5, 0x1.da59180000000p-6, 0x1.8198c60000000p-4, -0x1.0311460000000p-4, -0x1.5c81f20000000p-5, 0x1.25f22a0000000p-4, 0x1.ca82800000000p-5, -0x1.45c47c0000000p-6, 0x1.40421c0000000p-4, 0x1.e08cec0000000p-4, 0x1.6369c00000000p-7, 0x1.1fc0160000000p-5, -0x1.323da80000000p-4, -0x1.e0a2b60000000p-5, -0x1.a7e6f40000000p-4, 0x1.a2fc2c0000000p-4, -0x1.6aa6b60000000p-5, -0x1.1107e40000000p-5, -0x1.5a30fa0000000p-5, -0x1.7f43240000000p-7, -0x1.cdf3ec0000000p-5, 0x1.9835a20000000p-10, 0x1.5b3db00000000p-8, 0x1.c024b60000000p-10, -0x1.57c25a0000000p-3, -0x1.12b99a0000000p-3, 0x1.2198420000000p-5, 0x1.12cfe40000000p-5, -0x1.36fab00000000p-4, 0x1.7e41200000000p-6, -0x1.50bf160000000p-3, -0x1.4f67f20000000p-6, -0x1.17426a0000000p-3, 0x1.f9d6d80000000p-4, 0x1.3df05c0000000p-5, 0x1.40e78e0000000p-5, -0x1.b722d00000000p-4, 0x1.e58fa40000000p-5, 0x1.4c99340000000p-5, -0x1.344e500000000p-6, -0x1.a8fe220000000p-4, -0x1.1adf9a0000000p-5, 0x1.dc18180000000p-5, 0x1.1f11120000000p-5, -0x1.66e13e0000000p-3, 0x1.b8bfa20000000p-8, -0x1.7c9d800000000p-5, -0x1.2d5f6c0000000p-3, 0x1.54689e0000000p-5, 0x1.5fc2020000000p-5, 0x1.29756a0000000p-4, 0x1.c9f06e0000000p-3, -0x1.f49f780000000p-5, -0x1.5745c20000000p-3, 0x1.ee7dba0000000p-4, 0x1.cdb19a0000000p-7, 0x1.e5ad560000000p-6, -0x1.43516a0000000p-6, 0x1.88cec60000000p-4, 0x1.b95c400000000p-4, 0x1.b3024c0000000p-4, -0x1.c2213c0000000p-5, -0x1.a56a080000000p-3, 0x1.cf35980000000p-4, -0x1.fc73dc0000000p-5, -0x1.6c3a060000000p-4, -0x1.af15000000000p-5, -0x1.0b558c0000000p-4, -0x1.5685aa0000000p-4, 0x1.64753a0000000p-3, 0x1.9029c80000000p-7, -0x1.4f7d6c0000000p-3, -0x1.eaa1200000000p-6, -0x1.1046980000000p-3, -0x1.ed05a20000000p-6, -0x1.13fe820000000p-4, -0x1.2fd0e00000000p-4, 0x1.3db2000000000p-6, -0x1.b0190a0000000p-5, -0x1.0f88460000000p-3, 0x1.209ea80000000p-4, 0x1.653c720000000p-7, 0x1.5589680000000p-4, -0x1.b07da80000000p-5, -0x1.6f08de0000000p-4, -0x1.3eecf60000000p-4, 0x1.77c51e0000000p-5, 0x1.4b3eaa0000000p-4, 0x1.9536c20000000p-6, -0x1.97eec60000000p-4, -0x1.561cc80000000p-4, -0x1.9e0e8e0000000p-4, -0x1.19f7e40000000p-4, -0x1.bce3520000000p-3, 0x1.36e3a40000000p-4, 0x1.eb36b20000000p-6, 0x1.5d151e0000000p-7, 0x1.93012c0000000p-5, 0x1.6677880000000p-7, 0x1.a5cce00000000p-7, -0x1.6cc81c0000000p-4, 0x1.1795d00000000p-6, -0x1.2eec9e0000000p-3, 0x1.8bbf8c0000000p-10, 0x1.4e59380000000p-4, 0x1.05422a0000000p-4, -0x1.93412e0000000p-7, 0x1.fc988c0000000p-5, -0x1.515ba80000000p-4, -0x1.8bff3c0000000p-7, 0x1.0e88900000000p-7, -0x1.7c1b2c0000000p-4, -0x1.a2d9bc0000000p-6, -0x1.57abfa0000000p-6, -0x1.54d7380000000p-6, 0x1.d400460000000p-5, 0x1.146c220000000p-8, -0x1.0088120000000p-3, 0x1.b71a0c0000000p-4, 0x1.30b23a0000000p-6, -0x1.a6707c0000000p-6, 0x1.e44e880000000p-4, -0x1.e60f660000000p-5, 0x1.3ba25e0000000p-3, -0x1.e1cd880000000p-4, -0x1.3a4f300000000p-4, -0x1.f795700000000p-7, -0x1.4a04640000000p-4, -0x1.e138560000000p-5, 0x1.62015a0000000p-6, -0x1.f0476e0000000p-8, -0x1.762d0a0000000p-3, 0x1.ee917e0000000p-6, -0x1.3073fc0000000p-7, -0x1.36fe7a0000000p-4, 0x1.b707b20000000p-6, 0x1.9f66ca0000000p-5, -0x1.9360ac0000000p-5, 0x1.7022aa0000000p-6, 0x1.285d1e0000000p-4, 0x1.4508920000000p-6, 0x1.27d5ae0000000p-7, 0x1.3e56620000000p-4, -0x1.4c93cc0000000p-4, -0x1.d156e80000000p-14, 0x1.936e1e0000000p-4, -0x1.2754bc0000000p-5, 0x1.07d7ea0000000p-3, -0x1.20c0d40000000p-5, 0x1.d789ac0000000p-5, -0x1.2759880000000p-5, -0x1.c1839e0000000p-4, -0x1.06328a0000000p-8, 0x1.f725ba0000000p-5, 0x1.7209fa0000000p-6, -0x1.0b2e9e0000000p-4, -0x1.0d1e5c0000000p-4, -0x1.1ee8140000000p-4, -0x1.80147e0000000p-5, -0x1.474b040000000p-6, 0x1.784e7e0000000p-4, -0x1.1dcbe80000000p-5, 0x1.05b66c0000000p-4, 0x1.1fea0e0000000p-4, -0x1.60dd220000000p-6, -0x1.cd9e860000000p-4, 0x1.2412ee0000000p-4, -0x1.7d01c40000000p-5, -0x1.4c6dda0000000p-4, -0x1.efa7de0000000p-6, 0x1.52c88e0000000p-4, 0x1.458ef20000000p-9, -0x1.e518600000000p-4, 0x1.15b0720000000p-4, -0x1.26c1460000000p-6, -0x1.2eada60000000p-4, -0x1.1f96780000000p-3, 0x1.422b5e0000000p-4, -0x1.29ffbc0000000p-4, 0x1.79bd0e0000000p-7, -0x1.83a81a0000000p-5, -0x1.1339720000000p-7, -0x1.511c800000000p-5, -0x1.e0785e0000000p-4, 0x1.0e73140000000p-8, -0x1.2f23ee0000000p-3, -0x1.fc73960000000p-5, -0x1.11bda60000000p-4, 0x1.5cef280000000p-4, -0x1.b7a99c0000000p-5, 0x1.1fc7be0000000p-3, 0x1.fe67ea0000000p-7, -0x1.9b778e0000000p-4, -0x1.858b880000000p-3, 0x1.b904d40000000p-5, 0x1.33c83c0000000p-4, -0x1.58e6ae0000000p-3, 0x1.19e5900000000p-3, 0x1.09bd420000000p-4, 0x1.fd47fe0000000p-5, 0x1.d05fbc0000000p-7, 0x1.5b84fe0000000p-6, 0x1.11f93a0000000p-5, 0x1.35ecd20000000p-5, 0x1.ad9a160000000p-5, -0x1.b72a0a0000000p-7, -0x1.7038da0000000p-4, -0x1.c426360000000p-5, -0x1.b083ce0000000p-5, -0x1.718f680000000p-6, 0x1.a2609c0000000p-5, 0x1.7852940000000p-5, 0x1.a690c60000000p-7, -0x1.34dac80000000p-3, 0x1.6cc44a0000000p-4, 0x1.546d740000000p-5, 0x1.4fb7fa0000000p-7, 0x1.07f8020000000p-6, -0x1.1c59f00000000p-4, -0x1.0e6e3a0000000p-3, 0x1.1ec4920000000p-5, -0x1.3981380000000p-3, -0x1.d6e9540000000p-4, 0x1.40222e0000000p-3, -0x1.766b500000000p-3, 0x1.6790100000000p-8, 0x1.73b9960000000p-6, -0x1.1f95d40000000p-3, -0x1.736b1a0000000p-3, -0x1.6bacf20000000p-6, -0x1.dca1ce0000000p-6, -0x1.e51a8e0000000p-4, -0x1.ff81580000000p-5, -0x1.699e460000000p-3, 0x1.d527a80000000p-5, -0x1.72ab540000000p-5, -0x1.e3e8f20000000p-5, -0x1.3352300000000p-4, -0x1.435f0e0000000p-4, 0x1.82524a0000000p-4, 0x1.82238c0000000p-8, -0x1.4ffefc0000000p-5, 0x1.4197800000000p-3, -0x1.ec03ba0000000p-5, 0x1.5df8a00000000p-8, 0x1.70fdbe0000000p-4, 0x1.b800e60000000p-5, 0x1.e8208c0000000p-5, -0x1.50722e0000000p-4, 0x1.07ce000000000p-5, -0x1.29a1a40000000p-4, 0x1.1e08560000000p-4, -0x1.01aaf00000000p-5, -0x1.7cdd860000000p-6, 0x1.8399960000000p-4, 0x1.6df6280000000p-3, -0x1.9020c40000000p-5, -0x1.9e41220000000p-7, 0x1.a6b1940000000p-4, -0x1.13d5380000000p-3, -0x1.2d8f200000000p-4, 0x1.84066c0000000p-5, -0x1.b420640000000p-7, -0x1.de223c0000000p-5, 0x1.9e6ec40000000p-7, -0x1.af49520000000p-5, 0x1.a2f9d60000000p-4, -0x1.5c6dfc0000000p-5, 0x1.942dd40000000p-9, -0x1.33418a0000000p-6, -0x1.bde5e80000000p-5, 0x1.16ffa20000000p-4, 0x1.6318b60000000p-5, -0x1.17c2040000000p-8, 0x1.0920120000000p-11, 0x1.cd3f820000000p-5, 0x1.6d4d9c0000000p-4, -0x1.fb5a0a0000000p-6, 0x1.5673f40000000p-6, -0x1.c1d2140000000p-7, 0x1.ffcf440000000p-6, -0x1.235e020000000p-3, 0x1.013b500000000p-8, 0x1.ed7d060000000p-8, 0x1.e296240000000p-8, -0x1.ea932c0000000p-4, -0x1.88cb000000000p-5, 0x1.45d2ac0000000p-4, -0x1.03a7d40000000p-7, -0x1.469b480000000p-4, 0x1.49974e0000000p-6, -0x1.4cce0a0000000p-4, -0x1.10d8740000000p-5, -0x1.0a72b00000000p-4, 0x1.0083820000000p-7, -0x1.9789480000000p-4, 0x1.fcf3020000000p-5, -0x1.52bf2c0000000p-4, 0x1.8754940000000p-4, 0x1.b5b3cc0000000p-4, -0x1.a411100000000p-8, -0x1.dd370c0000000p-6, -0x1.8170c80000000p-3, -0x1.7845960000000p-4, 0x1.1e33ec0000000p-3, 0x1.9b01120000000p-7, -0x1.6a98840000000p-3, 0x1.7794700000000p-4, 0x1.3d70c40000000p-6, -0x1.4025f00000000p-5, 0x1.7542b80000000p-4, -0x1.4efe100000000p-6, 0x1.c616800000000p-7, -0x1.0a00620000000p-4, -0x1.8295760000000p-6, -0x1.57cde60000000p-4, -0x1.1ede9e0000000p-3, 0x1.a9a9960000000p-4, 0x1.02836e0000000p-4, -0x1.6d5e7c0000000p-4, 0x1.b74ea80000000p-6, -0x1.7740e80000000p-3, 0x1.f146d00000000p-5, -0x1.8e41fc0000000p-4, -0x1.7f12f60000000p-6, -0x1.7b246e0000000p-4, -0x1.d81d6a0000000p-5, -0x1.1a84540000000p-3, 0x1.e8e1bc0000000p-4, -0x1.04503e0000000p-5, 0x1.7711560000000p-4, 0x1.5578900000000p-3, -0x1.e8bb1e0000000p-6, 0x1.0b22fe0000000p-3, 0x1.c1d1360000000p-5, -0x1.2c89f00000000p-3, 0x1.6df5a20000000p-5, -0x1.97de080000000p-4, -0x1.36217e0000000p-4, -0x1.380b2a0000000p-3, -0x1.50a53e0000000p-4, -0x1.f1e7b80000000p-5, -0x1.8975760000000p-4, -0x1.bf5cae0000000p-5, -0x1.4203580000000p-4, -0x1.2250ee0000000p-4, 0x1.ec89980000000p-6, -0x1.d4673c0000000p-3, -0x1.b67ac00000000p-4, 0x1.15c18c0000000p-3, 0x1.92c1000000000p-4, -0x1.258cc60000000p-6, 0x1.1ca44c0000000p-3, 0x1.a113fc0000000p-8, -0x1.1e47540000000p-4, 0x1.f8829c0000000p-5, -0x1.78da900000000p-5, -0x1.1cc25e0000000p-5, 0x1.0c5c8c0000000p-5, 0x1.9038d60000000p-8, -0x1.676a120000000p-4, -0x1.bdaa660000000p-5, -0x1.5dd7c20000000p-5, -0x1.d6b8140000000p-4, -0x1.2017f00000000p-6, 0x1.3a198e0000000p-7, -0x1.c1f7de0000000p-4, 0x1.e7245e0000000p-5, -0x1.07b57c0000000p-4, -0x1.c3c7180000000p-4, -0x1.51bba40000000p-7, -0x1.6021cc0000000p-5, 0x1.83d0f20000000p-6, -0x1.dd2da00000000p-6, -0x1.1906920000000p-4, 0x1.3aa4900000000p-6, 0x1.15ced60000000p-5, -0x1.d323f40000000p-4, -0x1.08a14c0000000p-3, 0x1.e8f7a80000000p-5, 0x1.4132ae0000000p-6, -0x1.16eaba0000000p-5, -0x1.3b7c300000000p-3, 0x1.a988180000000p-5, -0x1.b0f6aa0000000p-4, -0x1.89206c0000000p-11, 0x1.12ffec0000000p-5, 0x1.b4e0fe0000000p-5, 0x1.9d64020000000p-6, 0x1.35fe600000000p-5, 0x1.2ca3320000000p-3, -0x1.f3b63c0000000p-13, -0x1.6acb5e0000000p-4, -0x1.9e18820000000p-5, -0x1.2b666a0000000p-4, -0x1.a7f1cc0000000p-6, -0x1.192ed60000000p-7, 0x1.4075300000000p-5, -0x1.4984720000000p-4, -0x1.7c0e9c0000000p-4, 0x1.1f104a0000000p-3, -0x1.76c93a0000000p-4, -0x1.8733300000000p-7, 0x1.1512240000000p-4, -0x1.8b007c0000000p-3, -0x1.ba8bb80000000p-4, 0x1.ae1fc00000000p-5, 0x1.80d36e0000000p-4, -0x1.dd4c840000000p-7, 0x1.e61b160000000p-5, -0x1.66d3c60000000p-4, -0x1.3d1cea0000000p-3, 0x1.bf16d00000000p-4, -0x1.a6ad540000000p-5, -0x1.7d55c40000000p-5, 0x1.33c87c0000000p-5, -0x1.3bf20c0000000p-8, -0x1.11b56e0000000p-5, -0x1.2471f60000000p-4, -0x1.943d1e0000000p-5, -0x1.5633be0000000p-5, 0x1.0ed9f60000000p-3, -0x1.348c220000000p-5, 0x1.f6e51a0000000p-6, 0x1.21a7100000000p-6, 0x1.9dff260000000p-9, 0x1.98e6620000000p-4, -0x1.283b960000000p-5, 0x1.8ae4ea0000000p-4, 0x1.96cabe0000000p-6, 0x1.97f6cc0000000p-9, 0x1.17cbec0000000p-3, -0x1.10ffe20000000p-10, -0x1.c0bdcc0000000p-5, 0x1.28c8320000000p-5, 0x1.4b2c080000000p-5, -0x1.3ade920000000p-7, -0x1.3e20ce0000000p-3, 0x1.f32ea00000000p-4, 0x1.c222160000000p-5, 0x1.8738260000000p-4, -0x1.b2b8fe0000000p-4, -0x1.3b84de0000000p-3, -0x1.2ffd300000000p-4, 0x1.0b02a00000000p-3, -0x1.25d3380000000p-5, 0x1.14f22c0000000p-4, 0x1.72f5580000000p-5, 0x1.2ea3860000000p-5, 0x1.9d09920000000p-4, -0x1.c308140000000p-8, 0x1.82eb020000000p-6, 0x1.cffe7a0000000p-5, 0x1.6af0940000000p-4, -0x1.7192a80000000p-8, -0x1.1048a00000000p-5, 0x1.4ecb9e0000000p-6, 0x1.0c10520000000p-5, 0x1.6f89060000000p-5, 0x1.b0162c0000000p-4, -0x1.1e4c660000000p-4, -0x1.ac34c80000000p-8, -0x1.751aea0000000p-6, 0x1.e4e21e0000000p-4, -0x1.9834de0000000p-7, 0x1.8140b80000000p-4, -0x1.35a26a0000000p-4, 0x1.1780500000000p-5, -0x1.a091d80000000p-5, -0x1.eed3340000000p-6, 0x1.9ae20a0000000p-7, -0x1.3b5f480000000p-6, 0x1.5491900000000p-6, -0x1.53e52a0000000p-6, -0x1.3c9f140000000p-3, -0x1.5ed7920000000p-5, 0x1.d932860000000p-5, -0x1.850bf40000000p-4, -0x1.d556d40000000p-7, -0x1.8f09300000000p-4, 0x1.1b044a0000000p-3, -0x1.39b31c0000000p-5, -0x1.0ab71e0000000p-3, -0x1.ef1d680000000p-5, -0x1.0284ac0000000p-8, -0x1.1a8d160000000p-12, -0x1.4683e60000000p-3, -0x1.bee78c0000000p-4, -0x1.06aeaa0000000p-3, 0x1.3c64ac0000000p-4, 0x1.62d62c0000000p-5, -0x1.b42f900000000p-5, 0x1.d5c2e40000000p-10, 0x1.8f1f6e0000000p-4, -0x1.2b918c0000000p-6, -0x1.900a500000000p-5, -0x1.ff0ec00000000p-6, -0x1.ebf15a0000000p-7, 0x1.cc4e580000000p-7, 0x1.77105c0000000p-6, -0x1.9031700000000p-5, -0x1.4430960000000p-7, 0x1.a885080000000p-4, -0x1.626ad60000000p-4, -0x1.008b680000000p-4, -0x1.0e4f540000000p-6, 0x1.3e460c0000000p-6, -0x1.910d9a0000000p-9, 0x1.4d584a0000000p-6, -0x1.5499a40000000p-3, 0x1.195ff00000000p-3, 0x1.548c2e0000000p-7, 0x1.7828760000000p-4, -0x1.f9d2c00000000p-4, -0x1.32a7700000000p-3, -0x1.2976140000000p-5, -0x1.e87c940000000p-6, -0x1.624a4e0000000p-7, 0x1.91313c0000000p-5, -0x1.64c4080000000p-5, 0x1.dbc5200000000p-4, 0x1.ea124c0000000p-6, -0x1.e5b4880000000p-4, -0x1.46cdb40000000p-4, -0x1.903bce0000000p-5, 0x1.2f4ed40000000p-3, -0x1.dc8fda0000000p-4, 0x1.332de00000000p-7, -0x1.70b6180000000p-9, -0x1.468e7e0000000p-4, 0x1.93133a0000000p-5, -0x1.6b37b40000000p-5, -0x1.5a954e0000000p-6, 0x1.4172d40000000p-4, -0x1.6cc4dc0000000p-5, -0x1.a0f8a00000000p-5, -0x1.1376940000000p-4, -0x1.24f6960000000p-5, -0x1.a24c1a0000000p-5, -0x1.8c80fa0000000p-5, 0x1.e10e6c0000000p-7, -0x1.a7f7540000000p-4, -0x1.7adf700000000p-6, -0x1.810f500000000p-4, 0x1.eb9dfa0000000p-5, -0x1.0c79360000000p-5, -0x1.9fadec0000000p-4, -0x1.6ac6060000000p-7, 0x1.bf36b00000000p-6, 0x1.31884a0000000p-4, 0x1.612d300000000p-6, 0x1.0a01f20000000p-5, 0x1.7f6ca60000000p-6, 0x1.2530ea0000000p-5, -0x1.700e920000000p-7, -0x1.dcfbaa0000000p-6, 0x1.f3dbb40000000p-5, 0x1.e89f660000000p-5, -0x1.9afeb60000000p-3, -0x1.b87b960000000p-5, 0x1.0bd4680000000p-4, 0x1.1e75820000000p-5, -0x1.65f4b80000000p-5, 0x1.1fbf020000000p-6, 0x1.326f0a0000000p-5, 0x1.46a5400000000p-4, -0x1.9988d80000000p-6, -0x1.6f82120000000p-4, -0x1.901cea0000000p-6, -0x1.ff44f80000000p-6, 0x1.5f20ac0000000p-6, 0x1.1767900000000p-7, 0x1.ad94b80000000p-4, 0x1.85f4ba0000000p-3, -0x1.b4d16c0000000p-4, 0x1.faeeee0000000p-5, -0x1.55a91e0000000p-3, -0x1.0273d60000000p-6, -0x1.a1fb800000000p-4, -0x1.3706200000000p-3, -0x1.3ea2780000000p-3}
