/**
  ******************************************************************************
  * @file    weights/fc.cc
  * @author  Pierre-Emmanuel Novac <penovac@unice.fr>, LEAT, CNRS, Université Côte d'Azur, France
  * @version 1.0.0
  * @date    24 march 2020
  * @brief   Template generating plain C code for the implementation of Convolutional Neural Networks on MCU
  */

#include <stdint.h>

#define INPUT_SAMPLES 256
#define FC_UNITS 10


const float dense_1_bias[FC_UNITS] = {0x1.d10a8c0000000p-5, -0x1.74a25e0000000p-6, -0x1.fb940c0000000p-4, -0x1.ae6fea0000000p-6, -0x1.fa92a00000000p-6, -0x1.0b62f40000000p-6, -0x1.f34abc0000000p-4, -0x1.ceb7680000000p-7, 0x1.cbe7e80000000p-3, 0x1.906ed40000000p-8}
;

const float dense_1_kernel[FC_UNITS][INPUT_SAMPLES] = {{-0x1.9216b60000000p-3, -0x1.5135840000000p-3, 0x1.b0d31c0000000p-5, -0x1.ee92080000000p-6, 0x1.7dd3de0000000p-3, 0x1.bc65520000000p-4, -0x1.a54cae0000000p-3, 0x1.cde2f00000000p-3, -0x1.07bb780000000p-3, 0x1.024cd40000000p-3, 0x1.a017360000000p-4, 0x1.08ba360000000p-5, -0x1.6093b40000000p-3, 0x1.39d3ec0000000p-5, 0x1.3288680000000p-3, 0x1.b936f40000000p-4, -0x1.a8fb640000000p-2, 0x1.2ab3f00000000p-4, -0x1.74a5e20000000p-4, -0x1.f38e660000000p-4, -0x1.063eae0000000p-3, 0x1.c5376a0000000p-4, -0x1.bfdc9c0000000p-4, 0x1.d192740000000p-4, -0x1.e479f80000000p-3, -0x1.0af85c0000000p-5, -0x1.6352260000000p-3, 0x1.114bea0000000p-3, -0x1.517e0c0000000p-3, 0x1.157b680000000p-3, 0x1.f2e3960000000p-4, 0x1.321ac20000000p-3, -0x1.6c55b40000000p-2, -0x1.888f500000000p-4, 0x1.3d66d80000000p-3, 0x1.af86980000000p-5, 0x1.7e9c240000000p-4, -0x1.384de60000000p-3, -0x1.76bc860000000p-3, -0x1.19dd520000000p-5, -0x1.cf704c0000000p-5, -0x1.635adc0000000p-3, 0x1.7973be0000000p-4, 0x1.fa16a80000000p-4, 0x1.2d108a0000000p-3, -0x1.9695480000000p-3, -0x1.be72560000000p-3, 0x1.bb15cc0000000p-6, -0x1.06be400000000p-6, -0x1.c74c2a0000000p-3, -0x1.45f7940000000p-2, -0x1.50d0560000000p-3, 0x1.8ead700000000p-4, -0x1.ca632c0000000p-4, -0x1.eded200000000p-6, -0x1.a1d25c0000000p-4, -0x1.4425480000000p-5, -0x1.7ed8180000000p-3, -0x1.99ea660000000p-4, 0x1.1839dc0000000p-3, 0x1.55eec20000000p-3, -0x1.546d080000000p-3, 0x1.68cd780000000p-4, 0x1.941f3c0000000p-5, 0x1.6c98980000000p-4, 0x1.4582e00000000p-4, -0x1.0afb1a0000000p-4, -0x1.436b260000000p-3, 0x1.a152e00000000p-4, 0x1.54cca60000000p-5, -0x1.05bee20000000p-3, 0x1.744da40000000p-3, 0x1.57fae00000000p-4, -0x1.2247dc0000000p-3, -0x1.aae2760000000p-3, -0x1.fce2320000000p-3, -0x1.8162fe0000000p-10, -0x1.a91d060000000p-4, -0x1.0c70e40000000p-6, -0x1.ccb27c0000000p-3, 0x1.2a0e140000000p-3, -0x1.61864e0000000p-3, 0x1.66fe440000000p-5, 0x1.5b0b8a0000000p-3, -0x1.a85a780000000p-4, -0x1.b7c9d00000000p-3, 0x1.1744b00000000p-3, 0x1.e220260000000p-4, 0x1.0dcf780000000p-3, -0x1.bb99680000000p-4, -0x1.ba54940000000p-4, 0x1.e919940000000p-6, -0x1.2e322a0000000p-3, -0x1.ab4cc80000000p-3, -0x1.2a42f60000000p-5, 0x1.c70d4c0000000p-4, 0x1.3da1b80000000p-3, -0x1.1396de0000000p-5, 0x1.6614a20000000p-6, 0x1.6b9c000000000p-4, 0x1.71931a0000000p-6, -0x1.90d5720000000p-5, 0x1.377a3c0000000p-5, -0x1.cbb9d80000000p-4, -0x1.8d48cc0000000p-5, 0x1.44f5880000000p-6, -0x1.b5dd040000000p-6, -0x1.033a660000000p-4, -0x1.7e461c0000000p-2, 0x1.bafd9a0000000p-3, -0x1.1c7d3c0000000p-3, -0x1.2099360000000p-7, -0x1.4dfcd40000000p-3, -0x1.618a0a0000000p-3, 0x1.4449520000000p-3, -0x1.2f419c0000000p-4, -0x1.bd0e560000000p-3, -0x1.d32d3a0000000p-4, 0x1.3489200000000p-3, 0x1.4a85900000000p-3, -0x1.1beb3c0000000p-3, -0x1.4564640000000p-6, 0x1.be0ab80000000p-4, 0x1.7eb18e0000000p-3, -0x1.9629d60000000p-4, -0x1.3344ba0000000p-3, -0x1.e1a2c00000000p-3, -0x1.f01d500000000p-4, -0x1.cab0840000000p-5, 0x1.0d8a1e0000000p-4, -0x1.0a026a0000000p-2, -0x1.4cba0e0000000p-3, -0x1.84a54a0000000p-3, -0x1.1bdfac0000000p-3, -0x1.2b733a0000000p-6, -0x1.42545a0000000p-2, 0x1.4fa5a60000000p-4, -0x1.cd88440000000p-3, -0x1.133f0c0000000p-2, -0x1.bf3ea80000000p-3, -0x1.f119e60000000p-4, -0x1.84fd740000000p-3, -0x1.08a0ea0000000p-3, 0x1.18939e0000000p-4, -0x1.dee29c0000000p-5, 0x1.2deafe0000000p-6, -0x1.2b18ee0000000p-3, -0x1.25807a0000000p-3, 0x1.1761c00000000p-3, 0x1.868b680000000p-4, 0x1.6829760000000p-3, 0x1.c2225c0000000p-4, -0x1.0c5ad40000000p-2, 0x1.34e30c0000000p-7, -0x1.9c98bc0000000p-3, -0x1.b1941a0000000p-4, -0x1.a28c5e0000000p-7, -0x1.2327980000000p-6, 0x1.ee8b700000000p-4, -0x1.0ef4e60000000p-3, -0x1.d5476c0000000p-3, -0x1.f74f520000000p-3, -0x1.5a1a900000000p-4, 0x1.66968e0000000p-3, -0x1.d2b14e0000000p-3, 0x1.66c18c0000000p-4, 0x1.7e793e0000000p-3, -0x1.3be6680000000p-3, -0x1.7aa8460000000p-3, 0x1.ee5e2e0000000p-6, 0x1.5c6ed80000000p-4, -0x1.d160fc0000000p-3, -0x1.a563680000000p-3, 0x1.3a844c0000000p-4, -0x1.abafd60000000p-3, -0x1.2323c00000000p-6, -0x1.43a9de0000000p-3, 0x1.1a65ee0000000p-6, -0x1.15c21e0000000p-5, -0x1.c64afc0000000p-4, 0x1.4f12520000000p-7, -0x1.a138340000000p-3, -0x1.172fd20000000p-2, -0x1.8cdf9c0000000p-3, -0x1.fabd180000000p-4, 0x1.0043c00000000p-3, 0x1.b6d8060000000p-5, -0x1.6396320000000p-3, -0x1.035b8e0000000p-7, -0x1.dcc3e20000000p-3, -0x1.5478d80000000p-3, 0x1.3483e60000000p-4, -0x1.3fc8120000000p-3, 0x1.c38ebc0000000p-4, -0x1.b48b180000000p-4, -0x1.173a5a0000000p-3, 0x1.cadcb60000000p-5, -0x1.4801480000000p-3, -0x1.408b4a0000000p-3, 0x1.22aa6c0000000p-3, 0x1.33b0e80000000p-3, -0x1.7f4b9a0000000p-7, 0x1.6503980000000p-4, -0x1.59b46a0000000p-4, -0x1.0681f40000000p-2, -0x1.c7288c0000000p-4, -0x1.78e35e0000000p-3, -0x1.f550100000000p-3, -0x1.0d3a180000000p-2, 0x1.3311a20000000p-4, -0x1.d3bec80000000p-3, 0x1.6cc7560000000p-4, -0x1.dd008c0000000p-5, 0x1.abb40e0000000p-3, -0x1.22111e0000000p-4, -0x1.205f360000000p-3, -0x1.60990c0000000p-3, 0x1.faf8000000000p-4, -0x1.30a08a0000000p-3, -0x1.f183120000000p-3, -0x1.a104c80000000p-3, 0x1.8d6ee60000000p-5, 0x1.be83060000000p-4, 0x1.092cd60000000p-3, -0x1.681eec0000000p-3, 0x1.3d8fc40000000p-3, -0x1.bdafba0000000p-3, 0x1.0f02640000000p-3, 0x1.4781360000000p-3, -0x1.646d2a0000000p-3, -0x1.4a833c0000000p-3, -0x1.4728f40000000p-4, 0x1.0463280000000p-5, -0x1.144df40000000p-2, 0x1.1e2fca0000000p-3, 0x1.5cc2300000000p-4, -0x1.7bd6380000000p-3, 0x1.1f0a1e0000000p-3, 0x1.30610a0000000p-4, -0x1.4a5f6c0000000p-4, 0x1.e3024a0000000p-5, 0x1.46b7000000000p-3, -0x1.9b58720000000p-4, -0x1.88cf9c0000000p-3, 0x1.15cfec0000000p-3, 0x1.ce08900000000p-4, -0x1.9c2d700000000p-4, 0x1.f8e7a80000000p-5, 0x1.4559860000000p-3, -0x1.be44640000000p-5, -0x1.1e8dba0000000p-4, -0x1.9cecbc0000000p-3, -0x1.1939c00000000p-2, -0x1.db2f080000000p-7, -0x1.1f8f120000000p-7, 0x1.b082320000000p-4}
, {0x1.d8d6e40000000p-4, -0x1.05ad160000000p-2, -0x1.8310c20000000p-3, 0x1.99997e0000000p-5, 0x1.29c63c0000000p-3, -0x1.43ce460000000p-3, -0x1.aeb8240000000p-3, -0x1.62e5ea0000000p-4, 0x1.dbd8aa0000000p-4, 0x1.6e6cb80000000p-5, 0x1.195f560000000p-3, -0x1.624b780000000p-3, 0x1.def98a0000000p-5, -0x1.ece5400000000p-5, -0x1.7c15c20000000p-3, -0x1.3217540000000p-6, -0x1.3cabf20000000p-3, 0x1.c938da0000000p-6, 0x1.1d9cfa0000000p-4, -0x1.0b6bfe0000000p-3, 0x1.0594240000000p-4, 0x1.4661e20000000p-5, -0x1.2c395e0000000p-2, -0x1.2d9a520000000p-5, -0x1.4198fc0000000p-3, -0x1.87b2420000000p-2, -0x1.0c02e20000000p-3, -0x1.d0c3b20000000p-4, 0x1.2917ba0000000p-3, -0x1.2814c20000000p-4, -0x1.28a9940000000p-3, -0x1.d8a29c0000000p-3, 0x1.aa6c7a0000000p-5, 0x1.4956640000000p-3, -0x1.70019e0000000p-4, 0x1.83c21e0000000p-4, -0x1.ba41640000000p-3, 0x1.a923a20000000p-8, -0x1.2857ac0000000p-3, -0x1.f17b480000000p-7, 0x1.b2b0300000000p-4, -0x1.b636100000000p-4, -0x1.e7b8020000000p-4, 0x1.568ffe0000000p-3, 0x1.359a1e0000000p-7, -0x1.1b75c40000000p-3, 0x1.77b53e0000000p-3, 0x1.9ab49e0000000p-4, 0x1.2e093e0000000p-5, 0x1.b0fa140000000p-4, 0x1.ffcf280000000p-4, -0x1.65f0da0000000p-3, -0x1.bb18680000000p-6, -0x1.cdba900000000p-5, -0x1.cd2c480000000p-4, -0x1.77778e0000000p-3, 0x1.260dc80000000p-3, 0x1.23bb4a0000000p-3, 0x1.9a39680000000p-5, 0x1.5aa7e40000000p-4, -0x1.1fa87c0000000p-2, -0x1.0df8820000000p-2, 0x1.3c58f20000000p-3, 0x1.df30400000000p-4, 0x1.8b67760000000p-4, -0x1.9767da0000000p-3, 0x1.b2d34a0000000p-4, 0x1.1a78a60000000p-8, 0x1.8a3e0a0000000p-4, 0x1.4d50780000000p-3, -0x1.7ac22e0000000p-3, -0x1.00a48c0000000p-3, 0x1.4be76c0000000p-3, 0x1.a967080000000p-4, -0x1.07a3560000000p-3, 0x1.5062560000000p-4, 0x1.caed800000000p-4, 0x1.511c200000000p-3, -0x1.72bc400000000p-6, -0x1.a0593c0000000p-3, -0x1.b597780000000p-3, 0x1.5ac94c0000000p-3, -0x1.2e69d60000000p-3, 0x1.857eee0000000p-3, 0x1.06f6a20000000p-3, -0x1.4cd5600000000p-3, -0x1.9139c80000000p-3, -0x1.d690fc0000000p-3, -0x1.6963b60000000p-6, -0x1.abb9ae0000000p-5, -0x1.b6c9ee0000000p-5, -0x1.3dadf80000000p-2, 0x1.ff90ba0000000p-4, 0x1.6b13c20000000p-4, -0x1.608bde0000000p-3, 0x1.f297e20000000p-5, -0x1.20ac480000000p-3, -0x1.df951c0000000p-4, -0x1.a74fcc0000000p-7, -0x1.bf218c0000000p-7, 0x1.08bdb60000000p-3, 0x1.8c9c6c0000000p-6, 0x1.b545460000000p-3, -0x1.46883e0000000p-3, -0x1.38937c0000000p-5, -0x1.1f73ba0000000p-2, -0x1.f72ed40000000p-3, -0x1.0de52e0000000p-6, -0x1.e1fa600000000p-4, 0x1.7eef700000000p-3, 0x1.1d2d320000000p-3, -0x1.a367960000000p-3, -0x1.64a8160000000p-3, -0x1.83f7600000000p-4, -0x1.3550420000000p-3, -0x1.52adb20000000p-2, 0x1.ca76cc0000000p-4, 0x1.2ee6e20000000p-4, 0x1.c1fd440000000p-4, -0x1.69a6bc0000000p-3, -0x1.5540aa0000000p-4, 0x1.6749be0000000p-4, -0x1.15469c0000000p-3, -0x1.8701980000000p-4, 0x1.03ec120000000p-5, -0x1.cf00fc0000000p-5, 0x1.11720c0000000p-3, -0x1.1d04aa0000000p-4, -0x1.bc7b720000000p-4, 0x1.1d13c20000000p-3, 0x1.c1051a0000000p-4, 0x1.4c15420000000p-3, 0x1.8a3bf00000000p-4, -0x1.0de4a40000000p-3, 0x1.2cfefc0000000p-4, -0x1.7a8ece0000000p-5, -0x1.1b30620000000p-3, -0x1.5028fe0000000p-3, -0x1.01d99c0000000p-2, -0x1.6d63c00000000p-6, -0x1.5916dc0000000p-4, 0x1.bd204e0000000p-4, 0x1.08d1f40000000p-3, -0x1.ba2ef20000000p-4, 0x1.2fa9dc0000000p-3, -0x1.1a12f80000000p-3, 0x1.105a6c0000000p-3, 0x1.f18c000000000p-4, 0x1.834bee0000000p-4, -0x1.a728540000000p-3, 0x1.6d610e0000000p-4, -0x1.1945be0000000p-2, 0x1.1d58200000000p-4, 0x1.4d3d7e0000000p-3, -0x1.94fdd00000000p-3, 0x1.4b19b00000000p-7, 0x1.ebb5f20000000p-5, -0x1.f111980000000p-3, 0x1.a1d24c0000000p-4, 0x1.5a75be0000000p-5, -0x1.1d65780000000p-3, 0x1.81f1da0000000p-4, -0x1.bff2cc0000000p-5, -0x1.1df7980000000p-3, 0x1.c1247a0000000p-5, -0x1.b400ee0000000p-3, 0x1.5c318e0000000p-4, -0x1.6f244a0000000p-4, 0x1.ef0c7c0000000p-4, 0x1.32dee60000000p-4, 0x1.7c6a080000000p-4, -0x1.2335880000000p-3, 0x1.ea08ce0000000p-4, -0x1.54d7500000000p-2, 0x1.2a471c0000000p-4, -0x1.35ef2c0000000p-2, -0x1.b8d8080000000p-3, -0x1.5579560000000p-2, 0x1.fa85420000000p-4, -0x1.d96a940000000p-5, 0x1.c549c40000000p-4, 0x1.e696f60000000p-4, -0x1.719ab40000000p-3, -0x1.6ef9a00000000p-3, -0x1.5558600000000p-5, -0x1.5ebec00000000p-5, -0x1.adcdaa0000000p-3, -0x1.9968d80000000p-3, 0x1.c7e0f00000000p-4, -0x1.6ccd3c0000000p-4, 0x1.de88000000000p-4, -0x1.3c594a0000000p-10, -0x1.639bb80000000p-3, -0x1.26ea660000000p-2, 0x1.54dbfa0000000p-5, 0x1.e1e5de0000000p-4, -0x1.77193c0000000p-3, 0x1.0a22100000000p-3, -0x1.4ee4dc0000000p-3, -0x1.34d5000000000p-3, 0x1.28f4fa0000000p-3, -0x1.4fe16c0000000p-3, -0x1.7df0700000000p-4, -0x1.60997c0000000p-4, -0x1.10dc360000000p-3, -0x1.8eb0560000000p-4, -0x1.c19e220000000p-3, 0x1.e5ca380000000p-4, 0x1.db5fc00000000p-5, 0x1.e5d31c0000000p-6, -0x1.ce4c760000000p-3, -0x1.8077a80000000p-3, -0x1.ba63a20000000p-4, -0x1.174c1a0000000p-2, 0x1.5362500000000p-3, -0x1.1904ba0000000p-2, 0x1.80a8820000000p-5, -0x1.3590e00000000p-3, 0x1.ce0bac0000000p-4, -0x1.2d72640000000p-2, 0x1.08a3500000000p-3, -0x1.eceb040000000p-3, -0x1.65836a0000000p-4, 0x1.d1560e0000000p-4, -0x1.4dc7a40000000p-3, -0x1.f1c5000000000p-3, 0x1.fc3fca0000000p-5, -0x1.6362d40000000p-4, 0x1.6b0ac40000000p-3, -0x1.235f680000000p-5, -0x1.6817140000000p-4, -0x1.0591440000000p-3, -0x1.ae53c00000000p-5, 0x1.72f5c60000000p-5, 0x1.d029280000000p-4, 0x1.c4985e0000000p-5, 0x1.95ffc20000000p-3, -0x1.7ebef00000000p-9, 0x1.51add60000000p-5, 0x1.7556340000000p-5, -0x1.fb375c0000000p-4, -0x1.ee0b240000000p-3, 0x1.433bca0000000p-4, 0x1.09d8de0000000p-4, -0x1.5464a20000000p-2, -0x1.87da3c0000000p-4, 0x1.18d0ce0000000p-3, -0x1.530bf40000000p-4, -0x1.11ea560000000p-3, 0x1.fe25a80000000p-6, 0x1.5eeb480000000p-3, -0x1.9537120000000p-9, 0x1.baf3720000000p-4, 0x1.2a0bbc0000000p-4, 0x1.ef1ec00000000p-5, -0x1.0af0020000000p-2}
, {-0x1.7891140000000p-8, -0x1.6f7b860000000p-5, -0x1.ca5bda0000000p-4, 0x1.5d5f420000000p-4, 0x1.e4993c0000000p-4, 0x1.4cc0060000000p-7, -0x1.6f03a80000000p-7, 0x1.0afc6e0000000p-5, -0x1.4de0300000000p-2, 0x1.0fa27a0000000p-6, -0x1.2bc7b00000000p-4, -0x1.af43de0000000p-3, 0x1.9c504e0000000p-5, 0x1.0b7efe0000000p-4, -0x1.29c4aa0000000p-6, -0x1.c0a69a0000000p-3, -0x1.04fc340000000p-3, 0x1.936fbe0000000p-3, 0x1.9b534a0000000p-5, 0x1.1469060000000p-3, 0x1.ec05bc0000000p-6, -0x1.0648760000000p-4, -0x1.05ddf80000000p-3, 0x1.8c90600000000p-4, 0x1.9090a20000000p-4, 0x1.1161c60000000p-5, 0x1.a0a2be0000000p-7, -0x1.73c5c80000000p-4, 0x1.731f120000000p-4, -0x1.b9baf80000000p-3, 0x1.fd97120000000p-7, -0x1.de1f3e0000000p-4, -0x1.2ad4220000000p-2, 0x1.386fd80000000p-3, -0x1.00bc380000000p-4, 0x1.ed72ca0000000p-4, -0x1.e4074e0000000p-3, 0x1.0f7dda0000000p-3, -0x1.01f30c0000000p-3, -0x1.1f17740000000p-7, 0x1.e707280000000p-4, 0x1.0116200000000p-3, 0x1.6824200000000p-6, 0x1.97620a0000000p-6, 0x1.91ef960000000p-4, -0x1.3061320000000p-5, 0x1.3fe9140000000p-3, 0x1.de2dc40000000p-7, -0x1.1254560000000p-2, -0x1.ae00760000000p-4, -0x1.120b7e0000000p-3, 0x1.4d341e0000000p-4, 0x1.3547e00000000p-4, -0x1.ec925c0000000p-7, -0x1.09a52e0000000p-3, -0x1.0f75d20000000p-3, -0x1.57eb700000000p-2, 0x1.b560640000000p-5, 0x1.18cd260000000p-4, -0x1.e3b3680000000p-4, -0x1.03b8920000000p-5, -0x1.0fde380000000p-2, 0x1.59463e0000000p-4, -0x1.0ca26a0000000p-5, -0x1.cf6db40000000p-8, 0x1.6ee01c0000000p-3, -0x1.08cffe0000000p-3, -0x1.7410520000000p-3, 0x1.8349860000000p-4, -0x1.1f83640000000p-10, -0x1.fafc5e0000000p-5, -0x1.e95fa60000000p-3, -0x1.2f20320000000p-4, 0x1.e8b7dc0000000p-4, 0x1.98388c0000000p-4, -0x1.a488660000000p-3, 0x1.fe64700000000p-7, 0x1.1a5b1a0000000p-3, 0x1.f04f020000000p-4, 0x1.241e420000000p-3, -0x1.81e1fe0000000p-3, 0x1.24a8b20000000p-3, 0x1.d445660000000p-5, -0x1.2367be0000000p-3, -0x1.7e5b160000000p-3, -0x1.9168640000000p-3, -0x1.9da9d00000000p-3, -0x1.cce65e0000000p-5, 0x1.60a77e0000000p-3, 0x1.2e56280000000p-3, -0x1.fd7a2a0000000p-7, -0x1.61735a0000000p-5, -0x1.e801720000000p-3, 0x1.8162700000000p-5, -0x1.b9b5c00000000p-3, -0x1.df912a0000000p-3, 0x1.2988ee0000000p-4, 0x1.b1b3ec0000000p-3, -0x1.5e13140000000p-4, 0x1.072d5c0000000p-3, 0x1.d0a2740000000p-4, 0x1.41d07a0000000p-4, -0x1.fc3a4c0000000p-3, 0x1.98dac00000000p-3, -0x1.5226b00000000p-3, -0x1.a4edb20000000p-4, 0x1.e80b480000000p-4, 0x1.e7b27a0000000p-4, -0x1.1254500000000p-5, -0x1.42da760000000p-3, -0x1.b51b760000000p-3, 0x1.5cc71c0000000p-4, -0x1.b7432e0000000p-3, 0x1.7626700000000p-9, 0x1.1052380000000p-3, 0x1.6059180000000p-4, -0x1.d19d3a0000000p-4, -0x1.db0c900000000p-5, 0x1.0eed2c0000000p-3, 0x1.f6224c0000000p-4, -0x1.9a44980000000p-4, -0x1.b5d1640000000p-3, 0x1.059bf60000000p-3, 0x1.2316160000000p-3, -0x1.a50bfe0000000p-6, -0x1.e4138e0000000p-4, -0x1.14ff9e0000000p-5, 0x1.9aca560000000p-4, -0x1.ae0cce0000000p-3, -0x1.a0c8040000000p-4, 0x1.cda8b60000000p-5, -0x1.2a209a0000000p-3, 0x1.554dd40000000p-4, 0x1.54d6e60000000p-7, -0x1.26269c0000000p-3, 0x1.40375e0000000p-6, 0x1.c445a40000000p-4, -0x1.b03cc80000000p-4, -0x1.0fe4920000000p-6, -0x1.ec53a40000000p-3, 0x1.dac0060000000p-4, -0x1.32bbe80000000p-3, 0x1.c971ac0000000p-4, -0x1.93f1080000000p-5, 0x1.11f89a0000000p-7, 0x1.88f63a0000000p-3, -0x1.7fdfc20000000p-3, -0x1.a5b26c0000000p-6, -0x1.1f13880000000p-4, 0x1.63a2bc0000000p-4, -0x1.86a5f60000000p-7, -0x1.d621da0000000p-5, 0x1.c86f820000000p-4, -0x1.9512d80000000p-3, -0x1.2d28520000000p-4, 0x1.bff3fc0000000p-4, -0x1.d84a6e0000000p-3, -0x1.6820880000000p-5, -0x1.7430280000000p-3, -0x1.cd51440000000p-3, 0x1.276cd20000000p-3, -0x1.108c260000000p-3, 0x1.eafb900000000p-4, 0x1.c6598a0000000p-6, -0x1.977f440000000p-3, 0x1.88b16a0000000p-4, 0x1.adf62e0000000p-5, 0x1.452afe0000000p-5, -0x1.2277340000000p-3, -0x1.1c3db60000000p-2, 0x1.7988540000000p-4, -0x1.95dfd00000000p-6, -0x1.dece720000000p-5, -0x1.6277240000000p-3, 0x1.8d7c320000000p-6, -0x1.80ff240000000p-3, 0x1.a84d880000000p-4, -0x1.ed4cf00000000p-5, -0x1.d2bc8a0000000p-6, -0x1.ec5f6a0000000p-7, -0x1.4d54560000000p-3, 0x1.f27fd40000000p-4, 0x1.001d7e0000000p-3, -0x1.2ef4f40000000p-3, 0x1.53d7be0000000p-4, 0x1.9c5fd20000000p-4, 0x1.9b73c00000000p-4, 0x1.d117220000000p-4, 0x1.7c2bea0000000p-3, 0x1.48f4060000000p-4, -0x1.8db35a0000000p-3, 0x1.370ec00000000p-3, 0x1.36f6080000000p-5, 0x1.a178c80000000p-5, 0x1.8dae920000000p-6, 0x1.5500f20000000p-4, 0x1.2bf4e80000000p-3, -0x1.90aae60000000p-3, -0x1.def4fc0000000p-7, -0x1.e5297c0000000p-5, -0x1.2cecae0000000p-4, 0x1.57216a0000000p-5, -0x1.c5d41e0000000p-3, 0x1.28525e0000000p-3, -0x1.3eee740000000p-7, 0x1.d7f4e20000000p-3, -0x1.21b0c00000000p-4, 0x1.179f6e0000000p-4, -0x1.36d34a0000000p-3, 0x1.f7741c0000000p-5, -0x1.b5ba880000000p-4, 0x1.cc54000000000p-4, 0x1.e8eb220000000p-3, 0x1.137d640000000p-6, 0x1.ee3e8e0000000p-4, -0x1.f717f80000000p-7, -0x1.ab65c80000000p-5, 0x1.530d4e0000000p-3, -0x1.e1c5ba0000000p-3, -0x1.1555ec0000000p-3, 0x1.8e26b80000000p-3, -0x1.a2b1560000000p-5, -0x1.c0c2480000000p-3, 0x1.10d9560000000p-3, -0x1.1526f60000000p-3, 0x1.76c7300000000p-4, -0x1.b6c5ca0000000p-4, 0x1.a4dbde0000000p-4, -0x1.6c8bf60000000p-4, -0x1.7ae82e0000000p-6, -0x1.045e580000000p-2, -0x1.9beefe0000000p-3, 0x1.52598c0000000p-3, 0x1.34b8480000000p-3, 0x1.0b1d120000000p-3, 0x1.6f22640000000p-7, 0x1.979dd00000000p-4, -0x1.11951c0000000p-2, -0x1.0d2f560000000p-2, -0x1.c678880000000p-3, -0x1.a6c8680000000p-4, 0x1.a6bc580000000p-4, 0x1.a653e60000000p-3, -0x1.3069540000000p-4, 0x1.2337f60000000p-4, 0x1.bce5a40000000p-4, 0x1.01e33c0000000p-3, 0x1.26326a0000000p-5, 0x1.e9ed960000000p-4, 0x1.1f92840000000p-3, 0x1.2dcbbc0000000p-3, -0x1.990fa40000000p-4, 0x1.d4c53c0000000p-4, -0x1.4ffbcc0000000p-2, -0x1.c057f20000000p-3, 0x1.6839ee0000000p-6}
, {0x1.f74d500000000p-4, -0x1.c40b620000000p-3, -0x1.04ac9e0000000p-3, -0x1.8cffb80000000p-3, -0x1.02d15a0000000p-5, 0x1.f27ae00000000p-5, 0x1.1088380000000p-3, -0x1.659da20000000p-4, -0x1.5d6ee60000000p-5, -0x1.b481b00000000p-4, 0x1.e3b4b20000000p-4, -0x1.ba7a820000000p-3, -0x1.22c5a00000000p-2, 0x1.88a03e0000000p-3, -0x1.8c7eec0000000p-3, -0x1.7d4cce0000000p-3, 0x1.169c180000000p-3, -0x1.8795d60000000p-3, -0x1.da32ca0000000p-4, -0x1.59b82e0000000p-4, 0x1.befa120000000p-5, -0x1.a67f0e0000000p-3, -0x1.bdc0f40000000p-3, 0x1.d3537e0000000p-4, -0x1.00244e0000000p-4, 0x1.1a05a00000000p-7, 0x1.5e9e060000000p-5, -0x1.182d5c0000000p-3, 0x1.d82fea0000000p-7, 0x1.1f8bf00000000p-4, -0x1.1fc0240000000p-3, -0x1.08edde0000000p-3, -0x1.038db20000000p-2, 0x1.64296a0000000p-5, -0x1.0d33820000000p-3, -0x1.7566200000000p-3, 0x1.265e500000000p-4, 0x1.1ecc100000000p-3, 0x1.d74da60000000p-4, -0x1.f76e320000000p-5, -0x1.f8de9a0000000p-4, 0x1.93cc640000000p-3, 0x1.0f93160000000p-3, -0x1.eb00ba0000000p-4, -0x1.c65e340000000p-3, 0x1.8af1580000000p-4, 0x1.0dd4c40000000p-3, -0x1.5196ae0000000p-2, 0x1.4d30080000000p-13, -0x1.9790e40000000p-3, 0x1.3ba33c0000000p-4, 0x1.a6836a0000000p-3, 0x1.beff800000000p-4, -0x1.794bba0000000p-4, 0x1.129da00000000p-3, -0x1.fc51f80000000p-5, -0x1.ddd6900000000p-3, 0x1.ba41960000000p-4, -0x1.9f55440000000p-3, -0x1.78fad80000000p-5, 0x1.1e8f9e0000000p-3, 0x1.3fcc1e0000000p-4, -0x1.96c7400000000p-4, -0x1.42b7500000000p-2, -0x1.0486e60000000p-2, -0x1.32e9140000000p-5, 0x1.a4b5500000000p-3, -0x1.b57aa20000000p-4, 0x1.7146660000000p-5, 0x1.0282120000000p-3, -0x1.e5a65c0000000p-4, -0x1.39e64a0000000p-4, 0x1.47a2e80000000p-5, 0x1.7167520000000p-4, 0x1.244d020000000p-10, -0x1.3a75d40000000p-3, -0x1.b087fc0000000p-4, -0x1.85e4c60000000p-4, 0x1.1a68600000000p-3, 0x1.8f9fce0000000p-4, 0x1.7757be0000000p-3, 0x1.6721820000000p-3, 0x1.6707a00000000p-3, -0x1.42fc240000000p-3, 0x1.5bdfb80000000p-3, 0x1.084e1c0000000p-3, -0x1.6c325e0000000p-4, 0x1.a696800000000p-4, 0x1.2e69f20000000p-5, 0x1.3ba0580000000p-4, 0x1.7633da0000000p-4, -0x1.4737240000000p-3, 0x1.14f1400000000p-3, -0x1.aed4b20000000p-4, -0x1.382fe80000000p-4, -0x1.7f087a0000000p-3, 0x1.ef0a160000000p-5, 0x1.ff6dbe0000000p-6, -0x1.a4d4320000000p-5, -0x1.18bf8a0000000p-2, 0x1.b62e860000000p-4, -0x1.afb1ce0000000p-3, -0x1.b083e80000000p-5, -0x1.64b7de0000000p-4, 0x1.ffc9ea0000000p-5, -0x1.66f6460000000p-4, -0x1.771a9e0000000p-3, -0x1.03e3360000000p-3, -0x1.2037c20000000p-3, -0x1.0591500000000p-3, 0x1.41a5dc0000000p-3, 0x1.138ee00000000p-4, 0x1.3352c80000000p-3, 0x1.36435e0000000p-3, 0x1.9fda460000000p-5, -0x1.84cda20000000p-3, -0x1.d272600000000p-3, -0x1.130a320000000p-4, -0x1.2b32e00000000p-4, 0x1.4da6160000000p-4, -0x1.cd08d80000000p-3, -0x1.86d1ec0000000p-3, -0x1.077d1c0000000p-2, -0x1.0c11300000000p-4, -0x1.5bd41c0000000p-4, 0x1.d1f2340000000p-3, -0x1.7c2e000000000p-4, 0x1.5b25580000000p-3, -0x1.82f44c0000000p-3, 0x1.23bf320000000p-3, -0x1.e16fb60000000p-3, 0x1.0702ec0000000p-3, -0x1.2c20a20000000p-3, -0x1.b40db80000000p-3, -0x1.4bb58e0000000p-4, 0x1.67af640000000p-4, 0x1.4ef54e0000000p-3, -0x1.ddaea80000000p-5, 0x1.12bc8a0000000p-5, 0x1.133b9e0000000p-4, -0x1.3ebc0a0000000p-7, 0x1.0313d60000000p-3, 0x1.875ef00000000p-4, -0x1.0e1b420000000p-4, -0x1.4b992e0000000p-3, 0x1.685b660000000p-9, 0x1.3d11320000000p-5, -0x1.6daa580000000p-3, -0x1.3e30b60000000p-7, 0x1.34a8100000000p-5, 0x1.04e4760000000p-3, -0x1.3266d80000000p-2, 0x1.0680780000000p-3, -0x1.70b38e0000000p-4, -0x1.6b4bbc0000000p-8, 0x1.1ac7dc0000000p-5, -0x1.061a5e0000000p-2, -0x1.8abee20000000p-4, -0x1.291fd40000000p-2, 0x1.568a840000000p-3, 0x1.a0ac120000000p-4, -0x1.c9b9b00000000p-4, 0x1.4af1680000000p-3, 0x1.1113ac0000000p-3, -0x1.09238c0000000p-3, 0x1.760d260000000p-4, -0x1.0f26700000000p-3, 0x1.5cc5640000000p-3, 0x1.0b40a00000000p-4, -0x1.313ff20000000p-3, 0x1.84a8c00000000p-7, -0x1.f5322a0000000p-4, 0x1.8d067e0000000p-8, 0x1.4af9f20000000p-5, -0x1.27e07e0000000p-3, 0x1.b670be0000000p-4, 0x1.06814c0000000p-4, -0x1.56e8a60000000p-4, -0x1.90dc5e0000000p-4, 0x1.6a8e1c0000000p-4, -0x1.7e1c3c0000000p-7, 0x1.01f7d80000000p-3, -0x1.f45c320000000p-6, -0x1.79ea2e0000000p-6, 0x1.12abd80000000p-4, -0x1.09e3ca0000000p-3, 0x1.3565400000000p-7, 0x1.c43dfe0000000p-4, -0x1.897a1e0000000p-5, -0x1.4e699e0000000p-3, -0x1.cb152a0000000p-3, -0x1.b3c77c0000000p-6, 0x1.5bdac20000000p-5, 0x1.0578ae0000000p-4, 0x1.3427ae0000000p-3, 0x1.e0d0b00000000p-4, 0x1.2ac2560000000p-3, 0x1.7c47280000000p-4, 0x1.0c59d60000000p-3, -0x1.ba69020000000p-4, 0x1.0b3d3e0000000p-4, -0x1.a21eea0000000p-4, -0x1.e829900000000p-4, 0x1.51c1680000000p-3, -0x1.7ebaf40000000p-3, 0x1.0e57de0000000p-3, 0x1.60e27c0000000p-4, 0x1.e5d3400000000p-5, 0x1.1b5d540000000p-4, -0x1.b9e42c0000000p-5, -0x1.2cda240000000p-3, -0x1.32b9520000000p-3, 0x1.8898c20000000p-4, 0x1.63539c0000000p-3, -0x1.8cac380000000p-3, 0x1.2d197c0000000p-3, -0x1.1357fe0000000p-5, -0x1.f3e5660000000p-4, -0x1.7cda0a0000000p-3, 0x1.bc8db60000000p-8, 0x1.3542020000000p-7, -0x1.d5359e0000000p-3, -0x1.be17300000000p-4, 0x1.35344a0000000p-4, -0x1.6da8920000000p-3, -0x1.f042740000000p-6, 0x1.1834d00000000p-4, -0x1.a5d4d00000000p-4, -0x1.1066f20000000p-4, 0x1.964a9c0000000p-5, -0x1.ce2ada0000000p-3, -0x1.e274e20000000p-3, 0x1.3ecdba0000000p-3, 0x1.4cf23a0000000p-3, -0x1.5e4ef80000000p-4, -0x1.4d6f460000000p-5, -0x1.3c8aaa0000000p-3, 0x1.e96dac0000000p-4, 0x1.8383ca0000000p-4, -0x1.131c820000000p-5, 0x1.000c400000000p-5, -0x1.0ea0aa0000000p-2, -0x1.b9a55e0000000p-4, -0x1.4fbbc80000000p-9, 0x1.8aa9680000000p-4, 0x1.afc1720000000p-4, 0x1.9043120000000p-4, -0x1.6c3f540000000p-3, 0x1.d2acac0000000p-4, -0x1.3f78e00000000p-4, -0x1.c94fc40000000p-5, 0x1.9b71000000000p-4, 0x1.74f4fa0000000p-4, 0x1.d011440000000p-5, 0x1.1b6b6a0000000p-3, 0x1.43fdd20000000p-8}
, {-0x1.710c5e0000000p-4, 0x1.e43b300000000p-4, -0x1.efd36a0000000p-4, 0x1.2d37c00000000p-4, -0x1.4bc3ea0000000p-5, -0x1.335a7a0000000p-3, -0x1.5e77340000000p-8, -0x1.b2e7160000000p-8, 0x1.9c2f240000000p-4, -0x1.ccd8dc0000000p-3, 0x1.c9d8120000000p-5, -0x1.edcd6e0000000p-6, 0x1.40525c0000000p-6, -0x1.7741880000000p-3, -0x1.d393fa0000000p-8, 0x1.b32af40000000p-4, 0x1.d3268e0000000p-4, -0x1.f0f4d20000000p-6, 0x1.a06e8a0000000p-4, -0x1.4804e40000000p-3, -0x1.42ada80000000p-3, 0x1.4b262e0000000p-6, 0x1.bf366c0000000p-5, -0x1.a3e0ea0000000p-3, 0x1.4ec71a0000000p-4, -0x1.3e9c780000000p-5, 0x1.4ddd1a0000000p-4, 0x1.15343c0000000p-3, -0x1.9ea36a0000000p-6, 0x1.f3129e0000000p-5, -0x1.33a3600000000p-3, 0x1.effcee0000000p-4, 0x1.1d53280000000p-5, -0x1.7c25420000000p-3, 0x1.c3348a0000000p-4, 0x1.144cc80000000p-5, -0x1.7ad9d80000000p-4, -0x1.50132a0000000p-2, -0x1.677cfe0000000p-3, 0x1.a4c4be0000000p-4, 0x1.fce6a80000000p-4, 0x1.c882b40000000p-5, -0x1.3356a00000000p-2, -0x1.b3245a0000000p-5, -0x1.5f188a0000000p-6, -0x1.455f6e0000000p-3, -0x1.8e8f080000000p-8, 0x1.a33af00000000p-4, 0x1.72eb680000000p-4, -0x1.b49a7c0000000p-4, 0x1.730a220000000p-5, -0x1.c0ebbc0000000p-4, -0x1.bc50700000000p-4, 0x1.4a88180000000p-4, -0x1.88536e0000000p-8, -0x1.b043300000000p-3, -0x1.22c71c0000000p-3, -0x1.177b180000000p-9, 0x1.3990a80000000p-4, -0x1.b871860000000p-5, 0x1.e804f00000000p-5, 0x1.32aadc0000000p-7, -0x1.d0faa60000000p-4, 0x1.61ea8c0000000p-3, -0x1.187dd20000000p-2, -0x1.236da40000000p-3, -0x1.62776c0000000p-3, 0x1.0954d20000000p-3, -0x1.54dc900000000p-5, -0x1.3b54620000000p-8, 0x1.0bf2c20000000p-6, 0x1.c097300000000p-5, -0x1.057eca0000000p-4, -0x1.d7f4900000000p-4, 0x1.cfabf40000000p-5, 0x1.0ed25a0000000p-3, 0x1.0596ee0000000p-4, 0x1.06fa580000000p-4, -0x1.e1efae0000000p-5, -0x1.fefcdc0000000p-5, 0x1.db792e0000000p-6, -0x1.a9f2920000000p-5, 0x1.15a49e0000000p-3, 0x1.55ffa80000000p-3, -0x1.350b1c0000000p-4, 0x1.b0f9160000000p-4, 0x1.d8d4ae0000000p-4, -0x1.c2d28e0000000p-3, -0x1.a4b7540000000p-4, 0x1.3957480000000p-5, -0x1.60c1200000000p-4, 0x1.cf46880000000p-4, 0x1.e9b65e0000000p-5, 0x1.9917b00000000p-6, -0x1.bcf92e0000000p-3, 0x1.0a4fc40000000p-3, -0x1.2447480000000p-2, -0x1.00d6700000000p-3, 0x1.b711e60000000p-4, 0x1.b992080000000p-4, -0x1.6811c00000000p-3, -0x1.3a2d540000000p-4, -0x1.2b48fe0000000p-3, -0x1.212bfe0000000p-3, -0x1.c5c59e0000000p-3, 0x1.70ec220000000p-3, 0x1.420cc60000000p-3, 0x1.9d494e0000000p-4, -0x1.4a42b80000000p-3, -0x1.79b4c60000000p-4, 0x1.9514020000000p-7, -0x1.e786380000000p-3, -0x1.f0b6a00000000p-4, -0x1.49255a0000000p-3, -0x1.40895a0000000p-3, 0x1.1f26d60000000p-3, 0x1.33102a0000000p-3, 0x1.106cae0000000p-3, -0x1.a55a160000000p-4, 0x1.458a720000000p-3, -0x1.e1cc800000000p-3, 0x1.4bec9a0000000p-3, 0x1.4a26800000000p-4, -0x1.4867040000000p-3, 0x1.74b37e0000000p-6, 0x1.b1576a0000000p-4, -0x1.3bebf60000000p-5, -0x1.3852160000000p-2, -0x1.ad38d80000000p-4, 0x1.2016d80000000p-3, -0x1.198e540000000p-5, -0x1.1880360000000p-4, 0x1.00cb7c0000000p-3, 0x1.32d3900000000p-3, 0x1.e43fbe0000000p-5, -0x1.1966360000000p-3, -0x1.3f0ed20000000p-4, 0x1.3b23120000000p-3, -0x1.a6a79c0000000p-7, 0x1.4da5520000000p-4, -0x1.25f1680000000p-4, -0x1.079fba0000000p-4, -0x1.61da880000000p-3, -0x1.9be5700000000p-6, 0x1.415db20000000p-3, -0x1.8615360000000p-3, 0x1.abba4c0000000p-5, 0x1.5304740000000p-4, -0x1.7c49220000000p-3, 0x1.01b1980000000p-3, -0x1.d9d00a0000000p-3, 0x1.c0a4fc0000000p-4, -0x1.658fd40000000p-3, -0x1.fc6f9c0000000p-3, -0x1.fd04da0000000p-5, 0x1.00cb3e0000000p-3, -0x1.023a160000000p-3, 0x1.0214dc0000000p-3, 0x1.64add80000000p-4, 0x1.cce9e40000000p-8, -0x1.d4ba820000000p-3, 0x1.86bcbe0000000p-3, -0x1.03889c0000000p-2, -0x1.3a72940000000p-3, 0x1.67b38e0000000p-4, -0x1.b4679c0000000p-3, -0x1.503c340000000p-3, -0x1.0f7a000000000p-3, 0x1.26343e0000000p-3, -0x1.ed881c0000000p-4, -0x1.dfa69e0000000p-3, -0x1.c5c2120000000p-4, 0x1.7c22880000000p-4, 0x1.50c1ca0000000p-4, -0x1.5fe1dc0000000p-3, -0x1.d5d7e80000000p-3, -0x1.27350c0000000p-3, 0x1.777c0a0000000p-3, -0x1.b3988c0000000p-4, -0x1.c2e9960000000p-4, 0x1.b0393c0000000p-4, 0x1.f7b63c0000000p-4, -0x1.77fb0c0000000p-4, -0x1.4aafc40000000p-4, -0x1.178d3c0000000p-3, -0x1.1040b20000000p-7, -0x1.c0a5a40000000p-3, -0x1.86ca1a0000000p-3, 0x1.5c6c5c0000000p-9, 0x1.60f0cc0000000p-4, -0x1.30ba040000000p-5, -0x1.dfcce80000000p-5, -0x1.ecd5d40000000p-4, -0x1.fef8d80000000p-3, -0x1.5170a00000000p-6, -0x1.c28d200000000p-3, 0x1.32705a0000000p-3, -0x1.88e5f40000000p-6, 0x1.8c96d00000000p-5, 0x1.26e3d60000000p-4, -0x1.2483e00000000p-2, 0x1.2f3fe60000000p-3, 0x1.9bebf00000000p-4, 0x1.38d9de0000000p-5, 0x1.3259420000000p-3, 0x1.504fb00000000p-3, 0x1.4a22e40000000p-4, 0x1.24aa4c0000000p-3, 0x1.bd76f00000000p-6, 0x1.9bf3720000000p-4, 0x1.53df6a0000000p-4, 0x1.b9dd660000000p-5, 0x1.da78820000000p-3, -0x1.bb8ef20000000p-3, 0x1.1705620000000p-4, 0x1.ab3dbc0000000p-4, 0x1.67b67a0000000p-3, -0x1.d9d7ae0000000p-5, 0x1.77e9980000000p-4, 0x1.21646e0000000p-4, 0x1.0d91f20000000p-3, 0x1.97b6860000000p-6, -0x1.25fbdc0000000p-3, -0x1.7d1cda0000000p-4, 0x1.f89c160000000p-4, 0x1.49d73c0000000p-3, 0x1.71ff6e0000000p-3, -0x1.84c5080000000p-3, -0x1.28cf540000000p-3, 0x1.3af0380000000p-3, -0x1.ebf13c0000000p-4, -0x1.cf0ed20000000p-3, -0x1.9571880000000p-6, 0x1.2379400000000p-9, -0x1.dd2b3c0000000p-4, -0x1.b824f00000000p-4, 0x1.3fdf580000000p-3, -0x1.3130ec0000000p-3, 0x1.bcffd80000000p-7, 0x1.0d6fdc0000000p-4, 0x1.ddea560000000p-5, 0x1.f392400000000p-4, -0x1.0e675e0000000p-4, -0x1.1ecc6e0000000p-3, -0x1.012c8a0000000p-2, -0x1.ee532c0000000p-5, -0x1.7763a40000000p-3, -0x1.b03af40000000p-7, -0x1.a4a03e0000000p-7, -0x1.68381e0000000p-7, -0x1.db9b140000000p-4, -0x1.1c7a100000000p-2, -0x1.6b43200000000p-2, -0x1.b632e60000000p-3, -0x1.bc57580000000p-4, 0x1.02625a0000000p-4}
, {-0x1.73ede60000000p-3, 0x1.b75e460000000p-4, 0x1.fb7fca0000000p-4, -0x1.11e3560000000p-3, -0x1.05f78e0000000p-3, 0x1.e3efbe0000000p-5, 0x1.5f3bb40000000p-4, 0x1.7fd25e0000000p-7, 0x1.28b5140000000p-4, 0x1.1e6a660000000p-3, -0x1.3a432a0000000p-3, 0x1.ee1bba0000000p-5, -0x1.df34a20000000p-4, 0x1.54090e0000000p-3, -0x1.ee14c20000000p-4, 0x1.56d4480000000p-4, -0x1.12e7b20000000p-3, -0x1.eb1e280000000p-4, -0x1.da92de0000000p-4, -0x1.9315ce0000000p-3, -0x1.4072da0000000p-7, 0x1.a012f40000000p-4, -0x1.edd2480000000p-3, 0x1.20c1620000000p-3, -0x1.670dfe0000000p-3, -0x1.0d4d440000000p-4, 0x1.d86d840000000p-4, -0x1.309b9c0000000p-4, 0x1.16924e0000000p-3, -0x1.f42f3a0000000p-4, 0x1.98c81a0000000p-4, 0x1.c5a0620000000p-4, 0x1.ede7960000000p-8, -0x1.e12cb00000000p-4, -0x1.f6c0020000000p-5, -0x1.71adb20000000p-3, -0x1.50df4a0000000p-3, -0x1.0fe30a0000000p-2, -0x1.2534e40000000p-4, -0x1.6fae920000000p-3, -0x1.f93dd00000000p-4, 0x1.f20d220000000p-4, 0x1.64c04c0000000p-3, 0x1.95f7780000000p-5, 0x1.718b220000000p-4, -0x1.0092960000000p-4, -0x1.87cb760000000p-3, 0x1.312b8a0000000p-4, -0x1.969a8e0000000p-4, 0x1.487d720000000p-4, 0x1.7178de0000000p-5, 0x1.c2db240000000p-5, -0x1.4e2e6e0000000p-3, -0x1.c99ee80000000p-5, -0x1.1bd9f40000000p-3, 0x1.4f76a00000000p-4, -0x1.924aba0000000p-5, -0x1.3728540000000p-3, -0x1.4610540000000p-3, -0x1.46d1720000000p-3, 0x1.bb75de0000000p-4, 0x1.93ca160000000p-4, -0x1.58fc9e0000000p-4, -0x1.6668fc0000000p-4, 0x1.369e660000000p-4, -0x1.98bf580000000p-5, 0x1.3dbdc60000000p-3, -0x1.ac7dda0000000p-7, 0x1.7ca27c0000000p-5, 0x1.e671a00000000p-4, 0x1.0001980000000p-4, 0x1.34859c0000000p-3, -0x1.5eb46a0000000p-5, -0x1.2706de0000000p-2, -0x1.a8ba2c0000000p-4, 0x1.8a955c0000000p-8, -0x1.8bcb700000000p-5, -0x1.ffe1280000000p-4, -0x1.a1db780000000p-3, 0x1.06cea00000000p-4, 0x1.55ef840000000p-3, 0x1.1d9a080000000p-7, -0x1.2219b60000000p-3, -0x1.7fda360000000p-6, 0x1.ea0ec00000000p-4, 0x1.1fcc4e0000000p-3, 0x1.9786280000000p-4, 0x1.aeab6a0000000p-4, -0x1.59cff60000000p-4, 0x1.5fa1f00000000p-8, -0x1.f4ed5a0000000p-5, 0x1.178b220000000p-3, 0x1.7c75ec0000000p-4, 0x1.28fa640000000p-4, 0x1.134f0e0000000p-3, -0x1.28ae740000000p-3, -0x1.a6d6d60000000p-7, -0x1.647a180000000p-2, -0x1.5abf4e0000000p-3, 0x1.28c8140000000p-5, 0x1.4264b00000000p-4, -0x1.62e9a80000000p-3, -0x1.84992c0000000p-3, 0x1.23bd5e0000000p-5, 0x1.95726a0000000p-4, -0x1.5b1d220000000p-4, -0x1.a2b3ce0000000p-3, -0x1.04f3460000000p-3, 0x1.f9837a0000000p-6, 0x1.6266c60000000p-8, 0x1.3a47b60000000p-3, 0x1.2b5a880000000p-4, 0x1.d6ce4a0000000p-5, 0x1.0a9fc40000000p-3, -0x1.2031540000000p-3, 0x1.0112100000000p-7, 0x1.5e6f900000000p-7, 0x1.f05bd80000000p-5, -0x1.5a970a0000000p-3, -0x1.9e37cc0000000p-4, 0x1.499fc60000000p-4, -0x1.243de60000000p-3, -0x1.13d64e0000000p-4, -0x1.7c1f460000000p-3, -0x1.54984a0000000p-2, -0x1.592b8e0000000p-4, 0x1.6fa32c0000000p-7, 0x1.1dd4fe0000000p-4, 0x1.4d043c0000000p-3, 0x1.61a4100000000p-4, -0x1.4a105a0000000p-3, 0x1.0c5c5a0000000p-3, -0x1.2dc3d80000000p-3, 0x1.083f820000000p-4, 0x1.78bb800000000p-4, 0x1.b68b760000000p-6, -0x1.da0c540000000p-4, -0x1.12a3a00000000p-7, 0x1.66e8ce0000000p-6, -0x1.d25e3e0000000p-4, 0x1.d43e6e0000000p-4, -0x1.a5fb400000000p-4, 0x1.960e580000000p-4, 0x1.71afa40000000p-4, -0x1.4236000000000p-4, -0x1.514fd20000000p-3, 0x1.9e2fc20000000p-3, -0x1.5d06e00000000p-3, 0x1.2d7ec80000000p-3, -0x1.71c99c0000000p-5, -0x1.d9b8b20000000p-3, -0x1.5e25dc0000000p-3, -0x1.68cb680000000p-5, -0x1.fca3b20000000p-4, 0x1.8bff0e0000000p-3, 0x1.0b1c2e0000000p-3, 0x1.35191a0000000p-3, -0x1.3234cc0000000p-3, 0x1.4899bc0000000p-4, 0x1.36bdca0000000p-9, 0x1.112e580000000p-4, -0x1.2f7d3e0000000p-4, -0x1.08c99e0000000p-3, 0x1.d80c840000000p-4, -0x1.429f120000000p-5, 0x1.1272220000000p-4, -0x1.6693900000000p-3, 0x1.23965c0000000p-3, -0x1.01a3940000000p-2, 0x1.671f300000000p-4, 0x1.3bc35c0000000p-5, -0x1.09ab0c0000000p-5, -0x1.536bee0000000p-3, 0x1.95364e0000000p-4, -0x1.48939a0000000p-3, 0x1.feb8c00000000p-4, -0x1.48c6380000000p-5, -0x1.0b0ad60000000p-4, 0x1.b3cc4c0000000p-5, -0x1.66aee40000000p-5, -0x1.93c2340000000p-6, -0x1.836fe80000000p-3, -0x1.2f770e0000000p-3, 0x1.49b4420000000p-5, -0x1.fe66fc0000000p-4, -0x1.370bbe0000000p-5, 0x1.077d4a0000000p-5, 0x1.e5b6200000000p-4, -0x1.9758ba0000000p-4, -0x1.0d1ca20000000p-2, 0x1.cf10c60000000p-4, 0x1.8b88520000000p-5, 0x1.3e41ee0000000p-4, 0x1.484d120000000p-4, 0x1.f9638e0000000p-5, 0x1.403d100000000p-4, -0x1.553a0c0000000p-4, 0x1.62bd600000000p-4, 0x1.ac4c860000000p-4, 0x1.0b70480000000p-4, 0x1.7516260000000p-7, -0x1.80771e0000000p-4, -0x1.609f6a0000000p-3, -0x1.9cae1a0000000p-4, -0x1.5856b80000000p-4, 0x1.c9bd4a0000000p-4, -0x1.b8eaa00000000p-3, 0x1.f74d120000000p-4, 0x1.924b260000000p-4, -0x1.2f671c0000000p-3, -0x1.62ff380000000p-4, -0x1.0078820000000p-3, 0x1.ff8b800000000p-5, 0x1.7631660000000p-3, -0x1.3913b80000000p-4, 0x1.fa452c0000000p-5, -0x1.be505e0000000p-3, -0x1.401b780000000p-3, -0x1.2e15a20000000p-4, 0x1.ddea500000000p-4, 0x1.ba5dfc0000000p-4, 0x1.4ce17e0000000p-4, 0x1.77aba40000000p-4, -0x1.638eea0000000p-3, 0x1.69c90e0000000p-4, -0x1.6c44d00000000p-6, -0x1.e963fc0000000p-4, -0x1.41d6ea0000000p-4, -0x1.66e2e80000000p-5, -0x1.998b260000000p-3, 0x1.71c2720000000p-3, 0x1.da5bf60000000p-5, -0x1.1ce99c0000000p-3, -0x1.c9eafc0000000p-5, -0x1.1aeafa0000000p-3, -0x1.3dbaf80000000p-5, -0x1.57d9220000000p-3, 0x1.05c5f80000000p-3, 0x1.e809000000000p-4, -0x1.24da580000000p-3, 0x1.f330a40000000p-4, 0x1.37a37e0000000p-4, 0x1.09d0c00000000p-4, -0x1.9c0f820000000p-3, -0x1.cb3d480000000p-4, 0x1.2b4f780000000p-3, -0x1.616bc80000000p-3, 0x1.52373c0000000p-7, -0x1.c132540000000p-3, -0x1.4b0dda0000000p-7, 0x1.38fa620000000p-5, -0x1.acb2b20000000p-3, -0x1.94d85c0000000p-4, 0x1.7c8ffe0000000p-5, 0x1.13d65a0000000p-3, -0x1.c412ca0000000p-9}
, {0x1.e595320000000p-4, -0x1.e59ad80000000p-5, -0x1.88be340000000p-5, 0x1.cc9b720000000p-4, -0x1.29f1fe0000000p-4, -0x1.e4201a0000000p-3, -0x1.40cf0c0000000p-6, 0x1.f903f00000000p-5, 0x1.709c920000000p-4, -0x1.c242820000000p-3, -0x1.58a8c80000000p-3, 0x1.5c153e0000000p-4, -0x1.21380e0000000p-3, -0x1.f2a2a60000000p-5, 0x1.933e060000000p-4, 0x1.10173a0000000p-3, -0x1.1df1680000000p-2, -0x1.42f5be0000000p-4, 0x1.496ec40000000p-4, -0x1.9e354c0000000p-5, -0x1.dc36140000000p-4, 0x1.3d566e0000000p-3, 0x1.268d120000000p-3, -0x1.af45920000000p-3, -0x1.58eb540000000p-3, 0x1.52c93e0000000p-3, -0x1.7f933a0000000p-3, -0x1.bb1d060000000p-4, 0x1.9f695e0000000p-4, 0x1.2f37760000000p-3, 0x1.a1d64a0000000p-4, 0x1.ab82980000000p-4, -0x1.baced40000000p-3, 0x1.8290ea0000000p-3, -0x1.ca25920000000p-3, -0x1.9b9c960000000p-4, 0x1.a7d2fe0000000p-4, -0x1.d124b60000000p-3, -0x1.d458a20000000p-3, -0x1.4ce1480000000p-3, 0x1.a51a800000000p-6, -0x1.1aa9ac0000000p-4, 0x1.8ded540000000p-5, 0x1.022c400000000p-7, 0x1.21eb8a0000000p-3, 0x1.91f9fa0000000p-9, -0x1.a4ab3a0000000p-3, 0x1.eade500000000p-4, -0x1.50b9aa0000000p-3, -0x1.84e3540000000p-3, -0x1.9203460000000p-4, 0x1.8455200000000p-7, 0x1.c5e0ce0000000p-4, -0x1.51c1000000000p-5, -0x1.4079f20000000p-3, -0x1.3b641c0000000p-3, -0x1.2cbb5c0000000p-5, -0x1.fb1d860000000p-4, 0x1.86466c0000000p-5, 0x1.11c5c80000000p-5, 0x1.0781380000000p-4, 0x1.fce81e0000000p-5, -0x1.88d89e0000000p-3, -0x1.d6234c0000000p-3, 0x1.8d87e40000000p-5, -0x1.f507f40000000p-6, -0x1.38ab440000000p-9, -0x1.a5467e0000000p-3, 0x1.08deb00000000p-3, -0x1.bf22900000000p-4, -0x1.7225320000000p-2, 0x1.2d7ed80000000p-3, -0x1.3722a60000000p-3, -0x1.e8e48e0000000p-3, -0x1.924ff80000000p-3, -0x1.58e12a0000000p-3, -0x1.8e43b00000000p-3, -0x1.d30fe00000000p-4, -0x1.aba7320000000p-3, 0x1.d5a8bc0000000p-5, 0x1.1fb3be0000000p-3, -0x1.3e05c00000000p-5, -0x1.c3c27e0000000p-5, -0x1.f553e60000000p-5, -0x1.076cb20000000p-2, -0x1.f2f5580000000p-4, 0x1.613ce80000000p-3, 0x1.2579b60000000p-4, 0x1.98556c0000000p-3, -0x1.8311da0000000p-5, -0x1.0781480000000p-6, -0x1.d450780000000p-4, 0x1.959bfa0000000p-4, -0x1.1ac29e0000000p-6, 0x1.0835cc0000000p-3, 0x1.b18b580000000p-4, 0x1.06c1840000000p-5, 0x1.81234a0000000p-3, -0x1.b55e620000000p-3, -0x1.3479280000000p-3, -0x1.13f2fa0000000p-2, -0x1.8a59600000000p-3, 0x1.9b8c660000000p-4, 0x1.5bdaf80000000p-3, -0x1.7fc1e20000000p-3, 0x1.b9a5400000000p-3, -0x1.1c3bea0000000p-5, -0x1.1b7d800000000p-3, -0x1.d1ccf00000000p-3, -0x1.23c9760000000p-6, 0x1.48dcf20000000p-6, 0x1.6b73340000000p-6, -0x1.4fc9300000000p-3, 0x1.4ac8040000000p-3, -0x1.fb182e0000000p-4, 0x1.8287000000000p-3, 0x1.85a5f00000000p-4, 0x1.09b3a20000000p-3, -0x1.f98db00000000p-3, 0x1.0ba4420000000p-4, 0x1.908af60000000p-4, 0x1.243f760000000p-5, -0x1.ffcb020000000p-3, -0x1.df4f3e0000000p-9, -0x1.91640e0000000p-2, -0x1.3049dc0000000p-4, -0x1.077f540000000p-2, -0x1.81b7c40000000p-7, -0x1.8359880000000p-4, -0x1.d8625c0000000p-3, -0x1.8fbbf80000000p-3, -0x1.0ee51c0000000p-2, 0x1.9266580000000p-6, -0x1.98c9560000000p-5, -0x1.b3eb060000000p-4, -0x1.a92c5c0000000p-4, -0x1.8affd80000000p-6, -0x1.64311e0000000p-3, 0x1.31b8200000000p-4, -0x1.341c7e0000000p-2, -0x1.2019f40000000p-4, -0x1.799b180000000p-6, 0x1.5fcb000000000p-4, -0x1.c389080000000p-4, -0x1.0c3a1e0000000p-3, 0x1.52b5bc0000000p-4, -0x1.f75cd20000000p-4, 0x1.6290a60000000p-4, 0x1.6b8d7c0000000p-7, -0x1.02a5ee0000000p-2, -0x1.eec3480000000p-7, 0x1.166f360000000p-7, -0x1.a6decc0000000p-3, 0x1.ef08260000000p-4, 0x1.a884b60000000p-3, 0x1.2657800000000p-3, 0x1.12802c0000000p-3, 0x1.aecca40000000p-3, 0x1.cd03380000000p-4, -0x1.8eecd80000000p-3, -0x1.cafcfa0000000p-3, -0x1.452e7e0000000p-3, -0x1.f357a20000000p-8, -0x1.01a0740000000p-3, -0x1.d7e7ac0000000p-3, 0x1.d6fcea0000000p-4, -0x1.330d040000000p-5, -0x1.8caf900000000p-3, -0x1.7d780a0000000p-3, 0x1.547f440000000p-9, -0x1.b97c2a0000000p-4, 0x1.64b7480000000p-6, -0x1.1903360000000p-3, 0x1.5572660000000p-3, -0x1.d111660000000p-4, 0x1.691a360000000p-4, -0x1.372f340000000p-2, 0x1.6f93200000000p-3, 0x1.b0ea000000000p-5, -0x1.6d67b20000000p-5, -0x1.ceebd80000000p-4, -0x1.31ed240000000p-3, -0x1.c394f40000000p-3, 0x1.8e74280000000p-3, 0x1.c120c80000000p-4, -0x1.e4021e0000000p-3, -0x1.369c9a0000000p-3, -0x1.01f53e0000000p-3, 0x1.470e400000000p-3, -0x1.c7118a0000000p-3, 0x1.271a620000000p-3, -0x1.9473a20000000p-4, -0x1.4f6a4e0000000p-3, 0x1.0250160000000p-5, 0x1.b23e460000000p-4, -0x1.09bb600000000p-2, -0x1.9ffc4a0000000p-5, 0x1.90559c0000000p-4, 0x1.72c3fa0000000p-6, -0x1.7e67b80000000p-4, -0x1.68cfb40000000p-3, -0x1.d7e5f80000000p-6, -0x1.dafc500000000p-3, -0x1.81a8ce0000000p-6, -0x1.d643e80000000p-4, -0x1.55d7ea0000000p-3, -0x1.a2bb400000000p-4, -0x1.eaa4f80000000p-3, -0x1.459dd80000000p-3, 0x1.194c1c0000000p-4, 0x1.7940a20000000p-7, -0x1.1891c80000000p-4, -0x1.fe9aac0000000p-5, -0x1.fe85480000000p-5, 0x1.350ed80000000p-3, -0x1.4343220000000p-3, 0x1.4620760000000p-3, -0x1.0339f60000000p-6, -0x1.02aa1c0000000p-2, 0x1.3f14020000000p-4, 0x1.dab1340000000p-5, 0x1.2f914e0000000p-6, 0x1.0c63260000000p-6, 0x1.056bb20000000p-3, -0x1.531b9a0000000p-5, 0x1.00f7bc0000000p-3, 0x1.f4db040000000p-9, -0x1.761f820000000p-4, 0x1.874dc00000000p-3, 0x1.8bbcda0000000p-3, 0x1.ced2140000000p-3, 0x1.0c90360000000p-3, -0x1.95f1940000000p-3, -0x1.14c7160000000p-2, -0x1.8e584c0000000p-4, -0x1.fae8c20000000p-6, -0x1.9690480000000p-5, 0x1.d5fc7e0000000p-5, -0x1.2dadce0000000p-3, 0x1.213df80000000p-3, -0x1.8190000000000p-3, 0x1.8ad11c0000000p-4, -0x1.1321e60000000p-2, 0x1.d9a9160000000p-4, -0x1.d8bc2c0000000p-4, -0x1.13a7480000000p-2, 0x1.377de20000000p-6, 0x1.a15c780000000p-5, -0x1.7394b40000000p-4, 0x1.1abdfe0000000p-4, 0x1.7c2b700000000p-7, -0x1.93f06e0000000p-3, -0x1.da90f60000000p-8, 0x1.cb0c120000000p-4, 0x1.8ae4ee0000000p-4, -0x1.f9865c0000000p-4}
, {0x1.1afeb60000000p-7, 0x1.1cb78c0000000p-4, -0x1.1b938e0000000p-3, -0x1.02edcc0000000p-2, -0x1.f6547e0000000p-4, 0x1.ba721e0000000p-4, 0x1.db46ec0000000p-4, 0x1.3df86c0000000p-5, -0x1.1c23f60000000p-2, 0x1.980c9e0000000p-4, -0x1.ec108a0000000p-4, -0x1.2c4b140000000p-3, 0x1.89351c0000000p-5, -0x1.0214260000000p-3, -0x1.19f1ba0000000p-7, 0x1.4c9e620000000p-4, 0x1.fe695a0000000p-5, -0x1.fe48500000000p-5, 0x1.4349b80000000p-7, 0x1.f8d0a20000000p-4, -0x1.8064280000000p-4, -0x1.0967300000000p-4, 0x1.2d663c0000000p-4, 0x1.9fdb640000000p-4, -0x1.4566ba0000000p-4, -0x1.b085660000000p-4, 0x1.30ade00000000p-3, -0x1.bc7ec20000000p-3, -0x1.c985480000000p-4, -0x1.0ed8a80000000p-5, -0x1.5448f80000000p-2, 0x1.71cbcc0000000p-3, 0x1.d071ba0000000p-8, 0x1.8effe60000000p-7, 0x1.0c953c0000000p-3, -0x1.a0ec700000000p-4, 0x1.f86c700000000p-5, 0x1.fc714e0000000p-4, -0x1.2c1b600000000p-3, 0x1.a1a2fc0000000p-4, -0x1.4f9e2c0000000p-5, -0x1.cda7f20000000p-3, 0x1.c48dc80000000p-4, -0x1.299c5c0000000p-4, -0x1.83d2340000000p-4, 0x1.ec051c0000000p-5, 0x1.3f6e900000000p-3, -0x1.23d8f40000000p-3, -0x1.4d11220000000p-3, 0x1.92cc880000000p-3, 0x1.3496860000000p-4, 0x1.601cac0000000p-4, -0x1.def09c0000000p-6, 0x1.d48fcc0000000p-7, 0x1.7791ba0000000p-4, -0x1.37b3540000000p-4, -0x1.7b5aae0000000p-4, -0x1.7840b40000000p-4, -0x1.6158a20000000p-3, -0x1.8346800000000p-3, 0x1.34749c0000000p-4, -0x1.bf705e0000000p-4, -0x1.01ea9e0000000p-3, 0x1.07416e0000000p-3, 0x1.a0d20e0000000p-5, 0x1.9dac4e0000000p-3, 0x1.7bcec40000000p-8, 0x1.77e5b40000000p-4, -0x1.2ae49e0000000p-3, -0x1.0200240000000p-3, -0x1.08de300000000p-6, 0x1.7a39f40000000p-4, 0x1.7c77ae0000000p-6, 0x1.92c1140000000p-4, 0x1.d2ca740000000p-9, -0x1.39e8ac0000000p-10, -0x1.3a48340000000p-5, -0x1.e1acd60000000p-4, 0x1.17eb380000000p-3, 0x1.e25f5c0000000p-5, 0x1.a0961e0000000p-4, 0x1.5a6d860000000p-3, -0x1.543cf40000000p-3, -0x1.5703340000000p-7, 0x1.2c19240000000p-3, 0x1.423f4c0000000p-4, -0x1.6f0dfe0000000p-3, -0x1.3f9ce20000000p-3, -0x1.727b9c0000000p-5, 0x1.a4715c0000000p-3, -0x1.faab520000000p-4, -0x1.ef07c20000000p-7, -0x1.6501020000000p-3, 0x1.83cc100000000p-4, 0x1.0ec0c80000000p-4, -0x1.00b1700000000p-5, 0x1.6279a40000000p-5, 0x1.40b2e60000000p-6, -0x1.993ca80000000p-3, -0x1.3231340000000p-4, 0x1.974fae0000000p-4, 0x1.c401d80000000p-4, 0x1.3188200000000p-4, -0x1.e1517c0000000p-4, 0x1.80f8000000000p-6, 0x1.19b4be0000000p-5, -0x1.783c180000000p-4, 0x1.1f0e6a0000000p-3, 0x1.fab70c0000000p-5, 0x1.1d13600000000p-3, 0x1.4371cc0000000p-5, -0x1.0617480000000p-6, -0x1.5d4fe00000000p-3, -0x1.790bbc0000000p-3, 0x1.9c29420000000p-6, -0x1.925ac00000000p-3, -0x1.2ca0680000000p-3, -0x1.3856ac0000000p-3, 0x1.d109de0000000p-4, 0x1.41a5880000000p-5, -0x1.b47e240000000p-4, -0x1.cf1b2c0000000p-3, 0x1.6a294e0000000p-5, 0x1.0c2ec20000000p-5, 0x1.5dff0c0000000p-6, 0x1.bbc9400000000p-3, 0x1.1fc63e0000000p-3, -0x1.2d4ee00000000p-4, -0x1.50abec0000000p-3, 0x1.654fd20000000p-4, -0x1.b16d4c0000000p-6, 0x1.6937d20000000p-6, -0x1.247d980000000p-3, 0x1.568b3e0000000p-3, -0x1.51b2240000000p-5, -0x1.ea56280000000p-3, -0x1.4fc5980000000p-3, 0x1.17a07c0000000p-3, 0x1.092e2a0000000p-3, -0x1.5afeb00000000p-7, -0x1.d379f60000000p-4, 0x1.0687160000000p-3, -0x1.51690e0000000p-5, -0x1.0053920000000p-2, 0x1.12842e0000000p-3, -0x1.1d55200000000p-3, -0x1.959cb60000000p-5, 0x1.68c18a0000000p-4, 0x1.23c2d00000000p-3, -0x1.40c2ee0000000p-3, 0x1.07840e0000000p-4, 0x1.77000a0000000p-4, 0x1.de486a0000000p-4, 0x1.24b30c0000000p-5, -0x1.edc5240000000p-3, -0x1.a458d20000000p-4, 0x1.2a88480000000p-4, -0x1.7b9c640000000p-3, -0x1.001e880000000p-2, -0x1.09160a0000000p-5, 0x1.a4581e0000000p-4, 0x1.c54d020000000p-5, 0x1.3147d80000000p-3, -0x1.9af0920000000p-3, 0x1.1a6dc20000000p-3, -0x1.3018000000000p-3, -0x1.fd02820000000p-5, -0x1.b45bba0000000p-4, -0x1.cb0c220000000p-5, 0x1.b73ada0000000p-6, 0x1.1ab1520000000p-3, 0x1.5505260000000p-3, 0x1.55f43e0000000p-3, -0x1.5a944a0000000p-3, -0x1.10b4420000000p-2, -0x1.7b34ea0000000p-5, 0x1.db54ca0000000p-4, -0x1.44441c0000000p-2, 0x1.321d4a0000000p-3, 0x1.2a3fda0000000p-4, 0x1.e6777c0000000p-4, 0x1.5703f40000000p-3, 0x1.08b4980000000p-4, -0x1.59dce20000000p-7, 0x1.264f320000000p-4, 0x1.4ff92c0000000p-3, -0x1.1168a40000000p-3, -0x1.742d500000000p-3, -0x1.e6f4ec0000000p-3, 0x1.ece3c60000000p-4, 0x1.77edc60000000p-4, 0x1.2226d80000000p-8, 0x1.b369360000000p-5, 0x1.ca4e340000000p-5, -0x1.851dfe0000000p-4, 0x1.b1aa2a0000000p-4, 0x1.43c9e80000000p-5, -0x1.406a740000000p-5, -0x1.0038300000000p-2, 0x1.2deec20000000p-3, 0x1.57bfde0000000p-3, -0x1.270fc00000000p-5, -0x1.2866f80000000p-4, -0x1.5dffc40000000p-4, 0x1.3cdb1a0000000p-4, 0x1.6b218e0000000p-6, 0x1.2f1ede0000000p-5, -0x1.8a940e0000000p-3, -0x1.0a6b580000000p-2, -0x1.0e5d860000000p-3, 0x1.38a5e20000000p-3, 0x1.e3c7340000000p-4, -0x1.669b100000000p-4, -0x1.c9cc540000000p-5, -0x1.b64a9a0000000p-4, 0x1.8b611e0000000p-4, 0x1.2ea7980000000p-8, -0x1.78fb6a0000000p-5, 0x1.b1d3b40000000p-4, -0x1.08177a0000000p-3, 0x1.78fc700000000p-3, 0x1.bda4da0000000p-5, 0x1.3307680000000p-3, -0x1.714e380000000p-3, -0x1.65f10e0000000p-3, -0x1.9a85d20000000p-3, -0x1.90d2a00000000p-3, -0x1.394c380000000p-6, -0x1.04a78c0000000p-3, 0x1.8f49f20000000p-4, -0x1.3991140000000p-3, -0x1.0d060c0000000p-2, -0x1.3383fa0000000p-3, 0x1.9e76820000000p-5, -0x1.89596c0000000p-4, 0x1.c464ec0000000p-5, -0x1.b010900000000p-3, -0x1.7509520000000p-4, -0x1.fc1f240000000p-4, 0x1.988da00000000p-4, 0x1.83fef00000000p-4, -0x1.b39e660000000p-4, -0x1.99e79a0000000p-8, -0x1.424eea0000000p-4, 0x1.33f7cc0000000p-8, -0x1.3f5b580000000p-3, 0x1.43557a0000000p-3, -0x1.3544d60000000p-2, -0x1.e3d25c0000000p-5, 0x1.0441e60000000p-3, -0x1.ffed620000000p-4, 0x1.1f7a3e0000000p-5, 0x1.e76b940000000p-4, -0x1.0b61900000000p-2, -0x1.6f60b80000000p-4, 0x1.fe205c0000000p-5}
, {0x1.f5c2aa0000000p-6, 0x1.d0e4840000000p-4, -0x1.ecbb100000000p-3, 0x1.c62fb80000000p-6, 0x1.3f1e8c0000000p-3, -0x1.5598880000000p-3, 0x1.6ee3100000000p-3, 0x1.65f2e40000000p-3, 0x1.8765e60000000p-4, -0x1.72dda60000000p-3, 0x1.677ff00000000p-4, -0x1.701d0c0000000p-3, -0x1.5106880000000p-4, -0x1.072f560000000p-3, 0x1.058d6e0000000p-3, -0x1.5fd0820000000p-6, 0x1.9457fe0000000p-5, -0x1.d564e80000000p-3, 0x1.d176240000000p-4, 0x1.831dd20000000p-7, -0x1.ba41ae0000000p-3, 0x1.68bbc60000000p-4, -0x1.5ce6fe0000000p-3, 0x1.4c24040000000p-3, -0x1.11171a0000000p-3, 0x1.5de3240000000p-3, -0x1.f086f00000000p-4, 0x1.76cbd20000000p-4, 0x1.7f8ec40000000p-5, -0x1.9b84f00000000p-7, 0x1.7322380000000p-4, -0x1.ceb9b40000000p-6, -0x1.992dd80000000p-3, -0x1.7c347a0000000p-6, -0x1.b744c80000000p-8, 0x1.5abae60000000p-4, -0x1.9e6f2e0000000p-3, 0x1.92bc180000000p-7, 0x1.aba0fe0000000p-3, -0x1.ab671e0000000p-3, 0x1.ae623c0000000p-4, -0x1.29eed60000000p-5, 0x1.b4c40a0000000p-4, -0x1.b7f03a0000000p-3, -0x1.4d613a0000000p-4, 0x1.b274c40000000p-4, -0x1.c1aaea0000000p-3, 0x1.a9390e0000000p-4, -0x1.2c37d80000000p-3, -0x1.c3d6000000000p-3, -0x1.71b7160000000p-3, 0x1.2f11200000000p-3, -0x1.fe0bc80000000p-6, -0x1.853b980000000p-4, 0x1.c9150c0000000p-3, -0x1.0b6bb00000000p-6, 0x1.4920fe0000000p-5, -0x1.400b540000000p-3, 0x1.dee54e0000000p-5, 0x1.4cee720000000p-4, 0x1.66ff620000000p-5, 0x1.d64e8e0000000p-4, -0x1.d5bbec0000000p-4, -0x1.c7b9160000000p-6, 0x1.07a5a00000000p-6, -0x1.d500100000000p-6, -0x1.ae907c0000000p-4, 0x1.4a09260000000p-3, -0x1.5225880000000p-4, -0x1.fe1d360000000p-3, -0x1.7553da0000000p-3, 0x1.6d0e660000000p-4, -0x1.313fa60000000p-3, 0x1.d2b15e0000000p-5, -0x1.c423800000000p-7, 0x1.85deea0000000p-4, -0x1.33db480000000p-3, 0x1.afd2ae0000000p-4, 0x1.00bdf40000000p-5, 0x1.2ab41e0000000p-3, 0x1.4524bc0000000p-5, -0x1.ab82ea0000000p-4, 0x1.4adede0000000p-3, 0x1.18e7e20000000p-3, -0x1.30f27c0000000p-3, -0x1.b1a1980000000p-5, 0x1.1342700000000p-3, -0x1.4ba9d80000000p-8, -0x1.1bb8300000000p-3, -0x1.5201880000000p-4, 0x1.82e9000000000p-3, 0x1.08ba9e0000000p-3, 0x1.4ba7620000000p-6, 0x1.83c5a20000000p-4, -0x1.1101300000000p-3, -0x1.b552b20000000p-4, 0x1.5fd0a20000000p-4, -0x1.a96db00000000p-4, 0x1.1d2ea60000000p-4, -0x1.7f16460000000p-3, 0x1.096d4a0000000p-3, -0x1.ff887e0000000p-4, 0x1.7964f60000000p-6, 0x1.01d2680000000p-5, 0x1.6fbeb60000000p-4, -0x1.7a6c400000000p-6, 0x1.f8fe600000000p-8, 0x1.5121d40000000p-4, 0x1.6257d20000000p-3, -0x1.81c3920000000p-4, -0x1.02f9960000000p-5, 0x1.66a92a0000000p-4, -0x1.f380220000000p-4, 0x1.2aecc80000000p-3, 0x1.14585c0000000p-3, -0x1.2e434c0000000p-4, -0x1.15af220000000p-3, 0x1.1e84d80000000p-5, -0x1.574b1c0000000p-3, -0x1.0a169a0000000p-4, 0x1.9a242e0000000p-5, 0x1.f2f2020000000p-4, -0x1.5728380000000p-3, 0x1.c879400000000p-4, 0x1.0c9c480000000p-6, 0x1.2324e60000000p-9, 0x1.15f62a0000000p-4, 0x1.4245f80000000p-3, -0x1.1ccfe60000000p-3, -0x1.cec5540000000p-4, 0x1.6434aa0000000p-4, -0x1.d612880000000p-5, -0x1.68ed540000000p-8, -0x1.4a24840000000p-6, -0x1.bb2fe40000000p-6, 0x1.6a21000000000p-4, -0x1.0e32540000000p-6, -0x1.7524c80000000p-4, -0x1.3cb2580000000p-6, 0x1.978e340000000p-4, -0x1.e0155c0000000p-8, -0x1.dafcc80000000p-3, 0x1.197c6a0000000p-3, -0x1.e67c060000000p-6, -0x1.781d3c0000000p-9, -0x1.25f4cc0000000p-3, -0x1.3543b80000000p-3, -0x1.09b25c0000000p-3, -0x1.dc0ec60000000p-4, 0x1.5c2e820000000p-11, 0x1.b6d4fe0000000p-4, -0x1.73c5620000000p-5, -0x1.0cfdda0000000p-4, 0x1.4680480000000p-4, -0x1.a716ac0000000p-4, 0x1.1a59720000000p-3, -0x1.7926680000000p-6, -0x1.146cb00000000p-4, 0x1.4e589a0000000p-4, -0x1.04bb1c0000000p-6, 0x1.5232be0000000p-3, -0x1.7f86d80000000p-3, -0x1.235e8c0000000p-3, 0x1.956d1e0000000p-6, -0x1.7e8da80000000p-4, 0x1.ca34400000000p-4, 0x1.559ffa0000000p-7, -0x1.3421340000000p-3, 0x1.1289340000000p-4, 0x1.5902780000000p-3, -0x1.2b28260000000p-3, -0x1.189c500000000p-3, 0x1.d33e220000000p-4, -0x1.a4efc80000000p-6, -0x1.3fae460000000p-5, 0x1.b77d8c0000000p-4, 0x1.6cd0060000000p-4, -0x1.b4e7360000000p-4, 0x1.efd8c20000000p-4, -0x1.fbd1cc0000000p-4, 0x1.0b6a9c0000000p-4, -0x1.bc90a00000000p-3, 0x1.3888cc0000000p-4, -0x1.003fd40000000p-3, -0x1.0a53a40000000p-8, 0x1.87bd780000000p-7, 0x1.d9b35c0000000p-5, 0x1.2408660000000p-3, -0x1.02097c0000000p-3, -0x1.f12b620000000p-3, 0x1.f77f7e0000000p-7, 0x1.3078280000000p-4, 0x1.b26e140000000p-6, 0x1.45ca300000000p-4, 0x1.a47e820000000p-8, -0x1.1576d00000000p-3, -0x1.fefacc0000000p-5, -0x1.3355560000000p-3, -0x1.8ba2480000000p-4, -0x1.f5c4ea0000000p-5, -0x1.ad847a0000000p-6, -0x1.222bae0000000p-2, 0x1.fd3c9c0000000p-4, -0x1.eef6c80000000p-4, -0x1.6079e20000000p-3, -0x1.2d02aa0000000p-3, 0x1.e5848c0000000p-6, -0x1.56b61c0000000p-6, 0x1.d460fc0000000p-4, -0x1.3d460c0000000p-2, -0x1.5fe2760000000p-4, 0x1.4447980000000p-4, -0x1.2608dc0000000p-4, -0x1.c4d3fe0000000p-7, -0x1.689dde0000000p-3, -0x1.685ff80000000p-3, -0x1.8932600000000p-4, -0x1.6235840000000p-3, -0x1.4ced0e0000000p-3, 0x1.8f37380000000p-4, 0x1.be22fe0000000p-4, -0x1.86a86a0000000p-3, -0x1.680d7c0000000p-3, -0x1.b7d2620000000p-5, 0x1.3272c00000000p-3, -0x1.71b70e0000000p-3, 0x1.5dfe3a0000000p-5, -0x1.3380fc0000000p-3, 0x1.a3302c0000000p-6, -0x1.e985360000000p-7, 0x1.a30eb00000000p-4, 0x1.46e30e0000000p-4, -0x1.41f01c0000000p-6, 0x1.59ab620000000p-3, 0x1.d962840000000p-4, -0x1.c0ae800000000p-6, -0x1.6075aa0000000p-4, 0x1.2807f00000000p-3, -0x1.45195a0000000p-3, -0x1.a1ed100000000p-3, -0x1.63789c0000000p-4, 0x1.ef912c0000000p-4, -0x1.e07a540000000p-3, 0x1.42bfb00000000p-4, 0x1.292f840000000p-3, -0x1.2a19f20000000p-3, 0x1.0b51560000000p-5, -0x1.156a860000000p-3, 0x1.46f7280000000p-3, -0x1.fc669e0000000p-4, -0x1.18bd1a0000000p-2, 0x1.e7ed080000000p-4, -0x1.ff39560000000p-4, 0x1.72958a0000000p-4, -0x1.0b977c0000000p-3, -0x1.0a11ce0000000p-3}
, {0x1.90a7aa0000000p-4, 0x1.d2491c0000000p-4, -0x1.9d31d20000000p-3, 0x1.c1debe0000000p-4, -0x1.06300a0000000p-3, 0x1.f7cf2a0000000p-4, 0x1.fab0300000000p-4, -0x1.b8ed3c0000000p-3, 0x1.3a8d180000000p-4, 0x1.1d513a0000000p-5, -0x1.f7d4300000000p-6, 0x1.4e198c0000000p-4, -0x1.29ac4c0000000p-7, 0x1.647d700000000p-4, 0x1.e8cdee0000000p-4, -0x1.a623de0000000p-4, 0x1.e99a840000000p-4, -0x1.aa5cea0000000p-3, -0x1.d128b80000000p-4, -0x1.9642120000000p-3, 0x1.e653fe0000000p-6, -0x1.895e660000000p-4, -0x1.8036ac0000000p-3, -0x1.80e7bc0000000p-3, -0x1.fc42240000000p-6, -0x1.da66540000000p-3, 0x1.02ba6e0000000p-3, 0x1.dc16aa0000000p-4, -0x1.02688c0000000p-3, -0x1.e117b60000000p-5, -0x1.dc40020000000p-5, -0x1.0fc8900000000p-3, 0x1.f0f3980000000p-4, -0x1.13aed60000000p-4, 0x1.c1a0260000000p-4, -0x1.2a22760000000p-3, 0x1.0018e80000000p-4, -0x1.ada0d60000000p-3, -0x1.0754ea0000000p-3, 0x1.14ce940000000p-3, -0x1.100c860000000p-4, -0x1.1e35100000000p-15, -0x1.1c3e480000000p-9, -0x1.31858a0000000p-5, 0x1.e51fb00000000p-6, 0x1.3f0ad60000000p-3, -0x1.a167520000000p-3, -0x1.8511b40000000p-8, 0x1.10996c0000000p-3, -0x1.59819a0000000p-3, 0x1.f9b2d80000000p-4, 0x1.1ba2da0000000p-3, 0x1.af72780000000p-4, 0x1.bb73680000000p-12, -0x1.004fe00000000p-3, 0x1.f1a0860000000p-4, -0x1.455ae40000000p-3, -0x1.91a0ec0000000p-3, -0x1.86baa60000000p-3, -0x1.ab422a0000000p-3, -0x1.ecc9400000000p-5, 0x1.a87f280000000p-5, -0x1.d7eece0000000p-3, 0x1.716a180000000p-5, 0x1.45d2c20000000p-8, -0x1.7d98a00000000p-3, 0x1.4f2e080000000p-4, -0x1.1747560000000p-3, -0x1.23ba4a0000000p-2, 0x1.c9fc740000000p-5, 0x1.bef2540000000p-5, 0x1.02be420000000p-3, 0x1.1bbfa20000000p-3, 0x1.8279100000000p-4, 0x1.5ab79c0000000p-4, 0x1.08d4380000000p-3, 0x1.cfd95a0000000p-4, -0x1.afc4840000000p-3, -0x1.8ee6040000000p-3, -0x1.4cad1c0000000p-3, -0x1.badf280000000p-4, 0x1.dbf50c0000000p-4, 0x1.d8443c0000000p-4, -0x1.67b49e0000000p-4, -0x1.c15ca00000000p-5, 0x1.fa53f20000000p-4, 0x1.2c17b40000000p-3, -0x1.b35a6c0000000p-4, 0x1.ac30680000000p-4, -0x1.2c53020000000p-4, 0x1.78fc3c0000000p-3, -0x1.578f580000000p-5, 0x1.76c7ac0000000p-8, -0x1.3e52240000000p-5, -0x1.ac58940000000p-4, 0x1.a04c8e0000000p-5, 0x1.44304a0000000p-5, -0x1.ab39a60000000p-10, 0x1.635d3a0000000p-5, -0x1.8bfd4c0000000p-3, -0x1.78fc6a0000000p-5, 0x1.08a16c0000000p-3, -0x1.da508c0000000p-3, -0x1.0852180000000p-3, 0x1.c6214c0000000p-5, -0x1.c760fa0000000p-5, 0x1.525df80000000p-3, 0x1.0da9d80000000p-3, 0x1.80c3180000000p-4, 0x1.052da00000000p-3, 0x1.5642ac0000000p-4, -0x1.c2e7900000000p-3, -0x1.efc8340000000p-5, 0x1.cc5d6e0000000p-7, 0x1.2b6ec40000000p-3, -0x1.9ec7020000000p-5, -0x1.4999a40000000p-3, -0x1.8132e00000000p-3, 0x1.7c088a0000000p-7, -0x1.ed3e9c0000000p-3, -0x1.22fcbe0000000p-4, -0x1.3775c40000000p-5, 0x1.2d1e600000000p-4, -0x1.cf5c000000000p-3, -0x1.038b340000000p-5, -0x1.db675e0000000p-3, 0x1.0add660000000p-3, -0x1.6862900000000p-3, -0x1.f679e20000000p-6, 0x1.0fdcf80000000p-3, -0x1.e0d6160000000p-8, 0x1.067a720000000p-3, -0x1.183f880000000p-3, -0x1.3dddbc0000000p-5, -0x1.86d6be0000000p-6, -0x1.11f4bc0000000p-5, -0x1.8d6e3a0000000p-4, 0x1.0a888e0000000p-3, -0x1.3a0d3a0000000p-4, 0x1.5bf66c0000000p-4, -0x1.4feb960000000p-4, 0x1.285b700000000p-5, -0x1.ff6e500000000p-4, 0x1.38450e0000000p-3, -0x1.2d00240000000p-2, -0x1.efb3d40000000p-6, -0x1.2ab0680000000p-3, -0x1.f308840000000p-3, -0x1.1cdc5e0000000p-3, 0x1.fe3c5a0000000p-4, 0x1.d5674e0000000p-4, 0x1.6603fa0000000p-4, -0x1.895ec80000000p-3, -0x1.f0e34c0000000p-3, 0x1.7f918c0000000p-7, -0x1.53bda60000000p-3, 0x1.fc984c0000000p-7, -0x1.a196f80000000p-5, 0x1.1febca0000000p-4, 0x1.336ef60000000p-3, -0x1.55359a0000000p-3, 0x1.74a1da0000000p-3, -0x1.c28d380000000p-4, 0x1.c46c6c0000000p-4, 0x1.c66af00000000p-5, -0x1.68f5820000000p-3, -0x1.8d99660000000p-3, -0x1.bfc69c0000000p-5, 0x1.9472aa0000000p-4, -0x1.81296c0000000p-3, -0x1.2cf7720000000p-3, -0x1.b1407a0000000p-3, 0x1.162e0e0000000p-4, 0x1.d97cd40000000p-5, -0x1.3338a00000000p-8, 0x1.725fc60000000p-4, 0x1.5152c60000000p-6, 0x1.2b8e520000000p-3, -0x1.24f9b80000000p-3, -0x1.a19d360000000p-7, -0x1.21c2b40000000p-4, 0x1.16d0220000000p-4, 0x1.b867360000000p-4, -0x1.2a38b60000000p-4, -0x1.579f360000000p-2, 0x1.f31a4a0000000p-5, 0x1.42c7f20000000p-7, 0x1.01b18e0000000p-3, -0x1.844cc20000000p-6, 0x1.4dc4260000000p-9, 0x1.76bf0c0000000p-5, -0x1.59c5300000000p-4, 0x1.170b1a0000000p-4, -0x1.4d48560000000p-5, -0x1.b339d80000000p-3, 0x1.02b7140000000p-4, -0x1.c37dbe0000000p-3, -0x1.3bcca80000000p-4, -0x1.16e0e60000000p-3, -0x1.d479080000000p-6, 0x1.8c9cc00000000p-4, -0x1.337fe40000000p-3, -0x1.4edcd00000000p-4, 0x1.261c380000000p-4, 0x1.2a52ce0000000p-4, -0x1.0c2be40000000p-2, 0x1.583d240000000p-4, 0x1.3377aa0000000p-3, 0x1.5c211c0000000p-4, 0x1.3b56a80000000p-4, 0x1.90cf840000000p-5, 0x1.a245560000000p-6, -0x1.5bfb1c0000000p-4, -0x1.b5e3bc0000000p-4, -0x1.7a7b480000000p-3, 0x1.b4d5ea0000000p-4, 0x1.4555b20000000p-3, 0x1.0f62b20000000p-4, 0x1.e206e20000000p-4, 0x1.1e4f8e0000000p-4, -0x1.d0e3e60000000p-7, 0x1.55dc3e0000000p-4, -0x1.3ea5040000000p-3, 0x1.3d27a80000000p-5, 0x1.fcb2e00000000p-4, 0x1.1b90360000000p-3, -0x1.2e03d80000000p-5, -0x1.41b7a80000000p-7, -0x1.6f39d80000000p-3, -0x1.c85c100000000p-4, -0x1.7e33cc0000000p-5, 0x1.801d9c0000000p-7, -0x1.bc05000000000p-4, -0x1.3ac6d20000000p-5, -0x1.7f4c7a0000000p-3, 0x1.974bbe0000000p-5, -0x1.71ee180000000p-3, 0x1.a9a3a00000000p-6, 0x1.0f5c040000000p-7, 0x1.34545e0000000p-8, 0x1.cc91a00000000p-4, 0x1.b6579e0000000p-4, 0x1.7699aa0000000p-9, 0x1.61312a0000000p-3, 0x1.409b020000000p-5, -0x1.023b9a0000000p-2, -0x1.1ba53a0000000p-2, -0x1.4a6dfe0000000p-4, 0x1.7afb400000000p-3, -0x1.1563360000000p-2, -0x1.6e772e0000000p-4, -0x1.70d6880000000p-5, -0x1.b584ce0000000p-3, -0x1.7cc2280000000p-4, -0x1.8607640000000p-7, 0x1.086f860000000p-3}
}
;

#undef INPUT_SAMPLES
#undef FC_UNITS