/**
  ******************************************************************************
  * @file    weights/fc.cc
  * @author  Pierre-Emmanuel Novac <penovac@unice.fr>, LEAT, CNRS, Université Côte d'Azur, France
  * @version 1.0.0
  * @date    24 march 2020
  * @brief   Template generating plain C code for the implementation of Convolutional Neural Networks on MCU
  */

#include <stdint.h>

#define INPUT_SAMPLES 512
#define FC_UNITS 256


const float dense_8_bias[FC_UNITS] = {0x1.9bdcb80000000p-4, -0x1.ddeb2e0000000p-8, 0x1.7b51ea0000000p-5, 0x1.012a7e0000000p-3, -0x1.ff969e0000000p-5, 0x1.649b3c0000000p-4, -0x1.7443aa0000000p-4, -0x1.16cb620000000p-4, -0x1.7045760000000p-9, 0x1.69895c0000000p-4, 0x1.2fae6a0000000p-9, -0x1.d44e780000000p-4, -0x1.4df11a0000000p-4, -0x1.48f78a0000000p-5, -0x1.e39df80000000p-5, 0x1.1084c40000000p-4, 0x1.a69b380000000p-4, -0x1.5823800000000p-5, -0x1.244f660000000p-6, -0x1.49256a0000000p-5, -0x1.8efb9c0000000p-5, 0x1.2c50540000000p-4, -0x1.1c3f020000000p-4, 0x1.6698b80000000p-18, -0x1.1d6e260000000p-5, 0x1.df469a0000000p-6, 0x1.54c2fc0000000p-5, 0x1.72a1000000000p-4, 0x1.08cdde0000000p-4, 0x1.219a6a0000000p-4, 0x1.448d120000000p-6, 0x1.3297360000000p-4, 0x1.a09f1a0000000p-6, -0x1.cda8ee0000000p-7, -0x1.0fbed40000000p-4, 0x1.e177cc0000000p-6, 0x1.663a0e0000000p-4, 0x1.d214d80000000p-4, -0x1.1eb77c0000000p-10, 0x1.2b74280000000p-4, -0x1.6b1b740000000p-5, -0x1.2028b20000000p-5, 0x1.86731a0000000p-4, -0x1.e486160000000p-6, 0x1.86914a0000000p-4, 0x1.b3a8280000000p-4, -0x1.acb3020000000p-10, 0x1.b8a8c40000000p-5, -0x1.4be0f00000000p-5, 0x1.58d5800000000p-4, -0x1.ac2caa0000000p-7, 0x1.d352fc0000000p-5, -0x1.19541c0000000p-6, 0x1.ae25e20000000p-5, 0x1.469e680000000p-4, -0x1.3727a20000000p-5, -0x1.067e8c0000000p-9, -0x1.e6d0380000000p-4, 0x1.fcae940000000p-9, -0x1.cf518a0000000p-5, -0x1.b2f8f60000000p-5, -0x1.ed64f60000000p-7, 0x1.6c30740000000p-4, 0x1.52bac40000000p-4, -0x1.a8cb320000000p-5, 0x1.d0632c0000000p-4, -0x1.18e71c0000000p-7, 0x1.c473020000000p-5, 0x1.487ee20000000p-5, -0x1.85987a0000000p-4, -0x1.fd395c0000000p-6, -0x1.94ec8c0000000p-6, 0x1.2f4cf60000000p-7, 0x1.ed875e0000000p-5, -0x1.6407ba0000000p-4, 0x1.a8ca880000000p-6, 0x1.a7a0960000000p-6, 0x1.37a9380000000p-4, 0x1.ad13980000000p-4, 0x1.4ad2560000000p-5, -0x1.36497c0000000p-6, -0x1.7d434e0000000p-6, -0x1.810f100000000p-5, 0x1.efd9e40000000p-10, 0x1.44eab40000000p-5, 0x1.90529c0000000p-5, -0x1.f576040000000p-9, 0x1.a4d2a40000000p-8, -0x1.3ad98a0000000p-4, 0x1.540de80000000p-5, -0x1.a67f700000000p-9, -0x1.b6cdb80000000p-6, 0x1.61d12e0000000p-5, -0x1.2c9b900000000p-9, -0x1.4d8b400000000p-9, 0x1.247df80000000p-5, 0x1.12b8960000000p-6, 0x1.eb47660000000p-4, 0x1.1023620000000p-4, -0x1.62ba980000000p-5, 0x1.c8137c0000000p-6, -0x1.7d3bc80000000p-12, -0x1.9d646c0000000p-5, 0x1.ddebbc0000000p-8, -0x1.b356200000000p-7, -0x1.2a19460000000p-7, 0x1.ac99f60000000p-4, 0x1.f405280000000p-5, 0x1.945d300000000p-7, 0x1.d7812a0000000p-6, 0x1.80716c0000000p-6, -0x1.cb84f80000000p-4, -0x1.2066c40000000p-4, 0x1.16c8500000000p-6, -0x1.2d66680000000p-8, -0x1.452b060000000p-5, 0x1.f7f0120000000p-5, -0x1.66f18c0000000p-7, -0x1.589ca80000000p-6, 0x1.4061aa0000000p-6, -0x1.f208280000000p-4, 0x1.24f5320000000p-6, -0x1.bb17ce0000000p-5, 0x1.9770a80000000p-4, -0x1.69be060000000p-7, 0x1.bf76e60000000p-7, 0x1.839cae0000000p-6, -0x1.68634e0000000p-9, -0x1.68ae680000000p-5, -0x1.37762a0000000p-4, -0x1.58fde00000000p-9, -0x1.19255a0000000p-7, -0x1.5f26980000000p-5, -0x1.3360620000000p-5, -0x1.cf92140000000p-6, -0x1.d538120000000p-6, -0x1.6e37220000000p-6, 0x1.7865ce0000000p-5, -0x1.39db020000000p-6, 0x1.d2f7280000000p-4, 0x1.91e86c0000000p-6, -0x1.502a6a0000000p-5, -0x1.6b81de0000000p-4, -0x1.3f65ce0000000p-7, 0x1.3a22600000000p-6, -0x1.98f25e0000000p-5, 0x1.df4b940000000p-7, -0x1.1670a20000000p-4, -0x1.c26b800000000p-5, 0x1.960b680000000p-8, 0x1.83981a0000000p-4, -0x1.2faec80000000p-4, -0x1.7ccf360000000p-7, -0x1.11b9c20000000p-6, -0x1.81247a0000000p-8, 0x1.e2661a0000000p-4, 0x1.aa9e560000000p-6, 0x1.0a2f100000000p-5, -0x1.d021bc0000000p-7, 0x1.7c48d40000000p-8, 0x1.c406e60000000p-5, -0x1.5875600000000p-5, -0x1.3785760000000p-4, 0x1.bf93860000000p-5, 0x1.632f8c0000000p-4, 0x1.ce14a00000000p-4, 0x1.2b59220000000p-6, 0x1.535d640000000p-5, -0x1.681a7c0000000p-5, -0x1.65d43e0000000p-4, -0x1.e6b1d20000000p-7, 0x1.0fc2040000000p-4, -0x1.035d060000000p-5, -0x1.08f0a00000000p-5, -0x1.f80f680000000p-5, 0x1.4263fe0000000p-5, 0x1.11078c0000000p-8, -0x1.0e5f140000000p-7, -0x1.da29ca0000000p-5, -0x1.96be400000000p-5, 0x1.da78360000000p-6, 0x1.4bb8140000000p-5, -0x1.3692b00000000p-7, -0x1.3fccbe0000000p-5, -0x1.5a6c180000000p-4, 0x1.470b140000000p-4, -0x1.a20ba60000000p-4, -0x1.4d0e9a0000000p-5, 0x1.205dee0000000p-5, -0x1.d158ca0000000p-5, -0x1.fac3260000000p-7, 0x1.0d578a0000000p-4, 0x1.af55780000000p-7, -0x1.4d049c0000000p-8, 0x1.c7b1ca0000000p-9, 0x1.668a8a0000000p-10, 0x1.ed40b80000000p-8, -0x1.b7f52a0000000p-4, 0x1.3794b00000000p-4, -0x1.6779600000000p-9, -0x1.0cbf4c0000000p-7, 0x1.4a13d20000000p-5, -0x1.28286c0000000p-4, -0x1.48e24c0000000p-5, -0x1.ba74580000000p-4, -0x1.a3c1fc0000000p-5, -0x1.4b50dc0000000p-5, 0x1.3806d00000000p-5, -0x1.4d7a8e0000000p-7, 0x1.2e71460000000p-5, -0x1.5981c00000000p-5, 0x1.9dbb460000000p-4, -0x1.cd43e80000000p-7, 0x1.7d2fa00000000p-4, -0x1.fe3a9c0000000p-6, 0x1.ceb8620000000p-4, -0x1.8948ac0000000p-5, 0x1.a97ba40000000p-8, -0x1.c2c3940000000p-7, -0x1.bf75f20000000p-9, -0x1.aadf340000000p-4, -0x1.0b94fa0000000p-4, -0x1.3a1f900000000p-5, 0x1.4303fe0000000p-4, -0x1.6ddcdc0000000p-8, 0x1.178aa00000000p-7, -0x1.5f2bd60000000p-5, -0x1.3ea18a0000000p-4, -0x1.9d133c0000000p-7, -0x1.ee03d20000000p-5, -0x1.4238760000000p-4, 0x1.af38ba0000000p-5, 0x1.4ff0c80000000p-4, 0x1.5bf5820000000p-5, -0x1.3a02f00000000p-9, -0x1.5a3e320000000p-4, 0x1.54490c0000000p-4, -0x1.0c55140000000p-6, 0x1.31115a0000000p-10, 0x1.8734e20000000p-6, 0x1.9964e00000000p-4, -0x1.a69fce0000000p-4, -0x1.89503a0000000p-5, 0x1.0f6aa60000000p-5, 0x1.67d3500000000p-6, -0x1.399a920000000p-5, -0x1.5938840000000p-10, -0x1.b2aa320000000p-5, -0x1.e7e6860000000p-5, 0x1.1131ac0000000p-4, -0x1.ebb1cc0000000p-7, -0x1.5c4aae0000000p-5, 0x1.3b99be0000000p-5, 0x1.d597340000000p-5, 0x1.83270a0000000p-7, -0x1.ffeec80000000p-5}
;

const float dense_8_kernel[FC_UNITS][INPUT_SAMPLES] = {{0x1.ba47ee0000000p-5, -0x1.6240980000000p-4, -0x1.4c312a0000000p-6, 0x1.0a7d6a0000000p-5, -0x1.e902400000000p-6, 0x1.4065540000000p-3, -0x1.3990280000000p-5, -0x1.77da600000000p-4, -0x1.7466000000000p-3, 0x1.1b7c500000000p-8, 0x1.1c3db80000000p-4, 0x1.cbdb780000000p-5, -0x1.751ea60000000p-3, 0x1.8d1e3e0000000p-8, -0x1.fccc8e0000000p-4, 0x1.6bab0a0000000p-4, -0x1.db7de60000000p-6, 0x1.bd0fb80000000p-5, 0x1.41a64c0000000p-5, -0x1.b826ae0000000p-4, -0x1.165a920000000p-4, 0x1.de56300000000p-9, -0x1.45a5440000000p-11, -0x1.08e0060000000p-4, 0x1.ea36340000000p-5, 0x1.07e8ac0000000p-8, 0x1.76da4e0000000p-3, -0x1.160fe80000000p-2, -0x1.28e70c0000000p-5, -0x1.28d85a0000000p-6, -0x1.6f8b4c0000000p-6, 0x1.683ad20000000p-4, 0x1.3cf0880000000p-5, 0x1.eda6060000000p-4, -0x1.702d0a0000000p-4, -0x1.dea5b20000000p-8, 0x1.92df1a0000000p-4, 0x1.90b7ca0000000p-5, 0x1.2313ec0000000p-4, 0x1.6ae9fe0000000p-4, 0x1.2562240000000p-12, 0x1.9877200000000p-5, 0x1.a90de60000000p-4, 0x1.996e460000000p-4, 0x1.4680b20000000p-5, -0x1.a90c180000000p-8, 0x1.4ad8ac0000000p-4, -0x1.6dd8700000000p-6, 0x1.88f38c0000000p-4, -0x1.30a76e0000000p-4, -0x1.66e2d40000000p-3, -0x1.59877c0000000p-4, -0x1.aaac180000000p-3, -0x1.4dc2420000000p-7, -0x1.fd317a0000000p-5, -0x1.36b1660000000p-5, -0x1.5194fe0000000p-3, 0x1.10b6980000000p-4, 0x1.41b1a40000000p-5, -0x1.2965a20000000p-13, 0x1.81742e0000000p-3, 0x1.80a0540000000p-4, 0x1.245d760000000p-4, 0x1.f86ec20000000p-4, 0x1.5e9d260000000p-4, 0x1.3d047a0000000p-5, 0x1.b431760000000p-5, -0x1.b58d820000000p-6, -0x1.77c89c0000000p-3, 0x1.3bbbc40000000p-3, -0x1.3f6ccc0000000p-4, -0x1.17669a0000000p-4, 0x1.9119c00000000p-6, 0x1.18203c0000000p-6, -0x1.416f2e0000000p-8, -0x1.8599680000000p-6, 0x1.1d35560000000p-4, 0x1.9a5bc00000000p-4, 0x1.abdd900000000p-4, -0x1.4ab8600000000p-6, -0x1.4f4f460000000p-3, 0x1.c1a4580000000p-5, -0x1.6a7b300000000p-5, -0x1.c2ce7a0000000p-4, 0x1.2b7f1a0000000p-5, -0x1.8973d40000000p-7, -0x1.901f060000000p-4, -0x1.97cf1a0000000p-9, -0x1.2334f00000000p-4, 0x1.4f71580000000p-5, 0x1.af2a720000000p-7, -0x1.3f9c840000000p-4, 0x1.bf59e60000000p-5, -0x1.31e78a0000000p-5, 0x1.bd3ae80000000p-5, 0x1.2a0d680000000p-5, -0x1.56e5c00000000p-5, 0x1.2a578c0000000p-3, 0x1.ba5b940000000p-5, 0x1.e168760000000p-6, -0x1.a2af220000000p-4, -0x1.93b6340000000p-7, 0x1.5cc4c60000000p-3, 0x1.9529020000000p-3, 0x1.57652a0000000p-4, 0x1.92aa6a0000000p-4, 0x1.6652b00000000p-4, 0x1.3a2dfa0000000p-3, 0x1.eb050c0000000p-4, -0x1.06dbea0000000p-3, -0x1.527d040000000p-3, 0x1.c8ad720000000p-6, 0x1.84830e0000000p-7, 0x1.467da60000000p-4, 0x1.24677e0000000p-3, 0x1.6bfe480000000p-4, -0x1.1566f60000000p-5, 0x1.bf7b500000000p-4, 0x1.e6e4d20000000p-6, -0x1.de103e0000000p-5, -0x1.a708e20000000p-10, 0x1.511a8e0000000p-3, 0x1.51332a0000000p-5, -0x1.118e100000000p-4, -0x1.72b9fe0000000p-8, -0x1.41a9160000000p-4, 0x1.24b5440000000p-4, 0x1.5f394a0000000p-4, 0x1.a004180000000p-5, -0x1.2646b80000000p-7, 0x1.1225160000000p-3, -0x1.8199020000000p-5, 0x1.3bdc820000000p-3, 0x1.bb6cb00000000p-4, -0x1.dee5ea0000000p-4, 0x1.975a120000000p-4, -0x1.bf15c80000000p-4, -0x1.4f40460000000p-4, 0x1.f53b740000000p-4, 0x1.7c7d180000000p-4, 0x1.5f8a460000000p-3, -0x1.e31f3c0000000p-4, -0x1.d54d160000000p-4, 0x1.f525060000000p-4, 0x1.4ae8a00000000p-3, 0x1.d7d8bc0000000p-5, 0x1.c522c20000000p-10, -0x1.527e4a0000000p-5, 0x1.5eda620000000p-3, -0x1.d719320000000p-6, 0x1.488b320000000p-4, 0x1.0ba3840000000p-6, -0x1.19b2800000000p-3, -0x1.10dabc0000000p-4, 0x1.24df4e0000000p-3, -0x1.d4f4f60000000p-4, -0x1.03254c0000000p-3, 0x1.b7738c0000000p-4, 0x1.b3f5400000000p-4, -0x1.1df41c0000000p-3, -0x1.73f90e0000000p-10, 0x1.9c07ea0000000p-6, 0x1.0e6bae0000000p-4, 0x1.5340580000000p-7, -0x1.62abac0000000p-5, 0x1.038e3c0000000p-5, 0x1.cc488a0000000p-7, 0x1.4c87dc0000000p-4, -0x1.b008600000000p-3, -0x1.9a8c6a0000000p-4, -0x1.2f09b40000000p-6, 0x1.0cdaa80000000p-4, -0x1.ac94a80000000p-5, 0x1.7906a60000000p-5, 0x1.68c2260000000p-4, -0x1.6e681c0000000p-3, 0x1.46239a0000000p-3, 0x1.0fe1d80000000p-3, 0x1.7ebf420000000p-7, 0x1.2603e80000000p-4, 0x1.5a765e0000000p-12, -0x1.9ec0f40000000p-9, -0x1.5712680000000p-5, -0x1.60ed4a0000000p-4, -0x1.3ad5540000000p-3, 0x1.20c6ee0000000p-3, 0x1.c6f03e0000000p-8, 0x1.0507960000000p-4, 0x1.8aa9e40000000p-4, -0x1.1c90080000000p-5, -0x1.4341180000000p-4, -0x1.1aaeba0000000p-6, 0x1.73ccce0000000p-6, 0x1.0381ce0000000p-3, -0x1.ecd5f00000000p-4, 0x1.ffc9000000000p-5, -0x1.41d3140000000p-5, -0x1.35a1140000000p-6, 0x1.e331540000000p-4, 0x1.a62ccc0000000p-6, 0x1.9d86460000000p-5, 0x1.597e2a0000000p-6, 0x1.ad3cd20000000p-6, 0x1.4a83ea0000000p-7, -0x1.0523480000000p-6, -0x1.b7a92a0000000p-4, 0x1.ca8da20000000p-5, 0x1.4679480000000p-6, -0x1.004c760000000p-4, 0x1.2018ac0000000p-4, -0x1.ad19100000000p-6, 0x1.8420760000000p-4, -0x1.058cbe0000000p-3, -0x1.bd733c0000000p-6, -0x1.97230a0000000p-4, 0x1.4df98e0000000p-3, -0x1.f5b8ba0000000p-5, -0x1.8469bc0000000p-6, 0x1.28b3480000000p-5, -0x1.5e5fc00000000p-7, 0x1.2c0f620000000p-3, 0x1.302e560000000p-4, 0x1.6d59300000000p-6, 0x1.6264900000000p-5, -0x1.6e06080000000p-6, -0x1.9991a20000000p-4, 0x1.cfb5d00000000p-5, 0x1.6eeb9a0000000p-5, 0x1.e6bd500000000p-5, 0x1.d873620000000p-9, 0x1.744c1a0000000p-6, 0x1.0bd1060000000p-4, -0x1.340eac0000000p-10, 0x1.242df40000000p-4, -0x1.b9fbe80000000p-6, 0x1.6c605e0000000p-3, 0x1.ac561e0000000p-4, 0x1.b1e6620000000p-5, 0x1.dbb3200000000p-5, 0x1.e2e8a80000000p-6, -0x1.2ad0360000000p-9, 0x1.ab3a9a0000000p-6, 0x1.b009e80000000p-5, -0x1.5942240000000p-5, 0x1.243e8a0000000p-5, 0x1.eedda60000000p-4, -0x1.642fa00000000p-8, 0x1.c0c2680000000p-6, 0x1.c357dc0000000p-4, 0x1.4391e80000000p-3, 0x1.c76e9e0000000p-4, -0x1.8676860000000p-5, 0x1.bf92860000000p-7, -0x1.9b5fda0000000p-4, -0x1.95968a0000000p-8, 0x1.afcdae0000000p-5, 0x1.6266920000000p-5, 0x1.7f35ca0000000p-5, -0x1.95f31c0000000p-4, 0x1.43bfc60000000p-7, 0x1.1ca7d40000000p-3, 0x1.56f4ec0000000p-5, 0x1.08e4de0000000p-6, -0x1.87af220000000p-6, 0x1.c387a60000000p-4, -0x1.98fb140000000p-4, -0x1.8fba300000000p-6, -0x1.d391a00000000p-4, 0x1.b72e260000000p-5, 0x1.c3948a0000000p-4, -0x1.52c4da0000000p-5, -0x1.2130280000000p-4, -0x1.2a28b60000000p-4, -0x1.6bc5c60000000p-4, 0x1.5a93360000000p-6, 0x1.2d635c0000000p-4, -0x1.f88d4c0000000p-3, -0x1.d053280000000p-4, -0x1.ca865a0000000p-4, -0x1.edbbb80000000p-5, 0x1.4b1cae0000000p-5, 0x1.03d0d80000000p-7, -0x1.16f0440000000p-5, -0x1.93607a0000000p-8, 0x1.95ff3c0000000p-4, 0x1.893b2e0000000p-5, -0x1.79558a0000000p-4, 0x1.deb8220000000p-4, -0x1.ac1d580000000p-3, -0x1.8316c20000000p-5, -0x1.8897000000000p-4, 0x1.976a0c0000000p-5, 0x1.ef4df80000000p-4, -0x1.7d1bfc0000000p-5, 0x1.25d55e0000000p-9, -0x1.d419f40000000p-6, 0x1.7194fe0000000p-4, 0x1.7dd50e0000000p-5, -0x1.d880300000000p-7, -0x1.555fbe0000000p-4, 0x1.db1f520000000p-5, 0x1.0882320000000p-3, -0x1.dfeafa0000000p-6, 0x1.a1fd800000000p-4, -0x1.6dd2460000000p-5, 0x1.49b66a0000000p-4, -0x1.51e0640000000p-5, 0x1.c6469c0000000p-10, -0x1.0b9d060000000p-3, 0x1.7dc5700000000p-5, -0x1.58ce260000000p-4, 0x1.f1fe360000000p-6, -0x1.b415300000000p-4, -0x1.54787a0000000p-3, -0x1.23aef20000000p-4, -0x1.7031140000000p-4, 0x1.1ffdfa0000000p-4, 0x1.dd443a0000000p-5, 0x1.6d4f960000000p-6, -0x1.c716c40000000p-6, -0x1.3d5a5e0000000p-5, 0x1.eca0960000000p-5, -0x1.2126d20000000p-5, -0x1.c712220000000p-10, -0x1.29aed40000000p-4, 0x1.43926e0000000p-3, -0x1.78d3e20000000p-6, -0x1.68394e0000000p-3, 0x1.90a3180000000p-5, -0x1.df8cec0000000p-4, -0x1.bc88c80000000p-5, 0x1.53cc5e0000000p-4, -0x1.c3eac60000000p-5, 0x1.b2f9dc0000000p-6, 0x1.2cc1c80000000p-7, -0x1.08b8ca0000000p-4, 0x1.739f260000000p-4, 0x1.08cbe40000000p-4, 0x1.3f0f260000000p-7, 0x1.bfea9e0000000p-7, 0x1.f3aa600000000p-5, -0x1.1ba18c0000000p-5, -0x1.6ab03c0000000p-4, -0x1.68c3600000000p-3, -0x1.6a301c0000000p-4, 0x1.0241d20000000p-3, -0x1.bdd1280000000p-5, 0x1.b6217a0000000p-4, -0x1.262d9a0000000p-4, 0x1.859b2e0000000p-5, -0x1.5a0e840000000p-5, -0x1.6ad5040000000p-8, -0x1.73b8ca0000000p-6, -0x1.da79780000000p-6, -0x1.6396460000000p-5, -0x1.ac2a680000000p-6, 0x1.c5b3260000000p-4, -0x1.5c0fda0000000p-7, 0x1.964a440000000p-10, -0x1.afa7ae0000000p-6, 0x1.3907b20000000p-5, -0x1.be330a0000000p-5, 0x1.b202420000000p-5, 0x1.6f679c0000000p-3, 0x1.531ed20000000p-5, 0x1.11b0220000000p-3, -0x1.2ed1ac0000000p-4, 0x1.6bc49e0000000p-5, -0x1.4889020000000p-2, 0x1.752f900000000p-4, 0x1.44739c0000000p-4, -0x1.c3f63e0000000p-4, 0x1.c39af80000000p-6, -0x1.f751280000000p-7, 0x1.97b6e40000000p-6, 0x1.c7daa40000000p-9, 0x1.9cece80000000p-4, 0x1.becaaa0000000p-3, -0x1.00339e0000000p-5, -0x1.723e180000000p-3, 0x1.7b0b240000000p-4, 0x1.1938b20000000p-4, -0x1.73022e0000000p-5, -0x1.ac4e320000000p-4, -0x1.2680360000000p-5, 0x1.557dd20000000p-4, 0x1.17dea00000000p-5, 0x1.4d426a0000000p-4, -0x1.5023c80000000p-2, -0x1.15de440000000p-3, -0x1.8ef3720000000p-4, -0x1.36963c0000000p-4, 0x1.6afed80000000p-4, 0x1.fa3e8e0000000p-3, 0x1.3669fe0000000p-5, -0x1.470ec60000000p-5, 0x1.27d4780000000p-4, 0x1.81e8ca0000000p-4, -0x1.1bca840000000p-5, -0x1.38080e0000000p-2, -0x1.1d921e0000000p-2, -0x1.320e3c0000000p-4, -0x1.699a480000000p-4, -0x1.5c3c220000000p-3, -0x1.da89c40000000p-3, -0x1.c178140000000p-4, 0x1.4d4ef80000000p-3, 0x1.e9e0280000000p-3, 0x1.2170040000000p-2, -0x1.82b8e20000000p-5, -0x1.6cb1600000000p-4, -0x1.9b4cc40000000p-3, -0x1.d7a48a0000000p-7, -0x1.aae5260000000p-6, 0x1.c6edd40000000p-3, -0x1.0a09d20000000p-2, -0x1.07672a0000000p-3, -0x1.c042ba0000000p-5, -0x1.aff97e0000000p-2, -0x1.e9827a0000000p-8, 0x1.08b68c0000000p-2, -0x1.acfe2c0000000p-7, -0x1.42dcee0000000p-3, -0x1.d4d4a40000000p-3, 0x1.33e26e0000000p-4, 0x1.5210cc0000000p-5, -0x1.c268500000000p-3, -0x1.58ec5e0000000p-7, 0x1.b047040000000p-4, -0x1.1010400000000p-3, -0x1.3174b00000000p-4, 0x1.57deae0000000p-5, 0x1.f3b7c80000000p-6, 0x1.09f38e0000000p-2, -0x1.518d8e0000000p-6, 0x1.332f580000000p-3, 0x1.f713620000000p-4, 0x1.748dba0000000p-5, 0x1.e9f42a0000000p-3, -0x1.d1b5340000000p-5, -0x1.d211920000000p-3, -0x1.3ef2f60000000p-4, 0x1.c018ea0000000p-5, -0x1.44d7040000000p-4, 0x1.0024e80000000p-5, 0x1.fd29480000000p-6, -0x1.0c543a0000000p-2, -0x1.b66aa60000000p-5, -0x1.bb53040000000p-5, -0x1.0634e80000000p-3, 0x1.e11b1a0000000p-3, -0x1.101e180000000p-3, 0x1.dc2a8e0000000p-4, 0x1.1c0a720000000p-4, -0x1.9b8a400000000p-6, 0x1.1557540000000p-4, -0x1.494b880000000p-2, -0x1.7a8ed40000000p-4, -0x1.253aaa0000000p-4, -0x1.49c3020000000p-5, -0x1.8eb4260000000p-4, 0x1.70efe80000000p-3, 0x1.bb4c020000000p-8, -0x1.abe1e00000000p-7, 0x1.a756760000000p-5, 0x1.28867a0000000p-3, -0x1.1b6ec80000000p-3, -0x1.a150600000000p-5, -0x1.d460120000000p-4, -0x1.7249440000000p-4, 0x1.486cf80000000p-5, -0x1.5158300000000p-5, -0x1.088c580000000p-2, 0x1.f352600000000p-3, -0x1.819d160000000p-7, 0x1.f33ce20000000p-6, -0x1.cf219a0000000p-3, -0x1.abd6b40000000p-3, -0x1.8f717a0000000p-4, 0x1.c329420000000p-4, -0x1.cbf0100000000p-3, -0x1.f9d64a0000000p-5, -0x1.87387a0000000p-3, 0x1.3fcadc0000000p-4, -0x1.0ea5660000000p-3, 0x1.8519bc0000000p-4, -0x1.5eade80000000p-4, -0x1.a3093e0000000p-3, 0x1.249aca0000000p-2, 0x1.ff9b080000000p-4, 0x1.d083f00000000p-3, -0x1.29998e0000000p-3, -0x1.8018c40000000p-6, 0x1.6113fc0000000p-3, 0x1.9793660000000p-4, -0x1.b75f740000000p-6, 0x1.15cf3e0000000p-4, 0x1.ecacf20000000p-3, 0x1.49de520000000p-3, -0x1.abb80a0000000p-4, -0x1.d674c00000000p-7, -0x1.1761200000000p-5, -0x1.0692040000000p-5, -0x1.ae77fc0000000p-4, 0x1.0d71240000000p-3, -0x1.44fa220000000p-6, -0x1.bc38860000000p-5, 0x1.0d21060000000p-2, -0x1.ad66d00000000p-4, 0x1.ab4f440000000p-6, -0x1.aeafea0000000p-3, -0x1.2f7fd80000000p-2}
, {-0x1.28a8960000000p-3, -0x1.6343220000000p-4, 0x1.00b4640000000p-2, -0x1.31dcae0000000p-4, -0x1.e1fcc40000000p-5, 0x1.bcdeaa0000000p-5, -0x1.5c28020000000p-4, 0x1.2195180000000p-9, 0x1.0b91460000000p-6, 0x1.b737540000000p-6, -0x1.5b16f40000000p-4, 0x1.afe1240000000p-8, -0x1.ab98560000000p-4, -0x1.57d5ec0000000p-6, 0x1.72ff960000000p-3, 0x1.af5c060000000p-5, -0x1.138e4e0000000p-4, -0x1.aa12840000000p-7, -0x1.f442ce0000000p-3, -0x1.f2655e0000000p-5, -0x1.2c32440000000p-3, 0x1.ee33460000000p-6, 0x1.93eb800000000p-6, 0x1.bfcbbe0000000p-4, 0x1.89a50c0000000p-3, -0x1.1b833c0000000p-2, -0x1.7f0fc80000000p-4, -0x1.241bda0000000p-3, 0x1.35ed080000000p-4, -0x1.be58360000000p-8, 0x1.0860140000000p-7, -0x1.3d0f760000000p-7, -0x1.440b2a0000000p-5, 0x1.12a88c0000000p-6, 0x1.4c4f280000000p-6, -0x1.5909b20000000p-4, -0x1.1ab5c00000000p-3, 0x1.a8e6b60000000p-4, -0x1.cff6920000000p-5, -0x1.09424a0000000p-2, 0x1.285ab20000000p-4, -0x1.2a53980000000p-3, 0x1.3c25360000000p-3, -0x1.38736c0000000p-2, -0x1.7f73320000000p-4, -0x1.e8907c0000000p-3, -0x1.2532320000000p-6, -0x1.6fd9000000000p-5, 0x1.ef52ce0000000p-3, 0x1.2579140000000p-3, -0x1.3980e80000000p-4, -0x1.9249c80000000p-4, -0x1.01fc520000000p-4, -0x1.0cebf00000000p-4, -0x1.62f7940000000p-5, 0x1.cc4ba60000000p-4, -0x1.a5012a0000000p-4, 0x1.13fff00000000p-4, 0x1.2284fc0000000p-5, 0x1.2ebcc80000000p-6, 0x1.5917360000000p-4, -0x1.5db4e00000000p-4, -0x1.3da0ba0000000p-3, -0x1.76a3a80000000p-5, -0x1.488c7a0000000p-5, 0x1.63023a0000000p-5, -0x1.bbd6cc0000000p-4, -0x1.6cace00000000p-4, -0x1.0821ba0000000p-6, 0x1.235b1c0000000p-6, -0x1.2f8e540000000p-4, -0x1.2cf7580000000p-3, -0x1.ccd85a0000000p-4, 0x1.1eb5a20000000p-2, 0x1.fd6cea0000000p-5, -0x1.5b30160000000p-4, -0x1.a2ebde0000000p-5, -0x1.6083fa0000000p-6, -0x1.bbf0ce0000000p-3, -0x1.58950a0000000p-4, 0x1.c26d360000000p-3, -0x1.402a5a0000000p-6, -0x1.4b69420000000p-4, 0x1.b662de0000000p-6, -0x1.19bda20000000p-4, 0x1.8622200000000p-5, 0x1.d4410e0000000p-4, -0x1.517c860000000p-3, -0x1.d5a99a0000000p-3, -0x1.b206d00000000p-6, -0x1.53a5b00000000p-3, -0x1.def3bc0000000p-9, -0x1.6b68320000000p-3, 0x1.d4303a0000000p-4, -0x1.6b04140000000p-3, -0x1.fea3cc0000000p-5, 0x1.8a7f900000000p-6, 0x1.3e31be0000000p-4, -0x1.f995380000000p-4, -0x1.205a6c0000000p-3, 0x1.586b980000000p-5, -0x1.50690a0000000p-3, 0x1.e092f80000000p-6, 0x1.1251f80000000p-5, -0x1.7ec8240000000p-3, -0x1.752d740000000p-14, -0x1.f404c20000000p-8, 0x1.2a77980000000p-2, 0x1.9d22260000000p-5, 0x1.4d7b080000000p-3, -0x1.207eb20000000p-4, -0x1.710e0e0000000p-3, -0x1.94a5960000000p-4, 0x1.0d8ce40000000p-4, 0x1.673d040000000p-5, -0x1.2a1fd80000000p-3, -0x1.a32ba40000000p-4, 0x1.f7c0640000000p-7, -0x1.5d48ae0000000p-3, 0x1.443cf00000000p-3, -0x1.2c180c0000000p-4, -0x1.ccdc560000000p-5, -0x1.512f7a0000000p-4, -0x1.b8e0a80000000p-5, -0x1.8a37d00000000p-4, 0x1.03273c0000000p-2, -0x1.c318fa0000000p-3, -0x1.1fbf5e0000000p-10, 0x1.4954e00000000p-4, -0x1.e11fd00000000p-3, 0x1.0adcbc0000000p-3, -0x1.33d2380000000p-3, 0x1.d01bc40000000p-7, -0x1.c5e7f40000000p-5, 0x1.5b01c60000000p-3, -0x1.230a360000000p-5, 0x1.103b120000000p-2, 0x1.4bf4ac0000000p-3, -0x1.8e1bf00000000p-3, 0x1.74dfd60000000p-6, -0x1.c106a60000000p-6, 0x1.c0a4b20000000p-4, 0x1.a9c0e20000000p-3, 0x1.a4bbac0000000p-7, 0x1.7045680000000p-5, -0x1.b89e3c0000000p-3, 0x1.6c001c0000000p-3, 0x1.10e1960000000p-4, -0x1.25e24c0000000p-4, -0x1.46fdb20000000p-3, -0x1.805a760000000p-4, -0x1.e11a3a0000000p-4, 0x1.3a65b20000000p-5, -0x1.8032240000000p-5, 0x1.7282220000000p-4, 0x1.0d2c540000000p-5, -0x1.4af95a0000000p-6, -0x1.429cb00000000p-6, -0x1.668d740000000p-4, 0x1.40d3440000000p-8, 0x1.c976100000000p-4, -0x1.55bbe80000000p-6, 0x1.2fe34c0000000p-5, -0x1.ccb0380000000p-5, -0x1.e0895a0000000p-5, 0x1.7af1820000000p-6, -0x1.ce52420000000p-4, 0x1.057d700000000p-3, 0x1.be2e8e0000000p-3, -0x1.8d6d220000000p-7, 0x1.8273120000000p-7, -0x1.753ddc0000000p-5, -0x1.914da40000000p-5, 0x1.26f3ec0000000p-4, -0x1.c111320000000p-5, -0x1.0d826e0000000p-7, 0x1.36cb940000000p-3, 0x1.0712e60000000p-4, 0x1.e502380000000p-8, -0x1.7ee8cc0000000p-4, 0x1.c023760000000p-5, -0x1.fc0f140000000p-4, -0x1.ea494c0000000p-4, 0x1.23ecb80000000p-3, -0x1.5427f80000000p-3, -0x1.b3da9e0000000p-6, -0x1.51a2b00000000p-6, 0x1.54971a0000000p-6, -0x1.6745940000000p-5, 0x1.2ee5100000000p-5, -0x1.7415360000000p-3, -0x1.50c3ac0000000p-7, -0x1.75da340000000p-4, 0x1.1e4bcc0000000p-3, -0x1.0763560000000p-3, 0x1.1205960000000p-3, 0x1.db92720000000p-6, -0x1.8d567c0000000p-6, 0x1.59c65e0000000p-4, -0x1.34983e0000000p-3, -0x1.edeb6a0000000p-4, 0x1.7ba5460000000p-4, 0x1.4c86200000000p-5, -0x1.8a99940000000p-4, 0x1.b83a460000000p-7, 0x1.8a56c20000000p-5, -0x1.67fe9a0000000p-5, -0x1.95c5aa0000000p-3, -0x1.193a520000000p-5, -0x1.eec0a40000000p-4, 0x1.410eae0000000p-3, 0x1.3582140000000p-7, -0x1.9db7740000000p-8, 0x1.4d096c0000000p-6, 0x1.3de4620000000p-4, 0x1.49b8280000000p-3, -0x1.43223e0000000p-7, 0x1.258b6a0000000p-5, 0x1.d0c11c0000000p-4, 0x1.6adbf40000000p-5, -0x1.9420420000000p-4, -0x1.1d7fe00000000p-4, -0x1.b575000000000p-6, -0x1.9a24580000000p-6, 0x1.939a560000000p-4, 0x1.7c41260000000p-4, 0x1.073ca60000000p-5, 0x1.03f3340000000p-4, -0x1.f51dc20000000p-3, -0x1.82d2120000000p-3, 0x1.7d3bba0000000p-4, 0x1.091e2e0000000p-2, 0x1.2d62b40000000p-3, -0x1.f55d240000000p-10, -0x1.8b6fda0000000p-4, 0x1.005ed60000000p-3, 0x1.4458cc0000000p-3, 0x1.05390e0000000p-4, -0x1.1dbad20000000p-3, -0x1.289b760000000p-3, -0x1.2d9e240000000p-3, -0x1.3954ec0000000p-3, -0x1.51b1dc0000000p-4, -0x1.9199d00000000p-3, 0x1.e2f4600000000p-5, 0x1.3eaa020000000p-3, 0x1.9ba3c20000000p-5, 0x1.01c1840000000p-3, -0x1.0eee140000000p-4, 0x1.ee08ba0000000p-5, 0x1.714c620000000p-5, -0x1.a003260000000p-5, -0x1.887eee0000000p-10, 0x1.0cf6f40000000p-3, 0x1.29f3760000000p-4, 0x1.e044fe0000000p-4, 0x1.a88cea0000000p-6, -0x1.9e493a0000000p-6, -0x1.a7fac00000000p-8, 0x1.235bd00000000p-4, 0x1.660f660000000p-4, 0x1.39c5e60000000p-3, -0x1.8834200000000p-4, 0x1.b68f9c0000000p-5, -0x1.df9cf00000000p-7, -0x1.b1fe1a0000000p-7, -0x1.8beba20000000p-6, 0x1.e483f60000000p-5, -0x1.98a6840000000p-4, 0x1.eede900000000p-10, -0x1.84efe60000000p-8, 0x1.2bbfc20000000p-3, -0x1.09cae20000000p-5, -0x1.6698d40000000p-5, -0x1.77a4580000000p-3, -0x1.8643300000000p-6, -0x1.d1d7da0000000p-8, -0x1.d2abde0000000p-6, -0x1.4329c00000000p-4, -0x1.f3532c0000000p-5, 0x1.6e2e3a0000000p-5, -0x1.5abe640000000p-4, 0x1.7a722a0000000p-3, -0x1.7b28f40000000p-4, 0x1.774f220000000p-4, 0x1.5634f40000000p-6, -0x1.ea24a60000000p-4, 0x1.de227a0000000p-7, 0x1.e7b5a80000000p-4, 0x1.1291d60000000p-4, 0x1.89770a0000000p-4, 0x1.7b6e9c0000000p-7, 0x1.608fa80000000p-3, -0x1.9b9a2c0000000p-5, -0x1.1f49fa0000000p-3, -0x1.95d1080000000p-5, -0x1.036d900000000p-2, 0x1.1b52e80000000p-3, 0x1.3285040000000p-3, 0x1.3e68860000000p-5, -0x1.9cd8ae0000000p-4, -0x1.33901c0000000p-4, -0x1.0f2dfe0000000p-6, 0x1.341a2a0000000p-4, 0x1.5db94c0000000p-4, 0x1.17f0a40000000p-4, -0x1.1f4b440000000p-3, 0x1.6c2e080000000p-9, -0x1.10b9d40000000p-7, 0x1.46dd120000000p-8, 0x1.51d67e0000000p-5, 0x1.121df60000000p-3, -0x1.5b727c0000000p-4, 0x1.93c6b00000000p-3, -0x1.8906060000000p-7, 0x1.b757420000000p-3, 0x1.d035880000000p-4, -0x1.9f72980000000p-5, 0x1.ebc8580000000p-5, -0x1.4ec7ae0000000p-6, 0x1.12e3b40000000p-3, 0x1.273f580000000p-4, -0x1.01bc320000000p-4, 0x1.37c4140000000p-4, -0x1.a899560000000p-3, -0x1.b20a920000000p-5, -0x1.930fc40000000p-4, 0x1.803a3e0000000p-3, -0x1.602f120000000p-6, 0x1.3966e00000000p-3, -0x1.6530d80000000p-3, 0x1.3eb8620000000p-5, 0x1.240eb60000000p-4, 0x1.3711c40000000p-4, 0x1.19fd220000000p-5, -0x1.4c70a00000000p-4, 0x1.0397f40000000p-3, -0x1.3c45000000000p-5, 0x1.f9ac620000000p-7, 0x1.e7aa1a0000000p-5, 0x1.2274840000000p-4, 0x1.8955ae0000000p-3, -0x1.840d620000000p-4, -0x1.9bfd7a0000000p-3, -0x1.fba9080000000p-4, -0x1.810c5c0000000p-7, -0x1.3519080000000p-4, 0x1.6b38d20000000p-4, 0x1.4869720000000p-3, 0x1.5925840000000p-3, 0x1.009df40000000p-6, -0x1.9f6b840000000p-5, 0x1.99dba40000000p-4, -0x1.10fd520000000p-4, 0x1.138cfe0000000p-4, -0x1.ff4a380000000p-5, -0x1.11c56e0000000p-3, -0x1.6353020000000p-3, 0x1.0e033a0000000p-4, -0x1.be1b080000000p-8, 0x1.a183b00000000p-7, -0x1.a13fe60000000p-7, -0x1.48e61c0000000p-5, 0x1.58bb700000000p-4, -0x1.02577a0000000p-3, -0x1.003e7c0000000p-6, -0x1.6bdf280000000p-5, -0x1.5566280000000p-7, -0x1.3c7fd00000000p-6, -0x1.9b07bc0000000p-3, -0x1.da0f160000000p-5, 0x1.44a1f60000000p-9, -0x1.2a34d20000000p-3, 0x1.4b65920000000p-4, 0x1.ffea780000000p-8, -0x1.1194b80000000p-5, -0x1.a4949c0000000p-5, -0x1.e19a880000000p-6, 0x1.833d2c0000000p-5, -0x1.1522b80000000p-3, 0x1.bb4b640000000p-4, -0x1.a083380000000p-4, 0x1.7b37e00000000p-3, -0x1.b48b1c0000000p-5, -0x1.f1cb4c0000000p-5, 0x1.5005660000000p-4, -0x1.8181fc0000000p-5, 0x1.119cda0000000p-3, -0x1.6b9a2e0000000p-5, 0x1.712cb20000000p-3, -0x1.8996500000000p-5, 0x1.7cb3be0000000p-3, -0x1.0855560000000p-6, -0x1.7f51620000000p-8, 0x1.9367f00000000p-6, -0x1.5f312c0000000p-4, 0x1.b0e9c60000000p-4, -0x1.228d560000000p-5, -0x1.54195e0000000p-8, 0x1.2941f40000000p-3, 0x1.d992ea0000000p-5, 0x1.f1cddc0000000p-6, -0x1.72f5280000000p-5, -0x1.fb7bfe0000000p-6, 0x1.57f5f40000000p-3, -0x1.7265d00000000p-6, -0x1.4432960000000p-3, -0x1.36b5020000000p-5, 0x1.2623ce0000000p-3, 0x1.9e93720000000p-4, 0x1.4b5c1e0000000p-4, 0x1.07a4440000000p-4, 0x1.5e052e0000000p-3, 0x1.27ab1e0000000p-6, 0x1.2d2bca0000000p-5, 0x1.3ebe3c0000000p-4, 0x1.b4e1580000000p-4, -0x1.3128420000000p-5, 0x1.eb72a60000000p-4, -0x1.2e50b40000000p-6, -0x1.a468880000000p-7, -0x1.10bb500000000p-3, -0x1.ae77f60000000p-7, -0x1.1de4ce0000000p-3, -0x1.9bac600000000p-5, -0x1.f59afc0000000p-4, 0x1.c440ce0000000p-4, 0x1.8737260000000p-5, 0x1.7d702e0000000p-7, 0x1.43fb180000000p-5, -0x1.3763060000000p-6, 0x1.6d15420000000p-7, -0x1.75d7ec0000000p-5, -0x1.e47bf00000000p-4, -0x1.50a99e0000000p-4, -0x1.9a80560000000p-3, -0x1.1d1aa20000000p-3, 0x1.f78c360000000p-6, 0x1.26ac3a0000000p-6, -0x1.084ab20000000p-4, 0x1.0042b40000000p-3, 0x1.6933f60000000p-3, 0x1.0384060000000p-5, -0x1.6155500000000p-6, 0x1.06b3940000000p-3, 0x1.60fcc40000000p-10, -0x1.8ec09c0000000p-5, -0x1.44efee0000000p-4, -0x1.6d24ce0000000p-6, 0x1.ccb3340000000p-5, 0x1.58df440000000p-5, 0x1.2635f20000000p-4, -0x1.658cfe0000000p-5, 0x1.45f7300000000p-5, -0x1.f32f600000000p-5, 0x1.89cf9c0000000p-9, 0x1.005d120000000p-6, -0x1.741f460000000p-5, -0x1.2ed4340000000p-4, -0x1.0f79a40000000p-4, -0x1.279de60000000p-6, -0x1.362eea0000000p-4, -0x1.48104e0000000p-4, -0x1.7595740000000p-6, 0x1.8ab9aa0000000p-5, -0x1.8bbf640000000p-4, -0x1.5558320000000p-5, -0x1.7284b60000000p-6, 0x1.39bdcc0000000p-3, 0x1.25c2de0000000p-12, 0x1.27ffe80000000p-5, 0x1.16545a0000000p-3, 0x1.c9a34c0000000p-3, -0x1.a497f60000000p-5, 0x1.5fe5820000000p-4, -0x1.2221640000000p-3, 0x1.218e0c0000000p-3, 0x1.890e600000000p-3, -0x1.02eb480000000p-10, -0x1.528cf40000000p-3, 0x1.89f11a0000000p-7, 0x1.2328000000000p-3, -0x1.e29dce0000000p-11, -0x1.469eaa0000000p-5, 0x1.3418ae0000000p-8, -0x1.0332c20000000p-5, 0x1.45423a0000000p-5, -0x1.65aa920000000p-8, -0x1.41a4520000000p-6, -0x1.9a1e260000000p-6, -0x1.37095e0000000p-5, -0x1.5145aa0000000p-5, 0x1.3322380000000p-4, -0x1.50515c0000000p-4, 0x1.4f5a680000000p-3, -0x1.593c5c0000000p-5, -0x1.53df5a0000000p-5, -0x1.98a8da0000000p-4, -0x1.6bcc2c0000000p-5, 0x1.23571a0000000p-6, -0x1.9ace020000000p-5, 0x1.596ed00000000p-4, -0x1.4b6fa20000000p-5, 0x1.3111d00000000p-6, 0x1.2d0c020000000p-7, -0x1.589b7c0000000p-4, 0x1.33ab3e0000000p-4, -0x1.9f62720000000p-4, 0x1.c760ec0000000p-4, 0x1.1109220000000p-7, -0x1.512e7e0000000p-5, 0x1.8e30800000000p-5}
, {-0x1.8f026e0000000p-8, -0x1.1164620000000p-4, -0x1.9475720000000p-7, -0x1.1198ae0000000p-5, 0x1.a197fa0000000p-4, 0x1.026b500000000p-6, 0x1.28e9a60000000p-3, -0x1.8a74220000000p-3, -0x1.5664fa0000000p-3, -0x1.3970820000000p-4, 0x1.d1c49a0000000p-4, -0x1.437b760000000p-7, 0x1.dbb4ee0000000p-4, 0x1.0a07fc0000000p-3, -0x1.6bed840000000p-8, 0x1.24b0c00000000p-3, -0x1.302eca0000000p-4, 0x1.f82f740000000p-7, 0x1.009ae40000000p-8, 0x1.ca08800000000p-5, 0x1.0c51440000000p-4, 0x1.0fb6820000000p-7, -0x1.b09b640000000p-5, 0x1.073c5e0000000p-5, 0x1.41674c0000000p-5, -0x1.ec72b80000000p-6, 0x1.d8c4040000000p-3, -0x1.be70340000000p-6, 0x1.0e584e0000000p-3, 0x1.15bb580000000p-4, 0x1.54971a0000000p-4, 0x1.65ae220000000p-6, -0x1.94a4fc0000000p-3, 0x1.6fc3700000000p-4, -0x1.3997e00000000p-4, -0x1.023d540000000p-5, 0x1.39c18e0000000p-5, -0x1.27cf060000000p-4, -0x1.6bf2d20000000p-8, 0x1.415e020000000p-5, -0x1.c231880000000p-4, 0x1.a094fc0000000p-4, 0x1.432b3e0000000p-5, -0x1.0de0e80000000p-3, -0x1.1bcf440000000p-5, -0x1.85b90c0000000p-4, -0x1.7118820000000p-7, 0x1.4163a80000000p-4, 0x1.0a89400000000p-2, -0x1.c74fee0000000p-4, 0x1.378aee0000000p-4, -0x1.d28f120000000p-4, 0x1.503c500000000p-3, 0x1.2d7d260000000p-4, 0x1.7a48ac0000000p-5, 0x1.6c27ae0000000p-4, 0x1.272afa0000000p-4, -0x1.c32d300000000p-5, 0x1.89512e0000000p-4, 0x1.ace2520000000p-7, 0x1.d555980000000p-5, 0x1.f1a5f20000000p-6, -0x1.6e36080000000p-4, -0x1.ab56ca0000000p-4, 0x1.a4707e0000000p-3, -0x1.b75cb00000000p-7, -0x1.c8c57e0000000p-11, -0x1.d2f8420000000p-8, -0x1.3d42280000000p-4, -0x1.2c6f460000000p-8, -0x1.9cc2ba0000000p-5, -0x1.fb0c100000000p-9, -0x1.7ee73e0000000p-9, 0x1.5793360000000p-9, -0x1.5fbb220000000p-8, -0x1.ca0fea0000000p-6, 0x1.dc7d820000000p-6, -0x1.4bcaf60000000p-4, 0x1.10c28c0000000p-5, 0x1.5439580000000p-8, -0x1.45d7d40000000p-2, -0x1.f0ad160000000p-5, 0x1.8d3b9e0000000p-4, -0x1.8672080000000p-5, 0x1.6bf5640000000p-3, 0x1.3d469a0000000p-5, 0x1.b662200000000p-6, -0x1.a8b7ec0000000p-4, -0x1.8ee39a0000000p-5, -0x1.84cb120000000p-4, -0x1.88b4400000000p-5, 0x1.4e6e3a0000000p-3, -0x1.73bc600000000p-3, -0x1.cec8f20000000p-4, -0x1.94d0080000000p-6, 0x1.b767260000000p-4, -0x1.0d869c0000000p-4, 0x1.c6f80a0000000p-5, 0x1.027e500000000p-4, -0x1.065dac0000000p-6, 0x1.4b61a40000000p-3, -0x1.2d2d9c0000000p-4, -0x1.c25e3a0000000p-7, 0x1.0042e40000000p-6, 0x1.9618f80000000p-5, 0x1.242cd00000000p-3, 0x1.9a915e0000000p-9, 0x1.4b4d140000000p-4, -0x1.2bfd020000000p-5, -0x1.b983dc0000000p-5, -0x1.10a2260000000p-3, -0x1.0b98980000000p-3, -0x1.2637380000000p-3, -0x1.76f4c40000000p-6, -0x1.3f2c4c0000000p-5, -0x1.90bd8a0000000p-3, -0x1.7c0d8e0000000p-4, 0x1.ac6bd80000000p-5, -0x1.13d8820000000p-4, 0x1.025e1c0000000p-4, 0x1.ab95460000000p-4, 0x1.7aa4d20000000p-3, 0x1.ba5ac00000000p-4, -0x1.9978fe0000000p-4, -0x1.2ffc120000000p-5, 0x1.f8dda00000000p-5, 0x1.5760a00000000p-4, -0x1.5750aa0000000p-5, -0x1.53f4460000000p-4, 0x1.a2c2b40000000p-5, 0x1.52889c0000000p-4, 0x1.148c980000000p-3, 0x1.7d29260000000p-5, 0x1.5fffda0000000p-4, -0x1.d8c58e0000000p-5, 0x1.16894c0000000p-3, 0x1.09e3dc0000000p-5, -0x1.31bee20000000p-3, 0x1.19e7c20000000p-5, 0x1.f2b12a0000000p-3, -0x1.3c38da0000000p-5, -0x1.73c9fc0000000p-6, -0x1.5f69c40000000p-5, 0x1.fcc8f80000000p-4, 0x1.1475000000000p-8, -0x1.8480a40000000p-7, -0x1.247bba0000000p-4, 0x1.77b0e60000000p-6, -0x1.c08f1a0000000p-5, 0x1.b1225e0000000p-10, 0x1.80b6640000000p-4, -0x1.99fbe40000000p-5, -0x1.8b1df60000000p-3, -0x1.6624200000000p-4, 0x1.44314e0000000p-4, -0x1.9dab480000000p-3, -0x1.1c80440000000p-7, 0x1.52e2c20000000p-4, 0x1.7b56140000000p-6, -0x1.f420d60000000p-4, -0x1.c7182a0000000p-4, -0x1.4bf5780000000p-5, -0x1.fbb00e0000000p-6, 0x1.e88d940000000p-5, 0x1.b6ca300000000p-4, 0x1.42ddfe0000000p-5, -0x1.9117960000000p-4, 0x1.e81a260000000p-4, 0x1.e694a80000000p-6, 0x1.7ad2760000000p-5, 0x1.2fa2e20000000p-3, -0x1.967f2a0000000p-7, -0x1.8ce9920000000p-5, 0x1.e54ece0000000p-7, 0x1.5511d20000000p-5, 0x1.bc9b780000000p-5, -0x1.4e94860000000p-5, 0x1.b52ae80000000p-3, -0x1.30e4180000000p-6, 0x1.0556640000000p-4, 0x1.11e7d00000000p-5, -0x1.fb1cae0000000p-5, 0x1.7587a20000000p-4, -0x1.56be560000000p-3, -0x1.e944420000000p-6, -0x1.d8b0500000000p-6, -0x1.5ef4b00000000p-6, 0x1.6dd34c0000000p-6, 0x1.3a9a700000000p-3, 0x1.9c69e00000000p-3, -0x1.cf4e460000000p-6, -0x1.0bd4680000000p-4, -0x1.c36aa60000000p-4, 0x1.33d5300000000p-7, 0x1.8970bc0000000p-7, 0x1.64d9200000000p-7, 0x1.22952e0000000p-5, -0x1.41f50e0000000p-8, 0x1.d876ac0000000p-6, -0x1.6ad2ca0000000p-8, 0x1.a6e1300000000p-4, 0x1.dca1000000000p-4, -0x1.664adc0000000p-3, -0x1.9d9b280000000p-6, -0x1.b5d8ac0000000p-5, 0x1.e4ac6e0000000p-5, -0x1.536d940000000p-4, 0x1.38e0b80000000p-4, 0x1.c3ccf20000000p-3, 0x1.c94b2e0000000p-9, -0x1.3a43660000000p-4, -0x1.15c2e00000000p-6, 0x1.3419f40000000p-4, -0x1.4eb5bc0000000p-6, 0x1.789e460000000p-3, 0x1.31abf60000000p-5, 0x1.2a25a60000000p-5, 0x1.73d7100000000p-4, -0x1.3d90d20000000p-4, -0x1.bd1fa60000000p-5, -0x1.208d9e0000000p-4, 0x1.a3e7a40000000p-4, -0x1.fca9e60000000p-4, 0x1.2e390c0000000p-5, -0x1.d691180000000p-4, 0x1.84956e0000000p-6, -0x1.c902080000000p-11, -0x1.028adc0000000p-5, -0x1.cf08940000000p-3, -0x1.b103600000000p-4, 0x1.2478ba0000000p-3, 0x1.7c8bee0000000p-5, -0x1.78ca020000000p-3, 0x1.be8e920000000p-4, -0x1.b11bb60000000p-5, -0x1.4069d20000000p-8, 0x1.b0f69e0000000p-6, 0x1.7eb4ce0000000p-4, -0x1.a7c47c0000000p-6, 0x1.804bcc0000000p-5, -0x1.291b640000000p-3, 0x1.2ed7d00000000p-4, -0x1.b07d6e0000000p-8, 0x1.03992c0000000p-3, 0x1.21feb60000000p-5, 0x1.eee6720000000p-6, 0x1.9db62a0000000p-10, -0x1.7030b60000000p-5, 0x1.e60d7e0000000p-4, 0x1.a3dae40000000p-5, -0x1.fb91ce0000000p-5, 0x1.0d67ec0000000p-4, -0x1.9e99240000000p-4, 0x1.93b4aa0000000p-4, -0x1.f16ea40000000p-5, -0x1.bc862a0000000p-4, 0x1.0c6ad60000000p-2, -0x1.3b8f1a0000000p-3, 0x1.7dd5e00000000p-6, -0x1.6b4e1e0000000p-7, -0x1.1e767c0000000p-6, -0x1.9c527a0000000p-5, 0x1.3fbf040000000p-7, -0x1.fac3040000000p-3, -0x1.0380c40000000p-4, -0x1.efb7680000000p-3, -0x1.1a25e20000000p-4, -0x1.59731a0000000p-2, -0x1.9ec8fa0000000p-3, 0x1.36f2760000000p-3, 0x1.87d7dc0000000p-4, 0x1.38676e0000000p-3, 0x1.4d20ec0000000p-4, -0x1.509ee00000000p-3, 0x1.0627d60000000p-3, 0x1.00c7bc0000000p-5, -0x1.41c83a0000000p-4, -0x1.83e82e0000000p-5, -0x1.50edbe0000000p-4, -0x1.0fca8e0000000p-3, 0x1.37c1560000000p-3, 0x1.d87fde0000000p-5, -0x1.b36fe20000000p-7, -0x1.01ff040000000p-3, 0x1.2c70020000000p-4, 0x1.0c696e0000000p-3, 0x1.62fff20000000p-4, 0x1.0722320000000p-4, -0x1.d023f60000000p-4, -0x1.b420a40000000p-7, -0x1.9c8dc20000000p-3, 0x1.d138d60000000p-5, -0x1.c3684e0000000p-6, 0x1.e408f80000000p-4, 0x1.a8b5100000000p-3, 0x1.c2918e0000000p-5, -0x1.6cd0140000000p-5, -0x1.7a31200000000p-6, 0x1.36c24c0000000p-2, 0x1.9a464a0000000p-6, -0x1.4f36f60000000p-2, 0x1.71d0aa0000000p-6, 0x1.a366da0000000p-3, 0x1.1a2b920000000p-3, 0x1.8e06c40000000p-4, -0x1.e35bae0000000p-5, 0x1.30f4660000000p-2, 0x1.78c4ee0000000p-7, 0x1.0418ea0000000p-3, -0x1.c3b3220000000p-5, -0x1.02ee960000000p-4, 0x1.2cdd780000000p-3, -0x1.a8c8520000000p-4, 0x1.b0911a0000000p-5, -0x1.a2c5340000000p-5, -0x1.9f31ae0000000p-6, 0x1.a81c320000000p-5, -0x1.b39bb20000000p-6, -0x1.e15d940000000p-3, -0x1.21e8860000000p-5, -0x1.febc260000000p-10, 0x1.0114ae0000000p-5, -0x1.efa5d40000000p-3, -0x1.1a32440000000p-3, -0x1.57fda40000000p-3, 0x1.6724520000000p-3, 0x1.7dd03a0000000p-5, -0x1.120dec0000000p-5, -0x1.1b1f660000000p-4, 0x1.99c1480000000p-5, 0x1.e4dba80000000p-10, -0x1.553af60000000p-4, -0x1.f3b6600000000p-4, 0x1.8b6fa20000000p-4, 0x1.be246e0000000p-7, -0x1.0e175c0000000p-2, -0x1.127d560000000p-4, 0x1.91644c0000000p-6, -0x1.90870a0000000p-5, -0x1.32adba0000000p-7, -0x1.ded89c0000000p-7, -0x1.379cbc0000000p-4, -0x1.b7853a0000000p-4, -0x1.c193ee0000000p-3, -0x1.72bee60000000p-3, 0x1.83c5960000000p-4, -0x1.e49eda0000000p-4, 0x1.0b8bce0000000p-6, -0x1.40c10a0000000p-2, 0x1.5b1a360000000p-10, 0x1.c337780000000p-4, -0x1.51fddc0000000p-6, -0x1.87e89c0000000p-4, 0x1.77f9f40000000p-3, 0x1.6d55da0000000p-2, -0x1.8c6a400000000p-4, 0x1.811fee0000000p-3, 0x1.7232700000000p-5, -0x1.223df40000000p-5, 0x1.08c19e0000000p-2, -0x1.6747840000000p-4, -0x1.1a99b40000000p-4, 0x1.78608a0000000p-5, 0x1.5cf1980000000p-3, -0x1.805e380000000p-3, 0x1.7e8c2a0000000p-3, -0x1.cf5d780000000p-3, 0x1.64894e0000000p-9, -0x1.9b56360000000p-5, -0x1.c6c9be0000000p-6, -0x1.0eb8720000000p-4, -0x1.3031dc0000000p-5, 0x1.35fa8e0000000p-5, 0x1.b01cf40000000p-6, 0x1.a3be520000000p-5, 0x1.2265880000000p-4, 0x1.6617b60000000p-6, 0x1.9e0b2e0000000p-3, 0x1.7305320000000p-3, -0x1.946a0a0000000p-3, -0x1.6fa7c00000000p-4, -0x1.62e8ca0000000p-8, 0x1.a201ba0000000p-4, 0x1.7e9d8a0000000p-3, 0x1.68ebb60000000p-6, 0x1.3cb9c20000000p-5, -0x1.98ca920000000p-5, -0x1.46c6f60000000p-8, -0x1.698bf20000000p-4, -0x1.d2b0540000000p-6, -0x1.995eba0000000p-4, -0x1.2792700000000p-3, 0x1.dd0cb60000000p-9, 0x1.b0bc220000000p-3, -0x1.25cad60000000p-4, -0x1.514d160000000p-9, 0x1.7f9f9e0000000p-4, 0x1.d76d760000000p-6, 0x1.404d860000000p-6, -0x1.8f627c0000000p-3, 0x1.19cc200000000p-4, -0x1.9dc03e0000000p-4, -0x1.6588300000000p-3, -0x1.395e0c0000000p-3, 0x1.a3b80c0000000p-6, 0x1.6b448e0000000p-5, 0x1.1350c40000000p-4, 0x1.1647260000000p-7, 0x1.258fbc0000000p-4, 0x1.a246ba0000000p-4, -0x1.8298560000000p-4, -0x1.deb28a0000000p-5, 0x1.98b7dc0000000p-3, -0x1.56401c0000000p-7, 0x1.563acc0000000p-7, -0x1.91fbdc0000000p-4, -0x1.9dc7820000000p-5, 0x1.0ebaf60000000p-3, -0x1.f222c80000000p-4, -0x1.6518460000000p-7, 0x1.715c9e0000000p-10, -0x1.065c280000000p-6, 0x1.6e29a40000000p-7, -0x1.30547c0000000p-5, 0x1.2585340000000p-4, -0x1.e53f000000000p-6, 0x1.559ca60000000p-4, -0x1.b59fee0000000p-4, -0x1.a931fa0000000p-6, 0x1.0c71640000000p-3, -0x1.16216e0000000p-4, -0x1.f2875e0000000p-5, -0x1.9477b40000000p-6, 0x1.ac25280000000p-4, -0x1.75e4dc0000000p-6, 0x1.cb516a0000000p-3, -0x1.a2b0980000000p-4, 0x1.8f65d60000000p-7, -0x1.a6a7ea0000000p-6, -0x1.0430920000000p-3, -0x1.0f80a20000000p-2, 0x1.0e18f00000000p-3, -0x1.c651200000000p-8, 0x1.8433e20000000p-5, 0x1.f04e920000000p-6, -0x1.f021fe0000000p-6, -0x1.12df480000000p-2, -0x1.1563da0000000p-3, -0x1.09e7480000000p-2, -0x1.d8a8780000000p-4, 0x1.e705900000000p-6, 0x1.b789340000000p-3, -0x1.41c2ec0000000p-5, 0x1.0144ac0000000p-7, 0x1.0c3db80000000p-3, -0x1.4cf44e0000000p-3, -0x1.0230360000000p-3, -0x1.bd6a0a0000000p-5, -0x1.1343fc0000000p-3, -0x1.0ec0680000000p-2, -0x1.3270560000000p-4, 0x1.3ff38c0000000p-4, 0x1.fa92b60000000p-6, 0x1.00b85c0000000p-4, -0x1.3dfc6c0000000p-5, 0x1.09415e0000000p-3, -0x1.3f84cc0000000p-3, 0x1.98c6760000000p-4, -0x1.2aa7b60000000p-3, -0x1.e78a6e0000000p-4, -0x1.10cf880000000p-5, 0x1.f769a40000000p-4, 0x1.1f0e320000000p-4, -0x1.132dcc0000000p-2, 0x1.69c6be0000000p-6, 0x1.0575fc0000000p-3, -0x1.ef7c140000000p-4, -0x1.1d681a0000000p-7, -0x1.2fdff20000000p-4, 0x1.e6f12e0000000p-5, -0x1.fdefb80000000p-4, -0x1.4b7ec80000000p-3, -0x1.2aa3ea0000000p-9, 0x1.03f2bc0000000p-2, -0x1.b0ef140000000p-3, -0x1.da0b660000000p-8, 0x1.e3b7ca0000000p-7, -0x1.ad73220000000p-4, 0x1.e704b60000000p-4, 0x1.2fe4fc0000000p-5, 0x1.852b660000000p-5, -0x1.db3cca0000000p-5, 0x1.0d3d8a0000000p-5, -0x1.a9020a0000000p-4, 0x1.42de4c0000000p-3, -0x1.442d8c0000000p-5, -0x1.cd7d640000000p-3, 0x1.5ea3660000000p-3, 0x1.8994380000000p-5, -0x1.f19f600000000p-4, 0x1.0e7a040000000p-4, 0x1.a6cdc80000000p-5, 0x1.a49fa20000000p-4, 0x1.ffae300000000p-11, -0x1.e8fea80000000p-9, -0x1.fe7ffc0000000p-5, -0x1.77d33e0000000p-10, 0x1.4dbbe00000000p-4, -0x1.038e880000000p-9, -0x1.c37e0c0000000p-6, -0x1.0c89ea0000000p-4, 0x1.4ba8400000000p-3}
, {0x1.8b80ae0000000p-4, -0x1.bcb7d40000000p-4, -0x1.d9f8360000000p-3, -0x1.36abd60000000p-3, -0x1.4cb70c0000000p-5, -0x1.e038680000000p-4, -0x1.5b50060000000p-4, -0x1.7d18620000000p-4, -0x1.b03e360000000p-3, -0x1.124b8c0000000p-3, -0x1.7940be0000000p-4, -0x1.bfd3b00000000p-6, -0x1.6ceaa40000000p-5, 0x1.bbd64c0000000p-8, 0x1.47c80a0000000p-3, -0x1.bae7320000000p-3, -0x1.ae45e20000000p-4, -0x1.0808620000000p-4, 0x1.5764e80000000p-3, -0x1.2eb0000000000p-4, 0x1.9aa6540000000p-5, -0x1.3840e80000000p-7, 0x1.88a65c0000000p-8, -0x1.bb27620000000p-6, 0x1.0473620000000p-5, -0x1.bfdd100000000p-6, 0x1.1f03ae0000000p-3, -0x1.33c1980000000p-5, 0x1.b79e300000000p-14, -0x1.f9312c0000000p-7, 0x1.68e6e00000000p-4, -0x1.9231b00000000p-6, -0x1.ae6a6e0000000p-3, 0x1.7efef80000000p-4, -0x1.6ee55a0000000p-3, -0x1.e022bc0000000p-4, 0x1.6f5dbc0000000p-3, -0x1.00e90c0000000p-2, 0x1.65538c0000000p-3, -0x1.36a34c0000000p-4, -0x1.3810320000000p-2, -0x1.ece2120000000p-7, 0x1.5916b60000000p-4, 0x1.d9b5780000000p-6, -0x1.96da500000000p-3, 0x1.4d872e0000000p-3, -0x1.39b83c0000000p-5, 0x1.e65bca0000000p-6, 0x1.6d18b00000000p-4, 0x1.e59a0c0000000p-8, -0x1.a81c460000000p-5, 0x1.ec87bc0000000p-6, 0x1.1101b20000000p-4, 0x1.684ffc0000000p-6, -0x1.35b9500000000p-3, 0x1.03ec280000000p-4, -0x1.5be1760000000p-3, 0x1.beaf9a0000000p-5, 0x1.91692a0000000p-4, -0x1.120b980000000p-5, 0x1.9484480000000p-4, -0x1.bb6c5e0000000p-5, -0x1.c3ef900000000p-7, -0x1.00936a0000000p-7, -0x1.07106c0000000p-3, 0x1.cbe5700000000p-5, -0x1.41a2aa0000000p-4, -0x1.d42fd20000000p-5, -0x1.b773b00000000p-5, -0x1.e6f53e0000000p-5, -0x1.0d5d300000000p-3, -0x1.2772340000000p-3, 0x1.1442160000000p-6, -0x1.c16ade0000000p-4, -0x1.6b76fe0000000p-4, 0x1.0912ec0000000p-5, 0x1.47d32c0000000p-5, -0x1.1617c00000000p-4, -0x1.cf89440000000p-6, -0x1.df64540000000p-3, -0x1.7b9bae0000000p-2, -0x1.59d5de0000000p-3, 0x1.020f320000000p-3, -0x1.6356ce0000000p-7, -0x1.0c7f280000000p-3, 0x1.2ee44a0000000p-4, -0x1.895fde0000000p-4, 0x1.97f5640000000p-5, 0x1.0c48960000000p-5, -0x1.b76c4e0000000p-4, -0x1.1938940000000p-3, -0x1.1dbcb40000000p-3, -0x1.224d120000000p-4, 0x1.e0bd640000000p-5, -0x1.432a7a0000000p-7, 0x1.613ea00000000p-6, 0x1.59890a0000000p-8, 0x1.17796a0000000p-3, -0x1.a3ce4a0000000p-13, 0x1.1037bc0000000p-4, 0x1.38a97a0000000p-4, 0x1.0497f00000000p-5, -0x1.3393d40000000p-2, -0x1.d2f2be0000000p-6, 0x1.5524ba0000000p-6, 0x1.5cac720000000p-3, -0x1.e430500000000p-4, 0x1.7cc5de0000000p-5, -0x1.e46ea00000000p-4, -0x1.e4732e0000000p-4, 0x1.114d0c0000000p-3, -0x1.404af40000000p-3, 0x1.1b5ebe0000000p-4, 0x1.ca9ee40000000p-6, -0x1.5e6c4c0000000p-5, -0x1.8a7b120000000p-7, 0x1.a851600000000p-5, 0x1.cfbdde0000000p-4, 0x1.be1cd80000000p-10, 0x1.6d89a00000000p-5, 0x1.baaeb60000000p-4, -0x1.2395740000000p-5, -0x1.85c27a0000000p-4, 0x1.279dbe0000000p-3, -0x1.dcfadc0000000p-5, -0x1.c3b3300000000p-3, 0x1.e3f1ca0000000p-6, -0x1.1e8ec80000000p-6, 0x1.50df9c0000000p-5, 0x1.b6f7b40000000p-5, -0x1.1cec700000000p-3, -0x1.e6841c0000000p-6, -0x1.f064a00000000p-5, -0x1.d486800000000p-4, -0x1.e7eeb80000000p-4, 0x1.8779f00000000p-4, -0x1.2e8c880000000p-3, -0x1.de26260000000p-4, 0x1.49f8f80000000p-4, -0x1.4935a80000000p-4, 0x1.fe98d00000000p-6, -0x1.1015900000000p-3, -0x1.2c465e0000000p-4, 0x1.bb7f820000000p-4, -0x1.be796e0000000p-4, -0x1.f7a7360000000p-4, 0x1.8cc0f00000000p-6, 0x1.1b48320000000p-3, 0x1.8a32380000000p-6, 0x1.a9cb800000000p-4, 0x1.f6b0fa0000000p-4, 0x1.655ef40000000p-3, -0x1.fbc6f40000000p-5, -0x1.77e93c0000000p-4, 0x1.81b2e00000000p-3, -0x1.ee86620000000p-5, 0x1.9d17320000000p-5, -0x1.d91dea0000000p-6, 0x1.616f8c0000000p-3, -0x1.3b8d140000000p-3, -0x1.2533ec0000000p-3, -0x1.eb22bc0000000p-3, -0x1.92164a0000000p-5, 0x1.1932b80000000p-3, 0x1.070b220000000p-4, 0x1.0476280000000p-6, -0x1.42dd2e0000000p-8, -0x1.cd6bce0000000p-5, 0x1.2f1d740000000p-5, -0x1.b21d740000000p-6, 0x1.25c0820000000p-4, -0x1.96b1900000000p-5, -0x1.7790aa0000000p-4, -0x1.a88efe0000000p-4, 0x1.17a2680000000p-3, -0x1.af97200000000p-3, 0x1.3920f40000000p-5, 0x1.045cba0000000p-6, -0x1.8e31f20000000p-6, 0x1.8f041c0000000p-6, 0x1.3156260000000p-3, 0x1.08ae840000000p-4, 0x1.99abd00000000p-6, -0x1.199fbc0000000p-3, -0x1.c1f4360000000p-4, -0x1.1f11380000000p-6, -0x1.b3dcac0000000p-5, -0x1.0029840000000p-8, 0x1.d3335e0000000p-4, -0x1.f1c1560000000p-4, -0x1.e78b320000000p-4, -0x1.5cdcd20000000p-5, -0x1.66ade40000000p-4, -0x1.fbde960000000p-4, 0x1.10f6720000000p-6, 0x1.1267ac0000000p-11, 0x1.0a96bc0000000p-4, 0x1.29b9b80000000p-4, -0x1.5c03e80000000p-5, -0x1.7221bc0000000p-7, 0x1.ee47500000000p-6, 0x1.e463e20000000p-5, 0x1.311c1c0000000p-3, -0x1.4acc4e0000000p-5, -0x1.9ccf360000000p-2, -0x1.1e672e0000000p-2, -0x1.7c8ace0000000p-4, -0x1.606fbc0000000p-3, 0x1.7fa8140000000p-4, -0x1.afdf200000000p-5, 0x1.68b3b80000000p-3, -0x1.14648c0000000p-7, 0x1.8cbc120000000p-4, 0x1.2beb580000000p-4, 0x1.e2bb900000000p-5, 0x1.83f6fc0000000p-5, -0x1.270cc40000000p-4, 0x1.f5e86e0000000p-5, -0x1.2bf1840000000p-3, 0x1.f8f05c0000000p-6, -0x1.18c0e80000000p-3, -0x1.016dd40000000p-3, -0x1.952a700000000p-8, 0x1.d7f57e0000000p-4, -0x1.75c0b40000000p-4, -0x1.0b46700000000p-2, 0x1.7634420000000p-7, 0x1.60d8e00000000p-4, -0x1.12243a0000000p-5, 0x1.315a2c0000000p-3, 0x1.6649fe0000000p-5, 0x1.d404120000000p-4, -0x1.7087ca0000000p-7, 0x1.2aa3d00000000p-3, 0x1.6584fc0000000p-4, -0x1.efb45a0000000p-4, -0x1.06fbea0000000p-5, 0x1.03a7180000000p-10, 0x1.ce83540000000p-5, -0x1.0b48c00000000p-5, 0x1.08a4400000000p-8, -0x1.2a2b900000000p-4, -0x1.6565d00000000p-4, -0x1.64a4660000000p-4, -0x1.4399960000000p-3, -0x1.2e1f0a0000000p-6, 0x1.75338e0000000p-4, -0x1.2a2f700000000p-4, 0x1.1d99220000000p-3, 0x1.5142720000000p-8, -0x1.d3c64a0000000p-7, 0x1.1e3f0a0000000p-3, -0x1.8354e00000000p-6, 0x1.6dd8280000000p-3, -0x1.9d22ea0000000p-4, -0x1.1e3dbc0000000p-5, -0x1.5599620000000p-8, 0x1.366b8a0000000p-5, -0x1.af99d60000000p-4, -0x1.ef4ee80000000p-8, -0x1.b0b4e80000000p-7, -0x1.2f627c0000000p-4, -0x1.3b25600000000p-3, 0x1.95648c0000000p-6, 0x1.2f220c0000000p-5, -0x1.10bcc40000000p-3, -0x1.97e9a80000000p-3, 0x1.52b49a0000000p-8, -0x1.8298820000000p-4, 0x1.4103b60000000p-4, 0x1.2e5ee20000000p-2, 0x1.5ab43c0000000p-4, -0x1.28643a0000000p-4, 0x1.8a82380000000p-4, -0x1.9c2af20000000p-3, -0x1.36689a0000000p-4, -0x1.fd61040000000p-4, 0x1.169f240000000p-4, -0x1.3e11de0000000p-6, -0x1.d55b7a0000000p-4, 0x1.592fb80000000p-5, -0x1.e5b1b80000000p-5, 0x1.45e8b00000000p-4, -0x1.27c3620000000p-4, 0x1.1fe25e0000000p-3, -0x1.4aa60e0000000p-9, -0x1.75ee5c0000000p-3, -0x1.5454140000000p-5, -0x1.65f6ca0000000p-4, 0x1.14ba3e0000000p-3, 0x1.cd2d760000000p-5, 0x1.741bf20000000p-4, 0x1.4881e60000000p-4, 0x1.57d0100000000p-5, 0x1.1f2af20000000p-2, -0x1.2920000000000p-4, -0x1.76ba340000000p-3, 0x1.6a382e0000000p-5, 0x1.5675940000000p-5, -0x1.7aaf9c0000000p-5, -0x1.482b400000000p-4, 0x1.a4ee2e0000000p-6, 0x1.5b0eec0000000p-3, 0x1.a71aac0000000p-4, -0x1.d92f480000000p-4, 0x1.0deab40000000p-2, -0x1.274b180000000p-3, -0x1.9726fe0000000p-5, -0x1.0d2d580000000p-10, 0x1.e6e5860000000p-5, 0x1.1b159a0000000p-4, -0x1.7f79820000000p-9, 0x1.1baaca0000000p-4, -0x1.cd58700000000p-4, -0x1.2e03de0000000p-5, 0x1.2b5be40000000p-4, -0x1.31767c0000000p-8, -0x1.1c661c0000000p-3, -0x1.c8ec0a0000000p-7, -0x1.1328d80000000p-4, -0x1.7ef8740000000p-5, 0x1.9e76400000000p-7, -0x1.dee0a00000000p-8, -0x1.343ff00000000p-3, -0x1.3e24260000000p-3, 0x1.bf55440000000p-4, -0x1.cdb8ca0000000p-4, 0x1.d986520000000p-6, -0x1.aaed560000000p-3, 0x1.f8fe640000000p-5, 0x1.67616e0000000p-5, 0x1.9d54520000000p-5, -0x1.087d380000000p-3, 0x1.82452e0000000p-4, 0x1.78c57c0000000p-5, 0x1.703b2c0000000p-4, -0x1.3f7a740000000p-3, -0x1.24bc060000000p-6, -0x1.62dcae0000000p-4, -0x1.0023a80000000p-3, -0x1.6b0b8c0000000p-3, 0x1.f3f22a0000000p-6, 0x1.33c69e0000000p-4, 0x1.92945a0000000p-4, -0x1.fed22e0000000p-3, -0x1.d892d40000000p-8, 0x1.494e720000000p-6, -0x1.a549200000000p-8, 0x1.ddb5fc0000000p-4, -0x1.323a480000000p-4, 0x1.7f3f540000000p-4, 0x1.d26ae40000000p-5, -0x1.6252fa0000000p-7, -0x1.74ed640000000p-5, -0x1.857cb80000000p-4, -0x1.2086860000000p-4, 0x1.d230a60000000p-4, -0x1.6f525e0000000p-5, 0x1.029fd80000000p-5, 0x1.49e8ae0000000p-3, -0x1.5451420000000p-6, -0x1.a3a17e0000000p-7, 0x1.4fb04a0000000p-4, -0x1.c7a9720000000p-4, -0x1.f58e060000000p-5, 0x1.6fe85a0000000p-4, -0x1.3667cc0000000p-2, 0x1.da8b7a0000000p-8, 0x1.62d0aa0000000p-5, 0x1.fe3a320000000p-4, -0x1.5b552a0000000p-5, 0x1.0a299e0000000p-5, -0x1.753dee0000000p-8, 0x1.ef0f4a0000000p-3, -0x1.3e2d800000000p-7, 0x1.2ad61a0000000p-4, 0x1.3ae4940000000p-3, -0x1.460fee0000000p-3, 0x1.d729640000000p-6, -0x1.72b5be0000000p-5, -0x1.5ce1f00000000p-3, -0x1.7f133e0000000p-4, -0x1.4215de0000000p-6, 0x1.839e100000000p-7, 0x1.db46360000000p-4, -0x1.0e08900000000p-3, 0x1.97d3400000000p-4, 0x1.95f8360000000p-5, 0x1.d11cae0000000p-6, 0x1.08c5460000000p-3, -0x1.1e1b520000000p-4, -0x1.89b7f40000000p-2, -0x1.9421380000000p-3, -0x1.0852a80000000p-6, 0x1.a8f10a0000000p-7, 0x1.5bad820000000p-5, -0x1.ad0bf40000000p-3, -0x1.7ef5b60000000p-3, -0x1.0fc5660000000p-8, -0x1.14e6f20000000p-10, 0x1.38ac320000000p-6, -0x1.e1b43e0000000p-4, 0x1.d3b3ae0000000p-5, 0x1.8340120000000p-4, -0x1.1406960000000p-4, 0x1.8446ca0000000p-3, -0x1.9034420000000p-6, -0x1.4f9a2a0000000p-3, 0x1.e380540000000p-4, 0x1.8f8d1c0000000p-4, 0x1.4b71060000000p-4, 0x1.4cb2880000000p-6, 0x1.975f4a0000000p-3, -0x1.7961ea0000000p-8, -0x1.b3adc20000000p-4, 0x1.2659860000000p-4, -0x1.9077220000000p-3, 0x1.e6e06a0000000p-9, -0x1.2d824a0000000p-3, -0x1.0316160000000p-5, -0x1.0f6dfa0000000p-3, -0x1.f591fe0000000p-4, -0x1.e85d180000000p-4, 0x1.6ef4800000000p-4, -0x1.fa77dc0000000p-4, -0x1.2a00e60000000p-3, 0x1.2fa1480000000p-3, -0x1.db08bc0000000p-4, -0x1.81cfaa0000000p-4, 0x1.8ccc6a0000000p-5, -0x1.32661e0000000p-5, -0x1.ee28de0000000p-4, 0x1.c219d60000000p-6, -0x1.85c2d60000000p-3, 0x1.99f5a40000000p-8, -0x1.d9783a0000000p-3, 0x1.1e8f0c0000000p-3, 0x1.12d0780000000p-5, -0x1.e604e80000000p-4, -0x1.d01ff40000000p-5, -0x1.9f372e0000000p-5, -0x1.631f040000000p-4, 0x1.8f124e0000000p-4, -0x1.e13d120000000p-6, -0x1.b0614a0000000p-3, 0x1.f298aa0000000p-4, 0x1.dece480000000p-5, -0x1.a7a7f00000000p-7, 0x1.96b75a0000000p-6, 0x1.d32a780000000p-4, -0x1.09308a0000000p-2, -0x1.fd64fe0000000p-5, 0x1.d167ee0000000p-7, -0x1.af7d0c0000000p-3, 0x1.0ac2920000000p-6, -0x1.7e50600000000p-3, 0x1.a347480000000p-7, 0x1.3c06100000000p-6, -0x1.0b25f40000000p-5, -0x1.13a3420000000p-2, -0x1.29c7760000000p-2, -0x1.d8cfd40000000p-4, 0x1.67c6440000000p-3, 0x1.b5d1420000000p-8, 0x1.2738560000000p-4, -0x1.c4b59a0000000p-6, -0x1.7412de0000000p-3, 0x1.c912bc0000000p-5, 0x1.7996720000000p-4, -0x1.db80c60000000p-4, 0x1.9995c20000000p-6, -0x1.40ce560000000p-4, -0x1.960e3c0000000p-4, -0x1.7a092a0000000p-7, -0x1.2557680000000p-3, -0x1.7f23e40000000p-5, -0x1.cd86060000000p-3, 0x1.1d06180000000p-3, 0x1.d34d780000000p-4, 0x1.8a730e0000000p-4, -0x1.7c695a0000000p-4, 0x1.5c6c2c0000000p-4, 0x1.818fe40000000p-6, 0x1.dce1840000000p-5, -0x1.0cc3780000000p-6, -0x1.310a140000000p-3, 0x1.93bfe40000000p-5, 0x1.d1deb00000000p-5, -0x1.6a7cbc0000000p-4, -0x1.2238260000000p-2, 0x1.74b53e0000000p-5, 0x1.3e90fa0000000p-6, 0x1.3b15920000000p-3, -0x1.ff0f6a0000000p-8, 0x1.b6c79e0000000p-6, -0x1.7027160000000p-4, -0x1.7d76ca0000000p-3, -0x1.1bf4d40000000p-4, -0x1.b35e060000000p-5, -0x1.8d20ac0000000p-5, 0x1.87074e0000000p-7, -0x1.da7d600000000p-3, -0x1.c59a9a0000000p-5, -0x1.35dcbe0000000p-5, -0x1.468a520000000p-4, 0x1.48c1740000000p-6, -0x1.305d160000000p-5, -0x1.2a08600000000p-3, 0x1.21177e0000000p-4, 0x1.8a65ea0000000p-7, 0x1.c10b180000000p-9, 0x1.a69f940000000p-3}
, {-0x1.7cbd8a0000000p-5, -0x1.19e5ea0000000p-6, -0x1.f560d80000000p-5, 0x1.4499d00000000p-6, -0x1.04906e0000000p-3, -0x1.4bbed80000000p-3, 0x1.a5d1240000000p-5, 0x1.615ba80000000p-4, 0x1.323cca0000000p-3, -0x1.4616ea0000000p-4, -0x1.4892240000000p-4, -0x1.b2fc460000000p-4, 0x1.4606c40000000p-3, 0x1.c2b77c0000000p-4, 0x1.8b64620000000p-4, -0x1.328f380000000p-3, -0x1.a621ca0000000p-4, 0x1.5b90e40000000p-5, -0x1.aabc7e0000000p-5, -0x1.d906380000000p-4, -0x1.d125140000000p-6, -0x1.8794460000000p-3, -0x1.b071020000000p-6, 0x1.3f7e560000000p-4, -0x1.b48e500000000p-9, 0x1.8f30420000000p-9, -0x1.fbd6fa0000000p-5, 0x1.4ab07c0000000p-9, 0x1.0080be0000000p-5, 0x1.f0b2d00000000p-8, 0x1.04da940000000p-4, 0x1.65b09a0000000p-5, -0x1.9331440000000p-8, 0x1.c271b60000000p-5, 0x1.0f03c40000000p-4, -0x1.a45d760000000p-4, -0x1.3d0f060000000p-7, 0x1.3b0dfe0000000p-6, 0x1.d0f5ca0000000p-5, -0x1.6512a20000000p-4, 0x1.4f19680000000p-4, 0x1.9d55800000000p-5, -0x1.c584de0000000p-4, 0x1.962c4c0000000p-7, 0x1.5884e00000000p-6, 0x1.5dd1b00000000p-11, 0x1.f44f9e0000000p-4, 0x1.8cc59c0000000p-3, -0x1.4810fc0000000p-7, 0x1.2d1b4c0000000p-3, 0x1.138ca40000000p-5, -0x1.08ebc00000000p-3, 0x1.32ca2e0000000p-5, 0x1.51d6a20000000p-5, -0x1.b57f6e0000000p-5, 0x1.656d920000000p-4, -0x1.39a9dc0000000p-5, -0x1.7def920000000p-4, 0x1.50719e0000000p-5, 0x1.a790020000000p-4, 0x1.1810340000000p-4, -0x1.0de1ec0000000p-3, 0x1.64dacc0000000p-3, -0x1.ecbcfa0000000p-9, -0x1.b1c0500000000p-3, 0x1.1e59d00000000p-5, -0x1.6ad7240000000p-5, -0x1.8bbd460000000p-6, 0x1.aa0db00000000p-5, -0x1.a8d3b40000000p-3, -0x1.5979660000000p-6, 0x1.3bbb520000000p-5, 0x1.795b080000000p-5, -0x1.1796a60000000p-3, 0x1.c5de8c0000000p-4, 0x1.f8003e0000000p-4, -0x1.524f680000000p-6, 0x1.19d2f80000000p-5, -0x1.bb282a0000000p-5, -0x1.720a6a0000000p-4, -0x1.2a25d60000000p-3, -0x1.27557c0000000p-4, 0x1.1de9f40000000p-5, 0x1.224ece0000000p-5, -0x1.b46faa0000000p-3, 0x1.bdfd140000000p-6, 0x1.1562e20000000p-4, 0x1.31f8f20000000p-3, -0x1.f080fa0000000p-5, 0x1.0e6e460000000p-3, -0x1.0bd1a40000000p-4, -0x1.3092fc0000000p-3, 0x1.2801e00000000p-3, 0x1.ca4e920000000p-5, -0x1.48fb8c0000000p-5, -0x1.367b9a0000000p-3, -0x1.c859de0000000p-4, 0x1.f55b120000000p-4, -0x1.4175d40000000p-3, -0x1.efa4fe0000000p-8, -0x1.b5681e0000000p-4, -0x1.f7368a0000000p-7, 0x1.0ddece0000000p-5, -0x1.5598200000000p-3, 0x1.1302d00000000p-8, 0x1.97e95c0000000p-4, 0x1.8a5e2c0000000p-8, -0x1.6d7fbe0000000p-4, -0x1.415c680000000p-8, 0x1.61bdca0000000p-5, 0x1.96c7ca0000000p-10, -0x1.b53e260000000p-6, -0x1.2d1d7c0000000p-4, -0x1.51e5120000000p-3, -0x1.10fc280000000p-4, 0x1.60390c0000000p-4, 0x1.65c6b80000000p-4, -0x1.e5d06a0000000p-6, -0x1.a706c00000000p-5, -0x1.5fd0000000000p-7, 0x1.e433d00000000p-10, -0x1.4bc2cc0000000p-6, -0x1.d3502e0000000p-5, 0x1.e2cc620000000p-6, -0x1.6cff0e0000000p-6, -0x1.2388400000000p-4, 0x1.8906060000000p-5, -0x1.e5b06e0000000p-5, 0x1.0ea9a20000000p-5, 0x1.eeb6d20000000p-4, 0x1.1c53780000000p-5, -0x1.444e800000000p-3, -0x1.666ca40000000p-8, -0x1.349dcc0000000p-7, 0x1.ad54c80000000p-4, 0x1.34c9720000000p-7, -0x1.6c8dde0000000p-4, 0x1.7abf780000000p-4, 0x1.9c30420000000p-4, 0x1.f6331e0000000p-6, 0x1.1608ea0000000p-5, 0x1.58ba220000000p-4, 0x1.3601200000000p-12, 0x1.e7e37a0000000p-7, -0x1.3b4d640000000p-4, 0x1.09265c0000000p-6, 0x1.3d3f640000000p-5, -0x1.3859bc0000000p-5, 0x1.f530f40000000p-4, -0x1.04bca80000000p-4, -0x1.8675040000000p-4, 0x1.3ea71e0000000p-4, -0x1.73be4a0000000p-6, 0x1.6656480000000p-3, 0x1.551df80000000p-12, 0x1.169b2e0000000p-3, -0x1.dabbc20000000p-5, -0x1.7f3d980000000p-4, 0x1.6a21100000000p-4, -0x1.2a71040000000p-5, 0x1.64c5f40000000p-4, -0x1.cd79d20000000p-6, 0x1.1594640000000p-3, -0x1.b00de40000000p-4, 0x1.1f3da00000000p-3, -0x1.8bd7200000000p-4, 0x1.277fee0000000p-3, 0x1.3bbe0e0000000p-4, -0x1.3121160000000p-5, -0x1.0368a40000000p-9, 0x1.52f5d40000000p-4, -0x1.5e00c20000000p-10, -0x1.aa1f320000000p-5, 0x1.1843f60000000p-3, 0x1.2daadc0000000p-7, -0x1.959e920000000p-3, 0x1.97cad60000000p-4, -0x1.b580e80000000p-4, 0x1.38eeba0000000p-5, 0x1.2d9b100000000p-5, -0x1.13a2ee0000000p-5, -0x1.4021fe0000000p-4, -0x1.020da00000000p-3, 0x1.f884460000000p-5, 0x1.536b160000000p-7, 0x1.5f9b500000000p-4, -0x1.74d22c0000000p-4, -0x1.16cafc0000000p-4, -0x1.3bc88e0000000p-3, -0x1.8856080000000p-4, 0x1.57eeea0000000p-7, 0x1.754ea60000000p-4, -0x1.c9f8d20000000p-6, 0x1.19ad460000000p-4, 0x1.77e6800000000p-4, -0x1.134bb00000000p-6, 0x1.c05c260000000p-7, 0x1.8b383c0000000p-4, -0x1.65188e0000000p-4, -0x1.51b67c0000000p-4, 0x1.64f5da0000000p-4, 0x1.1520780000000p-4, -0x1.1c2e4a0000000p-5, 0x1.7fb6e40000000p-5, 0x1.616cbe0000000p-5, 0x1.48ed180000000p-3, -0x1.79e1560000000p-4, 0x1.1848d80000000p-4, -0x1.62dfac0000000p-4, -0x1.85dad80000000p-3, 0x1.caa7d60000000p-6, -0x1.4f22be0000000p-5, -0x1.4b23640000000p-6, -0x1.5d763c0000000p-7, -0x1.780d720000000p-4, 0x1.ab9cb00000000p-4, -0x1.7317de0000000p-6, -0x1.abf0840000000p-12, 0x1.1475b60000000p-5, -0x1.2c02160000000p-3, 0x1.659b7c0000000p-6, -0x1.6761ea0000000p-5, -0x1.9734ca0000000p-5, 0x1.a523840000000p-6, 0x1.22ed000000000p-3, 0x1.303cbe0000000p-6, 0x1.27d8120000000p-3, 0x1.a9a49e0000000p-5, 0x1.2539b80000000p-7, 0x1.d739e00000000p-7, -0x1.2b73aa0000000p-7, 0x1.f42e640000000p-6, 0x1.20141a0000000p-3, -0x1.e3e6160000000p-3, -0x1.e7fe0e0000000p-5, -0x1.44a6140000000p-5, -0x1.223c6e0000000p-3, -0x1.4f286a0000000p-5, -0x1.ab19f60000000p-4, -0x1.0db2d60000000p-4, 0x1.f72bec0000000p-13, -0x1.929d5c0000000p-3, -0x1.366cfc0000000p-4, -0x1.1b4d040000000p-3, 0x1.5e6eb40000000p-6, 0x1.2627d40000000p-6, 0x1.f375f40000000p-5, 0x1.36adfa0000000p-8, -0x1.68b25c0000000p-5, 0x1.b1bd000000000p-4, 0x1.4b2a420000000p-4, 0x1.14e5620000000p-4, -0x1.532d180000000p-3, 0x1.1a86b80000000p-5, 0x1.254cf80000000p-5, -0x1.ad4fde0000000p-5, -0x1.ba666a0000000p-3, -0x1.7a348c0000000p-4, -0x1.c81ddc0000000p-3, -0x1.7c49f00000000p-3, -0x1.1fd99a0000000p-4, 0x1.b2273a0000000p-5, -0x1.09b2760000000p-4, 0x1.9037140000000p-5, -0x1.09c05e0000000p-8, 0x1.3d57660000000p-4, 0x1.3b68500000000p-4, 0x1.a1ab700000000p-5, 0x1.97803a0000000p-6, 0x1.256d7c0000000p-4, 0x1.5cec100000000p-3, 0x1.4475560000000p-3, 0x1.0daebc0000000p-4, -0x1.08dba40000000p-3, -0x1.b18d540000000p-6, 0x1.af153c0000000p-5, 0x1.e513140000000p-3, 0x1.6859ae0000000p-3, -0x1.52ab9e0000000p-3, 0x1.51e8180000000p-3, -0x1.2ee2aa0000000p-3, 0x1.6480a20000000p-6, 0x1.ebd4dc0000000p-8, 0x1.138d7a0000000p-3, -0x1.1823400000000p-5, -0x1.dc9ee20000000p-3, -0x1.7c38fa0000000p-6, -0x1.630f620000000p-4, 0x1.2d39e20000000p-3, 0x1.33f87a0000000p-4, -0x1.1f51a00000000p-4, 0x1.5e96760000000p-4, 0x1.361d900000000p-7, 0x1.9d50480000000p-3, -0x1.8c6e820000000p-4, 0x1.26f2340000000p-4, -0x1.3265080000000p-4, -0x1.00e1bc0000000p-7, 0x1.3f99ba0000000p-3, -0x1.09accc0000000p-5, -0x1.5c4b580000000p-5, -0x1.35576c0000000p-4, -0x1.b720060000000p-6, -0x1.10c7c80000000p-3, 0x1.6563660000000p-6, 0x1.3a864a0000000p-5, -0x1.5ec5360000000p-3, 0x1.abbdb40000000p-3, -0x1.83d57c0000000p-3, -0x1.2fe6f00000000p-3, -0x1.e8e7640000000p-7, -0x1.14d9a20000000p-3, 0x1.47e6060000000p-4, -0x1.28310a0000000p-5, -0x1.61b34c0000000p-3, -0x1.84dca80000000p-6, -0x1.0d72280000000p-4, -0x1.a1fb500000000p-5, -0x1.5cbdc40000000p-4, 0x1.0087de0000000p-8, 0x1.6d525e0000000p-3, -0x1.20116c0000000p-3, 0x1.8df6e40000000p-4, 0x1.3f023a0000000p-5, 0x1.7530620000000p-4, -0x1.20fe080000000p-4, -0x1.4a5f0e0000000p-5, -0x1.44c3de0000000p-4, 0x1.69477e0000000p-5, -0x1.9c9ab40000000p-4, 0x1.de12dc0000000p-3, -0x1.8ed9fa0000000p-3, 0x1.eb91120000000p-9, -0x1.48375c0000000p-4, -0x1.2173660000000p-8, 0x1.bc4f3c0000000p-5, -0x1.eb6c220000000p-5, 0x1.d169ce0000000p-7, 0x1.1bd6c60000000p-3, -0x1.ff15a80000000p-4, -0x1.6c71880000000p-7, -0x1.6f659c0000000p-4, -0x1.125cc80000000p-4, 0x1.3742fc0000000p-5, 0x1.5da8d60000000p-4, -0x1.1a71020000000p-3, -0x1.490a380000000p-5, -0x1.72732a0000000p-7, -0x1.f962a00000000p-5, -0x1.d4a8c40000000p-5, -0x1.b19d600000000p-7, 0x1.09facc0000000p-3, -0x1.b0f97c0000000p-5, 0x1.68b31a0000000p-5, -0x1.4feb960000000p-5, -0x1.494cba0000000p-4, 0x1.0bca960000000p-4, -0x1.d896200000000p-6, 0x1.5420c60000000p-3, -0x1.50018a0000000p-6, 0x1.a9bb580000000p-4, 0x1.6b92600000000p-5, -0x1.ea45bc0000000p-4, -0x1.2d74d20000000p-5, -0x1.c43ed80000000p-4, 0x1.ca6b7c0000000p-5, 0x1.3742ee0000000p-6, -0x1.3854920000000p-3, 0x1.d0fdf40000000p-4, -0x1.73da880000000p-5, -0x1.412ed00000000p-2, 0x1.e7458c0000000p-5, -0x1.2d6b100000000p-3, 0x1.ffbc780000000p-5, -0x1.fa54640000000p-3, -0x1.9b9a900000000p-3, 0x1.3ec0400000000p-6, 0x1.93b5b00000000p-4, 0x1.156bd20000000p-3, 0x1.01d4240000000p-5, -0x1.c8365c0000000p-7, -0x1.9470520000000p-8, 0x1.b0b3480000000p-3, 0x1.ed36f60000000p-3, 0x1.aec6140000000p-4, -0x1.1a70120000000p-3, 0x1.bfa2160000000p-3, -0x1.a068a60000000p-3, 0x1.39ad720000000p-4, -0x1.5f88280000000p-6, 0x1.413f140000000p-4, -0x1.20c80a0000000p-4, 0x1.f506d60000000p-4, -0x1.84ad300000000p-4, -0x1.3be9620000000p-4, 0x1.7626200000000p-3, -0x1.115e840000000p-3, 0x1.62ad3a0000000p-3, 0x1.4b2d640000000p-2, 0x1.8ffd240000000p-4, -0x1.cdc6bc0000000p-5, -0x1.cbc6d20000000p-4, 0x1.32846e0000000p-2, -0x1.0ad3100000000p-6, 0x1.459ae40000000p-8, 0x1.f3f5280000000p-5, -0x1.7d486c0000000p-3, 0x1.3663ce0000000p-4, -0x1.47b0880000000p-6, -0x1.64b3c20000000p-2, 0x1.74598a0000000p-5, 0x1.5cc4e20000000p-4, 0x1.55a1420000000p-4, 0x1.dfd83e0000000p-6, -0x1.51ef1e0000000p-3, 0x1.2ce3720000000p-3, -0x1.8308c60000000p-6, 0x1.9f042e0000000p-8, 0x1.da218a0000000p-4, -0x1.38ea7a0000000p-3, -0x1.4078ee0000000p-3, -0x1.63a03e0000000p-3, 0x1.5ccf080000000p-3, 0x1.7cc3fa0000000p-5, -0x1.208ba00000000p-7, 0x1.49e9c00000000p-4, 0x1.a0bb7a0000000p-4, -0x1.90247a0000000p-5, -0x1.94e39a0000000p-9, -0x1.a4f31a0000000p-4, 0x1.aadff60000000p-5, -0x1.818c4c0000000p-5, 0x1.d367f20000000p-4, 0x1.7ac2e00000000p-6, -0x1.675a480000000p-3, -0x1.29053e0000000p-4, -0x1.1d05640000000p-7, -0x1.ddbd660000000p-4, -0x1.069e7a0000000p-3, 0x1.6856740000000p-4, 0x1.6676ba0000000p-4, -0x1.090ae00000000p-2, 0x1.387f280000000p-6, -0x1.85c4960000000p-7, -0x1.933bf60000000p-8, 0x1.4f15fe0000000p-6, -0x1.ef6c4a0000000p-4, 0x1.80c5020000000p-4, -0x1.6686f00000000p-3, 0x1.fb96260000000p-4, -0x1.b3322c0000000p-4, 0x1.5067600000000p-3, 0x1.2b0e760000000p-5, -0x1.7d8c880000000p-4, -0x1.b9eff60000000p-5, -0x1.347f3a0000000p-3, -0x1.47a8de0000000p-3, 0x1.f0d6ca0000000p-6, -0x1.47ac380000000p-3, -0x1.61c5f20000000p-3, -0x1.7052fa0000000p-7, 0x1.de7a8c0000000p-5, -0x1.ec64980000000p-6, 0x1.21d0c20000000p-3, 0x1.e49c660000000p-5, -0x1.9f8e660000000p-3, 0x1.258c040000000p-3, 0x1.8040b60000000p-4, -0x1.774cb40000000p-6, -0x1.42f5800000000p-3, -0x1.a2166c0000000p-12, 0x1.127f540000000p-5, -0x1.0448c00000000p-3, 0x1.c2f08a0000000p-4, 0x1.6fa5ec0000000p-6, 0x1.ecd7440000000p-4, 0x1.2078200000000p-4, -0x1.ca94a20000000p-5, 0x1.1dc7da0000000p-5, -0x1.024da00000000p-3, 0x1.b8f7fa0000000p-3, 0x1.f00da20000000p-4, -0x1.5fa7800000000p-3, 0x1.30c7400000000p-3, 0x1.78d29c0000000p-3, 0x1.390ea00000000p-5, 0x1.3d1c9c0000000p-2, 0x1.890d5c0000000p-4, 0x1.d0d9dc0000000p-5, 0x1.ac43500000000p-4, -0x1.337a760000000p-5, 0x1.77301c0000000p-6, 0x1.a350700000000p-4, 0x1.255f280000000p-5, -0x1.b41a5c0000000p-4, -0x1.1562840000000p-3, 0x1.3b4f320000000p-7, -0x1.6a97440000000p-4, -0x1.9b76ec0000000p-4, 0x1.43456c0000000p-5, 0x1.f496140000000p-3, 0x1.1d9cce0000000p-9, 0x1.51b4640000000p-4, 0x1.4eac840000000p-3, -0x1.e3180c0000000p-5, -0x1.57ba4a0000000p-4, 0x1.602bba0000000p-5, -0x1.ebb75c0000000p-7, -0x1.b131f00000000p-5, -0x1.5102860000000p-5, 0x1.ae182e0000000p-6, 0x1.1e65760000000p-5}
, {0x1.0515140000000p-6, -0x1.4210420000000p-6, -0x1.39dbce0000000p-3, 0x1.dff7d00000000p-4, 0x1.31eada0000000p-3, 0x1.106b120000000p-3, 0x1.8c934a0000000p-4, 0x1.c5c7e00000000p-5, -0x1.1bd9160000000p-4, -0x1.5b0e2a0000000p-3, -0x1.411f220000000p-3, -0x1.bbc3ac0000000p-6, -0x1.275d280000000p-7, 0x1.b8c3ca0000000p-7, 0x1.26ca160000000p-4, 0x1.1f96240000000p-3, -0x1.bfc1380000000p-5, -0x1.5af46c0000000p-6, 0x1.c0f2500000000p-8, 0x1.0c57f80000000p-8, 0x1.0f96660000000p-3, -0x1.8492c40000000p-4, -0x1.c3ac840000000p-4, -0x1.0569420000000p-4, -0x1.823e020000000p-4, -0x1.4573f80000000p-7, -0x1.fbbae40000000p-5, -0x1.54bd720000000p-6, -0x1.97284c0000000p-7, -0x1.5291980000000p-8, 0x1.fec97e0000000p-7, -0x1.3bac500000000p-3, -0x1.50aab80000000p-4, 0x1.07fae20000000p-3, -0x1.142dde0000000p-4, -0x1.52b8940000000p-5, -0x1.5cc48a0000000p-13, -0x1.5758780000000p-6, -0x1.25a5520000000p-9, 0x1.b8cf660000000p-5, -0x1.b0fbb40000000p-5, 0x1.1e10320000000p-3, 0x1.023f4e0000000p-9, 0x1.0d47c80000000p-3, 0x1.2bd3a60000000p-4, 0x1.d39a000000000p-5, -0x1.7543660000000p-4, -0x1.23517a0000000p-5, 0x1.0a498a0000000p-4, -0x1.a50dc60000000p-4, -0x1.1f779a0000000p-3, 0x1.1425100000000p-8, -0x1.06a57a0000000p-6, 0x1.d06b600000000p-4, -0x1.1add4a0000000p-5, 0x1.7911c60000000p-4, -0x1.b4963a0000000p-3, -0x1.17e5380000000p-5, 0x1.00c03e0000000p-5, 0x1.c5b2a40000000p-8, -0x1.3ae6420000000p-4, -0x1.acbdc60000000p-5, -0x1.dbd4340000000p-6, -0x1.50d2a00000000p-2, 0x1.197bda0000000p-4, 0x1.88ef440000000p-6, -0x1.4cb0620000000p-4, 0x1.0147da0000000p-3, -0x1.3386720000000p-6, 0x1.0927580000000p-3, -0x1.b9c0d00000000p-4, -0x1.aed7d40000000p-5, -0x1.786d400000000p-4, 0x1.ececa00000000p-4, -0x1.1f3cae0000000p-3, 0x1.168b400000000p-3, -0x1.248e9a0000000p-9, 0x1.1cf07e0000000p-9, 0x1.5a97dc0000000p-7, -0x1.0f470e0000000p-4, -0x1.a2e18c0000000p-4, 0x1.1841240000000p-4, -0x1.f209c60000000p-7, -0x1.2777380000000p-5, 0x1.f75cb80000000p-6, 0x1.3027bc0000000p-8, -0x1.cd23040000000p-7, -0x1.a62cf40000000p-6, -0x1.81b4a40000000p-4, -0x1.999e5e0000000p-5, -0x1.47347a0000000p-4, -0x1.755ac80000000p-5, -0x1.489d500000000p-4, -0x1.9a23380000000p-4, 0x1.34d4b00000000p-9, 0x1.6ae5860000000p-8, -0x1.1f03580000000p-4, 0x1.0a4b6e0000000p-3, 0x1.3f6c760000000p-3, -0x1.0a7b1c0000000p-2, 0x1.20f1da0000000p-4, 0x1.f020520000000p-7, -0x1.e9e2900000000p-5, 0x1.732ec00000000p-6, 0x1.4d5a220000000p-4, 0x1.1f4ce80000000p-3, -0x1.1e59200000000p-5, -0x1.9cd89a0000000p-5, -0x1.70960c0000000p-5, -0x1.2b4aa40000000p-4, -0x1.fb9fb00000000p-8, -0x1.543d300000000p-4, -0x1.0fb0c00000000p-4, 0x1.023ef60000000p-5, 0x1.43f1640000000p-4, 0x1.4e84de0000000p-4, -0x1.76b0ec0000000p-5, 0x1.e189aa0000000p-8, 0x1.f9fe960000000p-6, -0x1.3728aa0000000p-8, 0x1.419a2a0000000p-7, 0x1.edca420000000p-3, 0x1.7280720000000p-3, 0x1.2426c60000000p-4, 0x1.062caa0000000p-3, 0x1.4f74740000000p-5, -0x1.37fd560000000p-7, -0x1.57b6b40000000p-5, 0x1.05c03e0000000p-4, 0x1.36c9580000000p-6, 0x1.62a5520000000p-5, -0x1.1824720000000p-7, 0x1.3816b20000000p-3, 0x1.2b5b8e0000000p-3, -0x1.2101d80000000p-4, -0x1.a0bee60000000p-4, 0x1.9d2c7c0000000p-4, -0x1.2dcd180000000p-4, 0x1.1ba3080000000p-7, 0x1.4a67440000000p-6, 0x1.fbfe920000000p-4, 0x1.960dfe0000000p-5, -0x1.3a36440000000p-4, 0x1.cd2e780000000p-3, 0x1.e3b4360000000p-6, 0x1.5fa8f60000000p-3, -0x1.3184980000000p-4, 0x1.4ef3fa0000000p-4, -0x1.cf3dd80000000p-4, 0x1.c3cf1a0000000p-4, 0x1.740dcc0000000p-4, -0x1.839d480000000p-5, 0x1.bd053c0000000p-5, -0x1.dfc3f20000000p-10, 0x1.e5281c0000000p-3, -0x1.d3a9560000000p-3, -0x1.9f228a0000000p-4, 0x1.6788f00000000p-4, -0x1.369e7e0000000p-5, 0x1.f7ea660000000p-4, 0x1.cf2a880000000p-5, -0x1.d31b160000000p-4, 0x1.05bec00000000p-4, 0x1.f8094c0000000p-5, 0x1.dc90240000000p-5, 0x1.7c975a0000000p-3, 0x1.7f11980000000p-7, 0x1.1f77480000000p-4, -0x1.09ef4c0000000p-6, 0x1.5afbec0000000p-2, -0x1.1c93260000000p-4, 0x1.5d1ea20000000p-3, -0x1.686e6e0000000p-5, 0x1.369a5c0000000p-4, -0x1.5364120000000p-7, -0x1.4e4a700000000p-8, 0x1.93348a0000000p-3, -0x1.edc8360000000p-5, -0x1.f0dedc0000000p-6, 0x1.76d7240000000p-4, 0x1.2231ee0000000p-4, -0x1.f1c0140000000p-4, 0x1.1b871e0000000p-4, -0x1.8cc2ee0000000p-4, 0x1.2b94ac0000000p-4, -0x1.3588300000000p-3, 0x1.78c8360000000p-5, -0x1.bf5e3a0000000p-4, -0x1.7789860000000p-5, 0x1.03f4ae0000000p-3, -0x1.db10140000000p-4, -0x1.0d79b60000000p-3, 0x1.4c1bdc0000000p-3, 0x1.8cb3500000000p-11, 0x1.18d2dc0000000p-6, 0x1.4fab4e0000000p-4, -0x1.6f7aa80000000p-4, 0x1.465d8a0000000p-8, 0x1.72f77a0000000p-4, 0x1.89ba460000000p-5, 0x1.6972c00000000p-5, 0x1.43b9d20000000p-4, 0x1.1796b00000000p-8, -0x1.3715c20000000p-3, -0x1.1baf920000000p-4, 0x1.2dd52e0000000p-4, 0x1.a3e1940000000p-5, -0x1.7e4bbc0000000p-8, -0x1.915bec0000000p-6, 0x1.1c1c9e0000000p-4, 0x1.6c24c00000000p-3, 0x1.cb22820000000p-4, 0x1.5dc6460000000p-5, 0x1.66ed3c0000000p-3, 0x1.30b0300000000p-3, -0x1.73a0160000000p-3, -0x1.3eaeb00000000p-3, -0x1.11b9a60000000p-8, 0x1.4062a20000000p-3, 0x1.59411a0000000p-3, 0x1.c5fda60000000p-7, 0x1.54fca40000000p-6, -0x1.b31cd40000000p-4, 0x1.4abce40000000p-3, -0x1.e6eb300000000p-5, 0x1.13ce900000000p-5, 0x1.35e7da0000000p-5, -0x1.4bfea60000000p-4, -0x1.fe45de0000000p-5, -0x1.8c6bf60000000p-5, 0x1.3596fc0000000p-3, 0x1.dc85340000000p-5, -0x1.e236520000000p-3, -0x1.2056f60000000p-3, -0x1.0796420000000p-5, 0x1.8f54480000000p-4, 0x1.3130cc0000000p-5, 0x1.4ec9d80000000p-5, -0x1.6547e20000000p-3, 0x1.ee1e8c0000000p-6, -0x1.b3ecce0000000p-6, 0x1.d64a800000000p-7, 0x1.c9bb4e0000000p-4, -0x1.faa5c60000000p-6, -0x1.5178f40000000p-4, -0x1.fead380000000p-4, 0x1.9fd2620000000p-5, -0x1.7b77020000000p-3, -0x1.0af4aa0000000p-6, 0x1.1ac77c0000000p-10, 0x1.50b0c00000000p-6, -0x1.50bb940000000p-4, -0x1.8a25f20000000p-5, -0x1.1cffa00000000p-3, -0x1.56b1820000000p-4, 0x1.416f340000000p-3, 0x1.51b5ee0000000p-6, 0x1.1eb41a0000000p-7, 0x1.22f8660000000p-3, 0x1.a0499e0000000p-4, 0x1.9274ec0000000p-6, -0x1.5aa8200000000p-7, 0x1.58897c0000000p-3, -0x1.1984900000000p-4, -0x1.f59ef40000000p-4, -0x1.3c60fc0000000p-5, -0x1.3da2b40000000p-3, -0x1.f322f80000000p-6, -0x1.08e0ea0000000p-3, 0x1.4141280000000p-3, 0x1.8c63200000000p-5, 0x1.488fa20000000p-7, 0x1.344d040000000p-3, 0x1.4e76e80000000p-3, -0x1.70685a0000000p-6, 0x1.55aa000000000p-4, -0x1.1326780000000p-3, 0x1.718dd80000000p-4, -0x1.f974720000000p-4, -0x1.638ab00000000p-10, -0x1.1b98ce0000000p-4, 0x1.1a10a80000000p-5, -0x1.5cceb60000000p-4, 0x1.1ab6a00000000p-3, 0x1.436dc00000000p-5, 0x1.362e480000000p-6, 0x1.b242400000000p-5, 0x1.8bb16c0000000p-7, -0x1.938dbc0000000p-5, -0x1.3d4b160000000p-4, -0x1.7bd8780000000p-5, -0x1.2492f60000000p-3, 0x1.3640260000000p-3, 0x1.51abee0000000p-4, 0x1.6244540000000p-3, 0x1.1c9b860000000p-5, 0x1.ac5d3a0000000p-6, 0x1.597aa40000000p-4, 0x1.f1b7080000000p-7, -0x1.4bbc6a0000000p-4, 0x1.41d06e0000000p-5, -0x1.2cf1700000000p-6, 0x1.0e60980000000p-4, 0x1.a361d20000000p-6, 0x1.caa89e0000000p-5, -0x1.59d66e0000000p-4, -0x1.5d03840000000p-3, 0x1.4a61ea0000000p-5, -0x1.68da7e0000000p-5, 0x1.79c7f80000000p-7, -0x1.7e2a4a0000000p-6, 0x1.b0232e0000000p-3, 0x1.bc649e0000000p-5, -0x1.d31f740000000p-4, -0x1.10e9520000000p-4, -0x1.b1600e0000000p-5, -0x1.1c7a9c0000000p-4, 0x1.3407840000000p-6, -0x1.ec37dc0000000p-7, -0x1.1bc00c0000000p-4, -0x1.e5ac540000000p-5, 0x1.82b5820000000p-4, -0x1.6667220000000p-6, 0x1.b3b7360000000p-4, -0x1.30a8280000000p-4, 0x1.b50c060000000p-3, 0x1.9d18320000000p-7, -0x1.5096480000000p-4, -0x1.b92aac0000000p-4, 0x1.624d560000000p-5, -0x1.56f2e00000000p-4, 0x1.b0d7080000000p-6, -0x1.16df4e0000000p-4, 0x1.28b8440000000p-4, -0x1.220a1a0000000p-8, -0x1.87695e0000000p-5, 0x1.51cd000000000p-4, 0x1.245cbc0000000p-4, -0x1.98e06e0000000p-5, 0x1.fe82ee0000000p-6, -0x1.4370300000000p-6, 0x1.86f6f60000000p-8, -0x1.0c87c00000000p-5, -0x1.08770e0000000p-3, -0x1.09b5c80000000p-3, -0x1.5f958c0000000p-5, -0x1.e4d5f00000000p-4, 0x1.bd704a0000000p-4, -0x1.c5951e0000000p-6, -0x1.dc80e00000000p-5, -0x1.6bda0c0000000p-4, -0x1.16c1c80000000p-4, 0x1.17d0520000000p-3, -0x1.21f6140000000p-4, 0x1.c4c66e0000000p-4, -0x1.895d4c0000000p-4, 0x1.3547760000000p-7, -0x1.a36fd80000000p-5, -0x1.30e2ea0000000p-5, 0x1.b9be940000000p-10, -0x1.f6107c0000000p-8, -0x1.7f9e5e0000000p-5, 0x1.b801320000000p-4, 0x1.675b4e0000000p-5, -0x1.47da480000000p-6, -0x1.2f88900000000p-5, 0x1.8aba1c0000000p-3, 0x1.c6caca0000000p-5, -0x1.0fdd000000000p-4, 0x1.0f6a160000000p-3, -0x1.f6223c0000000p-15, 0x1.c6c1420000000p-5, 0x1.341c320000000p-8, -0x1.46a0e80000000p-7, -0x1.4487320000000p-4, -0x1.98d69e0000000p-5, -0x1.b281920000000p-5, 0x1.8c6d4e0000000p-8, 0x1.c125fc0000000p-4, 0x1.0c7c0c0000000p-5, -0x1.9531160000000p-6, 0x1.8520880000000p-6, 0x1.48f9140000000p-3, 0x1.47c9ce0000000p-4, 0x1.2a6bbe0000000p-3, 0x1.b9081c0000000p-5, 0x1.075f560000000p-3, 0x1.06ed4a0000000p-3, 0x1.6a4c920000000p-4, -0x1.9d56480000000p-3, 0x1.e46d3c0000000p-8, 0x1.09fa9c0000000p-6, -0x1.b835be0000000p-6, 0x1.e20c580000000p-5, -0x1.67a3720000000p-3, -0x1.a521100000000p-4, -0x1.43e7fe0000000p-5, -0x1.a18f4e0000000p-7, -0x1.fe2fcc0000000p-5, 0x1.2dd3a80000000p-6, -0x1.6ac36a0000000p-7, -0x1.981c500000000p-5, -0x1.b527b20000000p-3, -0x1.9568080000000p-4, -0x1.5566fa0000000p-3, 0x1.57a6100000000p-4, 0x1.ad56c80000000p-4, 0x1.d21abe0000000p-4, 0x1.3829920000000p-5, 0x1.a31e6a0000000p-3, -0x1.5b65700000000p-6, -0x1.be44200000000p-4, -0x1.3eda240000000p-3, 0x1.e54a7a0000000p-5, 0x1.6130cc0000000p-3, -0x1.bd19d60000000p-3, -0x1.e2fbee0000000p-5, -0x1.a3efbc0000000p-3, -0x1.7128840000000p-3, 0x1.acb6c60000000p-4, -0x1.6b3b440000000p-4, 0x1.6a8dc80000000p-4, -0x1.720d100000000p-5, 0x1.a2566c0000000p-4, -0x1.950cb80000000p-4, 0x1.bde1760000000p-5, 0x1.74adfe0000000p-7, 0x1.1f15ec0000000p-4, 0x1.ebc7c80000000p-4, -0x1.4102380000000p-4, -0x1.644c0e0000000p-5, 0x1.2415580000000p-6, -0x1.60a0900000000p-4, 0x1.40b7920000000p-3, -0x1.24bacc0000000p-5, 0x1.2b54b80000000p-2, 0x1.ed9b8a0000000p-4, -0x1.a5e0700000000p-10, 0x1.dfe9800000000p-3, 0x1.00762e0000000p-4, -0x1.1895460000000p-2, 0x1.8769680000000p-5, 0x1.f07c1e0000000p-4, -0x1.f8d1e00000000p-4, -0x1.69d8220000000p-5, -0x1.14d4440000000p-5, -0x1.3fc1700000000p-3, -0x1.81e8ce0000000p-3, 0x1.104d200000000p-3, -0x1.bc36960000000p-4, -0x1.aec9c40000000p-4, -0x1.6993b60000000p-5, 0x1.425bb80000000p-2, 0x1.3071f60000000p-3, -0x1.c4669e0000000p-5, 0x1.b1f3c60000000p-3, -0x1.1bb0640000000p-3, -0x1.be83400000000p-5, 0x1.4cc8920000000p-5, -0x1.27c80c0000000p-3, -0x1.2a16fc0000000p-4, -0x1.dd7b120000000p-4, -0x1.ef1cac0000000p-7, -0x1.8258c80000000p-3, -0x1.4497f20000000p-4, 0x1.387a3a0000000p-3, -0x1.370c900000000p-3, -0x1.1335060000000p-3, -0x1.2c84b00000000p-3, -0x1.c3401a0000000p-5, 0x1.107e6a0000000p-7, -0x1.b2a88a0000000p-5, 0x1.6bb4d40000000p-4, 0x1.78b5cc0000000p-3, -0x1.1898940000000p-5, 0x1.23d4b40000000p-3, -0x1.3239d80000000p-5, -0x1.bdcd680000000p-3, 0x1.c16df00000000p-3, 0x1.4d95580000000p-4, -0x1.733fe80000000p-3, -0x1.66761e0000000p-3, -0x1.9c7ed40000000p-4, 0x1.dd1bfc0000000p-4, -0x1.0d63d40000000p-3, 0x1.0f196a0000000p-5, -0x1.bf1d660000000p-3, -0x1.2e3e820000000p-4, 0x1.0ed2ce0000000p-6, 0x1.8f44660000000p-5, 0x1.bd19fa0000000p-3, 0x1.b9b9960000000p-6, -0x1.bf18520000000p-5, 0x1.9a78c40000000p-5, 0x1.36bf320000000p-4, -0x1.42c8fa0000000p-6, 0x1.282d1c0000000p-8, 0x1.06cf060000000p-8, 0x1.be405e0000000p-3, -0x1.7d4ca00000000p-3, -0x1.4153460000000p-5, -0x1.1b1ce40000000p-4, -0x1.944d540000000p-4, 0x1.ea5e760000000p-4, 0x1.81b2860000000p-5, 0x1.66a1580000000p-6, -0x1.47bc960000000p-3, -0x1.ba1e9a0000000p-5, -0x1.41aeb40000000p-3, 0x1.622d360000000p-3, -0x1.481fde0000000p-3, -0x1.529f300000000p-3}
, {0x1.2e026a0000000p-7, -0x1.3d70360000000p-3, -0x1.4d6cfa0000000p-3, -0x1.faa4300000000p-5, 0x1.f90e400000000p-4, -0x1.3983b20000000p-2, 0x1.3cf8de0000000p-4, -0x1.9ec3020000000p-5, 0x1.9e02680000000p-4, -0x1.3027660000000p-4, 0x1.be1c540000000p-4, 0x1.4b43d40000000p-6, -0x1.708e660000000p-4, 0x1.b5b6f20000000p-7, -0x1.2046740000000p-2, -0x1.3a46ca0000000p-5, -0x1.181c200000000p-7, 0x1.9524120000000p-4, 0x1.1c6ade0000000p-4, 0x1.3899ca0000000p-3, 0x1.8302240000000p-4, -0x1.9a494c0000000p-3, 0x1.0b0a840000000p-4, -0x1.2772180000000p-5, 0x1.4755300000000p-4, -0x1.603be60000000p-8, 0x1.1c8a920000000p-5, -0x1.cc6fd00000000p-6, 0x1.2dafa00000000p-5, -0x1.b770b00000000p-8, -0x1.44da700000000p-3, -0x1.318bb60000000p-8, 0x1.038de20000000p-4, -0x1.6c7ff60000000p-3, 0x1.e4fce20000000p-4, -0x1.8e2b120000000p-4, -0x1.41b4100000000p-4, 0x1.15e9400000000p-4, -0x1.baa8060000000p-6, -0x1.f758060000000p-6, -0x1.3b783a0000000p-7, 0x1.1405d20000000p-4, -0x1.35e9200000000p-3, -0x1.1033220000000p-7, -0x1.cb8f040000000p-6, 0x1.2789720000000p-4, -0x1.f23f5a0000000p-5, 0x1.0f34720000000p-6, 0x1.e412060000000p-4, -0x1.db4edc0000000p-10, -0x1.33d0aa0000000p-3, -0x1.16eafc0000000p-4, -0x1.18e37e0000000p-3, -0x1.49a4920000000p-4, 0x1.8fd0240000000p-4, -0x1.5470e80000000p-3, 0x1.5a34a40000000p-4, -0x1.04ccee0000000p-5, -0x1.ffe6fa0000000p-5, -0x1.d7f1c20000000p-4, -0x1.c3f9140000000p-5, 0x1.cdc9380000000p-3, -0x1.3df4ae0000000p-4, 0x1.2ac2600000000p-4, 0x1.2fad440000000p-3, 0x1.0a26b00000000p-3, -0x1.e949220000000p-5, 0x1.dc030e0000000p-4, -0x1.99abc60000000p-3, -0x1.2fa6800000000p-4, -0x1.1ac7ee0000000p-8, 0x1.ebadbe0000000p-4, 0x1.1de5ba0000000p-8, 0x1.4c13540000000p-4, -0x1.8026f00000000p-4, -0x1.df7ef40000000p-5, -0x1.95ae5e0000000p-4, -0x1.10d4400000000p-3, 0x1.05f6680000000p-5, 0x1.2535000000000p-3, -0x1.ed1d940000000p-4, 0x1.3fb5f40000000p-4, -0x1.16a7a80000000p-4, -0x1.6c06160000000p-9, -0x1.3355240000000p-6, -0x1.86282e0000000p-3, 0x1.81e2d40000000p-5, 0x1.55a7600000000p-4, 0x1.4c9e380000000p-4, -0x1.fbc02c0000000p-4, 0x1.652ec20000000p-6, 0x1.2f83a40000000p-4, 0x1.e9b24e0000000p-8, 0x1.60c2220000000p-4, -0x1.88f9460000000p-7, 0x1.a3d95a0000000p-6, 0x1.1920300000000p-5, -0x1.65b1f00000000p-7, 0x1.2e1f8c0000000p-3, -0x1.33ba7a0000000p-4, -0x1.3ba4a20000000p-3, 0x1.91534a0000000p-4, 0x1.c186c00000000p-5, -0x1.4d9f8e0000000p-5, -0x1.e4fc340000000p-5, -0x1.5c70cc0000000p-5, 0x1.90972e0000000p-6, 0x1.6010320000000p-5, -0x1.50282a0000000p-7, -0x1.605d420000000p-4, 0x1.7b85d40000000p-4, -0x1.7c3c5c0000000p-8, 0x1.0aeb6c0000000p-6, 0x1.ac59a80000000p-5, 0x1.f698c80000000p-5, -0x1.b69f6c0000000p-4, 0x1.bd42f40000000p-9, 0x1.a68d000000000p-6, -0x1.41d6ae0000000p-4, -0x1.55d1740000000p-3, 0x1.9c9bc40000000p-4, 0x1.6253180000000p-7, -0x1.18fc220000000p-4, -0x1.afe0e80000000p-3, -0x1.10aaca0000000p-3, -0x1.5e1f6e0000000p-3, -0x1.73753e0000000p-5, -0x1.2d909c0000000p-3, 0x1.1fc6080000000p-4, 0x1.3e1faa0000000p-4, -0x1.55e0ca0000000p-4, -0x1.8f43be0000000p-4, -0x1.3e309a0000000p-5, -0x1.2ec2b40000000p-4, 0x1.17ea1c0000000p-4, -0x1.2d2f260000000p-4, -0x1.081e980000000p-4, 0x1.a666a40000000p-5, 0x1.7c0c780000000p-4, 0x1.264fa40000000p-2, 0x1.c99c3c0000000p-6, 0x1.1ad8520000000p-3, -0x1.df7b0e0000000p-4, 0x1.cb11100000000p-3, 0x1.7a628e0000000p-6, -0x1.f989ce0000000p-7, 0x1.208ae40000000p-4, -0x1.a2c79e0000000p-4, 0x1.edaeda0000000p-7, -0x1.eafd440000000p-6, -0x1.fa93280000000p-4, 0x1.4fa0940000000p-3, -0x1.e5fc680000000p-4, 0x1.0209860000000p-4, -0x1.4826760000000p-4, 0x1.5acae80000000p-3, 0x1.6dd1580000000p-5, -0x1.714d7c0000000p-11, -0x1.de1e020000000p-4, -0x1.1341e60000000p-3, -0x1.c1e5a40000000p-6, -0x1.38369a0000000p-4, -0x1.841e620000000p-8, 0x1.76d3260000000p-5, 0x1.f0b47e0000000p-6, 0x1.952f520000000p-5, -0x1.34ff3a0000000p-4, -0x1.7388440000000p-4, 0x1.7e41820000000p-8, -0x1.ec3e920000000p-5, -0x1.dd758a0000000p-6, 0x1.fadb460000000p-5, -0x1.619e780000000p-6, -0x1.6449500000000p-7, -0x1.479ad60000000p-3, 0x1.2f92e20000000p-9, -0x1.02916c0000000p-3, 0x1.ffd9f60000000p-5, -0x1.30a3a00000000p-6, 0x1.e31dfa0000000p-4, -0x1.3df55a0000000p-4, 0x1.a30dde0000000p-5, 0x1.3df06e0000000p-7, -0x1.d77c660000000p-5, 0x1.40f5c00000000p-3, 0x1.3ab7c20000000p-4, -0x1.4e625a0000000p-10, -0x1.12db760000000p-3, 0x1.07b6820000000p-6, 0x1.b9e5f00000000p-7, -0x1.b527cc0000000p-3, 0x1.3f62ce0000000p-3, 0x1.137f6a0000000p-3, -0x1.472e560000000p-4, -0x1.de5cac0000000p-4, -0x1.7cf2f40000000p-4, 0x1.5dc6b20000000p-5, -0x1.594ee80000000p-4, 0x1.eab6d40000000p-4, -0x1.243ef20000000p-5, -0x1.b3b2b40000000p-5, -0x1.4bf9560000000p-6, 0x1.5c35380000000p-5, 0x1.838e280000000p-6, -0x1.05766a0000000p-3, -0x1.a958d20000000p-5, 0x1.2499240000000p-5, -0x1.b33f420000000p-6, 0x1.3b5f960000000p-5, 0x1.6518c00000000p-7, -0x1.f1a6180000000p-3, 0x1.6484be0000000p-4, -0x1.8b20fa0000000p-3, -0x1.1108a60000000p-3, 0x1.1fd34a0000000p-7, -0x1.1796ee0000000p-5, 0x1.5772c60000000p-4, -0x1.89856e0000000p-4, 0x1.05ad120000000p-6, 0x1.136dcc0000000p-4, 0x1.d8d6060000000p-5, -0x1.0c9c880000000p-5, -0x1.7f45240000000p-6, 0x1.04c2520000000p-4, 0x1.45f1420000000p-3, 0x1.0b29240000000p-2, -0x1.8b3e080000000p-2, -0x1.0a43900000000p-7, -0x1.19ece80000000p-4, 0x1.fcb7fe0000000p-4, -0x1.8920b00000000p-4, 0x1.d433ec0000000p-5, 0x1.4428b20000000p-3, 0x1.7de4320000000p-4, -0x1.96bf020000000p-7, -0x1.0186260000000p-2, -0x1.b8f1400000000p-4, -0x1.6e555c0000000p-6, 0x1.7483b60000000p-6, 0x1.2f84c40000000p-5, 0x1.173dc40000000p-7, -0x1.6b53e20000000p-4, 0x1.2131040000000p-6, -0x1.aaa4e80000000p-5, -0x1.45a7600000000p-4, 0x1.0e726e0000000p-3, -0x1.9529b20000000p-3, -0x1.ee71f00000000p-4, 0x1.b518da0000000p-6, 0x1.0bdbdc0000000p-4, 0x1.4ad38a0000000p-3, -0x1.d696d40000000p-4, 0x1.19db540000000p-4, 0x1.8f9d040000000p-3, -0x1.db1aec0000000p-7, -0x1.d523cc0000000p-4, -0x1.3bb5240000000p-5, -0x1.56ce740000000p-8, 0x1.b6bc7c0000000p-6, -0x1.c99e7e0000000p-3, 0x1.f188260000000p-5, -0x1.269cd00000000p-2, 0x1.5284a40000000p-6, -0x1.7d3b6a0000000p-6, -0x1.2732320000000p-5, -0x1.14c8d00000000p-8, 0x1.ef8dfe0000000p-3, -0x1.f057fe0000000p-5, -0x1.8bd7100000000p-4, 0x1.118ad00000000p-4, -0x1.56e1300000000p-10, 0x1.9632c60000000p-3, 0x1.ce74c60000000p-5, 0x1.baae240000000p-4, 0x1.1774400000000p-4, -0x1.e78a860000000p-5, 0x1.1844be0000000p-3, -0x1.950c6c0000000p-4, 0x1.9090560000000p-4, 0x1.7829a40000000p-4, 0x1.3ca8620000000p-4, 0x1.578c160000000p-3, 0x1.3d5c7e0000000p-3, 0x1.75856a0000000p-9, -0x1.6c8d600000000p-3, 0x1.388a840000000p-4, 0x1.231c580000000p-5, -0x1.4bcc580000000p-5, 0x1.5096100000000p-3, 0x1.3d943a0000000p-5, 0x1.c60ed40000000p-3, 0x1.2b5c580000000p-7, -0x1.5f8df40000000p-3, -0x1.686d3a0000000p-3, -0x1.9be9dc0000000p-5, 0x1.9abaec0000000p-5, 0x1.cb0a6e0000000p-4, 0x1.672d0e0000000p-4, -0x1.3e42580000000p-2, 0x1.306e760000000p-5, -0x1.e05ca60000000p-4, 0x1.add5b20000000p-6, -0x1.467d580000000p-3, -0x1.9297a80000000p-4, -0x1.1109f60000000p-4, -0x1.17e7d20000000p-4, 0x1.d8bb7e0000000p-4, 0x1.35b31a0000000p-4, 0x1.0e09120000000p-6, -0x1.1191c40000000p-4, -0x1.29976e0000000p-4, 0x1.8b44140000000p-5, -0x1.c9a0740000000p-5, -0x1.2df12c0000000p-4, 0x1.32b84c0000000p-3, 0x1.93a6860000000p-5, -0x1.272e1c0000000p-4, -0x1.29a3f00000000p-3, 0x1.6c27460000000p-4, -0x1.7d32f40000000p-4, 0x1.79f93a0000000p-3, 0x1.79478c0000000p-4, 0x1.b78c7e0000000p-4, 0x1.45dc1a0000000p-4, 0x1.8c724c0000000p-3, -0x1.261eba0000000p-3, -0x1.03f9cc0000000p-3, 0x1.726cba0000000p-3, 0x1.c4917e0000000p-4, -0x1.aaa9640000000p-4, -0x1.9591a40000000p-4, 0x1.e04eba0000000p-6, -0x1.1b5d840000000p-6, 0x1.ac13100000000p-4, 0x1.9ec6a80000000p-4, 0x1.7579320000000p-4, -0x1.d0ef0e0000000p-4, 0x1.3c307a0000000p-5, 0x1.b328040000000p-4, -0x1.b845bc0000000p-4, 0x1.da8d000000000p-4, 0x1.14d7a20000000p-3, 0x1.5333fa0000000p-5, 0x1.0661a80000000p-3, 0x1.4e4f940000000p-6, -0x1.2fc45a0000000p-8, 0x1.0743e40000000p-11, -0x1.203cea0000000p-2, 0x1.73c55e0000000p-4, -0x1.3a602a0000000p-4, 0x1.58652c0000000p-4, -0x1.4e85080000000p-4, 0x1.2afbae0000000p-4, 0x1.684c400000000p-4, -0x1.1afcb00000000p-4, 0x1.71e2300000000p-3, -0x1.38d7e00000000p-4, 0x1.0f6c700000000p-3, 0x1.72bec40000000p-3, -0x1.0957ba0000000p-4, 0x1.6aa96a0000000p-3, 0x1.0adab40000000p-5, -0x1.5d1c5c0000000p-4, 0x1.3fe66c0000000p-10, -0x1.203f7e0000000p-2, -0x1.3cd5c80000000p-4, 0x1.0df6900000000p-3, -0x1.130a4a0000000p-3, -0x1.e69bce0000000p-4, -0x1.55e6780000000p-5, -0x1.bf51dc0000000p-5, -0x1.7a80200000000p-8, 0x1.8e555e0000000p-3, -0x1.eb7c8c0000000p-4, -0x1.4f15600000000p-4, -0x1.4bd00e0000000p-3, -0x1.2d714e0000000p-3, 0x1.2f1df00000000p-4, 0x1.3bf2980000000p-4, 0x1.e98b0e0000000p-4, -0x1.2066280000000p-4, -0x1.9beaec0000000p-5, -0x1.842ffa0000000p-6, -0x1.f57abe0000000p-4, -0x1.8896240000000p-4, -0x1.2b544e0000000p-4, -0x1.4e55660000000p-3, -0x1.31b28e0000000p-8, -0x1.6e10b20000000p-3, -0x1.1f9af40000000p-4, -0x1.40014a0000000p-4, 0x1.25734e0000000p-4, -0x1.ae7a360000000p-3, 0x1.8bea920000000p-3, -0x1.6ba76e0000000p-7, -0x1.551ed60000000p-3, 0x1.aa103c0000000p-4, 0x1.6522200000000p-4, 0x1.84cc100000000p-5, -0x1.97cb160000000p-4, 0x1.1bc20c0000000p-8, 0x1.2c88f20000000p-5, 0x1.2b12760000000p-3, -0x1.8f60880000000p-5, 0x1.ed3b2e0000000p-5, -0x1.1cc9b00000000p-11, 0x1.45fc1e0000000p-5, 0x1.a396100000000p-3, -0x1.0612720000000p-3, 0x1.709c980000000p-4, -0x1.3446560000000p-4, 0x1.d2feb60000000p-9, -0x1.02dcc00000000p-3, -0x1.32a6ce0000000p-3, -0x1.20571c0000000p-4, -0x1.6113e20000000p-3, 0x1.28a8160000000p-5, 0x1.1595a40000000p-5, 0x1.4940580000000p-4, -0x1.94a8920000000p-4, -0x1.88c9360000000p-5, -0x1.8d90cc0000000p-7, -0x1.5025b00000000p-2, 0x1.00b4600000000p-5, -0x1.57e76a0000000p-7, -0x1.de8ab00000000p-3, -0x1.7484ea0000000p-2, 0x1.2c84560000000p-3, 0x1.7260d20000000p-6, -0x1.01cd4a0000000p-3, -0x1.1a3ea20000000p-2, -0x1.f1df860000000p-3, 0x1.18e5880000000p-4, 0x1.5f280a0000000p-3, -0x1.34f9220000000p-4, 0x1.0f09900000000p-4, 0x1.48b1d60000000p-5, 0x1.61fdd00000000p-5, 0x1.9b039a0000000p-6, -0x1.f43c6a0000000p-7, -0x1.7223800000000p-4, 0x1.59b8ee0000000p-4, -0x1.9facc00000000p-6, -0x1.6af6ca0000000p-5, -0x1.61767e0000000p-7, -0x1.62ace80000000p-3, -0x1.4f867e0000000p-4, 0x1.105bbc0000000p-4, -0x1.2dd1cc0000000p-4, -0x1.5403ee0000000p-3, 0x1.504e4e0000000p-8, -0x1.2a3ef00000000p-5, 0x1.2cc6da0000000p-3, -0x1.0f9cdc0000000p-3, -0x1.08c2be0000000p-7, 0x1.44b9d40000000p-5, 0x1.a12e7e0000000p-5, 0x1.56f0d60000000p-6, 0x1.efa5a00000000p-3, 0x1.6d87560000000p-3, -0x1.80c3660000000p-12, -0x1.b6b3f80000000p-6, 0x1.289c040000000p-4, 0x1.a0ee6e0000000p-8, 0x1.18e65a0000000p-5, -0x1.03435e0000000p-5, -0x1.52b56e0000000p-4, 0x1.0d4cac0000000p-3, -0x1.03f7400000000p-2, 0x1.0522a80000000p-4, -0x1.a5b30c0000000p-3, 0x1.0163fc0000000p-6, 0x1.a9949a0000000p-8, -0x1.0802480000000p-2, 0x1.4128240000000p-7, -0x1.eb03960000000p-4, 0x1.ff66200000000p-6, 0x1.06a2da0000000p-4, 0x1.df95780000000p-6, -0x1.9322a00000000p-5, 0x1.b0bd1e0000000p-4, 0x1.ecd91a0000000p-5, -0x1.8137aa0000000p-3, 0x1.42204a0000000p-6, -0x1.10c5ea0000000p-3, 0x1.56d9520000000p-7, -0x1.f97b320000000p-7, -0x1.4a4a040000000p-3, 0x1.b238ac0000000p-5, 0x1.7eba1e0000000p-3, 0x1.f1d0ec0000000p-5, -0x1.330f7c0000000p-6, -0x1.986eea0000000p-6, -0x1.f8cd6a0000000p-5, 0x1.d819ee0000000p-4, 0x1.3667ce0000000p-6, 0x1.28b4b80000000p-2, -0x1.37b6260000000p-4, 0x1.dccbc60000000p-8, 0x1.1150380000000p-3, 0x1.316b540000000p-4, 0x1.44eeac0000000p-2, 0x1.d61cd40000000p-8, -0x1.bd417e0000000p-4, 0x1.42f9400000000p-3, 0x1.2bc6b60000000p-3, 0x1.75ec320000000p-7, -0x1.cce99e0000000p-7, 0x1.33d30e0000000p-3, 0x1.0bd82a0000000p-3, 0x1.4906240000000p-6, 0x1.6fe4640000000p-3}
, {-0x1.e874a60000000p-3, -0x1.a10b660000000p-3, -0x1.b797d60000000p-7, -0x1.1e6f580000000p-4, 0x1.aa11000000000p-9, -0x1.75f3ac0000000p-3, 0x1.0a33120000000p-4, -0x1.c5f6960000000p-5, 0x1.c949420000000p-4, -0x1.9111180000000p-5, 0x1.1d8aea0000000p-5, -0x1.1e9d780000000p-3, 0x1.314da40000000p-3, -0x1.60549a0000000p-4, -0x1.88533a0000000p-6, 0x1.c065640000000p-5, 0x1.2944ae0000000p-7, -0x1.834c280000000p-4, -0x1.748f9a0000000p-4, 0x1.fd897a0000000p-4, 0x1.7c9e100000000p-4, -0x1.19c9280000000p-4, -0x1.5a32a00000000p-4, 0x1.61e85e0000000p-3, -0x1.178eb00000000p-4, -0x1.f1d2060000000p-3, -0x1.76f85a0000000p-4, -0x1.16d2de0000000p-10, -0x1.19e2da0000000p-5, -0x1.0233fe0000000p-6, -0x1.c089780000000p-4, -0x1.a78c7e0000000p-4, -0x1.af6cac0000000p-3, -0x1.626c1e0000000p-5, -0x1.c638ba0000000p-7, -0x1.2c5ab00000000p-4, 0x1.15aa3a0000000p-5, 0x1.ac4b3e0000000p-3, -0x1.7a800e0000000p-3, -0x1.7085040000000p-5, 0x1.0381ae0000000p-2, -0x1.bcacd20000000p-6, -0x1.4afc100000000p-4, -0x1.7e72da0000000p-2, 0x1.139e9c0000000p-5, -0x1.93643a0000000p-3, -0x1.71b10a0000000p-4, 0x1.b0238c0000000p-7, 0x1.d1f5280000000p-3, 0x1.c29dec0000000p-6, -0x1.05a76a0000000p-3, 0x1.aecbf00000000p-4, -0x1.5aa6b60000000p-3, -0x1.9adaa60000000p-3, 0x1.c097800000000p-8, -0x1.2f23040000000p-4, 0x1.cdda5c0000000p-4, -0x1.d5a0a60000000p-5, -0x1.41d85c0000000p-3, -0x1.4dfe700000000p-3, 0x1.75dc940000000p-5, 0x1.309ad60000000p-5, -0x1.4d4e5a0000000p-4, -0x1.5e57460000000p-5, 0x1.3aa37e0000000p-4, -0x1.7a86980000000p-4, 0x1.43d2260000000p-4, 0x1.7770460000000p-8, -0x1.0314680000000p-9, -0x1.b6faea0000000p-6, 0x1.0fd9e60000000p-3, -0x1.4a69740000000p-4, -0x1.b222f40000000p-3, 0x1.11f60c0000000p-7, 0x1.a379ec0000000p-4, -0x1.2ed46c0000000p-3, -0x1.05f0ec0000000p-6, 0x1.25924c0000000p-7, -0x1.18a18c0000000p-3, 0x1.36a3d00000000p-6, 0x1.e8b52e0000000p-4, 0x1.7af6920000000p-5, 0x1.b323f20000000p-4, -0x1.04439a0000000p-6, 0x1.34721c0000000p-10, 0x1.28f05a0000000p-5, 0x1.20b6c80000000p-3, 0x1.4b9dce0000000p-7, -0x1.ea87ca0000000p-5, 0x1.0157da0000000p-4, 0x1.7f9d880000000p-4, 0x1.fe0d840000000p-4, -0x1.02e5080000000p-2, 0x1.37b0a20000000p-6, -0x1.f87a5a0000000p-4, 0x1.22890a0000000p-7, 0x1.70e0c00000000p-5, -0x1.e719980000000p-6, -0x1.d761160000000p-5, 0x1.f619260000000p-5, -0x1.92c6520000000p-4, -0x1.0433840000000p-3, -0x1.5bba040000000p-5, 0x1.3a6d800000000p-8, 0x1.a45bd00000000p-4, 0x1.fcf84a0000000p-6, -0x1.92f5260000000p-4, 0x1.6f0ca80000000p-5, -0x1.4a67800000000p-3, 0x1.097d000000000p-3, 0x1.b0f9160000000p-6, -0x1.5871500000000p-3, -0x1.5f406c0000000p-3, 0x1.8746ae0000000p-4, 0x1.2239660000000p-6, -0x1.d3c5d00000000p-4, -0x1.2445380000000p-3, 0x1.73e5d40000000p-8, -0x1.0a77420000000p-3, -0x1.b8023e0000000p-4, -0x1.5666480000000p-4, 0x1.17be760000000p-2, 0x1.0652c80000000p-3, -0x1.3c8f0c0000000p-4, -0x1.2828540000000p-3, 0x1.a2093a0000000p-3, -0x1.0c84dc0000000p-2, -0x1.2f72a60000000p-4, 0x1.109b800000000p-6, 0x1.51f1a20000000p-7, -0x1.d1dc740000000p-9, 0x1.aad8ee0000000p-4, 0x1.0424bc0000000p-3, -0x1.e060260000000p-6, 0x1.7853960000000p-4, -0x1.7cb8de0000000p-3, 0x1.91b4e60000000p-3, 0x1.6a6a4c0000000p-6, -0x1.44bf8c0000000p-3, 0x1.d803700000000p-6, -0x1.326da20000000p-3, 0x1.e90c5c0000000p-3, 0x1.32ddb80000000p-3, 0x1.91f4960000000p-4, -0x1.7bbb060000000p-4, 0x1.834d7c0000000p-4, -0x1.7a6f2e0000000p-4, 0x1.693f120000000p-8, -0x1.bf4bb80000000p-4, -0x1.94fed40000000p-3, -0x1.102f460000000p-3, -0x1.517f320000000p-4, 0x1.04f8de0000000p-4, -0x1.87f90e0000000p-6, 0x1.6bf4740000000p-5, -0x1.4cb67e0000000p-3, -0x1.ec78dc0000000p-5, 0x1.ad68dc0000000p-6, -0x1.0f11020000000p-4, 0x1.d6e3040000000p-4, -0x1.091c820000000p-3, 0x1.43b8580000000p-5, -0x1.5229bc0000000p-2, -0x1.e766480000000p-5, 0x1.8be0040000000p-5, 0x1.6709720000000p-5, -0x1.4905840000000p-5, -0x1.63195a0000000p-5, 0x1.122c120000000p-5, 0x1.19bad40000000p-4, -0x1.02e0a80000000p-8, -0x1.39833e0000000p-3, 0x1.e88b1e0000000p-5, -0x1.9700660000000p-5, -0x1.2c3b5c0000000p-3, 0x1.16aad40000000p-4, -0x1.ccf5f00000000p-5, -0x1.0250fa0000000p-4, -0x1.5a42a60000000p-3, -0x1.80d5260000000p-4, 0x1.d9c2c20000000p-5, 0x1.327e900000000p-5, -0x1.18ec440000000p-4, -0x1.da8e240000000p-7, 0x1.574a420000000p-3, -0x1.97a6780000000p-4, -0x1.67d1ec0000000p-3, -0x1.a8368c0000000p-5, 0x1.73d6b60000000p-4, 0x1.2af0900000000p-8, -0x1.31883e0000000p-6, -0x1.fef4d00000000p-4, -0x1.0aa3440000000p-4, 0x1.da01200000000p-4, -0x1.4f92c40000000p-4, 0x1.b2c9640000000p-3, -0x1.ee7c9c0000000p-6, -0x1.b869fc0000000p-6, -0x1.5f7c440000000p-4, -0x1.6d1a760000000p-4, -0x1.0bd8da0000000p-2, 0x1.c7ccde0000000p-4, -0x1.8813d40000000p-4, -0x1.b6b8360000000p-5, 0x1.a8e9c80000000p-4, 0x1.2f84ae0000000p-3, -0x1.a300fe0000000p-4, -0x1.4216e80000000p-3, 0x1.e442000000000p-4, 0x1.17220e0000000p-4, 0x1.1d1da80000000p-5, 0x1.449c940000000p-9, 0x1.080c720000000p-6, -0x1.396a4e0000000p-3, 0x1.6651c40000000p-6, -0x1.3cd38e0000000p-2, -0x1.637c6a0000000p-3, -0x1.a09d9a0000000p-5, -0x1.ecf2ec0000000p-6, -0x1.1d90ec0000000p-4, -0x1.a76dee0000000p-4, 0x1.44a9380000000p-4, -0x1.f020800000000p-3, 0x1.0e50440000000p-3, -0x1.41afaa0000000p-6, 0x1.51ba740000000p-3, -0x1.12a1ec0000000p-5, -0x1.2199380000000p-3, -0x1.0a3eb60000000p-3, -0x1.99531e0000000p-4, -0x1.b80dc20000000p-3, -0x1.e22c600000000p-4, -0x1.c5304c0000000p-5, 0x1.896e420000000p-4, -0x1.59db000000000p-3, 0x1.18d08e0000000p-5, -0x1.1d310e0000000p-4, 0x1.9838680000000p-3, -0x1.2c97420000000p-4, 0x1.20d8260000000p-4, -0x1.8f43280000000p-4, 0x1.037eb80000000p-5, 0x1.e67ccc0000000p-4, -0x1.ddf6740000000p-4, -0x1.1ef6260000000p-4, -0x1.81c4e80000000p-3, 0x1.33805c0000000p-4, 0x1.902c240000000p-7, -0x1.6092260000000p-3, -0x1.eaae460000000p-5, -0x1.32d4cc0000000p-5, 0x1.a841060000000p-8, -0x1.67afb80000000p-3, 0x1.ed4dca0000000p-4, -0x1.1a6af40000000p-7, -0x1.ec5f2c0000000p-4, 0x1.4155500000000p-4, 0x1.602ea60000000p-4, 0x1.c0e0800000000p-6, -0x1.9c7a560000000p-5, 0x1.6d096c0000000p-4, -0x1.394f740000000p-3, -0x1.5b42840000000p-4, 0x1.164c560000000p-4, -0x1.300ace0000000p-4, -0x1.05a8960000000p-4, 0x1.a81f6e0000000p-5, 0x1.1a72560000000p-3, -0x1.8139f00000000p-3, -0x1.4ef9c40000000p-4, -0x1.2ecc380000000p-4, 0x1.b048020000000p-3, -0x1.05632e0000000p-4, 0x1.ffc2500000000p-6, 0x1.0deea20000000p-3, 0x1.ab6c900000000p-5, -0x1.a12f3a0000000p-3, 0x1.b2c6ce0000000p-4, -0x1.a9d4760000000p-6, -0x1.ae03b00000000p-5, -0x1.c3a77a0000000p-5, -0x1.c458b20000000p-5, -0x1.759dec0000000p-5, -0x1.bd6c780000000p-4, -0x1.4c6c440000000p-3, 0x1.8e3d180000000p-5, 0x1.d13cc00000000p-6, -0x1.1d9df80000000p-3, -0x1.c6d7b00000000p-4, 0x1.5160800000000p-5, 0x1.5b70660000000p-5, -0x1.ab1cf60000000p-6, -0x1.dd4dde0000000p-4, 0x1.33ce3c0000000p-6, 0x1.05ad340000000p-6, 0x1.679bda0000000p-4, -0x1.543e0a0000000p-5, 0x1.51c5f20000000p-5, -0x1.2657b80000000p-2, 0x1.2580de0000000p-3, 0x1.2d19300000000p-4, 0x1.d1d6f60000000p-7, 0x1.02371e0000000p-4, -0x1.6f62040000000p-3, -0x1.da92ce0000000p-3, -0x1.3e87520000000p-4, 0x1.7fea6e0000000p-7, -0x1.408c140000000p-3, 0x1.05c8f60000000p-10, -0x1.75c3de0000000p-4, 0x1.6a23780000000p-4, 0x1.21b63a0000000p-6, 0x1.fc684a0000000p-5, 0x1.0d14e20000000p-3, 0x1.8b05da0000000p-6, 0x1.6fc4aa0000000p-4, 0x1.0442620000000p-3, 0x1.399fd60000000p-4, 0x1.3c68b60000000p-4, 0x1.2484380000000p-5, 0x1.c8e0580000000p-5, -0x1.e7f0800000000p-5, -0x1.4b9b2e0000000p-5, 0x1.2dc7d60000000p-4, 0x1.d058ee0000000p-4, 0x1.3287260000000p-6, -0x1.b788d00000000p-4, 0x1.0977fa0000000p-4, 0x1.9238260000000p-3, -0x1.f3be3e0000000p-4, -0x1.56a4d60000000p-12, 0x1.3a484e0000000p-5, -0x1.34b39a0000000p-4, 0x1.051afa0000000p-3, 0x1.80b1b80000000p-4, 0x1.3dacec0000000p-4, 0x1.20c5dc0000000p-4, 0x1.4c6a460000000p-7, -0x1.3dc0d00000000p-4, 0x1.3923400000000p-5, 0x1.2517f60000000p-4, 0x1.1609780000000p-6, -0x1.106a580000000p-5, -0x1.ceb6c40000000p-6, -0x1.02eb680000000p-3, 0x1.58c2320000000p-4, -0x1.d7eb280000000p-4, 0x1.60b6fc0000000p-7, -0x1.a7b8220000000p-11, 0x1.a026820000000p-7, 0x1.33e5060000000p-6, -0x1.be3b5a0000000p-5, -0x1.941d600000000p-7, -0x1.75b6c80000000p-5, -0x1.3029100000000p-4, 0x1.f892be0000000p-4, -0x1.e11f5c0000000p-5, 0x1.06d1620000000p-3, 0x1.e8d5f40000000p-5, 0x1.967c060000000p-8, -0x1.4bbbcc0000000p-4, -0x1.935c440000000p-3, -0x1.9a65aa0000000p-11, -0x1.9008e80000000p-4, -0x1.2d887c0000000p-3, -0x1.e350c20000000p-5, 0x1.e2dfae0000000p-4, -0x1.0b80c60000000p-3, 0x1.4008e80000000p-4, 0x1.b8651c0000000p-4, 0x1.addcd00000000p-4, 0x1.e300e20000000p-7, -0x1.ccb5fa0000000p-4, -0x1.fd59a60000000p-4, -0x1.55c9ec0000000p-5, 0x1.07442e0000000p-5, 0x1.f326500000000p-4, -0x1.f5d0860000000p-6, 0x1.58e9100000000p-5, 0x1.4038880000000p-4, 0x1.4e67340000000p-5, 0x1.8706180000000p-6, 0x1.545cfc0000000p-4, -0x1.cd9cf60000000p-4, 0x1.5663d40000000p-4, 0x1.a670b60000000p-8, -0x1.63159a0000000p-3, 0x1.1dc3a80000000p-3, -0x1.b2c0e80000000p-3, 0x1.89364a0000000p-5, -0x1.7dca280000000p-3, 0x1.01b9d20000000p-2, -0x1.da48820000000p-5, 0x1.57174e0000000p-3, -0x1.63217a0000000p-5, -0x1.97a0060000000p-4, 0x1.b02dec0000000p-5, -0x1.7884320000000p-6, -0x1.b3ca440000000p-3, -0x1.7072300000000p-3, 0x1.f5c0ba0000000p-4, -0x1.0a00ae0000000p-3, -0x1.cd02680000000p-3, 0x1.0cbeaa0000000p-5, 0x1.6bcd360000000p-4, -0x1.92f4920000000p-4, 0x1.01093e0000000p-6, 0x1.2bfa820000000p-10, -0x1.5cc5fa0000000p-9, -0x1.76004a0000000p-5, -0x1.6eb02a0000000p-4, 0x1.56f0680000000p-4, -0x1.d94c120000000p-4, -0x1.904d520000000p-5, 0x1.2d86040000000p-4, -0x1.ca9edc0000000p-9, 0x1.4360120000000p-4, 0x1.e621c00000000p-5, 0x1.fcb73e0000000p-6, 0x1.48c9400000000p-4, -0x1.630ea80000000p-8, -0x1.06c08c0000000p-2, 0x1.95bfb80000000p-4, -0x1.a186560000000p-5, 0x1.c7ee6c0000000p-6, 0x1.f925f40000000p-7, 0x1.fc2f700000000p-6, 0x1.4baffc0000000p-4, 0x1.d6a1c00000000p-5, 0x1.746cbe0000000p-5, 0x1.a29c000000000p-4, -0x1.7405720000000p-4, -0x1.16967e0000000p-2, 0x1.0458aa0000000p-5, -0x1.e4ba780000000p-4, -0x1.27e72e0000000p-3, -0x1.66e1a00000000p-6, -0x1.303da20000000p-4, 0x1.b9de080000000p-7, 0x1.00b1a40000000p-5, 0x1.ed0eb80000000p-5, -0x1.ab3be40000000p-8, -0x1.42ffbc0000000p-5, 0x1.dccc980000000p-3, 0x1.cca3fc0000000p-8, -0x1.dc0c3a0000000p-3, 0x1.791a3c0000000p-4, 0x1.22cdf40000000p-3, 0x1.f07b5e0000000p-6, -0x1.44c5a00000000p-3, 0x1.4ed3ae0000000p-11, -0x1.c2d2c00000000p-4, 0x1.f5b4dc0000000p-4, 0x1.81b0ce0000000p-3, -0x1.cfd0700000000p-6, -0x1.33fe360000000p-6, -0x1.9f932c0000000p-8, -0x1.858e440000000p-3, 0x1.108dac0000000p-5, 0x1.9f5d000000000p-3, -0x1.ca0db80000000p-5, 0x1.7536e80000000p-5, -0x1.1815360000000p-5, -0x1.f0ee0a0000000p-6, 0x1.04db4e0000000p-6, -0x1.ee3fe80000000p-5, -0x1.7801600000000p-4, 0x1.e0725a0000000p-6, -0x1.2921720000000p-6, -0x1.943e380000000p-5, -0x1.400a960000000p-4, -0x1.e03d0c0000000p-5, -0x1.0dc0840000000p-9, -0x1.f507b00000000p-3, 0x1.bfca0a0000000p-4, 0x1.40db980000000p-4, 0x1.ac387e0000000p-3, -0x1.2ae2780000000p-6, -0x1.07cac00000000p-6, -0x1.cbb1620000000p-3, 0x1.68976e0000000p-5, -0x1.56fd400000000p-2, -0x1.9cd2fa0000000p-8, -0x1.6a01360000000p-8, -0x1.0d6d340000000p-11, 0x1.6fd7600000000p-3, 0x1.9ca7400000000p-4, -0x1.96b1ce0000000p-4, 0x1.831bda0000000p-4, -0x1.5c2f9c0000000p-5, 0x1.1a07a00000000p-5, -0x1.c874e00000000p-5, -0x1.fbee360000000p-7, -0x1.68262a0000000p-4, 0x1.90de360000000p-5, 0x1.d1606e0000000p-6, -0x1.e972760000000p-4, -0x1.70e4580000000p-3, -0x1.1d0a180000000p-5, 0x1.4d43480000000p-4, 0x1.46216a0000000p-4, 0x1.190ca00000000p-3, 0x1.0d47ca0000000p-3, 0x1.6a54580000000p-4, -0x1.99cb1c0000000p-6, -0x1.6880760000000p-4, 0x1.ed59220000000p-7, 0x1.30f9480000000p-9, 0x1.c0ad780000000p-6, -0x1.8f30380000000p-5, 0x1.4682f40000000p-4, -0x1.f527920000000p-14}
