/**
  ******************************************************************************
  * @file    weights/fc.cc
  * @author  Pierre-Emmanuel Novac <penovac@unice.fr>, LEAT, CNRS, Université Côte d'Azur, France
  * @version 1.0.0
  * @date    24 march 2020
  * @brief   Template generating plain C code for the implementation of Convolutional Neural Networks on MCU
  */

#include <stdint.h>

#define INPUT_SAMPLES 32
#define FC_UNITS 128


const float dense_26_bias[FC_UNITS] = {0x1.d2f20c0000000p-4, 0x1.9a9f380000000p-4, 0x1.90004e0000000p-4, 0x1.0d78740000000p-5, -0x1.9fe8800000000p-5, -0x1.db4e900000000p-8, 0x1.2ee0400000000p-3, 0x1.c8102e0000000p-4, -0x1.14f0b40000000p-4, -0x1.3227300000000p-6, 0x1.bd36d60000000p-7, 0x1.f00ad60000000p-4, -0x1.84d1c80000000p-7, 0x1.146b560000000p-2, 0x1.4348280000000p-5, 0x1.03fde40000000p-3, 0x1.864de80000000p-5, 0x1.2174060000000p-3, 0x1.7d1ad40000000p-6, -0x1.eb76ec0000000p-7, 0x1.f847420000000p-4, 0x1.1a27b60000000p-3, -0x1.4eac240000000p-4, -0x1.cdbfd40000000p-5, -0x1.f96b8e0000000p-4, 0x1.deb15e0000000p-4, 0x1.1b91680000000p-3, 0x1.f2c4d60000000p-4, 0x1.cb01820000000p-8, 0x1.a10e300000000p-4, 0x1.18cc980000000p-5, -0x1.b0b47c0000000p-7, -0x1.f0ccf20000000p-4, 0x1.122b680000000p-6, 0x1.1cac520000000p-4, 0x1.66a0b20000000p-4, 0x1.0698a00000000p-6, 0x1.6ab2620000000p-3, 0x1.12a57e0000000p-4, 0x1.00d2580000000p-5, 0x1.fdf6e40000000p-5, 0x1.ec52660000000p-3, 0x1.30f15c0000000p-5, -0x1.689c6e0000000p-4, 0x1.ca8f200000000p-4, 0x1.ac770a0000000p-3, 0x1.47787c0000000p-7, 0x1.41604c0000000p-5, 0x1.03883a0000000p-5, 0x1.8df00c0000000p-2, 0x1.95a2040000000p-4, 0x1.2eb53e0000000p-4, -0x1.0f573e0000000p-3, -0x1.762b080000000p-4, 0x1.e09d580000000p-4, -0x1.308d6c0000000p-6, 0x1.f1f2880000000p-4, 0x1.4236440000000p-6, 0x1.7cd6ae0000000p-5, 0x1.ef3b8c0000000p-5, -0x1.90aca60000000p-6, 0x1.12e8d40000000p-5, -0x1.4b65cc0000000p-4, 0x1.73e7900000000p-5, 0x1.6eeb0c0000000p-4, -0x1.610f600000000p-5, 0x1.6f8ba80000000p-5, 0x1.dfd48e0000000p-4, -0x1.b6baca0000000p-7, 0x1.f0921c0000000p-5, 0x1.10377e0000000p-3, 0x1.9142600000000p-3, -0x1.ddb10a0000000p-4, 0x1.4334ea0000000p-4, 0x1.f4a92e0000000p-4, 0x1.003d3c0000000p-7, 0x1.3fb8d60000000p-3, 0x1.17a78c0000000p-2, -0x1.de865a0000000p-4, 0x1.b42bfe0000000p-5, 0x1.135a2e0000000p-2, 0x1.6286120000000p-2, 0x1.0073a40000000p-4, -0x1.10f6ec0000000p-6, 0x1.312a120000000p-6, -0x1.a1f0a20000000p-9, 0x1.6651340000000p-3, 0x1.0b4bbc0000000p-2, 0x1.be7f340000000p-6, 0x1.367d900000000p-2, 0x1.39a8c60000000p-4, 0x1.7350640000000p-3, 0x1.aee1040000000p-4, 0x1.8120d60000000p-3, 0x1.5bfa8a0000000p-4, 0x1.4f6d820000000p-3, 0x1.9f6e140000000p-5, -0x1.506c360000000p-4, 0x1.5033080000000p-2, 0x1.906fc40000000p-3, -0x1.a2ac6c0000000p-6, 0x1.87e8fe0000000p-3, -0x1.ecdfb40000000p-5, 0x1.1fbc220000000p-3, 0x1.c00db00000000p-3, 0x1.14a4f20000000p-3, 0x1.ad2c100000000p-4, 0x1.57ea4c0000000p-2, -0x1.95619a0000000p-5, 0x1.37d56e0000000p-3, 0x1.3d638a0000000p-4, 0x1.e23d000000000p-6, -0x1.8f36e00000000p-5, 0x1.23ade00000000p-6, -0x1.e6f5a60000000p-4, 0x1.14c4960000000p-3, 0x1.1718da0000000p-2, 0x1.1c03780000000p-5, 0x1.f9543e0000000p-5, 0x1.5569240000000p-2, 0x1.bcad9e0000000p-3, 0x1.96bc080000000p-3, 0x1.9705020000000p-4, 0x1.538b200000000p-3, -0x1.3381d00000000p-4, -0x1.15ec5a0000000p-4, 0x1.38fe6c0000000p-2, -0x1.3661b00000000p-4}
;

const float dense_26_kernel[FC_UNITS][INPUT_SAMPLES] = {{0x1.5024ee0000000p-3, 0x1.2729700000000p-3, -0x1.0a2d420000000p-4, -0x1.89e0620000000p-10, 0x1.26d5940000000p-3, -0x1.f2bbc20000000p-2, 0x1.d915d00000000p-4, -0x1.1b10ce0000000p-3, 0x1.1f709a0000000p-2, -0x1.1e83c00000000p-3, -0x1.ca64e00000000p-6, 0x1.0e711c0000000p-5, -0x1.0a583c0000000p-2, -0x1.d110de0000000p-3, -0x1.0efb460000000p-3, 0x1.cb473e0000000p-3, -0x1.245d8a0000000p-3, 0x1.5a2fd40000000p-4, 0x1.d5598e0000000p-7, 0x1.1493600000000p-2, 0x1.ed07300000000p-6, -0x1.bb63060000000p-3, -0x1.27e41e0000000p-4, 0x1.1658380000000p-2, -0x1.3aaff00000000p-2, 0x1.616d9e0000000p-4, -0x1.3e77c80000000p-2, -0x1.5141a40000000p-3, 0x1.0baf060000000p-2, -0x1.0186860000000p-3, -0x1.415d6a0000000p-4, -0x1.60933c0000000p-3}
, {-0x1.b128aa0000000p-4, 0x1.db30de0000000p-5, 0x1.6960d60000000p-5, -0x1.dfbed80000000p-5, -0x1.c7455e0000000p-2, 0x1.99c0100000000p-4, 0x1.77d92c0000000p-4, 0x1.4d24380000000p-3, -0x1.03f8220000000p-2, -0x1.8d057e0000000p-3, 0x1.544cb40000000p-3, 0x1.b8ef9c0000000p-3, -0x1.d7d1ba0000000p-4, 0x1.52dffe0000000p-6, 0x1.4d74ea0000000p-2, 0x1.abade80000000p-6, 0x1.a22bfc0000000p-8, -0x1.16de940000000p-7, -0x1.0c43820000000p-4, -0x1.594f0e0000000p-8, 0x1.bca34e0000000p-3, 0x1.3ed2ac0000000p-4, -0x1.91e79c0000000p-2, -0x1.732d280000000p-5, 0x1.8955660000000p-3, -0x1.5b84480000000p-9, 0x1.85ad000000000p-9, 0x1.0812500000000p-2, -0x1.355a5c0000000p-4, 0x1.5671d20000000p-3, 0x1.ad355c0000000p-4, -0x1.7e17080000000p-2}
, {-0x1.3026ee0000000p-3, -0x1.9070a40000000p-4, 0x1.a425600000000p-3, -0x1.4afafe0000000p-2, -0x1.2d0bb40000000p-3, 0x1.9788f60000000p-3, -0x1.dfbb420000000p-5, -0x1.8564ac0000000p-3, -0x1.f246220000000p-4, -0x1.42afc20000000p-3, -0x1.9518f80000000p-5, 0x1.294c100000000p-4, -0x1.29115c0000000p-2, -0x1.cd1f780000000p-4, 0x1.6528e20000000p-3, -0x1.5a5cd20000000p-5, 0x1.08d1600000000p-3, -0x1.7f38820000000p-4, -0x1.a387240000000p-3, -0x1.646bac0000000p-6, -0x1.9498380000000p-4, -0x1.1c12c00000000p-5, -0x1.b0c51a0000000p-3, -0x1.a3331e0000000p-4, 0x1.01ccd80000000p-4, 0x1.0238900000000p-3, 0x1.f133c40000000p-3, 0x1.5f60fe0000000p-3, 0x1.084d9e0000000p-4, 0x1.6ac0b80000000p-4, -0x1.914fce0000000p-3, -0x1.1877360000000p-3}
, {0x1.a9cd180000000p-5, -0x1.6ed3da0000000p-4, 0x1.b1e1dc0000000p-4, -0x1.be623c0000000p-2, 0x1.0da5d80000000p-2, 0x1.2c575e0000000p-3, -0x1.3800580000000p-5, 0x1.6a97400000000p-7, 0x1.b722b40000000p-3, -0x1.17ba100000000p-2, -0x1.888a9c0000000p-2, -0x1.dc39640000000p-4, -0x1.1de0fc0000000p-6, -0x1.ba035e0000000p-6, -0x1.9a69a20000000p-2, -0x1.c3ffe40000000p-5, -0x1.8b086e0000000p-4, 0x1.43bdf20000000p-4, 0x1.0b8fbc0000000p-7, 0x1.b65b640000000p-6, -0x1.d7318e0000000p-7, -0x1.688dd40000000p-4, 0x1.3346840000000p-3, 0x1.36eaa40000000p-3, -0x1.f332c00000000p-3, 0x1.5a5f0e0000000p-3, 0x1.0919e80000000p-2, 0x1.c3b60a0000000p-4, 0x1.27dd3a0000000p-2, -0x1.cc580e0000000p-4, -0x1.e8cfde0000000p-4, -0x1.16c8a00000000p-6}
, {-0x1.6a71180000000p-7, -0x1.9858fc0000000p-4, 0x1.027da00000000p-2, -0x1.cbf3b40000000p-3, 0x1.27e1de0000000p-2, -0x1.f775140000000p-9, 0x1.1cdf460000000p-3, 0x1.74cb520000000p-9, 0x1.d8f5ce0000000p-5, 0x1.e65dd00000000p-3, -0x1.2d4e520000000p-5, -0x1.a881b20000000p-5, 0x1.7afa460000000p-6, 0x1.cabd060000000p-3, 0x1.48fa320000000p-5, 0x1.6695fe0000000p-5, -0x1.301b6e0000000p-10, 0x1.79d8340000000p-4, 0x1.22e7fc0000000p-4, 0x1.9f6c220000000p-3, -0x1.3ddc4c0000000p-3, 0x1.5721280000000p-2, -0x1.7c64020000000p-7, -0x1.69ea260000000p-3, -0x1.390b2a0000000p-4, -0x1.d65b380000000p-4, 0x1.6a27f60000000p-4, 0x1.35929c0000000p-14, 0x1.a8bc6e0000000p-3, -0x1.2d1bee0000000p-3, -0x1.a28b720000000p-7, 0x1.c064260000000p-5}
, {-0x1.78109e0000000p-3, -0x1.8656560000000p-3, 0x1.e06b700000000p-5, -0x1.35e8e60000000p-3, -0x1.6f80b20000000p-3, 0x1.94e8100000000p-2, 0x1.65750a0000000p-5, -0x1.42ab180000000p-3, -0x1.0d44b40000000p-2, -0x1.37b2840000000p-4, 0x1.5564840000000p-3, 0x1.216b400000000p-6, 0x1.247af40000000p-2, 0x1.6cba5a0000000p-2, 0x1.2efdbc0000000p-2, -0x1.6f01fc0000000p-6, -0x1.cfa09c0000000p-4, 0x1.09972c0000000p-3, -0x1.1340ca0000000p-4, 0x1.2f2b180000000p-6, 0x1.e18d720000000p-10, 0x1.e363340000000p-4, -0x1.2eda260000000p-4, -0x1.38a4ce0000000p-3, 0x1.7657f80000000p-2, -0x1.0d04e00000000p-4, 0x1.18caf00000000p-4, 0x1.3610f20000000p-3, -0x1.8c58460000000p-5, -0x1.73402c0000000p-8, 0x1.58b2fa0000000p-6, -0x1.2e542a0000000p-10}
, {0x1.1c4a120000000p-3, 0x1.4d9eb60000000p-6, -0x1.1493020000000p-2, 0x1.93b5ae0000000p-3, -0x1.20891a0000000p-2, -0x1.7aadb20000000p-2, 0x1.26c5600000000p-5, 0x1.440b720000000p-3, -0x1.13f66a0000000p-4, -0x1.7c661e0000000p-3, 0x1.56e71e0000000p-5, -0x1.2130500000000p-6, -0x1.8b3dcc0000000p-4, -0x1.236a840000000p-4, -0x1.4acaa80000000p-3, 0x1.647a6c0000000p-4, 0x1.4d95bc0000000p-6, 0x1.6aac960000000p-4, -0x1.7eee0e0000000p-3, -0x1.9749100000000p-3, 0x1.e314500000000p-4, -0x1.e747540000000p-3, -0x1.d5fe4c0000000p-2, 0x1.7de7600000000p-4, -0x1.71f6a80000000p-3, 0x1.6805700000000p-3, -0x1.db13900000000p-3, -0x1.4a01780000000p-6, -0x1.6318dc0000000p-2, 0x1.41aa540000000p-5, -0x1.6f29160000000p-2, -0x1.aa68500000000p-2}
, {0x1.74cbc20000000p-5, -0x1.e7bf280000000p-4, -0x1.210c6c0000000p-2, 0x1.d9ba520000000p-3, 0x1.fed6b00000000p-4, -0x1.a7924a0000000p-3, -0x1.b3ea5c0000000p-4, 0x1.96b2b60000000p-5, -0x1.7397f00000000p-3, -0x1.c549100000000p-3, -0x1.84cd8a0000000p-4, -0x1.bbb0e20000000p-6, -0x1.7a6cde0000000p-8, -0x1.13b5660000000p-2, -0x1.12c65a0000000p-2, 0x1.6a30240000000p-3, 0x1.52ed340000000p-5, -0x1.2945a00000000p-3, -0x1.66f8240000000p-6, 0x1.d6331c0000000p-5, 0x1.fa4b360000000p-3, -0x1.f253820000000p-4, -0x1.1097d00000000p-5, 0x1.8354fc0000000p-3, -0x1.5495240000000p-4, 0x1.9c0b2a0000000p-5, -0x1.b1a4c80000000p-5, -0x1.0405280000000p-5, -0x1.7994240000000p-3, -0x1.76b88c0000000p-7, -0x1.6cbefc0000000p-6, 0x1.34196a0000000p-2}
, {-0x1.45de880000000p-5, -0x1.3d747c0000000p-4, 0x1.f78fcc0000000p-4, -0x1.bec2b60000000p-6, -0x1.36240e0000000p-3, -0x1.1ae09c0000000p-3, 0x1.0959260000000p-3, 0x1.4f15fc0000000p-4, -0x1.3eadb80000000p-3, 0x1.176efc0000000p-2, 0x1.448c180000000p-3, -0x1.7722460000000p-4, -0x1.da9d680000000p-5, 0x1.c1871e0000000p-6, 0x1.da9f080000000p-2, 0x1.6953500000000p-8, 0x1.830f7e0000000p-5, 0x1.9f767e0000000p-3, -0x1.b874ea0000000p-4, 0x1.785d440000000p-4, -0x1.5e6e700000000p-3, 0x1.71279c0000000p-5, -0x1.cd6d260000000p-5, -0x1.cd4cf80000000p-5, 0x1.f0ab0e0000000p-5, 0x1.2844280000000p-4, -0x1.5bdd8e0000000p-6, 0x1.effda20000000p-6, -0x1.a56b820000000p-4, -0x1.c2a4400000000p-3, -0x1.35f9940000000p-2, -0x1.4554b00000000p-6}
, {0x1.c426f60000000p-5, -0x1.d148980000000p-4, 0x1.c71a980000000p-5, -0x1.017aba0000000p-5, 0x1.7ebe480000000p-6, 0x1.7dc8320000000p-2, 0x1.2e34740000000p-5, 0x1.eef84c0000000p-4, -0x1.91ec1e0000000p-5, 0x1.3df0220000000p-3, -0x1.aa6d1c0000000p-4, -0x1.001f840000000p-2, 0x1.5ab83e0000000p-5, 0x1.d8caee0000000p-3, 0x1.db0ee60000000p-3, -0x1.a257020000000p-9, -0x1.2e88420000000p-3, 0x1.59806a0000000p-4, 0x1.2930c60000000p-3, -0x1.505e740000000p-5, -0x1.6e0d060000000p-6, 0x1.df526a0000000p-4, -0x1.a6e7aa0000000p-4, -0x1.414a3c0000000p-5, -0x1.a7d6340000000p-8, -0x1.1eda0c0000000p-4, 0x1.280a2a0000000p-2, -0x1.0bec920000000p-3, 0x1.89eb1e0000000p-4, -0x1.4d64460000000p-3, -0x1.dc55d80000000p-4, 0x1.3828c20000000p-4}
, {-0x1.0772520000000p-5, -0x1.97fc5e0000000p-5, -0x1.b67e760000000p-8, 0x1.9695020000000p-3, -0x1.84b9f60000000p-5, -0x1.1fb8b00000000p-4, -0x1.73d5f20000000p-5, 0x1.52411a0000000p-7, -0x1.471e940000000p-3, 0x1.b107a00000000p-4, 0x1.7890c00000000p-5, -0x1.c25e8e0000000p-4, 0x1.4e26b20000000p-4, 0x1.1528a40000000p-3, -0x1.aaec5a0000000p-5, -0x1.7426f80000000p-3, 0x1.3e0baa0000000p-3, 0x1.3840340000000p-6, -0x1.8596ee0000000p-3, -0x1.a93ff60000000p-2, -0x1.c035360000000p-3, 0x1.673dde0000000p-5, 0x1.94f8fc0000000p-2, -0x1.a22e920000000p-4, 0x1.7f2a900000000p-4, -0x1.a3002e0000000p-3, -0x1.f3aa040000000p-3, 0x1.09d2920000000p-8, -0x1.b50a380000000p-3, 0x1.7994d00000000p-3, -0x1.107dc00000000p-3, -0x1.1557c40000000p-4}
, {-0x1.147c820000000p-2, 0x1.f2616a0000000p-9, 0x1.2e29e00000000p-7, 0x1.70748c0000000p-3, -0x1.3025fc0000000p-3, 0x1.3879fc0000000p-6, -0x1.28947e0000000p-4, 0x1.1ddc240000000p-6, -0x1.449ec60000000p-2, 0x1.d52d980000000p-4, 0x1.120c3e0000000p-3, 0x1.bcd6b20000000p-6, 0x1.5d861c0000000p-5, -0x1.fc3ca00000000p-4, 0x1.7a02d60000000p-3, -0x1.3ecb440000000p-2, 0x1.46c0680000000p-6, -0x1.61e3980000000p-5, -0x1.2d84f00000000p-2, -0x1.c6ec000000000p-2, -0x1.2a361e0000000p-3, -0x1.a2afe00000000p-3, 0x1.6851f60000000p-3, -0x1.31afba0000000p-5, 0x1.72488e0000000p-6, -0x1.76a5ae0000000p-3, -0x1.7331420000000p-2, 0x1.8e12140000000p-4, -0x1.d693660000000p-2, 0x1.2b7e020000000p-3, 0x1.2a9aee0000000p-6, 0x1.5c8dd20000000p-3}
, {0x1.d305f80000000p-4, -0x1.21082e0000000p-3, -0x1.f62b1e0000000p-3, 0x1.7da7f80000000p-4, -0x1.5d01680000000p-5, -0x1.cb5fee0000000p-3, 0x1.78d77a0000000p-3, 0x1.2e84ee0000000p-3, -0x1.c41ff60000000p-6, -0x1.92549e0000000p-7, 0x1.8e054e0000000p-4, 0x1.e3bcb00000000p-6, -0x1.3e0ab60000000p-2, 0x1.512c680000000p-8, -0x1.a9ebda0000000p-7, 0x1.30a32e0000000p-2, 0x1.6c2e180000000p-3, -0x1.7f92540000000p-4, 0x1.76b2720000000p-4, 0x1.5bbe440000000p-2, -0x1.3702260000000p-3, 0x1.e397540000000p-5, -0x1.e41aaa0000000p-4, 0x1.99e5a80000000p-4, -0x1.32db980000000p-3, 0x1.9037460000000p-4, 0x1.ecb7740000000p-7, -0x1.9e125a0000000p-5, 0x1.8747720000000p-3, 0x1.2e991a0000000p-3, -0x1.1649060000000p-3, -0x1.0b66ce0000000p-3}
, {-0x1.5a0c3c0000000p-3, -0x1.e0a0660000000p-6, 0x1.0cdbe00000000p-3, -0x1.c286aa0000000p-5, -0x1.1fdfa80000000p-5, 0x1.8204c60000000p-5, -0x1.29cf300000000p-4, 0x1.add2be0000000p-5, 0x1.a4efee0000000p-4, -0x1.000a080000000p-2, -0x1.cc81900000000p-4, 0x1.e251780000000p-5, -0x1.0504260000000p-2, -0x1.6d9d4c0000000p-4, 0x1.3d05200000000p-3, -0x1.d06b3a0000000p-3, -0x1.e562ce0000000p-4, -0x1.29a64e0000000p-3, -0x1.6582d80000000p-2, -0x1.2fec0c0000000p-6, -0x1.407d660000000p-3, -0x1.414e980000000p-5, 0x1.e0e34a0000000p-3, 0x1.5f00c40000000p-4, 0x1.4f7ae20000000p-2, 0x1.f39f180000000p-4, 0x1.26676a0000000p-2, 0x1.a0c1b40000000p-5, -0x1.1eaa6c0000000p-3, -0x1.2f5d4e0000000p-7, 0x1.14feb40000000p-3, -0x1.d1746e0000000p-5}
, {0x1.00f6600000000p-2, 0x1.4e8a9a0000000p-3, -0x1.19fc520000000p-4, 0x1.27ba340000000p-4, 0x1.e0117e0000000p-3, -0x1.a2c1dc0000000p-3, -0x1.1fbcbc0000000p-5, 0x1.67defe0000000p-3, -0x1.f0412e0000000p-5, 0x1.49bd000000000p-2, 0x1.0fa8800000000p-3, 0x1.1056ec0000000p-3, -0x1.89e2960000000p-3, -0x1.85f86c0000000p-4, 0x1.1bd1a00000000p-4, 0x1.9b32260000000p-3, -0x1.abd79c0000000p-4, -0x1.945b260000000p-6, 0x1.384cde0000000p-11, 0x1.b6f10a0000000p-5, -0x1.f7a1dc0000000p-3, -0x1.a64a340000000p-5, -0x1.7f9b960000000p-4, 0x1.d7229e0000000p-3, -0x1.5558380000000p-3, 0x1.1edda80000000p-3, -0x1.0ed5120000000p-2, 0x1.f3bb480000000p-4, -0x1.4dc9c20000000p-4, -0x1.3037aa0000000p-3, 0x1.3180820000000p-3, -0x1.7c5e740000000p-5}
, {0x1.9d71300000000p-3, 0x1.d2b4be0000000p-5, -0x1.88e0060000000p-3, -0x1.04886e0000000p-2, 0x1.8d059e0000000p-3, -0x1.155fba0000000p-2, -0x1.0f3a4e0000000p-3, 0x1.c6d8320000000p-6, -0x1.f24ca60000000p-4, -0x1.1c71c40000000p-3, -0x1.995afa0000000p-3, -0x1.7303c40000000p-3, -0x1.3d10c60000000p-2, -0x1.6b48720000000p-2, -0x1.edc4b00000000p-4, 0x1.4bc99a0000000p-4, 0x1.4134040000000p-4, 0x1.43f98a0000000p-4, 0x1.c6ae500000000p-5, 0x1.4a5b0a0000000p-4, -0x1.ecc3d80000000p-7, -0x1.7505720000000p-3, -0x1.2e77800000000p-7, 0x1.6cb7740000000p-4, 0x1.b2d34a0000000p-2, -0x1.69adf20000000p-3, -0x1.e50a7c0000000p-5, 0x1.87cd280000000p-4, -0x1.f5533a0000000p-5, -0x1.86380a0000000p-3, -0x1.dbd2e00000000p-6, 0x1.93efc20000000p-4}
, {-0x1.b3e2f40000000p-3, 0x1.8cbf900000000p-7, -0x1.9bf9ce0000000p-3, 0x1.81e9e60000000p-4, -0x1.9f550e0000000p-3, -0x1.5e43820000000p-3, -0x1.444f780000000p-2, 0x1.6048680000000p-3, -0x1.36c4340000000p-2, -0x1.7fe3b80000000p-3, -0x1.56468a0000000p-8, 0x1.7e7aa80000000p-6, 0x1.b6eac80000000p-3, -0x1.d0bca20000000p-3, -0x1.11d5f00000000p-3, -0x1.f7fa2a0000000p-5, 0x1.0c9fd00000000p-4, 0x1.24e3980000000p-4, -0x1.0c2f840000000p-2, -0x1.49556c0000000p-4, 0x1.5260e80000000p-10, -0x1.e022f20000000p-3, 0x1.80db940000000p-3, 0x1.782e620000000p-6, 0x1.60e7e00000000p-3, -0x1.747f080000000p-4, -0x1.aaff780000000p-3, -0x1.89d6b00000000p-5, -0x1.88d6280000000p-4, 0x1.c6ff820000000p-3, -0x1.6793aa0000000p-4, 0x1.9a23720000000p-4}
, {0x1.8f19260000000p-8, -0x1.2569dc0000000p-4, -0x1.886cce0000000p-5, -0x1.0cc14a0000000p-3, 0x1.6b0a4c0000000p-4, 0x1.725c920000000p-4, 0x1.6234220000000p-3, -0x1.f794160000000p-5, 0x1.4a37b40000000p-4, -0x1.d1251c0000000p-3, -0x1.e6cc2e0000000p-3, -0x1.1025820000000p-4, 0x1.10fce40000000p-2, -0x1.39e6a20000000p-3, 0x1.6b2a300000000p-5, -0x1.3fb0d00000000p-2, -0x1.883b6e0000000p-3, -0x1.96ae9a0000000p-8, 0x1.c82e440000000p-5, -0x1.8322760000000p-3, 0x1.43d8980000000p-8, -0x1.23cc3a0000000p-3, 0x1.749b440000000p-3, 0x1.fc1de20000000p-5, -0x1.0ad02e0000000p-3, 0x1.906fbe0000000p-5, -0x1.7d20c80000000p-3, 0x1.05c58c0000000p-3, -0x1.31fedc0000000p-2, 0x1.a107f60000000p-3, 0x1.8714ce0000000p-2, -0x1.e0bdc00000000p-3}
, {-0x1.7f99a40000000p-4, 0x1.206f020000000p-3, 0x1.d858480000000p-6, -0x1.5856820000000p-3, -0x1.3e0e5e0000000p-2, -0x1.9653f40000000p-5, -0x1.49d4e80000000p-8, 0x1.47fae40000000p-9, 0x1.487fce0000000p-2, -0x1.1a0f460000000p-3, 0x1.209e200000000p-3, 0x1.15fd380000000p-2, -0x1.6ddd960000000p-2, -0x1.703f660000000p-6, 0x1.6aff1c0000000p-3, -0x1.bf156e0000000p-5, 0x1.9af9420000000p-4, -0x1.4e42e00000000p-3, -0x1.1c97600000000p-4, 0x1.834fb00000000p-4, -0x1.6601040000000p-3, 0x1.c850f00000000p-8, -0x1.1993ae0000000p-2, 0x1.a1696a0000000p-3, -0x1.71d07c0000000p-6, 0x1.6f5e5c0000000p-3, 0x1.69e26e0000000p-3, 0x1.258b400000000p-4, 0x1.3d48b80000000p-7, 0x1.46662c0000000p-3, -0x1.58b2d20000000p-5, -0x1.5279e40000000p-2}
, {0x1.c7a70e0000000p-3, 0x1.81e1320000000p-6, 0x1.544ca60000000p-3, 0x1.67db7a0000000p-5, 0x1.4049580000000p-3, 0x1.ae7fbc0000000p-4, 0x1.55d1420000000p-3, -0x1.6768bc0000000p-3, 0x1.0b32d60000000p-2, -0x1.53b6980000000p-5, -0x1.da62180000000p-5, -0x1.210da80000000p-2, 0x1.8107fa0000000p-5, 0x1.97015e0000000p-3, -0x1.33b0d60000000p-3, -0x1.fe4dfc0000000p-3, -0x1.d179300000000p-5, -0x1.6356060000000p-4, 0x1.a0a5b00000000p-4, -0x1.b8565a0000000p-2, -0x1.9721120000000p-5, 0x1.b2a4740000000p-6, 0x1.4f8f2e0000000p-7, 0x1.1e9b680000000p-5, -0x1.1339c60000000p-2, 0x1.8c1e740000000p-3, -0x1.284f760000000p-4, -0x1.afab780000000p-5, -0x1.3e7cac0000000p-3, 0x1.7701b80000000p-3, 0x1.162a340000000p-4, -0x1.0ef3880000000p-5}
, {-0x1.6b94680000000p-6, -0x1.179e4c0000000p-3, -0x1.3b05900000000p-8, 0x1.99e01c0000000p-7, 0x1.4999d00000000p-2, -0x1.800d700000000p-4, 0x1.3dbd2c0000000p-5, 0x1.6ffef40000000p-3, 0x1.2d7dec0000000p-7, -0x1.293a020000000p-2, -0x1.538b4e0000000p-6, -0x1.b9a9000000000p-7, 0x1.5669b00000000p-3, -0x1.1582ea0000000p-4, -0x1.9fe27c0000000p-4, -0x1.15814a0000000p-4, 0x1.67e7960000000p-4, 0x1.2b88780000000p-3, -0x1.1f360c0000000p-3, 0x1.cac7b80000000p-8, -0x1.a59aa60000000p-5, -0x1.8359b60000000p-5, 0x1.ad6e9a0000000p-3, -0x1.4254840000000p-5, 0x1.a2b7e80000000p-6, -0x1.2303c40000000p-13, -0x1.cbe8640000000p-3, -0x1.f272380000000p-6, -0x1.0c3b2a0000000p-4, 0x1.d541fc0000000p-6, 0x1.09ac280000000p-4, 0x1.40bf840000000p-2}
, {0x1.b2d9980000000p-4, -0x1.b7e9700000000p-6, -0x1.60e2a60000000p-3, 0x1.3f10560000000p-5, -0x1.da5c6e0000000p-2, 0x1.ccd74a0000000p-4, 0x1.5333780000000p-3, -0x1.6586f20000000p-3, 0x1.725c480000000p-4, -0x1.d5a0380000000p-3, -0x1.2e52f20000000p-8, 0x1.1aab5a0000000p-7, -0x1.fdf69e0000000p-4, 0x1.2f89f20000000p-7, 0x1.05657c0000000p-5, 0x1.7f86a60000000p-3, 0x1.b0734a0000000p-4, 0x1.a8fede0000000p-5, 0x1.b131380000000p-3, -0x1.1385140000000p-3, 0x1.a15f900000000p-3, -0x1.0ee1c80000000p-7, -0x1.09256a0000000p-1, 0x1.8c42fe0000000p-5, -0x1.87c26e0000000p-2, -0x1.37152a0000000p-6, -0x1.03f3a00000000p-3, 0x1.3deeb40000000p-4, -0x1.2daa9a0000000p-3, -0x1.9d33060000000p-6, 0x1.7679000000000p-3, -0x1.f8e2e20000000p-2}
, {-0x1.ce39d60000000p-3, 0x1.82f0da0000000p-3, -0x1.1a582a0000000p-4, 0x1.76a8e20000000p-6, 0x1.e57fe60000000p-8, 0x1.b1ddb80000000p-5, -0x1.35a4140000000p-3, 0x1.16650a0000000p-3, -0x1.b71c440000000p-3, 0x1.ec807c0000000p-3, 0x1.bbb4dc0000000p-4, 0x1.e75fd60000000p-7, -0x1.6acebe0000000p-6, 0x1.ec7ea00000000p-5, 0x1.119d900000000p-3, 0x1.d703440000000p-5, -0x1.8862be0000000p-4, 0x1.a26cf80000000p-5, 0x1.f28f880000000p-4, -0x1.3954960000000p-5, -0x1.c0c8b80000000p-3, 0x1.245e4e0000000p-4, 0x1.2b34180000000p-3, -0x1.50cc240000000p-4, -0x1.124caa0000000p-3, -0x1.f7ad860000000p-6, -0x1.db30c60000000p-5, 0x1.92c1a80000000p-6, -0x1.1a825e0000000p-8, -0x1.b0a8ee0000000p-6, -0x1.15975a0000000p-4, 0x1.776ae80000000p-2}
, {-0x1.31a3f00000000p-3, 0x1.8e3dca0000000p-3, -0x1.ef60ac0000000p-5, -0x1.db1f660000000p-3, -0x1.cd93e40000000p-5, 0x1.0f208c0000000p-7, 0x1.abe9fa0000000p-4, 0x1.9329ba0000000p-3, 0x1.5321860000000p-4, -0x1.29f5100000000p-2, -0x1.1176720000000p-3, 0x1.507f980000000p-6, 0x1.eae6d80000000p-3, 0x1.2de2040000000p-3, -0x1.5f45f40000000p-5, -0x1.f81e8a0000000p-6, 0x1.1c5ee20000000p-6, 0x1.a889000000000p-5, 0x1.7a08aa0000000p-2, -0x1.68611e0000000p-4, 0x1.5fbe8e0000000p-4, 0x1.201ae80000000p-6, -0x1.067fe80000000p-4, -0x1.13cf4e0000000p-3, -0x1.654dae0000000p-3, 0x1.a620d80000000p-4, 0x1.907f740000000p-6, 0x1.034ac00000000p-4, 0x1.1e6fd40000000p-7, -0x1.14e4c20000000p-4, 0x1.4cd08e0000000p-4, -0x1.de53e80000000p-4}
, {0x1.88de0c0000000p-4, -0x1.2afc2e0000000p-4, -0x1.0b7a740000000p-4, 0x1.5b29fa0000000p-3, 0x1.36e2fe0000000p-4, -0x1.b3a52a0000000p-3, -0x1.d4f0020000000p-5, 0x1.28ca1c0000000p-3, -0x1.4ab7100000000p-4, 0x1.fff4260000000p-2, 0x1.e0caec0000000p-4, -0x1.72f8000000000p-6, -0x1.bbba980000000p-5, 0x1.6dc2000000000p-7, -0x1.668a0a0000000p-7, 0x1.18ba3c0000000p-2, 0x1.4ec2fc0000000p-5, -0x1.2678320000000p-3, 0x1.71c3a20000000p-3, -0x1.9fe6f40000000p-5, -0x1.2d4a9a0000000p-2, 0x1.a1186c0000000p-3, -0x1.3797100000000p-6, 0x1.292f9e0000000p-6, -0x1.4360400000000p-2, -0x1.2970020000000p-3, 0x1.101e820000000p-6, -0x1.0258b00000000p-8, 0x1.c983e80000000p-3, -0x1.77802c0000000p-8, -0x1.c0c9260000000p-3, 0x1.c293080000000p-3}
, {0x1.19c70e0000000p-4, 0x1.5efd9c0000000p-7, 0x1.71006a0000000p-2, 0x1.81b8300000000p-3, 0x1.0f1f160000000p-3, -0x1.f3eabc0000000p-3, 0x1.57615c0000000p-6, -0x1.6a09dc0000000p-4, -0x1.e0a31c0000000p-3, -0x1.2d9d8a0000000p-10, -0x1.99b7cc0000000p-6, -0x1.7eb8a00000000p-6, -0x1.1fa6060000000p-3, -0x1.29ca9a0000000p-3, 0x1.f268ae0000000p-4, 0x1.0dc0840000000p-5, 0x1.7f12a80000000p-5, -0x1.64a4b20000000p-4, -0x1.15a2b80000000p-2, 0x1.6545000000000p-5, -0x1.a6039e0000000p-3, -0x1.f22c3c0000000p-5, 0x1.c4d80c0000000p-5, -0x1.f32f360000000p-5, 0x1.5561980000000p-2, -0x1.251d9a0000000p-3, -0x1.c631320000000p-5, -0x1.c6b6b00000000p-6, -0x1.029b1a0000000p-3, -0x1.92bd480000000p-4, -0x1.0ba1500000000p-3, -0x1.e144280000000p-6}
, {-0x1.b81c820000000p-6, -0x1.2437980000000p-3, 0x1.05a8b60000000p-4, -0x1.741ca40000000p-3, 0x1.7de5f40000000p-4, -0x1.5841ec0000000p-9, -0x1.769a600000000p-4, 0x1.33e6ae0000000p-3, 0x1.31eb5e0000000p-3, -0x1.e740620000000p-3, -0x1.2cf82a0000000p-3, 0x1.46708a0000000p-3, -0x1.1984780000000p-4, -0x1.2408680000000p-2, -0x1.9031180000000p-3, -0x1.0d998e0000000p-3, 0x1.5428a80000000p-3, -0x1.c70e240000000p-6, -0x1.78b4d80000000p-5, 0x1.95e0180000000p-4, -0x1.0d8d0a0000000p-3, -0x1.b54fb60000000p-4, 0x1.a7e02a0000000p-3, -0x1.9b75e20000000p-6, 0x1.3e2e7c0000000p-2, -0x1.0f2a960000000p-6, 0x1.7b8b0e0000000p-2, -0x1.a8399e0000000p-4, 0x1.e775040000000p-3, 0x1.46e4600000000p-4, 0x1.13852c0000000p-4, 0x1.31a4aa0000000p-4}
, {-0x1.2daabe0000000p-2, -0x1.36923c0000000p-3, -0x1.5c570a0000000p-4, -0x1.0f77860000000p-5, 0x1.0f343a0000000p-3, 0x1.fac3fa0000000p-3, -0x1.c1feda0000000p-2, 0x1.691cf60000000p-3, -0x1.37226a0000000p-3, -0x1.52bb780000000p-4, -0x1.b8214a0000000p-4, 0x1.9207320000000p-4, 0x1.07a3e40000000p-4, -0x1.90c1f20000000p-5, -0x1.34876e0000000p-2, -0x1.5668700000000p-5, 0x1.d9bcaa0000000p-4, -0x1.b608b40000000p-6, 0x1.106cf20000000p-3, -0x1.a4bf520000000p-3, -0x1.8d68fc0000000p-2, 0x1.86430e0000000p-7, 0x1.8cbc380000000p-4, -0x1.4c7f740000000p-3, 0x1.1920f60000000p-3, 0x1.2fd53e0000000p-5, 0x1.355e460000000p-3, 0x1.76fe340000000p-3, -0x1.4be66a0000000p-5, 0x1.a45c7c0000000p-3, -0x1.48b6e60000000p-3, 0x1.d6ce280000000p-4}
, {0x1.3a347e0000000p-4, 0x1.e3b78c0000000p-5, -0x1.5698a40000000p-2, -0x1.ebcbd20000000p-3, -0x1.9a45d60000000p-4, -0x1.8e932c0000000p-4, 0x1.23dfa40000000p-5, 0x1.7bc0980000000p-3, 0x1.0d46220000000p-5, -0x1.64424e0000000p-2, 0x1.04e5f20000000p-3, 0x1.d2a12e0000000p-5, -0x1.1477040000000p-3, 0x1.5614400000000p-6, -0x1.60a0960000000p-5, -0x1.5d26080000000p-4, 0x1.4e8e360000000p-3, 0x1.10988c0000000p-3, 0x1.07c5e00000000p-2, 0x1.a419220000000p-5, 0x1.67cc840000000p-8, -0x1.8dd50e0000000p-5, -0x1.84b5960000000p-3, 0x1.2b66020000000p-3, -0x1.cc668c0000000p-3, -0x1.e690cc0000000p-4, -0x1.04e6f80000000p-2, 0x1.2a4bc40000000p-3, 0x1.4985e20000000p-6, 0x1.90f3ca0000000p-3, 0x1.5ac7fc0000000p-2, -0x1.43fbae0000000p-3}
, {0x1.28ff0c0000000p-6, -0x1.d666f00000000p-6, -0x1.fcbd320000000p-3, 0x1.0365b20000000p-5, 0x1.8471420000000p-4, -0x1.0ddc620000000p-3, -0x1.754a8c0000000p-3, -0x1.7a7a2c0000000p-4, -0x1.13fdf80000000p-3, -0x1.b4cbd40000000p-4, -0x1.2681ae0000000p-3, -0x1.4b01ce0000000p-6, 0x1.3378f80000000p-3, -0x1.1656d80000000p-2, -0x1.b1552a0000000p-3, -0x1.4ba76c0000000p-5, -0x1.190f140000000p-4, 0x1.086b8e0000000p-4, -0x1.847bce0000000p-8, 0x1.e727b00000000p-3, -0x1.ed94500000000p-4, -0x1.52be180000000p-3, 0x1.295ac80000000p-4, -0x1.59663c0000000p-6, 0x1.1603fa0000000p-3, 0x1.50891a0000000p-4, -0x1.0976120000000p-3, -0x1.3f24c80000000p-3, -0x1.2e52c00000000p-1, 0x1.14f5d00000000p-4, 0x1.4dd1520000000p-4, 0x1.9ae8820000000p-3}
, {0x1.573cf60000000p-4, -0x1.584bf00000000p-4, 0x1.15a7040000000p-2, -0x1.a880220000000p-7, -0x1.4b502c0000000p-5, -0x1.84ae360000000p-4, 0x1.e7e83a0000000p-3, -0x1.86072e0000000p-5, 0x1.a3b6aa0000000p-4, 0x1.358ee20000000p-3, -0x1.536b900000000p-4, -0x1.6fc0f40000000p-2, 0x1.bcffc40000000p-5, 0x1.9ea6ca0000000p-4, 0x1.2d2b440000000p-3, -0x1.256c140000000p-2, 0x1.e432580000000p-5, -0x1.0cc0ae0000000p-4, -0x1.7e45e40000000p-3, -0x1.c13b4c0000000p-3, 0x1.e03c400000000p-5, 0x1.18c6680000000p-4, -0x1.733ce40000000p-7, 0x1.6c508e0000000p-4, 0x1.0af48a0000000p-5, -0x1.55c3fa0000000p-3, -0x1.30e4bc0000000p-4, 0x1.502aa60000000p-3, -0x1.53ca660000000p-2, 0x1.0cebfe0000000p-3, 0x1.bcd4540000000p-5, -0x1.f20cf20000000p-9}
, {0x1.0249780000000p-3, 0x1.0b0f440000000p-3, -0x1.68118a0000000p-3, 0x1.42826c0000000p-3, 0x1.316dc00000000p-6, -0x1.9195d60000000p-2, 0x1.0e08cc0000000p-4, -0x1.4ee55e0000000p-3, 0x1.3fc6ee0000000p-5, 0x1.8c69c00000000p-3, 0x1.498ec80000000p-4, 0x1.e77dba0000000p-5, -0x1.05a3a40000000p-4, 0x1.25ad7e0000000p-6, -0x1.049b5a0000000p-4, 0x1.99ea7a0000000p-3, 0x1.ad88420000000p-4, 0x1.1b87ea0000000p-5, 0x1.7401660000000p-5, 0x1.2880ec0000000p-5, -0x1.8be9da0000000p-6, -0x1.b45e360000000p-12, -0x1.0b38460000000p-4, 0x1.e68c4c0000000p-11, -0x1.9c07200000000p-2, 0x1.edc2980000000p-7, -0x1.6ea33a0000000p-2, -0x1.1a04900000000p-4, 0x1.520dca0000000p-3, 0x1.8b05440000000p-4, -0x1.1e71300000000p-3, -0x1.09dd700000000p-4}
, {-0x1.9a989a0000000p-3, 0x1.a0e5880000000p-4, 0x1.2a3c700000000p-4, -0x1.9127f40000000p-3, 0x1.96b7a80000000p-5, -0x1.71b4340000000p-5, -0x1.c05cc20000000p-5, -0x1.50b8360000000p-3, -0x1.8a59e80000000p-4, -0x1.1362020000000p-3, -0x1.eff0bc0000000p-5, 0x1.53dc320000000p-4, -0x1.2f3ea60000000p-3, 0x1.783c360000000p-7, -0x1.d883420000000p-5, 0x1.03602c0000000p-2, -0x1.64f7fa0000000p-5, 0x1.0b6e520000000p-4, 0x1.4b28440000000p-3, 0x1.13d6360000000p-2, -0x1.4badee0000000p-3, 0x1.61319a0000000p-3, -0x1.8c0e5c0000000p-5, 0x1.126de80000000p-4, -0x1.f416e80000000p-3, -0x1.70c9660000000p-4, -0x1.162db20000000p-5, -0x1.6bb3720000000p-3, 0x1.b839040000000p-2, 0x1.0ac2940000000p-7, -0x1.3db0060000000p-4, -0x1.76e08c0000000p-11}
, {-0x1.20c4e60000000p-2, -0x1.66b0b20000000p-3, 0x1.6ff6040000000p-5, -0x1.489a5a0000000p-4, -0x1.319d7e0000000p-3, -0x1.e3a5d20000000p-4, 0x1.870c1a0000000p-6, -0x1.9f09fa0000000p-4, -0x1.d49ba40000000p-3, -0x1.cd9d880000000p-4, -0x1.f54f7e0000000p-7, 0x1.f2e0ec0000000p-4, -0x1.1528560000000p-3, -0x1.b2ea100000000p-4, 0x1.600eb40000000p-4, 0x1.b88be20000000p-3, 0x1.7f5cb40000000p-4, 0x1.0b50820000000p-6, -0x1.60fbfc0000000p-3, 0x1.b9c8ec0000000p-2, -0x1.3c393a0000000p-3, 0x1.1adc280000000p-5, -0x1.8c3b2a0000000p-6, 0x1.5fc1700000000p-5, 0x1.4029a40000000p-2, 0x1.5048ac0000000p-4, 0x1.0e7c060000000p-4, -0x1.3935c20000000p-6, 0x1.e235cc0000000p-3, -0x1.19e0440000000p-4, -0x1.640c660000000p-3, 0x1.98aaf40000000p-6}
, {0x1.3a246c0000000p-4, 0x1.9286040000000p-4, -0x1.d478580000000p-7, -0x1.0c2d6c0000000p-2, 0x1.a67e180000000p-4, 0x1.c53e940000000p-3, 0x1.019e120000000p-2, -0x1.7627140000000p-3, 0x1.18cad60000000p-4, -0x1.a1b35c0000000p-3, -0x1.133f4c0000000p-2, -0x1.0182740000000p-4, -0x1.be1eea0000000p-4, -0x1.8910b40000000p-5, -0x1.40e3460000000p-3, -0x1.2522600000000p-2, 0x1.08cb3a0000000p-2, -0x1.aa54540000000p-7, -0x1.05faf00000000p-7, -0x1.b80b600000000p-3, -0x1.3474a40000000p-5, -0x1.2bca220000000p-6, 0x1.8340620000000p-5, 0x1.936f720000000p-4, -0x1.161a6a0000000p-3, -0x1.2621a80000000p-4, -0x1.4c00440000000p-4, -0x1.1a853e0000000p-3, -0x1.baf6fc0000000p-4, -0x1.a578260000000p-5, 0x1.e8a8360000000p-2, -0x1.09930c0000000p-2}
, {-0x1.0b82fa0000000p-6, -0x1.2cf3cc0000000p-3, -0x1.340aea0000000p-7, 0x1.2184c40000000p-2, -0x1.10c8a20000000p-3, -0x1.eaa2980000000p-3, 0x1.aa49b00000000p-4, -0x1.cbc19a0000000p-5, -0x1.02ffe40000000p-3, -0x1.f230240000000p-3, 0x1.4889020000000p-3, 0x1.53d2660000000p-6, 0x1.9a08fe0000000p-3, -0x1.985d520000000p-4, -0x1.a95dda0000000p-3, 0x1.f360980000000p-6, 0x1.258aee0000000p-4, 0x1.2ad1c20000000p-4, -0x1.786b140000000p-2, -0x1.afdb820000000p-4, 0x1.ffa1ac0000000p-3, -0x1.8891e20000000p-5, -0x1.7d84c40000000p-6, -0x1.a9f7700000000p-5, 0x1.27e0260000000p-2, 0x1.5068020000000p-3, 0x1.23ae980000000p-2, -0x1.12f4ce0000000p-3, -0x1.2444960000000p-2, 0x1.9dc3fe0000000p-8, -0x1.e9f0880000000p-3, 0x1.1668420000000p-3}
, {-0x1.3439140000000p-4, 0x1.bf86280000000p-6, -0x1.7fb7d20000000p-3, 0x1.d8044c0000000p-3, -0x1.5538b60000000p-2, -0x1.3e06480000000p-3, 0x1.f779660000000p-4, 0x1.5dd6740000000p-7, -0x1.5bdc0c0000000p-3, -0x1.6d92f00000000p-3, 0x1.aa296a0000000p-2, 0x1.0920780000000p-7, 0x1.84855a0000000p-3, 0x1.19002a0000000p-3, 0x1.1b807a0000000p-2, 0x1.c0d22a0000000p-8, -0x1.f651200000000p-4, 0x1.258b720000000p-6, -0x1.32cd5a0000000p-5, 0x1.f038ee0000000p-6, 0x1.0666820000000p-2, 0x1.9de66c0000000p-7, -0x1.7ee9b40000000p-4, 0x1.dd5d0a0000000p-6, -0x1.10a8260000000p-3, 0x1.77ef400000000p-3, -0x1.fb632e0000000p-3, 0x1.bc6fb40000000p-4, -0x1.8075ae0000000p-4, 0x1.40021c0000000p-3, 0x1.bd32cc0000000p-4, -0x1.1f2ae80000000p-5}
, {0x1.dd09520000000p-5, 0x1.3425420000000p-9, 0x1.d131240000000p-3, -0x1.3eb3fa0000000p-3, 0x1.b8ad9a0000000p-3, 0x1.9e93b00000000p-4, -0x1.c420280000000p-5, 0x1.427d8e0000000p-5, 0x1.0c41260000000p-4, -0x1.82a2680000000p-3, -0x1.d554d80000000p-3, 0x1.4d142a0000000p-3, -0x1.3aa2b20000000p-2, -0x1.353c0c0000000p-2, 0x1.ea52560000000p-7, -0x1.1d03460000000p-6, 0x1.31674a0000000p-7, 0x1.42bf120000000p-3, -0x1.4c748c0000000p-3, 0x1.887f180000000p-7, -0x1.0d5d720000000p-4, -0x1.3e33420000000p-3, -0x1.80d9100000000p-4, 0x1.37b5d80000000p-2, 0x1.ef603c0000000p-4, -0x1.6e405a0000000p-5, 0x1.37173a0000000p-3, 0x1.117f220000000p-4, 0x1.c9e3ce0000000p-3, -0x1.a042a40000000p-6, 0x1.2efeba0000000p-4, -0x1.bc34800000000p-3}
, {0x1.cda21a0000000p-4, 0x1.f0bff40000000p-6, 0x1.17009e0000000p-3, -0x1.9f9cf60000000p-6, 0x1.1647a20000000p-3, -0x1.b3f91a0000000p-2, 0x1.cc2dd80000000p-3, 0x1.7ca9840000000p-3, 0x1.5624ac0000000p-3, -0x1.fa236c0000000p-3, -0x1.d432300000000p-4, 0x1.7d550a0000000p-3, -0x1.bed0300000000p-3, -0x1.8ce4440000000p-4, -0x1.a6d7f00000000p-2, 0x1.4d91060000000p-5, 0x1.02c6d00000000p-5, -0x1.f2cece0000000p-4, -0x1.b176fc0000000p-3, -0x1.a32a0e0000000p-3, 0x1.06209a0000000p-4, -0x1.010b520000000p-2, -0x1.5cffbc0000000p-7, 0x1.7ac6bc0000000p-3, -0x1.685da00000000p-2, -0x1.f8e37a0000000p-6, -0x1.9f232c0000000p-6, 0x1.dfc5d20000000p-8, -0x1.c669e00000000p-4, -0x1.e6be040000000p-4, -0x1.c21a3c0000000p-13, -0x1.96e61a0000000p-2}
, {0x1.49cb080000000p-4, 0x1.d818180000000p-4, 0x1.27f6be0000000p-4, -0x1.2e6ccc0000000p-2, 0x1.35d72a0000000p-3, 0x1.82aec40000000p-3, 0x1.d080bc0000000p-10, 0x1.a317380000000p-5, 0x1.964bec0000000p-6, -0x1.cc4a440000000p-3, -0x1.e1e3280000000p-2, -0x1.939af80000000p-3, 0x1.4464ae0000000p-4, -0x1.25b1b60000000p-3, -0x1.227fb60000000p-2, 0x1.400d2e0000000p-8, 0x1.beabbe0000000p-4, 0x1.5a0cee0000000p-3, 0x1.a4ff1c0000000p-4, -0x1.60afda0000000p-8, 0x1.7694080000000p-3, -0x1.4f46120000000p-9, 0x1.3611520000000p-4, 0x1.5bcbbe0000000p-3, -0x1.4809cc0000000p-3, -0x1.a1cc8e0000000p-5, 0x1.0524ec0000000p-3, 0x1.acf8f20000000p-6, 0x1.63bdba0000000p-3, 0x1.52bc740000000p-4, 0x1.e9a1400000000p-5, 0x1.7a8b520000000p-4}
, {0x1.3fab2c0000000p-2, -0x1.a9a2ca0000000p-5, 0x1.b1c79e0000000p-3, 0x1.1a2a360000000p-5, -0x1.82fc200000000p-5, -0x1.1bbb6e0000000p-3, 0x1.9a84c40000000p-2, -0x1.05d19a0000000p-3, 0x1.ec10720000000p-4, -0x1.b4e0ce0000000p-4, -0x1.1436ae0000000p-5, -0x1.0341c80000000p-4, -0x1.c913700000000p-5, 0x1.1becf20000000p-3, 0x1.5ec9040000000p-4, -0x1.d0b2120000000p-3, 0x1.98f6080000000p-3, 0x1.65f3d80000000p-4, -0x1.4bed5e0000000p-2, -0x1.ae747c0000000p-4, 0x1.ee22400000000p-5, -0x1.fdbe6a0000000p-5, -0x1.c48ac80000000p-5, 0x1.4f346c0000000p-5, -0x1.e7b8e00000000p-5, 0x1.aadf300000000p-6, 0x1.1614ca0000000p-3, -0x1.10f1f80000000p-5, -0x1.444a980000000p-2, 0x1.a79c680000000p-6, -0x1.c06de60000000p-4, -0x1.8523fa0000000p-4}
, {-0x1.a64ff60000000p-3, 0x1.73b50e0000000p-4, 0x1.4835500000000p-2, -0x1.4c827e0000000p-4, 0x1.c7bd920000000p-7, 0x1.70233e0000000p-3, -0x1.cd88720000000p-4, 0x1.f586900000000p-4, 0x1.4adbf40000000p-6, -0x1.3a3e720000000p-3, -0x1.fa217c0000000p-4, 0x1.978fea0000000p-3, -0x1.dc50340000000p-4, -0x1.213dce0000000p-2, 0x1.2ab01c0000000p-3, -0x1.affca60000000p-3, 0x1.b5c2c40000000p-3, -0x1.2c49860000000p-3, -0x1.c6874c0000000p-3, -0x1.4786580000000p-5, -0x1.c84b180000000p-3, -0x1.f520440000000p-3, 0x1.5ff5ae0000000p-3, 0x1.d6953a0000000p-3, 0x1.3e2bfe0000000p-3, 0x1.f3c47e0000000p-4, 0x1.c4c2720000000p-3, 0x1.a8f2ae0000000p-5, -0x1.78f1aa0000000p-3, 0x1.25ddd20000000p-8, 0x1.62eace0000000p-3, -0x1.2fe7d00000000p-5}
, {-0x1.05632e0000000p-7, -0x1.e707140000000p-5, -0x1.bd8a480000000p-7, -0x1.5e7cae0000000p-4, 0x1.ea69240000000p-4, -0x1.08a8a60000000p-3, -0x1.703be00000000p-2, -0x1.8f89580000000p-3, 0x1.307d700000000p-3, -0x1.3cf6820000000p-2, -0x1.e1bec60000000p-3, -0x1.0f7bc60000000p-7, 0x1.8f64e60000000p-3, -0x1.00ea100000000p-2, -0x1.ae94a40000000p-2, 0x1.2995e40000000p-6, 0x1.26316a0000000p-3, -0x1.19eb3c0000000p-4, 0x1.9a9ace0000000p-3, -0x1.4a2bec0000000p-5, 0x1.eb119a0000000p-6, -0x1.122d500000000p-3, 0x1.a1d9c60000000p-3, 0x1.a860940000000p-4, 0x1.159d9e0000000p-4, -0x1.0ee9420000000p-3, 0x1.6b29fc0000000p-4, 0x1.96b8920000000p-4, 0x1.2e5f040000000p-4, 0x1.04d33a0000000p-4, -0x1.04f49e0000000p-3, 0x1.6a23040000000p-3}
, {0x1.19ee7a0000000p-4, -0x1.2469140000000p-5, -0x1.9450060000000p-11, 0x1.7efb2e0000000p-5, 0x1.0fa7b00000000p-2, 0x1.1b403c0000000p-5, -0x1.14fe160000000p-4, -0x1.da17400000000p-4, -0x1.968f0c0000000p-4, 0x1.ebe41e0000000p-3, -0x1.53f5d00000000p-6, -0x1.10e5f60000000p-1, 0x1.dda4420000000p-5, 0x1.042af60000000p-4, -0x1.d381b80000000p-3, 0x1.913e820000000p-7, 0x1.3d2a8c0000000p-4, 0x1.80fa440000000p-9, 0x1.2539220000000p-4, -0x1.71bc1a0000000p-3, -0x1.205af60000000p-2, 0x1.9149140000000p-5, 0x1.449bb00000000p-4, -0x1.530ae40000000p-2, -0x1.e0d37a0000000p-3, -0x1.3a6e700000000p-3, 0x1.c808840000000p-5, 0x1.0cc81c0000000p-4, 0x1.8141a40000000p-3, -0x1.750f280000000p-4, -0x1.b726360000000p-2, 0x1.93a11a0000000p-4}
, {0x1.1d3a520000000p-3, 0x1.5f47260000000p-3, -0x1.8023140000000p-4, 0x1.fda93a0000000p-3, 0x1.389fb20000000p-3, -0x1.035c2e0000000p-2, -0x1.5d168a0000000p-4, 0x1.2429660000000p-3, 0x1.7b16f40000000p-3, -0x1.1870ec0000000p-5, -0x1.088bee0000000p-4, 0x1.3876ee0000000p-5, -0x1.6d47be0000000p-3, -0x1.6198260000000p-2, -0x1.34a5880000000p-2, 0x1.9657fe0000000p-4, 0x1.4edd700000000p-4, -0x1.7a56620000000p-4, -0x1.27d5ee0000000p-4, -0x1.f070620000000p-6, 0x1.796b640000000p-3, -0x1.ee8e1c0000000p-3, 0x1.b5df1e0000000p-3, 0x1.313d140000000p-3, 0x1.727c0e0000000p-5, -0x1.fcaea00000000p-6, -0x1.2277a60000000p-2, 0x1.4a22380000000p-5, 0x1.4ac1880000000p-3, -0x1.bdd9e80000000p-4, -0x1.34424e0000000p-4, -0x1.0e4d3a0000000p-4}
, {-0x1.b0cfc40000000p-6, 0x1.5c92620000000p-3, 0x1.b399920000000p-4, 0x1.602b7c0000000p-2, -0x1.473d4e0000000p-4, -0x1.f106680000000p-3, 0x1.8cde160000000p-3, 0x1.99f5340000000p-5, 0x1.c293f60000000p-4, 0x1.36ce400000000p-4, 0x1.ef0c680000000p-5, -0x1.61b0de0000000p-6, 0x1.2276480000000p-4, -0x1.835db20000000p-4, -0x1.c4a9200000000p-4, -0x1.2135ec0000000p-4, -0x1.0ea4cc0000000p-3, 0x1.4502780000000p-3, -0x1.ce84c20000000p-2, -0x1.6445600000000p-2, 0x1.2d89e00000000p-4, -0x1.c1c7e20000000p-3, 0x1.40fb5a0000000p-3, 0x1.a86e3e0000000p-6, 0x1.79ba0c0000000p-12, -0x1.e0e6f60000000p-4, -0x1.edecb40000000p-3, 0x1.0e578a0000000p-3, -0x1.3afeb20000000p-2, 0x1.57af400000000p-3, -0x1.5762180000000p-4, 0x1.96765c0000000p-6}
, {-0x1.0dffda0000000p-3, -0x1.a1b7380000000p-5, 0x1.efffca0000000p-3, -0x1.81b9a80000000p-2, -0x1.1ad3de0000000p-8, 0x1.ad5e240000000p-4, 0x1.8b5fe40000000p-4, 0x1.420d940000000p-3, 0x1.b720700000000p-3, -0x1.d66b1e0000000p-3, -0x1.776e180000000p-2, -0x1.90f24a0000000p-3, 0x1.4f81a40000000p-3, 0x1.04f3e00000000p-3, -0x1.c8daa00000000p-4, -0x1.135c6c0000000p-2, -0x1.180bc40000000p-3, -0x1.5ca6f80000000p-4, 0x1.def3160000000p-5, -0x1.9b328c0000000p-4, 0x1.7728640000000p-4, 0x1.2223d80000000p-3, -0x1.6070460000000p-4, 0x1.0be0ec0000000p-4, 0x1.83be580000000p-4, 0x1.8153480000000p-3, 0x1.2a8cee0000000p-2, 0x1.787c3a0000000p-5, -0x1.04ec520000000p-5, -0x1.606cd40000000p-4, -0x1.7849e60000000p-7, -0x1.0a470e0000000p-3}
, {0x1.d4bbaa0000000p-6, 0x1.e04aac0000000p-4, 0x1.42c2520000000p-2, 0x1.3388100000000p-7, 0x1.4ab8720000000p-2, -0x1.379dd20000000p-5, -0x1.5770e00000000p-4, -0x1.4a8d0e0000000p-3, -0x1.7c82b40000000p-3, 0x1.bd38120000000p-3, -0x1.8e0ade0000000p-4, -0x1.cea8b00000000p-4, -0x1.ec65640000000p-8, -0x1.687a5a0000000p-4, -0x1.ce09500000000p-5, -0x1.11bcd20000000p-5, -0x1.f132a00000000p-4, 0x1.af6ca40000000p-3, 0x1.5fa0fa0000000p-6, 0x1.7ecb380000000p-6, -0x1.38e48e0000000p-2, 0x1.e3693a0000000p-6, 0x1.5be8dc0000000p-3, -0x1.0a3dce0000000p-3, -0x1.1abf040000000p-6, -0x1.8009000000000p-3, 0x1.63fa540000000p-2, -0x1.20f8980000000p-5, 0x1.b7adaa0000000p-4, -0x1.6386cc0000000p-7, -0x1.7531940000000p-2, 0x1.1693ba0000000p-2}
, {-0x1.f7d9b20000000p-7, -0x1.f3d1660000000p-4, -0x1.2d0c8a0000000p-2, -0x1.1e214e0000000p-3, -0x1.5ff5200000000p-3, 0x1.23d85e0000000p-3, 0x1.447cb20000000p-4, -0x1.6e5b140000000p-3, -0x1.5133bc0000000p-7, 0x1.e9d4520000000p-2, -0x1.9e5da80000000p-5, 0x1.f4b63a0000000p-7, -0x1.0516360000000p-4, -0x1.245f4a0000000p-5, -0x1.9c50fa0000000p-5, 0x1.05af680000000p-5, -0x1.b89f9e0000000p-7, 0x1.6e28f40000000p-3, 0x1.2566aa0000000p-3, 0x1.d194300000000p-4, -0x1.02d65e0000000p-5, 0x1.cb37b40000000p-5, -0x1.1d0b940000000p-3, -0x1.fa5c680000000p-4, -0x1.2348120000000p-3, -0x1.4581ce0000000p-3, -0x1.16acc40000000p-2, 0x1.2610dc0000000p-3, -0x1.59f69e0000000p-3, 0x1.581cce0000000p-3, 0x1.e6b0760000000p-3, -0x1.38938c0000000p-5}
, {-0x1.66cd460000000p-5, 0x1.3f66460000000p-3, -0x1.d663960000000p-3, 0x1.ab37be0000000p-4, -0x1.eaea160000000p-3, 0x1.c859320000000p-3, -0x1.80a5b80000000p-2, 0x1.95bd400000000p-4, 0x1.40b94e0000000p-5, -0x1.12cd6a0000000p-2, 0x1.b5d2560000000p-5, 0x1.e8474e0000000p-3, -0x1.e7fc4e0000000p-8, -0x1.e9f79e0000000p-2, -0x1.d4ab400000000p-4, -0x1.130da20000000p-5, 0x1.1c9c0c0000000p-3, 0x1.a3717e0000000p-4, -0x1.045fe20000000p-2, -0x1.e775680000000p-3, 0x1.1778be0000000p-4, -0x1.f5383c0000000p-2, 0x1.c7f93a0000000p-5, 0x1.5e5f820000000p-6, 0x1.b028b00000000p-8, 0x1.7698540000000p-3, -0x1.2ed6d60000000p-2, 0x1.102cb20000000p-4, -0x1.7f7aa60000000p-3, 0x1.27b58c0000000p-3, -0x1.946a560000000p-5, -0x1.5f697c0000000p-6}
, {-0x1.42f1080000000p-3, 0x1.d2b82a0000000p-5, -0x1.73b6f60000000p-3, -0x1.badbb20000000p-6, 0x1.119b000000000p-5, 0x1.6e79fa0000000p-4, -0x1.8eedf60000000p-3, -0x1.568e100000000p-3, -0x1.f33ba40000000p-3, -0x1.a6633a0000000p-3, 0x1.5252600000000p-5, 0x1.d9b03a0000000p-8, -0x1.2e3bbc0000000p-3, -0x1.7214160000000p-2, -0x1.5333360000000p-3, 0x1.5a0d100000000p-4, -0x1.8243a80000000p-5, 0x1.13762e0000000p-4, -0x1.7c7a0a0000000p-3, 0x1.4b36cc0000000p-3, -0x1.435ca40000000p-4, -0x1.739a820000000p-3, -0x1.a2f0480000000p-5, -0x1.8a10860000000p-6, 0x1.bb3e100000000p-2, 0x1.5cacec0000000p-3, -0x1.06ee720000000p-4, -0x1.df671e0000000p-4, 0x1.69c2880000000p-3, 0x1.6b1c220000000p-4, 0x1.3f28480000000p-4, 0x1.625d6a0000000p-3}
, {0x1.7b5c6c0000000p-2, 0x1.3e3e340000000p-3, -0x1.5f8c480000000p-3, 0x1.1f98ca0000000p-4, -0x1.164c600000000p-4, -0x1.9d1b9e0000000p-5, -0x1.996fc80000000p-6, 0x1.4015240000000p-4, -0x1.588cc00000000p-3, 0x1.79c9780000000p-4, -0x1.716bf20000000p-5, -0x1.d30eb00000000p-2, 0x1.8d1d000000000p-4, 0x1.4fb7ca0000000p-9, 0x1.00da1e0000000p-4, 0x1.57e1520000000p-3, -0x1.d4fc300000000p-7, 0x1.2688c80000000p-5, 0x1.4933e60000000p-5, 0x1.565a0e0000000p-3, 0x1.8b32d60000000p-2, -0x1.0a27780000000p-7, -0x1.fdc1120000000p-6, -0x1.dbc6ec0000000p-4, -0x1.4fcd4c0000000p-2, 0x1.ebff1e0000000p-4, -0x1.9537740000000p-4, -0x1.9886a60000000p-3, -0x1.4453ac0000000p-4, -0x1.3daf380000000p-6, 0x1.8f7bf00000000p-3, 0x1.6eb16c0000000p-11}
, {-0x1.9bc18a0000000p-4, 0x1.6e2b2c0000000p-4, -0x1.c7784a0000000p-3, -0x1.c7c66e0000000p-4, 0x1.fe81f60000000p-7, -0x1.6a84ac0000000p-2, -0x1.304fd20000000p-5, 0x1.37d1b40000000p-4, -0x1.9ec0be0000000p-3, -0x1.6a98480000000p-10, 0x1.6e2c6e0000000p-4, 0x1.e473640000000p-6, -0x1.12855a0000000p-2, -0x1.6bf43e0000000p-5, 0x1.8218160000000p-4, 0x1.272bee0000000p-4, -0x1.ff22000000000p-4, 0x1.3162380000000p-3, 0x1.38a7ea0000000p-4, 0x1.cab57e0000000p-3, -0x1.d865b20000000p-3, 0x1.a43ffc0000000p-4, -0x1.e463b00000000p-4, -0x1.e3178c0000000p-4, -0x1.23d2b40000000p-2, 0x1.f46f360000000p-4, -0x1.df73420000000p-3, 0x1.9598900000000p-4, 0x1.9b2bb80000000p-3, -0x1.ac7ede0000000p-4, 0x1.667e500000000p-3, 0x1.f49e9c0000000p-4}
, {-0x1.c166400000000p-5, -0x1.7432ae0000000p-3, 0x1.5d947c0000000p-4, -0x1.556a740000000p-11, 0x1.9ee8c00000000p-5, 0x1.1325a40000000p-5, -0x1.d3cf100000000p-7, 0x1.9390f20000000p-5, -0x1.4d0a260000000p-3, 0x1.532f8a0000000p-2, 0x1.03b14a0000000p-4, -0x1.ae5f020000000p-4, -0x1.ff46f00000000p-4, 0x1.d16fa20000000p-5, 0x1.0ac2aa0000000p-2, 0x1.dd74140000000p-5, -0x1.02b9860000000p-3, 0x1.5fabdc0000000p-4, 0x1.d44b1e0000000p-6, 0x1.3115840000000p-3, -0x1.6b357c0000000p-2, 0x1.6fd8c00000000p-5, 0x1.277a7a0000000p-9, -0x1.b9ebe60000000p-3, 0x1.5c467a0000000p-5, -0x1.18679e0000000p-5, 0x1.1b33100000000p-3, 0x1.9b37da0000000p-3, 0x1.3454ae0000000p-2, 0x1.385f1a0000000p-3, -0x1.4a61ae0000000p-2, 0x1.817a780000000p-3}
, {0x1.ef4f4e0000000p-3, -0x1.bff2060000000p-5, -0x1.77ba9e0000000p-3, 0x1.260af60000000p-7, 0x1.4262ce0000000p-4, -0x1.317f760000000p-2, -0x1.076d800000000p-3, 0x1.6ecfbc0000000p-3, -0x1.f82a200000000p-4, -0x1.632b1a0000000p-4, -0x1.9ff4420000000p-4, -0x1.41ab2a0000000p-6, -0x1.7368400000000p-2, -0x1.20faa20000000p-2, -0x1.c66e280000000p-3, 0x1.68bfb40000000p-5, 0x1.24b66e0000000p-3, 0x1.c15c740000000p-4, -0x1.9a98920000000p-7, 0x1.5d6f3a0000000p-4, 0x1.ccbc9c0000000p-3, -0x1.222f3a0000000p-3, -0x1.4edee00000000p-4, 0x1.d3c0e60000000p-5, -0x1.9a37560000000p-3, 0x1.481e200000000p-5, -0x1.67f3200000000p-9, -0x1.a1561a0000000p-10, 0x1.d18a520000000p-4, 0x1.b5954e0000000p-4, -0x1.cd4fe00000000p-3, 0x1.fd4d120000000p-4}
, {-0x1.1c73200000000p-2, 0x1.1a7d540000000p-3, 0x1.bbea4a0000000p-5, -0x1.5216b80000000p-3, 0x1.2f58e80000000p-6, 0x1.0752a00000000p-2, -0x1.96a7fe0000000p-3, 0x1.6ad0e40000000p-3, 0x1.351a260000000p-6, -0x1.17827e0000000p-4, -0x1.045ebc0000000p-2, -0x1.4b311e0000000p-2, 0x1.1a1f400000000p-5, 0x1.adc5d20000000p-3, -0x1.389ac80000000p-2, -0x1.14ebe40000000p-2, -0x1.8467dc0000000p-5, -0x1.1d77fe0000000p-3, 0x1.0c7ef40000000p-4, -0x1.66e7e20000000p-2, -0x1.b8570e0000000p-2, -0x1.1ca8860000000p-6, 0x1.70da520000000p-5, 0x1.02bb380000000p-4, 0x1.08bc680000000p-10, 0x1.2dfb300000000p-3, 0x1.3186120000000p-3, 0x1.787cb60000000p-6, -0x1.1f9ee80000000p-5, 0x1.348a2e0000000p-3, -0x1.7713a80000000p-2, 0x1.38ca960000000p-5}
, {0x1.729e560000000p-4, 0x1.ad58a00000000p-3, -0x1.1a133e0000000p-4, 0x1.33c7940000000p-2, -0x1.2e49780000000p-4, -0x1.e4bbf40000000p-3, 0x1.f155f40000000p-3, 0x1.ddd2b20000000p-4, 0x1.117d4a0000000p-2, -0x1.1ce8c00000000p-4, 0x1.61d4da0000000p-2, 0x1.fa675c0000000p-8, 0x1.a4e9140000000p-4, 0x1.94517e0000000p-7, 0x1.c05e1e0000000p-6, -0x1.6d056a0000000p-4, -0x1.50ee520000000p-5, 0x1.529c0a0000000p-4, -0x1.4ee2680000000p-5, 0x1.0206ae0000000p-7, -0x1.1e1dc80000000p-10, 0x1.04a2780000000p-7, 0x1.e9893c0000000p-4, 0x1.4231ac0000000p-6, -0x1.11734c0000000p-2, -0x1.9db7a20000000p-4, -0x1.08cb9e0000000p-2, -0x1.65936e0000000p-5, -0x1.3d94a40000000p-3, -0x1.ef19ee0000000p-5, 0x1.c177200000000p-3, -0x1.69df320000000p-4}
, {0x1.03552a0000000p-4, 0x1.ddb0640000000p-4, -0x1.bb36780000000p-7, 0x1.22e6520000000p-2, 0x1.6452940000000p-8, 0x1.90fd8c0000000p-3, -0x1.80ff2e0000000p-7, -0x1.8c69120000000p-4, -0x1.deab4a0000000p-5, -0x1.c6ede60000000p-5, 0x1.5cd5d00000000p-5, -0x1.d9c22a0000000p-2, 0x1.5894560000000p-2, 0x1.c1e0ee0000000p-3, -0x1.27aed80000000p-5, -0x1.517a0a0000000p-3, -0x1.230f420000000p-5, -0x1.48f5a20000000p-3, -0x1.329c340000000p-7, -0x1.85ec760000000p-2, 0x1.84b8e80000000p-3, 0x1.419dd00000000p-6, -0x1.c34cae0000000p-7, -0x1.70f10a0000000p-5, -0x1.c5a4060000000p-3, -0x1.4406300000000p-4, 0x1.eecd120000000p-6, 0x1.d6228c0000000p-14, -0x1.58dd960000000p-4, -0x1.f5d2b40000000p-5, 0x1.c716ae0000000p-8, 0x1.87e3d40000000p-5}
, {0x1.6b7fae0000000p-4, -0x1.ba7dbe0000000p-7, -0x1.9a37920000000p-3, 0x1.59fd6e0000000p-3, 0x1.905b760000000p-3, -0x1.16f8d60000000p-2, 0x1.1a3d380000000p-4, -0x1.258c500000000p-4, -0x1.1dff800000000p-2, -0x1.a3cd420000000p-4, -0x1.d1f6b60000000p-9, 0x1.d304180000000p-6, -0x1.2dadd80000000p-4, -0x1.97aad60000000p-3, -0x1.26d9f80000000p-2, 0x1.569a940000000p-3, 0x1.3da5720000000p-3, 0x1.cb19880000000p-8, 0x1.dcaed60000000p-3, 0x1.b07aa40000000p-8, 0x1.b8bfd60000000p-4, -0x1.d0ac4a0000000p-4, -0x1.4c5ce80000000p-3, 0x1.6ca51e0000000p-4, -0x1.7e00640000000p-2, 0x1.c93f760000000p-6, -0x1.227fae0000000p-3, -0x1.e35dfc0000000p-4, -0x1.c2d5c20000000p-6, 0x1.228abc0000000p-4, -0x1.96b8760000000p-3, -0x1.9f07b80000000p-3}
, {-0x1.b4b63e0000000p-4, 0x1.828e760000000p-3, -0x1.4a60760000000p-2, 0x1.d0cbf40000000p-7, -0x1.cb8ea20000000p-4, -0x1.b4aaf40000000p-3, -0x1.1686860000000p-5, 0x1.06ebd60000000p-6, -0x1.0d6e740000000p-3, -0x1.b63e720000000p-5, 0x1.aacc780000000p-3, 0x1.82898a0000000p-2, -0x1.0bd6dc0000000p-3, -0x1.ecc8d00000000p-6, -0x1.e188f00000000p-7, 0x1.7913a20000000p-3, -0x1.560e500000000p-6, 0x1.63d52c0000000p-5, 0x1.38501c0000000p-3, 0x1.0c4f020000000p-4, -0x1.b2bbea0000000p-7, -0x1.5739980000000p-5, -0x1.2ce9ac0000000p-4, 0x1.69630c0000000p-5, -0x1.3029800000000p-3, 0x1.2166640000000p-3, -0x1.2faabc0000000p-3, -0x1.829ffc0000000p-4, 0x1.f5d9720000000p-6, 0x1.4bd0060000000p-3, 0x1.e1816e0000000p-6, 0x1.512c120000000p-5}
, {-0x1.f84aac0000000p-4, 0x1.7affaa0000000p-5, 0x1.d2abe80000000p-4, -0x1.b4093a0000000p-3, -0x1.73ff980000000p-2, 0x1.a889840000000p-5, 0x1.73c6dc0000000p-3, 0x1.bdcb9c0000000p-6, -0x1.0f13660000000p-7, -0x1.32e8b00000000p-3, -0x1.e6c3120000000p-4, 0x1.dd3ff60000000p-6, -0x1.44a1f00000000p-4, -0x1.b450540000000p-4, 0x1.52c74a0000000p-2, -0x1.1fa5660000000p-4, 0x1.0186180000000p-3, -0x1.e12ad00000000p-6, 0x1.49dff60000000p-4, 0x1.7cae440000000p-3, 0x1.b9fdce0000000p-8, 0x1.9699ec0000000p-3, -0x1.51acf00000000p-2, 0x1.8d820c0000000p-5, -0x1.250f2a0000000p-5, 0x1.3f11340000000p-3, 0x1.c42d5c0000000p-3, 0x1.ced84e0000000p-4, -0x1.01b8a60000000p-3, 0x1.cb1b320000000p-8, 0x1.51a2a40000000p-3, -0x1.a214600000000p-3}
, {-0x1.3084880000000p-2, -0x1.42589e0000000p-4, 0x1.593de40000000p-4, -0x1.7238e60000000p-5, -0x1.4de6620000000p-8, 0x1.4657780000000p-3, -0x1.a8a3260000000p-4, 0x1.38d7b40000000p-5, -0x1.1fed260000000p-4, -0x1.c64f520000000p-4, -0x1.07cf6a0000000p-4, -0x1.962a400000000p-5, -0x1.02ed440000000p-3, 0x1.171b6e0000000p-4, 0x1.6686800000000p-6, -0x1.36c7bc0000000p-4, 0x1.4fc92e0000000p-4, -0x1.974a8a0000000p-6, -0x1.0f54b00000000p-4, 0x1.ec2f5a0000000p-8, -0x1.cf9b680000000p-3, 0x1.eec78e0000000p-5, 0x1.6bbedc0000000p-4, 0x1.9351200000000p-8, 0x1.3db0ec0000000p-2, 0x1.94b3e80000000p-4, 0x1.2dead20000000p-2, 0x1.4c3a220000000p-4, 0x1.4378ec0000000p-5, -0x1.29863e0000000p-4, -0x1.894bdc0000000p-2, -0x1.1701d20000000p-4}
, {-0x1.67f7b00000000p-6, 0x1.1a78c60000000p-3, -0x1.f6cd9c0000000p-6, -0x1.5b158a0000000p-3, 0x1.a652f40000000p-5, -0x1.67e75e0000000p-5, 0x1.07adee0000000p-3, -0x1.00b1a00000000p-3, -0x1.c023cc0000000p-5, 0x1.6a88ae0000000p-4, -0x1.2c314c0000000p-4, -0x1.81001a0000000p-4, -0x1.15fb0e0000000p-5, 0x1.2a2e2c0000000p-2, 0x1.a0217a0000000p-6, 0x1.28c7c80000000p-3, 0x1.138fe00000000p-4, 0x1.fc2cc60000000p-4, 0x1.07762c0000000p-2, 0x1.c0face0000000p-3, -0x1.179ef00000000p-3, 0x1.745d840000000p-2, -0x1.1465340000000p-4, -0x1.200a680000000p-8, -0x1.3595600000000p-6, -0x1.047cea0000000p-4, 0x1.90ef4c0000000p-3, 0x1.ecaa7e0000000p-3, 0x1.3558b20000000p-3, -0x1.88e4ea0000000p-4, -0x1.1d3a920000000p-5, 0x1.72604e0000000p-5}
, {-0x1.7d22be0000000p-2, -0x1.9c64e60000000p-4, -0x1.da33380000000p-3, -0x1.0443d60000000p-2, -0x1.8795d20000000p-3, 0x1.c23bc60000000p-3, -0x1.94721c0000000p-3, -0x1.5b48780000000p-5, -0x1.5983920000000p-3, 0x1.0743500000000p-7, 0x1.b7cfde0000000p-5, 0x1.42572e0000000p-4, -0x1.97c9040000000p-4, -0x1.abc9440000000p-3, -0x1.285b960000000p-4, -0x1.5a97340000000p-3, -0x1.24e5820000000p-3, 0x1.9698e80000000p-5, -0x1.9405c60000000p-3, -0x1.537da60000000p-4, -0x1.9ca1500000000p-3, -0x1.1e05e60000000p-2, -0x1.86eaf80000000p-3, -0x1.e0f7160000000p-5, -0x1.4832880000000p-4, 0x1.dbeba00000000p-4, 0x1.6d31320000000p-7, 0x1.14caf80000000p-3, -0x1.1ce97a0000000p-3, 0x1.827ec60000000p-4, 0x1.4c4dd40000000p-3, -0x1.fc785e0000000p-3}
, {-0x1.89ffd40000000p-7, -0x1.5401be0000000p-3, 0x1.43749a0000000p-3, 0x1.74cd780000000p-6, 0x1.7a8c1a0000000p-7, -0x1.34bb340000000p-3, 0x1.eafc620000000p-6, 0x1.7499d60000000p-3, 0x1.7d46060000000p-3, -0x1.48086c0000000p-3, 0x1.f84a1e0000000p-5, 0x1.ad78c80000000p-3, -0x1.22914a0000000p-2, -0x1.c5c2940000000p-4, -0x1.7418420000000p-4, 0x1.3d88060000000p-2, 0x1.c129de0000000p-3, 0x1.38b89c0000000p-5, -0x1.457c6a0000000p-4, 0x1.cef5fc0000000p-2, 0x1.0d3dc40000000p-6, -0x1.49b5e40000000p-12, -0x1.1bfffa0000000p-3, 0x1.1bd1940000000p-2, 0x1.ea50b60000000p-3, 0x1.8af2a00000000p-4, 0x1.3409c60000000p-4, 0x1.9dc8ee0000000p-8, 0x1.100f880000000p-5, 0x1.c9022e0000000p-5, -0x1.c782f00000000p-4, -0x1.63397e0000000p-4}
, {-0x1.8d5e4e0000000p-3, 0x1.9b8d460000000p-4, 0x1.18ac100000000p-3, -0x1.98aee20000000p-3, -0x1.a7f7360000000p-4, 0x1.de28340000000p-2, 0x1.2146340000000p-3, 0x1.f80fa00000000p-4, 0x1.5741f80000000p-9, 0x1.18fd6c0000000p-4, 0x1.75c7dc0000000p-6, -0x1.3d35de0000000p-4, 0x1.7bda5c0000000p-4, 0x1.36344a0000000p-2, 0x1.a9baca0000000p-2, -0x1.3f314a0000000p-4, -0x1.ae76600000000p-5, -0x1.6c22740000000p-8, 0x1.1e765a0000000p-5, -0x1.f1a91a0000000p-4, 0x1.da7fc20000000p-8, 0x1.2aa7f80000000p-3, -0x1.4b849a0000000p-3, 0x1.1aede40000000p-5, -0x1.8bdcd40000000p-5, -0x1.bc24f40000000p-4, 0x1.4c81e20000000p-3, 0x1.6dbd4c0000000p-8, -0x1.76f7b40000000p-5, -0x1.09dfec0000000p-5, -0x1.2b63ee0000000p-3, -0x1.f928580000000p-5}
, {0x1.230f0a0000000p-5, -0x1.2866da0000000p-3, 0x1.399b700000000p-3, -0x1.bbea4a0000000p-3, 0x1.9826100000000p-4, -0x1.ed6f200000000p-6, 0x1.61bc240000000p-2, -0x1.52af8a0000000p-4, 0x1.3ccb5c0000000p-6, -0x1.572b020000000p-2, -0x1.c4935c0000000p-3, -0x1.2b96980000000p-4, -0x1.fd69780000000p-3, -0x1.bf95660000000p-4, 0x1.e7691e0000000p-6, -0x1.ea112c0000000p-5, 0x1.554f0c0000000p-3, -0x1.3153100000000p-3, -0x1.1665180000000p-2, 0x1.53ac5a0000000p-4, -0x1.98c8a00000000p-8, 0x1.cb01040000000p-6, -0x1.32b31a0000000p-5, 0x1.d631560000000p-4, 0x1.6873760000000p-3, 0x1.3ea7ec0000000p-5, 0x1.e9a76a0000000p-4, 0x1.a546360000000p-5, -0x1.b715660000000p-3, 0x1.2b73ca0000000p-7, -0x1.0f4b7c0000000p-4, -0x1.d353b60000000p-3}
, {-0x1.f3e3420000000p-6, 0x1.30caca0000000p-5, -0x1.29446a0000000p-3, -0x1.65b7a20000000p-3, -0x1.074f860000000p-2, 0x1.902c260000000p-3, -0x1.3a8b240000000p-2, 0x1.100e360000000p-5, -0x1.ae26b80000000p-3, -0x1.a6c88c0000000p-7, -0x1.a023720000000p-5, 0x1.2436140000000p-4, -0x1.80648c0000000p-5, -0x1.20e5740000000p-2, 0x1.7af9100000000p-3, -0x1.bb4c7a0000000p-3, -0x1.f0cfda0000000p-4, 0x1.b89eb20000000p-5, -0x1.a681540000000p-3, -0x1.6909dc0000000p-2, -0x1.687a000000000p-3, -0x1.782c9e0000000p-2, -0x1.e478a40000000p-3, 0x1.1528d20000000p-4, -0x1.2f3a720000000p-4, 0x1.12adc80000000p-4, -0x1.d15c540000000p-3, -0x1.1004fe0000000p-3, -0x1.6c5c1a0000000p-2, 0x1.e228740000000p-4, 0x1.118a780000000p-3, -0x1.07df3e0000000p-4}
, {-0x1.7d7de40000000p-4, -0x1.b283460000000p-4, 0x1.24e4d20000000p-3, -0x1.2498c40000000p-2, 0x1.430f4c0000000p-4, 0x1.f75c8e0000000p-5, 0x1.42f97c0000000p-3, -0x1.048bfc0000000p-4, 0x1.898d2e0000000p-2, -0x1.1d32520000000p-2, -0x1.ba66c60000000p-2, -0x1.d111320000000p-2, 0x1.18edea0000000p-3, 0x1.0111f60000000p-3, -0x1.0801640000000p-3, -0x1.f0214a0000000p-3, -0x1.22768a0000000p-3, -0x1.a8e9940000000p-3, 0x1.cd50dc0000000p-4, -0x1.fb831a0000000p-3, 0x1.97224a0000000p-5, 0x1.bed8360000000p-5, 0x1.3a09a00000000p-4, 0x1.969bf80000000p-5, -0x1.fc826e0000000p-3, -0x1.3d9c200000000p-3, 0x1.72415e0000000p-6, -0x1.80ae4a0000000p-12, -0x1.42af100000000p-5, -0x1.83b9b40000000p-8, -0x1.0bdd080000000p-10, -0x1.8573f20000000p-5}
, {0x1.7377760000000p-3, -0x1.bc19ac0000000p-4, 0x1.4b46180000000p-4, 0x1.fe17880000000p-3, 0x1.ffe32a0000000p-2, -0x1.130bb00000000p-3, 0x1.4cb8e40000000p-9, -0x1.ce41900000000p-6, 0x1.3fe2520000000p-2, 0x1.30c0d40000000p-5, -0x1.45a0320000000p-6, -0x1.b3452a0000000p-6, -0x1.c8bb220000000p-4, 0x1.3726500000000p-4, -0x1.2f41bc0000000p-2, 0x1.a69c1c0000000p-4, 0x1.219e8a0000000p-3, 0x1.9657740000000p-4, 0x1.799f060000000p-4, -0x1.b721e40000000p-4, -0x1.775b180000000p-4, 0x1.412da00000000p-5, 0x1.bdee680000000p-3, -0x1.6a19e60000000p-6, -0x1.6e80c20000000p-3, -0x1.b869440000000p-6, -0x1.94968a0000000p-4, -0x1.a46d1e0000000p-5, 0x1.c176ac0000000p-4, -0x1.09ca600000000p-8, -0x1.d994ae0000000p-4, 0x1.811ab00000000p-6}
, {-0x1.8a83a20000000p-4, -0x1.d1d4600000000p-4, -0x1.b1461e0000000p-2, 0x1.cd9ef60000000p-4, -0x1.c1b89a0000000p-6, -0x1.2be8100000000p-2, -0x1.7765400000000p-4, 0x1.be47540000000p-4, -0x1.8f83540000000p-4, -0x1.119b060000000p-3, 0x1.e5727c0000000p-3, 0x1.f426220000000p-3, -0x1.9dd8c60000000p-6, -0x1.c273080000000p-4, -0x1.f78eee0000000p-4, 0x1.02fee40000000p-2, -0x1.84684a0000000p-5, 0x1.500d960000000p-5, 0x1.196d8e0000000p-4, 0x1.152ba60000000p-3, 0x1.8d29960000000p-4, -0x1.1e27cc0000000p-4, -0x1.5590b40000000p-10, -0x1.f566f20000000p-6, 0x1.25a44a0000000p-5, -0x1.6fe2e40000000p-3, -0x1.2ac1380000000p-2, -0x1.2cb8c60000000p-3, -0x1.13b4240000000p-4, 0x1.e9b6fa0000000p-7, -0x1.0175940000000p-3, 0x1.8913b00000000p-3}
, {0x1.ce0b9e0000000p-3, 0x1.24df9a0000000p-3, 0x1.0fb1240000000p-2, 0x1.d5aa380000000p-4, 0x1.28d7ae0000000p-8, -0x1.2230a00000000p-3, 0x1.3f4c720000000p-4, -0x1.b3a3f40000000p-5, -0x1.70ba660000000p-5, 0x1.2c03180000000p-4, 0x1.be630e0000000p-5, -0x1.dc55de0000000p-4, -0x1.eb18fc0000000p-3, -0x1.665ad80000000p-4, 0x1.0353260000000p-3, -0x1.38605a0000000p-4, 0x1.47d1e40000000p-4, -0x1.d305b60000000p-4, -0x1.4293060000000p-2, -0x1.9f37080000000p-5, -0x1.1620140000000p-4, -0x1.2cb22a0000000p-7, 0x1.8280780000000p-4, 0x1.7719500000000p-6, 0x1.d620ee0000000p-3, 0x1.9028c20000000p-5, -0x1.9925da0000000p-4, -0x1.3f2b2a0000000p-5, -0x1.5320f60000000p-4, 0x1.6e56500000000p-4, -0x1.6c6b3a0000000p-2, -0x1.cd55d00000000p-4}
, {0x1.a2f69a0000000p-4, 0x1.3ad9260000000p-3, 0x1.7fa7e00000000p-7, 0x1.3d77540000000p-2, 0x1.8c3c360000000p-5, -0x1.bdddf40000000p-8, -0x1.2490720000000p-4, -0x1.f16f680000000p-5, 0x1.99c4880000000p-8, 0x1.e3fe9c0000000p-3, 0x1.7bf88c0000000p-3, -0x1.ec168c0000000p-3, -0x1.c992560000000p-6, 0x1.d4d8060000000p-5, -0x1.19fab00000000p-4, -0x1.3b30000000000p-5, 0x1.855ce60000000p-5, 0x1.0de2bc0000000p-3, 0x1.a200100000000p-6, -0x1.bc2cf20000000p-2, -0x1.413c100000000p-3, 0x1.1deeac0000000p-3, 0x1.0664380000000p-4, -0x1.85c6be0000000p-4, -0x1.2ccd320000000p-2, -0x1.c3b7a00000000p-5, -0x1.293bb60000000p-5, 0x1.72ceca0000000p-6, 0x1.0178e60000000p-5, -0x1.243dce0000000p-5, -0x1.14a00a0000000p-1, 0x1.a192ce0000000p-8}
, {-0x1.b059480000000p-3, -0x1.26f6ac0000000p-8, -0x1.cd23420000000p-11, 0x1.6df8300000000p-3, 0x1.0b43fe0000000p-7, -0x1.3a3dee0000000p-7, -0x1.7027fa0000000p-3, 0x1.7390180000000p-5, 0x1.ae83460000000p-7, 0x1.574be00000000p-4, -0x1.8d53680000000p-6, 0x1.80f5a80000000p-9, 0x1.b5aa5c0000000p-3, 0x1.934dd20000000p-3, -0x1.1ff39a0000000p-3, -0x1.7582780000000p-2, 0x1.9c80600000000p-4, -0x1.752d4e0000000p-3, -0x1.fb97600000000p-4, -0x1.5798d40000000p-2, -0x1.369eca0000000p-2, -0x1.e55bd20000000p-8, 0x1.6411b60000000p-3, -0x1.ded9140000000p-4, 0x1.68e2f60000000p-4, -0x1.87278e0000000p-3, 0x1.a907aa0000000p-7, 0x1.7798ae0000000p-3, -0x1.12ad320000000p-4, 0x1.8a9e800000000p-5, -0x1.a218540000000p-4, 0x1.b09f120000000p-3}
, {0x1.45fb9a0000000p-5, 0x1.896f3c0000000p-4, -0x1.2a93ec0000000p-9, -0x1.8343c20000000p-6, -0x1.231f4a0000000p-5, -0x1.15ee5c0000000p-4, 0x1.ea9f980000000p-3, 0x1.8cbeb20000000p-4, 0x1.65e5d60000000p-2, -0x1.483cb60000000p-2, 0x1.3fcea60000000p-4, 0x1.ac80920000000p-5, -0x1.86487a0000000p-3, 0x1.2ed62a0000000p-5, -0x1.31b3a00000000p-4, 0x1.15bdd60000000p-5, 0x1.9047d80000000p-5, 0x1.780e9a0000000p-4, 0x1.3626e20000000p-5, 0x1.998ba20000000p-7, 0x1.7481740000000p-3, 0x1.2de1740000000p-8, -0x1.11bf300000000p-3, 0x1.70a3660000000p-6, -0x1.c31c6c0000000p-3, -0x1.ed7d3c0000000p-4, -0x1.0c3bee0000000p-3, -0x1.5899680000000p-5, -0x1.1b6e080000000p-5, -0x1.325fb60000000p-6, 0x1.ffe40a0000000p-3, -0x1.95bef60000000p-2}
, {0x1.3774d80000000p-3, -0x1.1e5ffe0000000p-3, -0x1.d533000000000p-6, -0x1.108b560000000p-2, 0x1.c4f5940000000p-3, 0x1.4cee100000000p-5, -0x1.79ef360000000p-7, 0x1.a4d7a40000000p-4, -0x1.441d8c0000000p-3, 0x1.4332c40000000p-3, -0x1.2cf19e0000000p-2, -0x1.a634060000000p-2, 0x1.66ebf80000000p-3, 0x1.56cf0a0000000p-5, -0x1.4e2d460000000p-4, -0x1.8b82340000000p-4, 0x1.770efe0000000p-3, 0x1.4200280000000p-4, 0x1.b9c97a0000000p-3, -0x1.24b0280000000p-4, 0x1.e7d9b00000000p-4, 0x1.360ff80000000p-5, 0x1.350c040000000p-4, 0x1.36a5b00000000p-6, -0x1.a298360000000p-3, 0x1.89184a0000000p-6, -0x1.b62b7e0000000p-6, 0x1.7319900000000p-5, -0x1.41ff000000000p-5, -0x1.2d3e440000000p-3, 0x1.2c19520000000p-4, 0x1.43faf20000000p-3}
, {-0x1.ee3ee60000000p-4, -0x1.1311240000000p-4, -0x1.db2cbe0000000p-8, 0x1.af93960000000p-4, -0x1.98f1f00000000p-4, 0x1.4ce6e20000000p-2, -0x1.d89bf40000000p-11, 0x1.4f8c060000000p-3, -0x1.7fd71a0000000p-3, -0x1.eb0fda0000000p-4, -0x1.2897b80000000p-3, -0x1.a674680000000p-5, 0x1.6b0e1a0000000p-2, 0x1.70ef7e0000000p-4, 0x1.eb6b4e0000000p-8, -0x1.a56eda0000000p-2, 0x1.54b9240000000p-3, -0x1.03e5600000000p-3, -0x1.830c100000000p-6, -0x1.f2aad00000000p-3, 0x1.91ec9e0000000p-6, 0x1.260ba40000000p-4, 0x1.5eff180000000p-6, -0x1.c5b2b40000000p-4, 0x1.5d40020000000p-4, 0x1.7300b00000000p-8, 0x1.4068b40000000p-3, 0x1.7a2e060000000p-4, -0x1.de974e0000000p-4, 0x1.6cf21c0000000p-3, 0x1.4df70a0000000p-8, 0x1.42d90c0000000p-5}
, {-0x1.43404a0000000p-2, 0x1.2227e20000000p-3, -0x1.de87040000000p-4, -0x1.185f940000000p-4, 0x1.74bc0c0000000p-3, 0x1.1406200000000p-10, -0x1.12f6640000000p-4, 0x1.4adb7c0000000p-3, 0x1.7ace2c0000000p-3, -0x1.d924ac0000000p-3, 0x1.5973900000000p-6, 0x1.20b6de0000000p-3, 0x1.98fc900000000p-4, -0x1.6ee0440000000p-2, -0x1.c122c00000000p-4, -0x1.1bbdd40000000p-2, -0x1.6c18de0000000p-6, -0x1.7a79de0000000p-4, -0x1.b16c600000000p-3, -0x1.9c67780000000p-4, -0x1.c69c040000000p-3, -0x1.5e97d00000000p-2, 0x1.040a620000000p-3, 0x1.6918da0000000p-3, 0x1.cb06d60000000p-4, -0x1.dc77480000000p-5, -0x1.8a24980000000p-3, 0x1.11c7820000000p-7, -0x1.7793400000000p-2, 0x1.fe7a3a0000000p-6, 0x1.5a7ef80000000p-2, 0x1.b9684a0000000p-6}
, {0x1.8a49660000000p-3, -0x1.7c11920000000p-6, -0x1.a9f6100000000p-8, 0x1.5fc0020000000p-4, 0x1.de91960000000p-3, -0x1.acb9500000000p-5, -0x1.aaaa8a0000000p-4, -0x1.5df9e80000000p-3, -0x1.426b600000000p-4, 0x1.9c3b000000000p-3, 0x1.2653bc0000000p-5, -0x1.0d016a0000000p-1, 0x1.d14d560000000p-5, -0x1.e2af5c0000000p-8, -0x1.1118de0000000p-5, 0x1.3d598a0000000p-3, -0x1.f5af080000000p-9, 0x1.4dadd00000000p-3, 0x1.579e2a0000000p-4, -0x1.02862a0000000p-3, -0x1.00d5b20000000p-2, 0x1.50b3320000000p-4, 0x1.264a720000000p-4, -0x1.5334de0000000p-2, -0x1.3e6ba40000000p-2, 0x1.2101fe0000000p-4, -0x1.7932be0000000p-5, 0x1.e3c8160000000p-5, 0x1.29256c0000000p-4, -0x1.1e5ee00000000p-4, -0x1.109f080000000p-2, 0x1.8155420000000p-3}
, {0x1.64a2e40000000p-4, 0x1.bc5ad20000000p-4, -0x1.41e8600000000p-2, 0x1.4e60100000000p-8, -0x1.ebd8180000000p-2, -0x1.88cb560000000p-5, -0x1.db665a0000000p-5, -0x1.cbb4480000000p-5, -0x1.8732ea0000000p-3, -0x1.8e518c0000000p-5, 0x1.7ba7da0000000p-3, 0x1.1583b40000000p-3, 0x1.f168ec0000000p-4, 0x1.25dd580000000p-3, 0x1.1ec82e0000000p-4, 0x1.4d77540000000p-4, 0x1.5290700000000p-3, -0x1.38cade0000000p-5, 0x1.05fd580000000p-4, 0x1.f4e2de0000000p-6, 0x1.94de640000000p-3, -0x1.3828c20000000p-6, -0x1.2e64480000000p-1, -0x1.4d892e0000000p-6, -0x1.3583560000000p-2, -0x1.3707d20000000p-5, -0x1.337d0a0000000p-2, 0x1.07e0760000000p-6, -0x1.2711260000000p-3, -0x1.15ea000000000p-3, 0x1.d5bea60000000p-4, -0x1.6b43360000000p-2}
, {-0x1.0569f60000000p-2, -0x1.ae4ee80000000p-4, -0x1.25de4a0000000p-2, -0x1.c0caa00000000p-5, -0x1.ca1db80000000p-2, 0x1.b991560000000p-4, -0x1.2861040000000p-2, 0x1.a033ca0000000p-5, -0x1.7c02000000000p-4, -0x1.7317440000000p-3, -0x1.1d4e640000000p-5, -0x1.4f0df00000000p-13, 0x1.c3688a0000000p-3, -0x1.d328e40000000p-4, 0x1.7bb2560000000p-5, -0x1.5ce8580000000p-3, 0x1.e6a0d20000000p-4, -0x1.425fa00000000p-6, 0x1.d000480000000p-6, -0x1.3181c20000000p-3, 0x1.45b7420000000p-3, -0x1.96f0680000000p-4, 0x1.6158d40000000p-4, -0x1.c7de2a0000000p-5, -0x1.840b020000000p-7, -0x1.d55fa60000000p-4, -0x1.ecfca80000000p-3, -0x1.27a9840000000p-4, -0x1.8b749c0000000p-2, 0x1.b5c9040000000p-4, 0x1.4f48040000000p-2, 0x1.7a8f540000000p-4}
, {-0x1.1081540000000p-5, -0x1.95140e0000000p-4, -0x1.49ad560000000p-2, 0x1.85c0fe0000000p-5, -0x1.463cc00000000p-2, 0x1.10f9f20000000p-3, -0x1.c3bb1c0000000p-2, 0x1.693a9a0000000p-3, 0x1.f831a00000000p-11, -0x1.075b940000000p-2, 0x1.fa9c3e0000000p-4, 0x1.15e4520000000p-3, 0x1.027ae80000000p-4, -0x1.aa3c500000000p-2, -0x1.bfa4d60000000p-7, 0x1.81b4c60000000p-5, 0x1.15cce60000000p-5, 0x1.0b8eca0000000p-3, -0x1.ef21680000000p-3, -0x1.acbe840000000p-3, 0x1.3d543c0000000p-4, -0x1.07ecb00000000p-1, 0x1.c2aeb20000000p-7, 0x1.93f39c0000000p-4, -0x1.9c6e9c0000000p-7, 0x1.c109480000000p-5, -0x1.f88ed20000000p-4, -0x1.6af0e80000000p-9, -0x1.a762e20000000p-4, -0x1.2e42260000000p-3, -0x1.3338ba0000000p-6, -0x1.459ca40000000p-6}
, {-0x1.dcf7e60000000p-3, 0x1.8b62e00000000p-7, 0x1.7b40c20000000p-6, -0x1.16b8360000000p-2, -0x1.d0fde20000000p-2, 0x1.69a4720000000p-3, 0x1.f35e620000000p-5, -0x1.3c5f260000000p-3, -0x1.51eac80000000p-4, -0x1.7eee020000000p-2, -0x1.5845000000000p-4, 0x1.80484c0000000p-5, -0x1.185c800000000p-2, -0x1.bc93760000000p-7, 0x1.63d7ca0000000p-2, 0x1.6013bc0000000p-7, 0x1.1e0cee0000000p-5, 0x1.cde1840000000p-3, -0x1.15e81e0000000p-5, 0x1.f78ad40000000p-5, -0x1.49a3ae0000000p-4, 0x1.208dcc0000000p-3, -0x1.53fcc80000000p-2, 0x1.5536160000000p-4, 0x1.0c4aa00000000p-4, 0x1.f59c320000000p-5, 0x1.c6bf180000000p-4, 0x1.6491640000000p-5, -0x1.5a05480000000p-4, 0x1.15af7c0000000p-6, 0x1.9881780000000p-4, -0x1.3f336a0000000p-2}
, {0x1.ef7d660000000p-6, 0x1.591e680000000p-3, -0x1.14c7540000000p-3, 0x1.e903260000000p-5, -0x1.4c684a0000000p-6, -0x1.fd432c0000000p-4, 0x1.e7f5f20000000p-4, -0x1.465ad60000000p-3, -0x1.59d8a40000000p-4, -0x1.10fa940000000p-4, -0x1.c8c6dc0000000p-5, 0x1.c4ae3a0000000p-7, -0x1.19bdf60000000p-3, -0x1.2ab9800000000p-8, 0x1.45f4d20000000p-7, 0x1.56cf2e0000000p-2, -0x1.5bb0860000000p-6, 0x1.8bf7fe0000000p-4, -0x1.866fe40000000p-8, 0x1.7b288e0000000p-2, -0x1.0fc2e00000000p-5, -0x1.0d84ac0000000p-4, -0x1.085e140000000p-3, 0x1.aee0640000000p-5, -0x1.c66fc20000000p-7, 0x1.5f0f9a0000000p-6, 0x1.4987d40000000p-3, 0x1.f68e1c0000000p-4, 0x1.5fa2f60000000p-3, 0x1.dde1a20000000p-4, -0x1.c5f1e60000000p-4, -0x1.39aec80000000p-4}
, {-0x1.81713a0000000p-6, -0x1.36b61e0000000p-5, 0x1.01b7cc0000000p-2, -0x1.733cea0000000p-2, 0x1.203d120000000p-3, 0x1.4b9aea0000000p-2, 0x1.31b3660000000p-8, 0x1.e41f900000000p-6, 0x1.4140c60000000p-3, -0x1.07d0360000000p-2, -0x1.a070620000000p-3, -0x1.4720280000000p-4, -0x1.15c07a0000000p-4, -0x1.1b3e7e0000000p-4, -0x1.e0d1ae0000000p-4, 0x1.29ed440000000p-5, 0x1.df86a40000000p-3, 0x1.b1ee140000000p-4, -0x1.1545ce0000000p-6, 0x1.de3dba0000000p-10, -0x1.c62d7e0000000p-3, 0x1.b416d20000000p-5, 0x1.dc5c120000000p-8, 0x1.8d4f0c0000000p-8, -0x1.6b69420000000p-4, 0x1.78376a0000000p-3, 0x1.4ed4060000000p-2, -0x1.b711380000000p-4, 0x1.9eede00000000p-3, 0x1.4f1f5e0000000p-5, 0x1.03020c0000000p-2, -0x1.7b599e0000000p-5}
, {0x1.1c93860000000p-2, -0x1.4fc2400000000p-6, -0x1.68cebe0000000p-5, -0x1.20be7c0000000p-2, -0x1.804c5c0000000p-2, -0x1.cd8bae0000000p-6, 0x1.af7c780000000p-4, 0x1.042b1c0000000p-5, -0x1.0f27740000000p-4, -0x1.8fcec40000000p-5, -0x1.720b520000000p-5, -0x1.0ebaee0000000p-2, 0x1.7fa7040000000p-3, -0x1.22e7020000000p-8, -0x1.7515700000000p-5, -0x1.d9d03e0000000p-5, -0x1.14caf60000000p-3, 0x1.c5c28c0000000p-4, 0x1.b7aa760000000p-4, -0x1.226db40000000p-4, 0x1.093b1e0000000p-2, -0x1.3f36900000000p-5, -0x1.96f2b40000000p-5, -0x1.0ae6820000000p-3, -0x1.476cb80000000p-4, -0x1.7ed2240000000p-4, -0x1.6078f80000000p-3, -0x1.150c640000000p-3, -0x1.3863de0000000p-5, 0x1.a15f920000000p-3, 0x1.64a97c0000000p-5, 0x1.0dec180000000p-3}
, {0x1.45cde60000000p-8, 0x1.d6e83a0000000p-6, -0x1.a7c3f60000000p-3, -0x1.83ad5e0000000p-6, 0x1.25dc0c0000000p-5, -0x1.fc05e00000000p-3, -0x1.6aeb160000000p-2, -0x1.54080a0000000p-3, -0x1.660a760000000p-4, -0x1.32de200000000p-3, -0x1.18147e0000000p-3, 0x1.2264400000000p-3, 0x1.11b1bc0000000p-4, -0x1.8b92560000000p-2, -0x1.80eb580000000p-2, 0x1.a4862c0000000p-4, 0x1.71169e0000000p-3, 0x1.5e6c2e0000000p-3, -0x1.5468f60000000p-4, 0x1.6e47700000000p-5, 0x1.4228b60000000p-3, -0x1.e6157e0000000p-3, 0x1.2871600000000p-6, 0x1.c0a4100000000p-5, 0x1.085aaa0000000p-3, -0x1.b1a1cc0000000p-4, -0x1.7f76f60000000p-6, 0x1.06c3980000000p-4, 0x1.4bd51e0000000p-3, 0x1.4795360000000p-3, -0x1.26c06c0000000p-3, 0x1.64dd6c0000000p-3}
, {0x1.aec3980000000p-3, 0x1.302cd80000000p-5, -0x1.54735e0000000p-3, 0x1.1a35080000000p-3, -0x1.e4a3280000000p-2, 0x1.0c07140000000p-3, -0x1.6f41440000000p-6, -0x1.0098a00000000p-6, -0x1.6d6bb60000000p-3, -0x1.4bead80000000p-5, -0x1.498d080000000p-5, -0x1.41dea40000000p-7, 0x1.72e8bc0000000p-3, 0x1.f5094c0000000p-6, 0x1.7e4bec0000000p-4, -0x1.875b820000000p-4, 0x1.bc804a0000000p-4, -0x1.8dfdfa0000000p-12, -0x1.b5ee920000000p-6, -0x1.21daea0000000p-2, 0x1.6fd3160000000p-2, -0x1.c1f0320000000p-5, -0x1.8646460000000p-2, 0x1.4a7e940000000p-3, -0x1.7b3caa0000000p-3, -0x1.72732e0000000p-4, -0x1.1b27700000000p-3, -0x1.dafa160000000p-6, -0x1.6e66960000000p-2, -0x1.4ab5b00000000p-4, 0x1.ba8f760000000p-4, -0x1.19b36a0000000p-2}
, {0x1.b34f220000000p-3, -0x1.a18fd60000000p-7, -0x1.6a74100000000p-3, 0x1.37ffae0000000p-5, 0x1.08adb80000000p-4, -0x1.c70e2a0000000p-3, 0x1.f7f2520000000p-4, 0x1.7724ec0000000p-4, 0x1.5715b40000000p-2, -0x1.3519180000000p-5, -0x1.a3888e0000000p-7, -0x1.e8dab80000000p-8, -0x1.005d6a0000000p-2, -0x1.3754b00000000p-5, -0x1.88bd1a0000000p-4, 0x1.fd1a540000000p-4, 0x1.60ae7a0000000p-3, 0x1.985c9c0000000p-5, 0x1.0a55be0000000p-2, 0x1.d85a980000000p-4, 0x1.bdce280000000p-3, -0x1.0584040000000p-4, -0x1.c302260000000p-6, -0x1.b115760000000p-4, -0x1.0310fe0000000p-1, -0x1.62c7520000000p-3, -0x1.d5c3600000000p-3, 0x1.12da160000000p-3, 0x1.c251980000000p-4, -0x1.977bc00000000p-3, 0x1.62effa0000000p-4, -0x1.47250e0000000p-4}
, {-0x1.a18b4e0000000p-3, -0x1.085efa0000000p-3, -0x1.c34c000000000p-2, -0x1.53b4f40000000p-6, -0x1.9a963c0000000p-2, 0x1.b8b1a40000000p-4, -0x1.141d5c0000000p-1, -0x1.25aba00000000p-7, -0x1.5803c60000000p-4, -0x1.2d45f60000000p-2, 0x1.bfbb480000000p-4, 0x1.ca0d7e0000000p-6, 0x1.69c1a00000000p-5, -0x1.06e4220000000p-1, -0x1.37724a0000000p-4, -0x1.3265180000000p-9, 0x1.b37cc60000000p-4, 0x1.23a7d40000000p-4, -0x1.ee92100000000p-3, -0x1.45d0a20000000p-2, -0x1.9db37c0000000p-5, -0x1.c584e20000000p-2, -0x1.e6de660000000p-7, 0x1.9f64ae0000000p-4, 0x1.a13a9a0000000p-4, -0x1.1aa4800000000p-9, -0x1.20c93e0000000p-2, -0x1.999c8c0000000p-6, -0x1.006c720000000p-2, -0x1.927bf00000000p-8, 0x1.4da91c0000000p-3, 0x1.53422e0000000p-4}
, {0x1.1b755a0000000p-3, -0x1.9228420000000p-4, 0x1.83896a0000000p-5, -0x1.e4c7520000000p-5, 0x1.cd082c0000000p-3, 0x1.43855c0000000p-3, 0x1.6675bc0000000p-4, 0x1.79849c0000000p-3, 0x1.4639540000000p-3, 0x1.56394a0000000p-3, -0x1.7631d00000000p-5, -0x1.8a3fd80000000p-3, 0x1.8532840000000p-4, 0x1.dfdaa80000000p-4, 0x1.2874080000000p-3, -0x1.8adb100000000p-2, 0x1.5582700000000p-4, -0x1.6bb2da0000000p-3, 0x1.7ce67c0000000p-4, -0x1.d0baac0000000p-2, -0x1.8889c60000000p-4, -0x1.5bf43a0000000p-5, 0x1.28f9e40000000p-4, 0x1.b28df20000000p-4, -0x1.a4cbac0000000p-3, -0x1.7abb9e0000000p-4, -0x1.06047a0000000p-3, 0x1.e33aae0000000p-3, -0x1.7a6ada0000000p-3, 0x1.dda5520000000p-3, 0x1.40bb860000000p-4, -0x1.7908300000000p-7}
, {0x1.13734e0000000p-5, 0x1.8cd1000000000p-4, -0x1.99c9560000000p-5, 0x1.8fd2060000000p-4, -0x1.297b640000000p-4, -0x1.3146c40000000p-9, -0x1.0f85f00000000p-3, 0x1.445f240000000p-4, 0x1.5198400000000p-3, -0x1.5da8fc0000000p-3, 0x1.59ed9c0000000p-5, 0x1.61d7f40000000p-3, 0x1.95860a0000000p-6, -0x1.0fb0a60000000p-3, -0x1.2d3a880000000p-2, 0x1.0e55440000000p-5, 0x1.9fd84c0000000p-3, 0x1.2ffda80000000p-5, -0x1.0c13a60000000p-2, -0x1.c55c2e0000000p-3, 0x1.2fb84a0000000p-3, -0x1.ab084e0000000p-2, -0x1.381b2c0000000p-4, 0x1.560a080000000p-4, 0x1.d22ecc0000000p-3, 0x1.51e5be0000000p-7, -0x1.5c26680000000p-5, 0x1.5bda520000000p-3, -0x1.ac544a0000000p-4, -0x1.bc43f20000000p-5, -0x1.46ed740000000p-7, -0x1.1380480000000p-5}
, {0x1.61855e0000000p-4, 0x1.0a5b260000000p-5, 0x1.83ae660000000p-2, -0x1.0c78c00000000p-2, 0x1.4d50e60000000p-6, -0x1.18c75e0000000p-3, 0x1.18a3da0000000p-2, 0x1.92a7800000000p-4, 0x1.c86c660000000p-5, -0x1.527d560000000p-5, 0x1.059d1e0000000p-6, 0x1.f93d760000000p-5, -0x1.4771780000000p-2, -0x1.a535880000000p-4, -0x1.9177d40000000p-5, -0x1.2781b80000000p-3, -0x1.89b6e00000000p-3, -0x1.40a4920000000p-3, -0x1.18224a0000000p-2, 0x1.65bc060000000p-7, 0x1.8800dc0000000p-8, 0x1.b9c2ce0000000p-6, -0x1.52c1aa0000000p-5, 0x1.abe67a0000000p-4, -0x1.59de940000000p-4, 0x1.2508220000000p-3, -0x1.21f21c0000000p-3, -0x1.60cb280000000p-4, -0x1.3ae38e0000000p-3, 0x1.44aa620000000p-3, -0x1.63fe020000000p-7, -0x1.18e3960000000p-2}
, {-0x1.512a300000000p-4, -0x1.fa6aa80000000p-4, -0x1.d3f9ce0000000p-4, -0x1.1b0f2c0000000p-3, 0x1.519f040000000p-4, 0x1.188a140000000p-3, -0x1.7961300000000p-3, -0x1.0113e60000000p-6, -0x1.1393600000000p-4, 0x1.155efe0000000p-1, -0x1.0bd8200000000p-5, 0x1.db138e0000000p-10, -0x1.1494660000000p-4, -0x1.7fff380000000p-3, 0x1.3156e40000000p-3, -0x1.652f9e0000000p-3, -0x1.2512960000000p-8, 0x1.26e0b60000000p-8, -0x1.5964a60000000p-3, -0x1.0581020000000p-2, -0x1.54aa040000000p-3, -0x1.368a020000000p-3, -0x1.a21f920000000p-4, -0x1.be90120000000p-5, -0x1.102f780000000p-4, -0x1.4cc08a0000000p-4, -0x1.ab2cfe0000000p-3, -0x1.3e832a0000000p-5, -0x1.40f9360000000p-2, 0x1.1a52320000000p-7, -0x1.834ac20000000p-5, -0x1.cbe1360000000p-5}
, {-0x1.2f8d220000000p-2, 0x1.89556c0000000p-7, -0x1.2c8b760000000p-4, -0x1.3a934a0000000p-3, -0x1.2940660000000p-2, 0x1.624c4a0000000p-5, 0x1.c074e40000000p-7, -0x1.82bfd40000000p-4, -0x1.6862080000000p-3, -0x1.2aecb60000000p-2, 0x1.961c000000000p-5, 0x1.cb69b80000000p-3, 0x1.ca3a620000000p-4, -0x1.38923a0000000p-7, 0x1.3993ca0000000p-3, -0x1.8643740000000p-5, 0x1.7206f00000000p-4, -0x1.7d2d7e0000000p-5, -0x1.5c1aaa0000000p-5, 0x1.772ba40000000p-4, 0x1.38bbc00000000p-7, 0x1.09eb1c0000000p-6, -0x1.9f89bc0000000p-4, -0x1.0539980000000p-4, 0x1.a66e340000000p-2, 0x1.7980e00000000p-3, 0x1.fd56b00000000p-4, 0x1.7624aa0000000p-4, -0x1.b0ef580000000p-5, 0x1.8735cc0000000p-3, 0x1.ffab0e0000000p-5, -0x1.52a0d40000000p-3}
, {0x1.dc63be0000000p-4, -0x1.007ac60000000p-4, -0x1.24c5960000000p-2, -0x1.516e860000000p-6, 0x1.74eaa80000000p-3, 0x1.0e94160000000p-4, -0x1.28df2e0000000p-2, -0x1.841c4c0000000p-9, -0x1.a422380000000p-5, -0x1.96694c0000000p-4, -0x1.0b84700000000p-3, 0x1.375f060000000p-6, -0x1.c953080000000p-4, -0x1.7b70380000000p-2, 0x1.ee55d40000000p-3, 0x1.e1b82e0000000p-3, -0x1.2ddd500000000p-4, -0x1.acb3fa0000000p-4, 0x1.6c0a500000000p-3, 0x1.eaddfc0000000p-5, 0x1.a5d8c80000000p-4, -0x1.aafc0e0000000p-3, -0x1.eeaf4a0000000p-5, -0x1.91631e0000000p-6, -0x1.05faf40000000p-3, 0x1.6564ca0000000p-3, -0x1.8f70540000000p-4, -0x1.1e07be0000000p-5, -0x1.14c6160000000p-1, 0x1.15a7140000000p-6, -0x1.fd47140000000p-4, 0x1.3780440000000p-6}
, {0x1.9c1b100000000p-5, 0x1.d2dc5a0000000p-4, -0x1.7ba4d80000000p-7, -0x1.2806ba0000000p-7, 0x1.cf78980000000p-3, -0x1.2b47e20000000p-2, 0x1.3fe7860000000p-3, -0x1.b6047c0000000p-4, 0x1.aef03a0000000p-5, 0x1.2111a40000000p-4, -0x1.7a65160000000p-5, -0x1.4b8b540000000p-4, 0x1.2330da0000000p-6, 0x1.16bc080000000p-3, 0x1.eb6b520000000p-3, -0x1.f8f2880000000p-3, 0x1.a02f480000000p-6, 0x1.7d9bba0000000p-5, -0x1.39d1340000000p-3, -0x1.4682e60000000p-2, -0x1.93f4200000000p-4, -0x1.6ac34a0000000p-4, 0x1.4c642e0000000p-5, 0x1.84cba60000000p-4, -0x1.5456980000000p-3, 0x1.0f3eb60000000p-3, -0x1.18a8ae0000000p-2, 0x1.96b5080000000p-3, -0x1.a1a0e80000000p-2, 0x1.b68f680000000p-6, 0x1.586b300000000p-2, 0x1.08dbf80000000p-3}
, {-0x1.464ca20000000p-4, -0x1.0391e40000000p-3, 0x1.e76e780000000p-4, -0x1.4abecc0000000p-2, 0x1.a354980000000p-4, 0x1.e21dae0000000p-4, -0x1.30892c0000000p-5, -0x1.a2983e0000000p-5, -0x1.3b48780000000p-7, -0x1.0ab5380000000p-2, -0x1.f0806a0000000p-3, -0x1.98d6aa0000000p-5, -0x1.a8f4d00000000p-13, 0x1.39e6580000000p-4, -0x1.69a5680000000p-4, 0x1.e1731c0000000p-6, -0x1.0ccc9c0000000p-3, -0x1.975c780000000p-7, 0x1.0b6e8e0000000p-2, 0x1.0a04c20000000p-2, 0x1.4f770e0000000p-4, 0x1.c157300000000p-3, -0x1.5e6f900000000p-4, -0x1.f90f360000000p-4, -0x1.4554c20000000p-4, -0x1.8893240000000p-3, 0x1.5eeaf20000000p-2, -0x1.451b020000000p-3, 0x1.627fdc0000000p-4, -0x1.c701940000000p-5, -0x1.2096f60000000p-5, -0x1.9ff8960000000p-5}
, {0x1.3ead0a0000000p-6, 0x1.b8c2680000000p-5, -0x1.4aa0d80000000p-3, 0x1.e4c4ae0000000p-5, -0x1.f16e1e0000000p-3, 0x1.5d27fa0000000p-3, 0x1.2d7f260000000p-8, -0x1.b66ad60000000p-4, -0x1.af4ca20000000p-3, -0x1.2992ec0000000p-2, 0x1.227bb20000000p-4, 0x1.b7c7300000000p-5, 0x1.4a47c60000000p-3, -0x1.1122180000000p-5, -0x1.05877e0000000p-4, -0x1.4dbe240000000p-9, 0x1.7aeeee0000000p-6, 0x1.7f5edc0000000p-4, -0x1.43a9e80000000p-3, -0x1.246b920000000p-3, 0x1.4365980000000p-2, -0x1.ce11fa0000000p-3, -0x1.856ac20000000p-3, 0x1.3215300000000p-3, 0x1.c7085c0000000p-2, 0x1.cd6ab20000000p-4, 0x1.01e9ac0000000p-3, -0x1.08dd7c0000000p-3, -0x1.1f49aa0000000p-2, 0x1.8173c80000000p-5, 0x1.26e72c0000000p-4, -0x1.4ba4d60000000p-3}
, {0x1.c5a30c0000000p-3, -0x1.201f4c0000000p-4, 0x1.3eb4d40000000p-4, -0x1.de177a0000000p-5, 0x1.5319500000000p-3, 0x1.6d523e0000000p-4, 0x1.d186100000000p-7, 0x1.78eb220000000p-3, 0x1.73f8060000000p-3, 0x1.06e5320000000p-3, 0x1.a53b740000000p-4, -0x1.88287c0000000p-3, -0x1.623f620000000p-5, 0x1.00bfda0000000p-5, 0x1.c6fe820000000p-4, -0x1.0a3f280000000p-3, 0x1.0926b80000000p-5, -0x1.80a81a0000000p-5, -0x1.ab91f60000000p-2, -0x1.cb4f9a0000000p-2, -0x1.1e93be0000000p-2, -0x1.f9f8700000000p-4, 0x1.14a7a40000000p-4, -0x1.05757a0000000p-6, -0x1.7b7e8e0000000p-3, 0x1.24ff180000000p-4, -0x1.0073160000000p-2, 0x1.ba58d60000000p-4, -0x1.c94cf20000000p-3, 0x1.5c9c3a0000000p-7, 0x1.ef3eec0000000p-4, -0x1.abb28c0000000p-4}
, {0x1.48bb960000000p-3, 0x1.cf702a0000000p-5, -0x1.0498e60000000p-4, 0x1.461d900000000p-2, 0x1.1cb8e00000000p-4, -0x1.60f9580000000p-2, 0x1.d0cf960000000p-5, 0x1.e05ee60000000p-8, -0x1.850bc80000000p-5, 0x1.55ffe20000000p-4, 0x1.40273a0000000p-3, 0x1.8decf20000000p-5, -0x1.564c7e0000000p-4, -0x1.fc93bc0000000p-6, -0x1.11ff780000000p-4, 0x1.fd0cdc0000000p-4, -0x1.3de7fa0000000p-3, -0x1.d14bac0000000p-4, -0x1.372bc80000000p-5, 0x1.fe0f920000000p-3, -0x1.8bb9ae0000000p-3, -0x1.369f280000000p-5, 0x1.2cdc7e0000000p-4, 0x1.1be3f00000000p-3, 0x1.9014a00000000p-5, 0x1.6e27820000000p-3, -0x1.083f880000000p-2, -0x1.9faefc0000000p-4, -0x1.09ac340000000p-5, 0x1.37d0680000000p-5, -0x1.77b1880000000p-4, 0x1.66e3080000000p-3}
, {0x1.70a3c20000000p-9, 0x1.47064e0000000p-4, -0x1.c571a00000000p-5, 0x1.f97c480000000p-3, -0x1.0df5d00000000p-4, -0x1.d9f0c80000000p-4, -0x1.3b99c00000000p-5, -0x1.94baea0000000p-4, -0x1.e9a0660000000p-4, 0x1.e6fd300000000p-5, 0x1.92a2940000000p-3, 0x1.429dce0000000p-4, 0x1.a873380000000p-6, -0x1.00c67c0000000p-7, 0x1.1609820000000p-3, -0x1.6fe2800000000p-4, -0x1.23cca20000000p-3, 0x1.5d69ea0000000p-3, -0x1.3fe3e20000000p-2, -0x1.55491c0000000p-3, 0x1.d5f3680000000p-7, -0x1.34a62a0000000p-3, 0x1.9a60e20000000p-4, 0x1.fa9bac0000000p-9, 0x1.2a0e4c0000000p-2, 0x1.fde5920000000p-4, -0x1.5a512a0000000p-7, 0x1.a27ff20000000p-4, -0x1.5f8ac20000000p-2, 0x1.da04980000000p-4, -0x1.7a59e80000000p-5, -0x1.7ae78c0000000p-5}
, {-0x1.bb27c40000000p-5, 0x1.1e17e80000000p-3, 0x1.6339860000000p-6, 0x1.fb17d20000000p-3, -0x1.c925aa0000000p-4, -0x1.0a8d8c0000000p-3, 0x1.dd18780000000p-3, -0x1.a6a8820000000p-4, -0x1.fe77900000000p-4, 0x1.84a7fa0000000p-4, 0x1.3aa6920000000p-3, -0x1.8025ac0000000p-4, 0x1.1ed0480000000p-4, 0x1.1d52aa0000000p-2, 0x1.3cff960000000p-7, 0x1.fd3da60000000p-8, -0x1.da925a0000000p-5, 0x1.b7c19c0000000p-5, 0x1.54fb520000000p-7, -0x1.bb7f9a0000000p-8, 0x1.2ae65a0000000p-4, 0x1.079c4a0000000p-3, -0x1.c43c6c0000000p-4, 0x1.cd7ffa0000000p-4, -0x1.05e9920000000p-2, 0x1.0e37280000000p-3, -0x1.c6db860000000p-3, -0x1.41e8f00000000p-4, -0x1.a2a0ac0000000p-6, 0x1.4cf3180000000p-4, -0x1.192f540000000p-3, -0x1.9b90bc0000000p-4}
, {0x1.a5a83a0000000p-4, -0x1.257dac0000000p-8, 0x1.b57a980000000p-4, -0x1.e56da60000000p-3, 0x1.6530820000000p-2, 0x1.fb4f960000000p-6, -0x1.8ca0ba0000000p-4, -0x1.2da3f60000000p-4, 0x1.b632040000000p-3, -0x1.6b418c0000000p-3, -0x1.9d7e160000000p-2, -0x1.748b740000000p-5, -0x1.a189ac0000000p-7, -0x1.3ec9a00000000p-3, -0x1.cca4500000000p-2, -0x1.bc95220000000p-4, 0x1.a077a40000000p-3, 0x1.72805a0000000p-4, 0x1.00b2300000000p-5, -0x1.3ca17a0000000p-4, -0x1.18ff740000000p-2, 0x1.9263760000000p-6, 0x1.01dfbe0000000p-2, 0x1.bfa1320000000p-5, -0x1.d1f75c0000000p-3, -0x1.3315a60000000p-4, 0x1.59ca480000000p-5, -0x1.6c59a40000000p-3, 0x1.279c1e0000000p-2, -0x1.9f30a00000000p-3, -0x1.b48c880000000p-6, -0x1.57fcea0000000p-4}
, {-0x1.7b72c80000000p-5, -0x1.b05b6a0000000p-6, 0x1.c9e3600000000p-4, 0x1.1bf5f80000000p-2, -0x1.857aca0000000p-4, -0x1.6d54700000000p-4, -0x1.a7c55e0000000p-8, -0x1.a3dd600000000p-6, 0x1.c902220000000p-5, 0x1.27f1ca0000000p-4, 0x1.75d5980000000p-2, 0x1.0fc6520000000p-1, -0x1.c262b60000000p-4, -0x1.98bc1e0000000p-5, 0x1.ec63aa0000000p-4, 0x1.ca76860000000p-6, 0x1.4f41a80000000p-3, -0x1.ff051c0000000p-5, -0x1.2a47640000000p-3, -0x1.06e68e0000000p-5, -0x1.b472700000000p-5, 0x1.2ecb600000000p-6, -0x1.bbffca0000000p-6, 0x1.ff07880000000p-6, 0x1.49aa060000000p-4, 0x1.167d160000000p-3, 0x1.b82dbe0000000p-5, -0x1.2a891e0000000p-4, -0x1.ab94560000000p-4, -0x1.ab32920000000p-5, -0x1.26db180000000p-4, -0x1.926c1c0000000p-5}
, {-0x1.a7f33e0000000p-5, -0x1.75809e0000000p-4, 0x1.c29cca0000000p-5, -0x1.0942700000000p-2, 0x1.6dd1000000000p-3, 0x1.5df6720000000p-4, -0x1.47cb980000000p-4, 0x1.9a74420000000p-7, 0x1.33d03c0000000p-4, -0x1.4c84e00000000p-3, -0x1.db41260000000p-2, -0x1.f6537e0000000p-4, 0x1.63ab340000000p-5, 0x1.3fa84e0000000p-4, -0x1.658a260000000p-2, -0x1.5eaae20000000p-2, 0x1.434a1e0000000p-4, -0x1.22af7e0000000p-3, 0x1.f7126a0000000p-5, -0x1.007f2a0000000p-1, -0x1.62205a0000000p-2, 0x1.0b84ec0000000p-6, 0x1.5041120000000p-3, 0x1.ed258c0000000p-3, -0x1.a8da700000000p-3, -0x1.dd80fe0000000p-4, 0x1.3320100000000p-4, 0x1.efbb9c0000000p-3, 0x1.4dfeea0000000p-5, 0x1.1d15500000000p-3, 0x1.2a0b5e0000000p-4, -0x1.63dd6a0000000p-4}
, {0x1.0047d40000000p-3, -0x1.1681d80000000p-4, -0x1.5927bc0000000p-3, 0x1.e2d2640000000p-4, -0x1.0d9bc00000000p-4, -0x1.2d89c20000000p-2, -0x1.7855a40000000p-4, 0x1.6524340000000p-5, -0x1.72dd5e0000000p-3, 0x1.8990900000000p-3, 0x1.50520c0000000p-2, 0x1.e8ffb80000000p-5, -0x1.ba9f3c0000000p-6, -0x1.4e41560000000p-6, 0x1.ffdf5a0000000p-5, 0x1.14c1d80000000p-2, -0x1.c250300000000p-4, -0x1.960ff80000000p-7, -0x1.b75f280000000p-4, -0x1.f360120000000p-5, -0x1.58158e0000000p-4, -0x1.3796c60000000p-4, -0x1.0d6fe40000000p-9, 0x1.527e200000000p-11, -0x1.0062d00000000p-4, -0x1.c6c8600000000p-6, -0x1.4aaf740000000p-2, 0x1.8900ba0000000p-9, 0x1.8bc43c0000000p-4, 0x1.60b7d80000000p-4, 0x1.8533c60000000p-6, 0x1.483c1a0000000p-3}
, {-0x1.cadd700000000p-3, 0x1.44e5bc0000000p-6, -0x1.a9b6e00000000p-2, 0x1.9be6f60000000p-5, -0x1.3f88d00000000p-2, 0x1.e7d3360000000p-4, -0x1.23a4d80000000p-2, -0x1.4008540000000p-3, -0x1.3bee540000000p-2, -0x1.bff0ca0000000p-3, 0x1.93c2e60000000p-3, 0x1.7b8b580000000p-3, -0x1.3bda7c0000000p-11, -0x1.c0df300000000p-2, -0x1.3697440000000p-4, -0x1.d818320000000p-7, -0x1.85b20e0000000p-4, 0x1.be04880000000p-5, -0x1.1043d00000000p-2, -0x1.68a5000000000p-4, -0x1.47242a0000000p-4, -0x1.6f5a3e0000000p-2, -0x1.8014680000000p-6, 0x1.ae64c40000000p-4, 0x1.02f6b00000000p-3, 0x1.f1a5400000000p-4, -0x1.0906520000000p-3, -0x1.c784c40000000p-6, -0x1.6a7f580000000p-2, 0x1.29893e0000000p-5, 0x1.71d86c0000000p-4, 0x1.6354c60000000p-6}
, {0x1.ba69320000000p-4, -0x1.05bbfc0000000p-3, -0x1.0cf5360000000p-5, 0x1.8cb56a0000000p-3, -0x1.d4848a0000000p-4, -0x1.204bd80000000p-2, 0x1.055c5e0000000p-4, 0x1.e112680000000p-5, -0x1.4f3fa40000000p-5, 0x1.496d1c0000000p-2, 0x1.3562280000000p-3, 0x1.9bd37a0000000p-7, -0x1.2255f00000000p-8, 0x1.ca65b20000000p-4, -0x1.77a4b40000000p-6, 0x1.d07fcc0000000p-3, 0x1.86a79e0000000p-5, 0x1.9e70800000000p-4, -0x1.ae7d880000000p-9, 0x1.ac9ce60000000p-4, 0x1.1029fa0000000p-5, 0x1.d2f9200000000p-5, -0x1.cc3a0c0000000p-4, 0x1.2d39de0000000p-4, -0x1.35aab60000000p-5, -0x1.40b2140000000p-3, -0x1.e9a8aa0000000p-4, 0x1.7779ce0000000p-5, -0x1.28753c0000000p-3, -0x1.6b461c0000000p-4, -0x1.1034d80000000p-2, 0x1.fa432e0000000p-5}
, {0x1.85280e0000000p-3, -0x1.5ace100000000p-5, -0x1.db28740000000p-5, 0x1.8236260000000p-5, 0x1.32452c0000000p-4, 0x1.ac08900000000p-5, 0x1.2a73cc0000000p-3, -0x1.5d2afa0000000p-7, 0x1.0a44000000000p-2, -0x1.5ddd7c0000000p-2, -0x1.3e39180000000p-4, 0x1.37e0b80000000p-4, -0x1.be88460000000p-6, 0x1.34e7400000000p-4, 0x1.c21d280000000p-11, 0x1.753d0a0000000p-8, 0x1.d5dba40000000p-4, 0x1.c071d80000000p-4, 0x1.2a59e40000000p-3, -0x1.0ed2ec0000000p-2, 0x1.ffd0e80000000p-4, -0x1.706aa20000000p-4, -0x1.7f359c0000000p-3, 0x1.1848020000000p-4, -0x1.873cc80000000p-2, -0x1.a5890c0000000p-4, -0x1.7915be0000000p-3, 0x1.b45b500000000p-3, -0x1.6809f80000000p-2, -0x1.451a080000000p-3, 0x1.1529120000000p-3, -0x1.eb5c180000000p-2}
, {-0x1.4ad8f00000000p-4, -0x1.2133320000000p-3, -0x1.a72a920000000p-2, -0x1.3e77860000000p-3, 0x1.4c11e60000000p-5, 0x1.63dd440000000p-3, -0x1.65cab80000000p-5, -0x1.57fce20000000p-3, -0x1.ccea660000000p-4, -0x1.5af2ee0000000p-5, -0x1.0307220000000p-6, 0x1.9a1cac0000000p-5, -0x1.33f3f20000000p-3, -0x1.97e17a0000000p-6, 0x1.2cf9340000000p-2, 0x1.0a04920000000p-6, -0x1.4d2eca0000000p-3, -0x1.ef65b80000000p-4, 0x1.74483a0000000p-2, 0x1.193d480000000p-4, -0x1.20b9360000000p-4, -0x1.0f8cbc0000000p-3, -0x1.6799b40000000p-4, -0x1.6837160000000p-4, -0x1.a25aa00000000p-3, 0x1.9ba1ea0000000p-4, -0x1.328e780000000p-2, 0x1.162efc0000000p-3, 0x1.3c841a0000000p-3, 0x1.b847b80000000p-4, 0x1.88fef20000000p-3, -0x1.648ac80000000p-4}
, {-0x1.96290a0000000p-3, -0x1.183e440000000p-3, -0x1.25b59c0000000p-2, -0x1.15c1580000000p-3, -0x1.8795fc0000000p-2, -0x1.38d48a0000000p-4, 0x1.67a1500000000p-7, -0x1.19e89e0000000p-4, 0x1.e369700000000p-5, -0x1.5829400000000p-4, 0x1.7032960000000p-4, 0x1.5c57b00000000p-3, -0x1.0e4a480000000p-2, 0x1.b455700000000p-7, 0x1.bd4e400000000p-4, 0x1.3a22980000000p-4, 0x1.12f7940000000p-7, -0x1.d714240000000p-4, 0x1.1008760000000p-4, 0x1.94d0860000000p-6, -0x1.70dd900000000p-4, -0x1.8cf0bc0000000p-9, -0x1.dc32c20000000p-2, 0x1.d81b900000000p-5, -0x1.0e74720000000p-2, 0x1.33696e0000000p-4, -0x1.2f0e9a0000000p-2, 0x1.b489d40000000p-9, -0x1.900d760000000p-5, 0x1.1b749c0000000p-6, 0x1.f1cdf60000000p-4, -0x1.304cd80000000p-2}
, {-0x1.2975100000000p-3, 0x1.9c32ea0000000p-4, 0x1.cab2420000000p-4, -0x1.478d860000000p-2, 0x1.8334500000000p-5, 0x1.340c1a0000000p-3, 0x1.1c0b500000000p-4, -0x1.0138a00000000p-3, 0x1.7c59ca0000000p-4, -0x1.80fe200000000p-3, -0x1.26fec80000000p-2, -0x1.95ce780000000p-3, 0x1.4486dc0000000p-3, 0x1.b93f860000000p-5, -0x1.1e4a4e0000000p-4, -0x1.8827d20000000p-3, -0x1.3b4f2c0000000p-3, -0x1.c217fa0000000p-4, 0x1.0bfbe80000000p-5, -0x1.01ae5e0000000p-4, 0x1.2e68bc0000000p-4, 0x1.21ed520000000p-3, 0x1.e6aa580000000p-6, -0x1.90688a0000000p-3, 0x1.edf4f60000000p-3, 0x1.7fa0840000000p-4, 0x1.1349f60000000p-2, 0x1.4d2f380000000p-4, -0x1.c35eea0000000p-6, -0x1.e0485a0000000p-5, -0x1.0158aa0000000p-6, -0x1.6775060000000p-3}
, {-0x1.d1d7900000000p-4, -0x1.c2e0520000000p-5, 0x1.8247260000000p-4, 0x1.989b200000000p-8, -0x1.e64ea80000000p-4, -0x1.44480c0000000p-8, 0x1.1988e60000000p-3, 0x1.29bab20000000p-6, -0x1.1e2d500000000p-3, 0x1.e47d020000000p-4, 0x1.e187d40000000p-5, -0x1.76b0a60000000p-7, 0x1.6e77500000000p-2, 0x1.9a77040000000p-3, -0x1.59afae0000000p-5, -0x1.7386b20000000p-2, -0x1.f25edc0000000p-6, 0x1.228c000000000p-7, -0x1.090be00000000p-6, -0x1.1be9f00000000p-2, 0x1.ffc3740000000p-8, 0x1.0e60f20000000p-2, 0x1.1f89ee0000000p-6, -0x1.0b0a9c0000000p-6, 0x1.27500c0000000p-4, -0x1.bd5a200000000p-7, 0x1.b820640000000p-6, 0x1.001c740000000p-3, -0x1.7a2f660000000p-4, -0x1.3b1a3a0000000p-5, -0x1.fdca260000000p-6, 0x1.9bee580000000p-3}
, {-0x1.33b5b00000000p-2, 0x1.c2e1600000000p-4, -0x1.e1794a0000000p-3, -0x1.9740fc0000000p-3, -0x1.2ba7900000000p-3, -0x1.63458c0000000p-3, -0x1.a6de4a0000000p-5, 0x1.2935cc0000000p-4, -0x1.0befe60000000p-2, -0x1.51a7220000000p-4, 0x1.672ccc0000000p-4, 0x1.7091ee0000000p-5, -0x1.d2d6480000000p-3, -0x1.5c64dc0000000p-6, 0x1.889d160000000p-3, 0x1.7133220000000p-4, 0x1.e331700000000p-4, 0x1.5a9cb00000000p-3, 0x1.bfd7200000000p-4, -0x1.a7ca4c0000000p-2, -0x1.ca3cdc0000000p-3, 0x1.e1c3180000000p-4, -0x1.76f0e20000000p-2, 0x1.5da13c0000000p-6, -0x1.89f7760000000p-4, -0x1.4e2d2c0000000p-3, -0x1.53a32e0000000p-3, 0x1.3da0f20000000p-3, 0x1.3a0a100000000p-4, 0x1.5542720000000p-3, 0x1.f9c3860000000p-9, -0x1.aa25860000000p-3}
, {0x1.d8f2b20000000p-8, -0x1.d21c460000000p-7, 0x1.e29fc00000000p-4, -0x1.f694860000000p-3, 0x1.041a500000000p-5, 0x1.3f94d00000000p-3, 0x1.3238d20000000p-3, 0x1.5e825c0000000p-3, 0x1.8cabf80000000p-6, -0x1.6087360000000p-2, -0x1.389a8e0000000p-2, -0x1.b26f800000000p-4, 0x1.248f1e0000000p-5, -0x1.42ed1e0000000p-5, 0x1.63deb60000000p-3, -0x1.a825260000000p-3, 0x1.2e232e0000000p-3, -0x1.9d92d40000000p-4, -0x1.0f7ee20000000p-3, -0x1.7809fa0000000p-7, 0x1.4f1d960000000p-4, -0x1.0c64ba0000000p-6, -0x1.33c0780000000p-4, 0x1.b2545c0000000p-4, 0x1.3631940000000p-3, 0x1.f44dea0000000p-6, 0x1.55a7360000000p-3, -0x1.a76e420000000p-3, -0x1.04d65c0000000p-3, 0x1.b87d3e0000000p-3, 0x1.5259920000000p-2, -0x1.09aada0000000p-2}
, {-0x1.68f5180000000p-2, 0x1.7b40ea0000000p-5, 0x1.277a320000000p-5, -0x1.3077960000000p-5, -0x1.8848aa0000000p-4, 0x1.22bdda0000000p-2, -0x1.229f9e0000000p-3, -0x1.50dea80000000p-3, -0x1.e851640000000p-3, -0x1.2c20520000000p-3, 0x1.8c330a0000000p-7, 0x1.fe578a0000000p-8, 0x1.946cbc0000000p-10, -0x1.db20f60000000p-3, 0x1.5adf1e0000000p-3, -0x1.81e52e0000000p-3, -0x1.82d7cc0000000p-6, 0x1.0ad73c0000000p-4, -0x1.59a91e0000000p-2, -0x1.34d6240000000p-5, -0x1.429bec0000000p-3, -0x1.5468e80000000p-4, 0x1.c648ac0000000p-6, -0x1.7ef0280000000p-5, 0x1.572a0a0000000p-2, -0x1.3753560000000p-5, 0x1.6175ec0000000p-2, 0x1.53a2180000000p-7, -0x1.6ba4940000000p-3, 0x1.a30c740000000p-5, 0x1.4dfffc0000000p-6, 0x1.1858240000000p-3}
, {-0x1.56f77c0000000p-5, 0x1.5994500000000p-3, 0x1.52d0f60000000p-3, -0x1.a02a240000000p-5, 0x1.a7aa2a0000000p-4, -0x1.ce60100000000p-7, 0x1.196c1c0000000p-4, 0x1.4171f80000000p-4, 0x1.612f580000000p-4, 0x1.b50a3a0000000p-4, -0x1.886da40000000p-5, -0x1.09a4fa0000000p-4, 0x1.1011020000000p-2, 0x1.d591d00000000p-4, -0x1.2c2b9a0000000p-4, -0x1.052d200000000p-3, 0x1.214d820000000p-3, -0x1.5161ac0000000p-3, 0x1.6713f60000000p-5, -0x1.6659bc0000000p-6, 0x1.259b1a0000000p-6, 0x1.3cc55c0000000p-2, 0x1.17a0740000000p-2, 0x1.271bfe0000000p-5, 0x1.d43bd00000000p-4, 0x1.969f840000000p-4, 0x1.c02b040000000p-4, 0x1.19e4560000000p-5, -0x1.5cc13e0000000p-3, -0x1.5f2ffe0000000p-3, -0x1.dab30e0000000p-7, 0x1.2de93c0000000p-4}
, {0x1.9837e60000000p-3, -0x1.5a4aa00000000p-5, 0x1.1fbb560000000p-2, 0x1.388a280000000p-4, -0x1.17383c0000000p-2, 0x1.ab2f9c0000000p-11, 0x1.06c8ee0000000p-4, -0x1.4fb3d00000000p-4, -0x1.3723200000000p-4, 0x1.6d10dc0000000p-4, -0x1.27ad6c0000000p-5, -0x1.4ce9b00000000p-4, -0x1.73700a0000000p-5, 0x1.658f8e0000000p-5, 0x1.b4ebe40000000p-10, -0x1.01fa360000000p-4, 0x1.c6edf80000000p-5, -0x1.fc19ae0000000p-4, -0x1.354af20000000p-3, 0x1.f2db6c0000000p-6, 0x1.f910aa0000000p-3, -0x1.e59f400000000p-8, -0x1.23b5560000000p-2, 0x1.6009a20000000p-4, 0x1.926fdc0000000p-3, -0x1.f25a6e0000000p-6, 0x1.23da360000000p-3, 0x1.2ffe6a0000000p-5, -0x1.0013460000000p-5, 0x1.5ec04c0000000p-4, -0x1.b334680000000p-5, -0x1.37bf120000000p-2}
, {-0x1.b0022c0000000p-5, -0x1.3c6e460000000p-4, -0x1.af2a120000000p-2, 0x1.833c860000000p-3, 0x1.df02de0000000p-5, -0x1.11aaf40000000p-5, -0x1.7eaaaa0000000p-2, 0x1.8320c80000000p-3, 0x1.8431960000000p-4, -0x1.399a1a0000000p-2, 0x1.0561c60000000p-5, 0x1.2e14fe0000000p-4, -0x1.72edce0000000p-5, -0x1.bebc1c0000000p-2, -0x1.a8a8ae0000000p-8, 0x1.019dc60000000p-4, -0x1.3266860000000p-3, -0x1.27e8fa0000000p-3, -0x1.1527120000000p-2, -0x1.f9a2640000000p-4, 0x1.0714a20000000p-3, -0x1.0223c60000000p-1, 0x1.4128040000000p-3, -0x1.d3b7280000000p-5, 0x1.7d7f220000000p-4, -0x1.5ecb080000000p-3, -0x1.f5fac80000000p-3, 0x1.ac58560000000p-4, -0x1.c6e5e80000000p-4, -0x1.ad6f100000000p-4, 0x1.32f05a0000000p-3, -0x1.a4b5480000000p-3}
, {0x1.7abba40000000p-3, -0x1.4be35a0000000p-5, 0x1.6d8b8c0000000p-4, -0x1.62bcec0000000p-3, 0x1.29ce000000000p-6, 0x1.03cfa00000000p-3, -0x1.30644c0000000p-4, 0x1.49c7aa0000000p-3, 0x1.18b8120000000p-2, -0x1.154e0a0000000p-2, -0x1.4c0ec80000000p-9, 0x1.53a3f40000000p-3, -0x1.837af00000000p-3, -0x1.70f2a20000000p-2, 0x1.fcb3080000000p-6, -0x1.23829c0000000p-4, -0x1.060bee0000000p-5, -0x1.9798600000000p-5, -0x1.3981720000000p-2, -0x1.e930f20000000p-3, 0x1.2f02a40000000p-5, -0x1.3b38660000000p-1, 0x1.5de1dc0000000p-5, 0x1.0e066c0000000p-3, -0x1.2ac2ac0000000p-2, 0x1.6e71c00000000p-4, -0x1.3f0bdc0000000p-3, -0x1.73280c0000000p-4, -0x1.28a99c0000000p-3, 0x1.09c80e0000000p-4, -0x1.8238da0000000p-6, -0x1.55b5c20000000p-2}
, {0x1.5d920a0000000p-3, 0x1.258c480000000p-3, 0x1.3fb52a0000000p-3, 0x1.3754160000000p-4, 0x1.03e2fa0000000p-3, -0x1.9da94a0000000p-4, -0x1.7ec3580000000p-7, -0x1.52f99a0000000p-5, 0x1.3c756e0000000p-3, 0x1.cb20d40000000p-4, -0x1.2083b20000000p-4, 0x1.4ff57c0000000p-4, -0x1.d74bfc0000000p-3, -0x1.8e4c9c0000000p-4, 0x1.75aee00000000p-3, -0x1.4c954e0000000p-5, 0x1.d8857e0000000p-4, 0x1.5df0b80000000p-4, -0x1.0687de0000000p-1, -0x1.bb9ec80000000p-3, -0x1.d850820000000p-5, -0x1.0f45260000000p-2, -0x1.435a640000000p-6, 0x1.21034a0000000p-3, -0x1.69eaee0000000p-3, 0x1.2f04200000000p-6, -0x1.d97d5e0000000p-4, 0x1.26c4600000000p-3, -0x1.1d67000000000p-3, -0x1.52f5420000000p-4, -0x1.2b8b6a0000000p-5, -0x1.9197000000000p-4}
, {0x1.733e860000000p-7, -0x1.34e1320000000p-3, -0x1.0c3a240000000p-2, 0x1.dce6a80000000p-5, -0x1.a0148c0000000p-3, -0x1.dc382c0000000p-3, 0x1.f125560000000p-5, -0x1.7300160000000p-3, -0x1.7dca2e0000000p-4, -0x1.73088c0000000p-4, 0x1.65c0340000000p-5, 0x1.f265d80000000p-6, -0x1.217ab40000000p-2, 0x1.f3ffc60000000p-6, 0x1.0eea1c0000000p-3, 0x1.296b960000000p-3, 0x1.03b3b80000000p-3, -0x1.9ab3f20000000p-4, 0x1.3884980000000p-3, -0x1.ab1d880000000p-5, 0x1.6b3fda0000000p-3, 0x1.563b2a0000000p-6, -0x1.f6cf060000000p-2, 0x1.2dff120000000p-4, -0x1.6e92e40000000p-2, 0x1.44611a0000000p-3, -0x1.0ac9860000000p-3, -0x1.9c1ea20000000p-5, 0x1.803b200000000p-6, -0x1.9826880000000p-6, -0x1.177c840000000p-4, -0x1.285c2e0000000p-2}
, {-0x1.5659880000000p-3, -0x1.9e27ec0000000p-4, 0x1.013b0c0000000p-2, -0x1.670a0e0000000p-7, 0x1.0c1eea0000000p-5, -0x1.88e1460000000p-5, 0x1.abfc380000000p-6, 0x1.61b3040000000p-6, 0x1.81771c0000000p-3, -0x1.2a909c0000000p-2, -0x1.7cb5a60000000p-6, 0x1.6f507a0000000p-6, 0x1.8e6bc20000000p-5, -0x1.9674d40000000p-6, -0x1.8184c00000000p-4, -0x1.67df3c0000000p-5, 0x1.eebe9c0000000p-4, 0x1.5418e00000000p-4, -0x1.5feb820000000p-3, -0x1.4b4bf00000000p-5, -0x1.6683da0000000p-6, -0x1.2bda420000000p-5, 0x1.a0c2bc0000000p-3, -0x1.bbd3b80000000p-5, 0x1.e915520000000p-3, -0x1.1961a40000000p-3, 0x1.50c08c0000000p-2, -0x1.637bc80000000p-4, -0x1.7bc8b20000000p-4, -0x1.4434f80000000p-3, -0x1.51aa5a0000000p-3, 0x1.7c29980000000p-4}
, {-0x1.f77fea0000000p-3, 0x1.aa83bc0000000p-4, 0x1.be7cb60000000p-4, 0x1.4ddb6a0000000p-2, 0x1.94a98e0000000p-5, -0x1.09b4ec0000000p-5, -0x1.7664960000000p-5, -0x1.f7fdae0000000p-4, -0x1.7cd1860000000p-3, 0x1.acc7800000000p-5, 0x1.efaf0e0000000p-3, -0x1.1847b00000000p-5, -0x1.6089620000000p-5, 0x1.157f680000000p-5, -0x1.37db160000000p-8, -0x1.2ca87c0000000p-2, -0x1.35dc880000000p-3, 0x1.8d86f20000000p-4, 0x1.c18a740000000p-6, -0x1.a082640000000p-2, -0x1.11365a0000000p-2, 0x1.09cf600000000p-5, 0x1.6479a20000000p-3, 0x1.e1c0240000000p-5, -0x1.3f69320000000p-6, -0x1.3895920000000p-3, 0x1.c5eee60000000p-6, -0x1.dee2f80000000p-4, 0x1.9db6500000000p-8, 0x1.111bd00000000p-4, -0x1.af9c5a0000000p-3, 0x1.50df660000000p-4}
, {-0x1.da34ce0000000p-5, -0x1.4311300000000p-3, -0x1.8eacb20000000p-3, -0x1.7d22d60000000p-3, -0x1.658b360000000p-3, 0x1.075d380000000p-7, 0x1.75ee4c0000000p-3, 0x1.9e13500000000p-4, -0x1.6780a40000000p-4, -0x1.0b781e0000000p-2, -0x1.97b8a60000000p-7, -0x1.7a730a0000000p-5, 0x1.5d74200000000p-4, 0x1.bf0d660000000p-7, -0x1.c7ffd00000000p-5, -0x1.6b36860000000p-4, 0x1.8a859e0000000p-3, 0x1.0e7ed20000000p-3, 0x1.083d280000000p-2, 0x1.7854b80000000p-3, 0x1.57698c0000000p-3, -0x1.2fd8600000000p-7, -0x1.e698800000000p-3, -0x1.33bfe20000000p-3, -0x1.641e180000000p-2, 0x1.72c6980000000p-4, -0x1.e020ba0000000p-3, -0x1.13acbe0000000p-3, -0x1.3002980000000p-3, 0x1.2de08a0000000p-3, 0x1.8462fc0000000p-3, -0x1.8dade20000000p-3}
, {0x1.ece94e0000000p-6, 0x1.0ce2540000000p-3, -0x1.71eb980000000p-6, -0x1.003b1a0000000p-4, -0x1.6f2f2a0000000p-5, -0x1.9aca920000000p-4, -0x1.7e8c180000000p-4, -0x1.81aeea0000000p-3, 0x1.11119c0000000p-3, -0x1.44c1b60000000p-2, 0x1.3b67900000000p-3, 0x1.5dddfe0000000p-3, -0x1.65e0320000000p-4, -0x1.98be2c0000000p-2, -0x1.2e81800000000p-2, 0x1.32cf600000000p-7, -0x1.7d65900000000p-5, 0x1.f61d760000000p-5, -0x1.bfd1680000000p-2, -0x1.3e26b20000000p-2, 0x1.0773c00000000p-11, -0x1.de60400000000p-2, 0x1.99160a0000000p-3, 0x1.0934ba0000000p-3, 0x1.09cc9c0000000p-4, -0x1.ac6d380000000p-5, -0x1.118bee0000000p-3, -0x1.1557bc0000000p-3, -0x1.ec3c880000000p-3, -0x1.8f93620000000p-5, 0x1.16065c0000000p-2, -0x1.0393340000000p-3}
, {-0x1.71220e0000000p-5, 0x1.0abfbc0000000p-3, -0x1.13785c0000000p-4, -0x1.9f51b00000000p-4, 0x1.c8827e0000000p-5, -0x1.5e92be0000000p-5, 0x1.db32ec0000000p-7, 0x1.5dd0dc0000000p-3, 0x1.3a8db40000000p-3, -0x1.b589120000000p-3, -0x1.32c64c0000000p-8, -0x1.381cfe0000000p-7, 0x1.1dd4fa0000000p-2, 0x1.ad078a0000000p-5, -0x1.90b7ca0000000p-5, 0x1.e9e6380000000p-8, 0x1.5dcece0000000p-4, 0x1.e2ff2c0000000p-6, 0x1.35b3940000000p-2, 0x1.7b1aec0000000p-4, 0x1.7ce68e0000000p-7, 0x1.ca3fba0000000p-5, -0x1.448e9e0000000p-3, 0x1.71656e0000000p-6, -0x1.dbb8060000000p-3, 0x1.54e49e0000000p-3, -0x1.f7aa620000000p-4, -0x1.97f6e80000000p-3, -0x1.870fce0000000p-4, 0x1.31b1ac0000000p-3, 0x1.8286480000000p-2, -0x1.148faa0000000p-5}
}
;

#undef INPUT_SAMPLES
#undef FC_UNITS