/**
  ******************************************************************************
  * @file    weights/fc.cc
  * @author  Pierre-Emmanuel Novac <penovac@unice.fr>, LEAT, CNRS, Université Côte d'Azur, France
  * @version 1.0.0
  * @date    24 march 2020
  * @brief   Template generating plain C code for the implementation of Convolutional Neural Networks on MCU
  */

#include <stdint.h>

#define INPUT_SAMPLES 256
#define FC_UNITS 10


const float dense_9_bias[FC_UNITS] = {0x1.5fa6860000000p-5, 0x1.f3abf20000000p-6, -0x1.50f8300000000p-3, 0x1.6d94680000000p-7, -0x1.cf4c740000000p-5, -0x1.c6807a0000000p-6, -0x1.4cc5dc0000000p-3, 0x1.1b3c980000000p-6, 0x1.bb59e80000000p-3, 0x1.99c93a0000000p-5}
;

const float dense_9_kernel[FC_UNITS][INPUT_SAMPLES] = {{0x1.af884a0000000p-4, 0x1.54ea120000000p-4, 0x1.c969060000000p-4, -0x1.545f200000000p-3, -0x1.128d060000000p-2, -0x1.6d4a9c0000000p-4, 0x1.5eb8440000000p-6, -0x1.7a878e0000000p-4, 0x1.5799920000000p-4, -0x1.8845620000000p-2, 0x1.f316da0000000p-7, 0x1.3fed860000000p-4, 0x1.1fd8900000000p-7, -0x1.6d20d20000000p-3, 0x1.0bae080000000p-3, 0x1.cae45c0000000p-4, -0x1.793af00000000p-2, -0x1.5a94220000000p-3, -0x1.4f99660000000p-4, 0x1.88fc5a0000000p-7, 0x1.3d3db60000000p-3, -0x1.60cbea0000000p-3, -0x1.3e02c20000000p-3, -0x1.5c7f460000000p-4, -0x1.0f5e460000000p-5, -0x1.dc30360000000p-6, 0x1.9149d00000000p-4, -0x1.1e02d80000000p-4, 0x1.e48ac40000000p-6, -0x1.78bc7c0000000p-3, -0x1.32fe720000000p-4, -0x1.1a253a0000000p-2, -0x1.e920a40000000p-5, 0x1.e0b7fe0000000p-4, 0x1.6f804e0000000p-4, -0x1.0474200000000p-3, -0x1.665a340000000p-3, -0x1.7ad7aa0000000p-4, -0x1.1fa5300000000p-3, -0x1.59969c0000000p-4, 0x1.b951a80000000p-4, -0x1.9de5700000000p-3, -0x1.52f9600000000p-3, -0x1.61fda40000000p-2, -0x1.6740e80000000p-2, -0x1.ad6f7c0000000p-3, 0x1.ef156c0000000p-4, -0x1.0504740000000p-7, 0x1.bdb3a60000000p-6, -0x1.f532c80000000p-5, 0x1.44e74c0000000p-3, -0x1.0f08c40000000p-3, 0x1.9977520000000p-4, -0x1.9c09a80000000p-4, 0x1.5bcb6a0000000p-3, -0x1.09573a0000000p-2, -0x1.e9445e0000000p-4, -0x1.3351240000000p-11, -0x1.cd7fcc0000000p-7, -0x1.1517900000000p-7, 0x1.c054ec0000000p-5, -0x1.96ba180000000p-6, -0x1.9bcb1c0000000p-3, 0x1.68efd20000000p-3, 0x1.1891ca0000000p-3, -0x1.82de9e0000000p-2, 0x1.4a0e4c0000000p-4, 0x1.6e10220000000p-3, 0x1.a59d4c0000000p-4, 0x1.415e780000000p-3, -0x1.a61b8c0000000p-3, 0x1.0dbf2e0000000p-7, 0x1.00d1c00000000p-3, 0x1.b4f6500000000p-4, -0x1.077c680000000p-2, -0x1.9ccf820000000p-5, -0x1.1619980000000p-5, -0x1.1069ec0000000p-5, -0x1.b62e1e0000000p-7, 0x1.4d4c340000000p-3, -0x1.21333a0000000p-5, -0x1.b1b48a0000000p-3, -0x1.4e6e3e0000000p-3, 0x1.6accfa0000000p-4, -0x1.d7db7e0000000p-4, 0x1.1854fc0000000p-3, 0x1.1006d00000000p-3, 0x1.1729060000000p-3, -0x1.1dc0000000000p-4, -0x1.9324000000000p-3, 0x1.278c580000000p-9, 0x1.50ab260000000p-4, 0x1.83f32a0000000p-4, -0x1.a391b40000000p-4, 0x1.c982560000000p-4, -0x1.13165e0000000p-3, -0x1.56b4b00000000p-3, -0x1.5831940000000p-2, -0x1.4096120000000p-6, 0x1.52b5fa0000000p-3, -0x1.699cf60000000p-7, 0x1.90af520000000p-5, -0x1.0f9ec20000000p-3, -0x1.8d45ee0000000p-4, 0x1.7548ec0000000p-3, -0x1.3d08d80000000p-2, -0x1.a243460000000p-3, -0x1.4f78c00000000p-2, -0x1.78267a0000000p-3, 0x1.fbaea80000000p-6, -0x1.ae7a100000000p-3, 0x1.c1659e0000000p-4, -0x1.42100c0000000p-4, 0x1.8863f20000000p-4, -0x1.830f520000000p-3, -0x1.b94b300000000p-3, 0x1.44ca7e0000000p-4, 0x1.a961be0000000p-3, 0x1.eb75900000000p-4, 0x1.fc62580000000p-4, -0x1.dc21600000000p-4, -0x1.7fa3100000000p-4, -0x1.55df6c0000000p-4, 0x1.50ca780000000p-4, 0x1.0641320000000p-3, 0x1.a2d16e0000000p-8, -0x1.a0dfee0000000p-4, -0x1.03d5120000000p-2, -0x1.8686820000000p-7, -0x1.5bd32c0000000p-4, -0x1.974caa0000000p-2, -0x1.fe60b20000000p-3, -0x1.311ed80000000p-4, -0x1.4d96ae0000000p-3, -0x1.d718ec0000000p-3, 0x1.6b8ff00000000p-4, 0x1.5ad5d00000000p-3, 0x1.36f7cc0000000p-3, -0x1.a647340000000p-3, -0x1.63e1d40000000p-3, -0x1.487f840000000p-3, 0x1.1d25bc0000000p-3, -0x1.4dd7460000000p-7, -0x1.1495f80000000p-3, 0x1.0afa500000000p-5, 0x1.d529860000000p-4, -0x1.195f160000000p-3, -0x1.1a0a080000000p-3, -0x1.4ee0ae0000000p-2, 0x1.4e63d60000000p-3, 0x1.9b63be0000000p-4, -0x1.7a91bc0000000p-5, 0x1.1f02d20000000p-4, -0x1.04e7b60000000p-5, 0x1.21f1c20000000p-3, 0x1.715d3e0000000p-3, -0x1.fae61e0000000p-4, -0x1.9243020000000p-4, 0x1.ba2f9e0000000p-4, 0x1.8b08bc0000000p-4, -0x1.c3dd9c0000000p-3, 0x1.29cc000000000p-3, -0x1.d232a40000000p-3, 0x1.12e8d20000000p-3, -0x1.ac77d80000000p-3, 0x1.22c3cc0000000p-3, -0x1.56a8960000000p-3, -0x1.eec2ce0000000p-3, 0x1.00b8080000000p-4, 0x1.1a9c3e0000000p-4, 0x1.418b500000000p-3, -0x1.478b080000000p-2, -0x1.35e3080000000p-4, -0x1.0ff11e0000000p-3, 0x1.ff13cc0000000p-6, -0x1.9d16d00000000p-3, -0x1.9dd2f40000000p-3, -0x1.7e10220000000p-6, -0x1.1226180000000p-3, 0x1.b878c60000000p-4, -0x1.562a160000000p-3, -0x1.14cfd40000000p-2, -0x1.62cad00000000p-2, 0x1.04edc80000000p-3, 0x1.4487620000000p-3, -0x1.8f09900000000p-5, -0x1.083c060000000p-3, 0x1.2102ba0000000p-3, 0x1.2fc0e80000000p-4, 0x1.996f080000000p-3, -0x1.d3c9480000000p-4, -0x1.c24f760000000p-3, 0x1.2377e80000000p-3, -0x1.8b54c60000000p-2, 0x1.0066aa0000000p-4, 0x1.138baa0000000p-4, -0x1.cc61520000000p-4, 0x1.4179e80000000p-3, 0x1.e65f340000000p-4, -0x1.cb395e0000000p-3, -0x1.0909ce0000000p-4, -0x1.eed6840000000p-3, 0x1.41b0d40000000p-3, -0x1.e176f40000000p-3, -0x1.60fb7a0000000p-3, -0x1.37a9f20000000p-3, 0x1.1f56b00000000p-3, -0x1.92652c0000000p-4, 0x1.0d12f00000000p-3, 0x1.52a17c0000000p-5, -0x1.3d008c0000000p-2, -0x1.2a79ec0000000p-3, 0x1.f1a8f40000000p-4, -0x1.d2763e0000000p-4, -0x1.7623f00000000p-4, -0x1.06be720000000p-2, -0x1.3d4ae20000000p-3, -0x1.96cdf00000000p-3, 0x1.0d81e60000000p-3, -0x1.17b5fe0000000p-3, 0x1.68514a0000000p-4, -0x1.fe33aa0000000p-3, -0x1.19be500000000p-4, -0x1.ad302a0000000p-3, 0x1.f145800000000p-4, -0x1.7915e60000000p-3, -0x1.762b960000000p-4, 0x1.7a3f780000000p-3, 0x1.2225220000000p-3, -0x1.fa404e0000000p-3, -0x1.2e5ee40000000p-2, -0x1.03b9740000000p-2, -0x1.0f923a0000000p-4, -0x1.4a094e0000000p-2, 0x1.17115e0000000p-3, -0x1.06cd060000000p-2, 0x1.5652320000000p-4, 0x1.4aad0c0000000p-3, 0x1.7fa1ca0000000p-4, 0x1.542bae0000000p-3, -0x1.36029a0000000p-3, -0x1.befd3a0000000p-7, 0x1.f280de0000000p-4, 0x1.12882e0000000p-3, -0x1.1a6a520000000p-2, -0x1.55b17c0000000p-3, 0x1.b149a60000000p-4, 0x1.2461420000000p-3, 0x1.1434800000000p-4, -0x1.d9b76c0000000p-3, 0x1.74e98e0000000p-5, -0x1.b474120000000p-4, -0x1.9151e00000000p-2, -0x1.0035400000000p-3, -0x1.91c52e0000000p-3, 0x1.3a2d420000000p-4}
, {-0x1.4ceed40000000p-5, 0x1.102f460000000p-3, 0x1.669baa0000000p-3, 0x1.6948f00000000p-4, 0x1.3239100000000p-3, 0x1.0b334e0000000p-5, 0x1.801e740000000p-8, -0x1.618b760000000p-4, -0x1.9b08b00000000p-2, -0x1.f5308e0000000p-3, -0x1.ee962c0000000p-3, 0x1.e810660000000p-5, 0x1.a993880000000p-6, 0x1.8b23b80000000p-3, -0x1.015f3e0000000p-6, -0x1.761e8c0000000p-3, -0x1.0bded00000000p-3, -0x1.3a11a00000000p-4, -0x1.3235fe0000000p-5, 0x1.a4b52a0000000p-4, -0x1.326e220000000p-3, -0x1.01dde60000000p-2, -0x1.4f6f0a0000000p-3, -0x1.7466720000000p-3, -0x1.5e326c0000000p-3, -0x1.5063c20000000p-5, -0x1.b6a6e00000000p-2, -0x1.a227ae0000000p-3, 0x1.441cde0000000p-4, 0x1.98ed5e0000000p-4, -0x1.7c6ea00000000p-5, -0x1.dbc7d20000000p-3, 0x1.fd99440000000p-6, -0x1.016f140000000p-1, -0x1.43abc60000000p-4, 0x1.bd30b60000000p-4, 0x1.7d6be40000000p-4, 0x1.2770e40000000p-4, 0x1.87fb6e0000000p-4, 0x1.b5bbd00000000p-6, 0x1.3e2df40000000p-9, 0x1.4991d20000000p-3, 0x1.36fe240000000p-4, 0x1.99150c0000000p-4, 0x1.3e1bce0000000p-3, -0x1.971d0c0000000p-7, 0x1.3426a20000000p-3, -0x1.c06b380000000p-3, -0x1.5f23b60000000p-3, 0x1.2d17c60000000p-3, 0x1.a0d8200000000p-6, -0x1.a78a740000000p-3, 0x1.a7bd920000000p-4, -0x1.3603bc0000000p-4, -0x1.53e31e0000000p-3, 0x1.b5e5fe0000000p-4, 0x1.d8fd980000000p-5, 0x1.3166be0000000p-3, 0x1.3a6b3e0000000p-3, -0x1.cb46200000000p-3, 0x1.9dd2980000000p-3, -0x1.2ff81a0000000p-3, 0x1.21cc5a0000000p-4, -0x1.bac33c0000000p-4, -0x1.cad39a0000000p-3, 0x1.9126e20000000p-4, 0x1.370ea40000000p-4, -0x1.578fa40000000p-3, -0x1.cbc4c20000000p-3, 0x1.890aaa0000000p-4, 0x1.3f44720000000p-3, 0x1.11f1d00000000p-3, 0x1.87f0c60000000p-4, -0x1.a38f7e0000000p-4, 0x1.6252da0000000p-3, -0x1.3816160000000p-3, 0x1.899cc20000000p-3, -0x1.49aed20000000p-2, -0x1.fdda200000000p-3, -0x1.6ef0aa0000000p-2, -0x1.d7a8000000000p-4, 0x1.92f7260000000p-4, 0x1.006a5e0000000p-3, 0x1.fe807c0000000p-9, 0x1.93d75e0000000p-4, -0x1.dea1d80000000p-3, -0x1.b0aa160000000p-3, -0x1.15dffa0000000p-2, 0x1.c8ac320000000p-4, -0x1.ffdd6a0000000p-3, 0x1.913cbe0000000p-3, -0x1.7544700000000p-3, 0x1.650e6e0000000p-4, -0x1.77a5340000000p-3, -0x1.51b7f60000000p-4, -0x1.1a37780000000p-2, 0x1.88533a0000000p-4, -0x1.ebbec60000000p-5, -0x1.c8ab0c0000000p-2, 0x1.2ae1a00000000p-3, -0x1.2520960000000p-4, 0x1.40a05a0000000p-4, 0x1.82ca900000000p-3, -0x1.b24e480000000p-3, -0x1.4896620000000p-2, -0x1.8548f20000000p-4, -0x1.0034d40000000p-2, -0x1.37fac80000000p-4, 0x1.81df720000000p-3, -0x1.9b05260000000p-3, -0x1.0a67800000000p-4, 0x1.87a1dc0000000p-3, -0x1.249fb00000000p-3, -0x1.45c34c0000000p-3, 0x1.a44a760000000p-4, 0x1.b7f5ee0000000p-4, -0x1.ef8e380000000p-3, -0x1.cfa9aa0000000p-3, -0x1.a9ee940000000p-3, -0x1.6cf7280000000p-3, 0x1.49b57c0000000p-3, 0x1.eb24040000000p-7, 0x1.53f9fe0000000p-3, -0x1.318c780000000p-3, -0x1.f5e3da0000000p-3, -0x1.5ebfa00000000p-8, 0x1.dd6faa0000000p-6, 0x1.13e6360000000p-3, -0x1.4eccac0000000p-8, -0x1.3396aa0000000p-3, -0x1.37594a0000000p-2, -0x1.98c73c0000000p-3, -0x1.1498340000000p-4, -0x1.bff58e0000000p-4, -0x1.1cab5e0000000p-3, -0x1.7f9e300000000p-2, 0x1.fe83c40000000p-4, -0x1.e22c300000000p-4, -0x1.5761b20000000p-3, 0x1.8690320000000p-4, -0x1.93a2080000000p-3, 0x1.f98a1c0000000p-5, 0x1.5ca1e20000000p-8, 0x1.9aa7ec0000000p-3, -0x1.80c1580000000p-2, 0x1.0493360000000p-3, 0x1.6577160000000p-3, -0x1.8c40ac0000000p-3, 0x1.ceb4a20000000p-4, -0x1.045da40000000p-3, 0x1.00b3c00000000p-3, 0x1.6be37a0000000p-4, -0x1.02a7160000000p-2, 0x1.634f300000000p-3, -0x1.5d036c0000000p-3, 0x1.413bde0000000p-3, -0x1.6f72220000000p-3, 0x1.270aaa0000000p-5, -0x1.a0453a0000000p-4, -0x1.4177260000000p-3, 0x1.87feaa0000000p-4, -0x1.a0a3a00000000p-3, -0x1.e477360000000p-3, -0x1.72234e0000000p-2, 0x1.a07d960000000p-4, 0x1.98d11a0000000p-3, 0x1.1fa67e0000000p-4, -0x1.8227ec0000000p-4, -0x1.7d55e80000000p-4, 0x1.26f06e0000000p-4, -0x1.3e6e360000000p-4, 0x1.8795e00000000p-6, 0x1.8879380000000p-3, 0x1.3b8a040000000p-3, 0x1.4cb6440000000p-4, -0x1.9dc0400000000p-3, -0x1.bf771c0000000p-3, -0x1.e31bb20000000p-5, -0x1.e9d47c0000000p-4, 0x1.38d23e0000000p-3, 0x1.a209880000000p-5, -0x1.6f0e1a0000000p-3, -0x1.cdc6320000000p-3, 0x1.2c514e0000000p-3, -0x1.47aa300000000p-5, -0x1.002e680000000p-6, 0x1.55adf00000000p-3, -0x1.43ff520000000p-7, -0x1.81316a0000000p-4, -0x1.5e4c000000000p-3, -0x1.24793e0000000p-2, -0x1.e96ecc0000000p-3, -0x1.1b4c1e0000000p-2, -0x1.fa01060000000p-5, -0x1.d865a20000000p-3, 0x1.921abc0000000p-5, 0x1.11dad40000000p-3, 0x1.9e84260000000p-5, 0x1.e1cc120000000p-5, -0x1.d442580000000p-4, -0x1.5205000000000p-2, 0x1.31546c0000000p-6, 0x1.082f080000000p-3, 0x1.9cd4380000000p-6, 0x1.b957be0000000p-4, -0x1.ff504c0000000p-4, 0x1.c479880000000p-5, -0x1.8479220000000p-3, 0x1.3424960000000p-4, -0x1.9834aa0000000p-4, -0x1.667f0a0000000p-6, 0x1.2d96fa0000000p-4, -0x1.351b1e0000000p-2, -0x1.18dd520000000p-6, 0x1.623d280000000p-5, 0x1.f8ef7c0000000p-5, -0x1.2a676c0000000p-2, 0x1.589a800000000p-3, -0x1.b84bd20000000p-4, -0x1.aee71e0000000p-3, -0x1.325e100000000p-2, -0x1.6177f80000000p-3, -0x1.b81d1c0000000p-3, -0x1.de564a0000000p-4, -0x1.f672680000000p-4, -0x1.999a920000000p-3, 0x1.af3f300000000p-7, 0x1.419d280000000p-3, 0x1.83674a0000000p-3, 0x1.2c23ca0000000p-3, 0x1.80440a0000000p-4, 0x1.7e2eaa0000000p-4, -0x1.2de6060000000p-4, -0x1.5156ac0000000p-3, 0x1.b41b580000000p-4, 0x1.57a2220000000p-3, -0x1.0c0f0a0000000p-2, -0x1.5e20ca0000000p-4, -0x1.3ad6980000000p-2, 0x1.0615000000000p-3, -0x1.29092c0000000p-2, 0x1.0814de0000000p-3, 0x1.c72d9e0000000p-5, -0x1.34588c0000000p-2, -0x1.e47d9a0000000p-3, -0x1.8d2dce0000000p-3, -0x1.402cfc0000000p-3, 0x1.662f460000000p-3, -0x1.d972b60000000p-3, 0x1.9a09800000000p-4, -0x1.e77b880000000p-3, 0x1.91dc8e0000000p-5, 0x1.5495ba0000000p-3, 0x1.60c8ac0000000p-4, 0x1.6b113c0000000p-3, -0x1.17c3ec0000000p-4}
, {-0x1.3da1b20000000p-4, 0x1.b0a25a0000000p-4, 0x1.59e32e0000000p-4, -0x1.99b7b80000000p-4, 0x1.f07bbc0000000p-6, 0x1.7ebf6a0000000p-7, 0x1.ae91420000000p-4, 0x1.b344560000000p-3, -0x1.5033ee0000000p-2, -0x1.3c32d80000000p-2, -0x1.c062640000000p-4, 0x1.03c2820000000p-3, 0x1.7cecfc0000000p-3, 0x1.6e9d360000000p-3, 0x1.b36b7a0000000p-5, -0x1.f545580000000p-4, -0x1.2c4d380000000p-3, 0x1.24074a0000000p-3, 0x1.e5864a0000000p-5, -0x1.26a01c0000000p-3, -0x1.6de0220000000p-3, -0x1.3157a20000000p-4, 0x1.7f4efe0000000p-4, 0x1.5b3a740000000p-4, 0x1.ae4ee60000000p-4, -0x1.86bdf20000000p-10, 0x1.2a99de0000000p-5, -0x1.212b8c0000000p-3, -0x1.f063f40000000p-4, 0x1.19cf1a0000000p-3, -0x1.2821ec0000000p-5, -0x1.43f52c0000000p-2, -0x1.c41bac0000000p-3, -0x1.e60bca0000000p-3, 0x1.4bdf3c0000000p-4, -0x1.764e2e0000000p-3, -0x1.9b9e5c0000000p-3, -0x1.f347b40000000p-4, 0x1.05c9040000000p-3, -0x1.e060ba0000000p-3, 0x1.986e120000000p-4, -0x1.a7b8e40000000p-5, -0x1.36d9e60000000p-3, -0x1.f0a5100000000p-3, -0x1.029ac00000000p-8, -0x1.b89a4c0000000p-3, 0x1.2b228c0000000p-4, 0x1.1593da0000000p-3, 0x1.eb13980000000p-4, -0x1.6d3a7a0000000p-2, 0x1.2ade9a0000000p-4, -0x1.2b9fe80000000p-2, -0x1.a5a52c0000000p-3, -0x1.ccceea0000000p-3, -0x1.2aecb20000000p-2, 0x1.21c2880000000p-5, -0x1.ab0d720000000p-4, 0x1.8659920000000p-3, -0x1.05a9020000000p-2, 0x1.5405d60000000p-3, -0x1.2751220000000p-7, 0x1.2cc3940000000p-3, 0x1.7c3dfa0000000p-4, -0x1.1e93100000000p-2, 0x1.baf4320000000p-4, -0x1.a08dfa0000000p-4, -0x1.6152a80000000p-3, -0x1.8b6c980000000p-3, -0x1.0c77720000000p-3, 0x1.862e640000000p-4, 0x1.6bc3200000000p-6, 0x1.0b98740000000p-3, 0x1.a2e0600000000p-4, -0x1.49dc8e0000000p-5, 0x1.072bf00000000p-3, -0x1.9263880000000p-3, -0x1.3a93f00000000p-3, 0x1.1a95940000000p-3, 0x1.b3ebca0000000p-4, -0x1.61e8f80000000p-3, -0x1.13060a0000000p-2, -0x1.1060560000000p-3, 0x1.193e800000000p-3, 0x1.41e5460000000p-4, -0x1.606c400000000p-3, 0x1.1f8c6c0000000p-3, 0x1.e5465a0000000p-4, 0x1.33cbca0000000p-6, 0x1.aaa2fe0000000p-5, 0x1.1701720000000p-5, 0x1.dc20620000000p-6, 0x1.4d65840000000p-9, -0x1.4fdf280000000p-4, 0x1.15ea860000000p-3, -0x1.e8a7ac0000000p-7, 0x1.c96c780000000p-4, -0x1.a1a0ea0000000p-5, 0x1.15e4920000000p-3, -0x1.9725a60000000p-5, -0x1.4a33ea0000000p-3, 0x1.571a3a0000000p-3, -0x1.82463a0000000p-4, -0x1.b68b940000000p-6, 0x1.2b90360000000p-5, 0x1.c142ec0000000p-4, -0x1.129b360000000p-2, 0x1.1cade40000000p-5, -0x1.07ba000000000p-2, 0x1.eea5520000000p-10, -0x1.5eaf260000000p-4, 0x1.b3bde60000000p-3, 0x1.b24c740000000p-4, 0x1.aafbda0000000p-3, 0x1.07e7420000000p-4, -0x1.fff8860000000p-4, 0x1.22ae560000000p-3, 0x1.dbf43a0000000p-4, -0x1.fc36a40000000p-4, -0x1.072ffa0000000p-5, -0x1.62cd6c0000000p-2, 0x1.a966000000000p-4, 0x1.3544700000000p-3, -0x1.3112220000000p-2, -0x1.8af2be0000000p-4, 0x1.0f6b5a0000000p-5, -0x1.6c19040000000p-5, -0x1.f38e860000000p-3, 0x1.5107480000000p-5, -0x1.79d10a0000000p-5, 0x1.5fdc500000000p-4, 0x1.5d0fdc0000000p-7, 0x1.e078660000000p-5, -0x1.f2f9a20000000p-6, -0x1.d2c9a60000000p-4, -0x1.89e4be0000000p-2, 0x1.dba8240000000p-5, -0x1.49e4f80000000p-6, 0x1.06e9900000000p-3, -0x1.cb76fc0000000p-4, -0x1.783c4e0000000p-5, -0x1.6aa1ba0000000p-3, -0x1.60089c0000000p-3, 0x1.c717780000000p-4, 0x1.400bd20000000p-3, -0x1.baa8160000000p-3, -0x1.45fe140000000p-4, -0x1.2eb2240000000p-3, -0x1.2210880000000p-3, -0x1.62c6040000000p-5, -0x1.a338180000000p-6, -0x1.68af6c0000000p-3, 0x1.00eb4c0000000p-4, 0x1.bc5ff40000000p-6, 0x1.a7904e0000000p-3, -0x1.dfd4c60000000p-3, -0x1.937c0e0000000p-3, -0x1.28fcc40000000p-3, -0x1.7ac45e0000000p-2, -0x1.9321de0000000p-3, 0x1.4ed3040000000p-4, 0x1.1f869e0000000p-3, 0x1.2964840000000p-3, 0x1.d456c40000000p-4, -0x1.a5bafc0000000p-3, -0x1.2a6bb60000000p-4, -0x1.89c7d20000000p-5, -0x1.ff04d80000000p-4, 0x1.518cf00000000p-6, -0x1.15dd280000000p-2, -0x1.f475320000000p-5, -0x1.ee5b960000000p-5, 0x1.dcc6320000000p-5, 0x1.1bac640000000p-3, -0x1.08b07c0000000p-2, -0x1.163dea0000000p-2, -0x1.0d21dc0000000p-3, 0x1.07e1a60000000p-3, -0x1.1b7ea20000000p-3, 0x1.0ea2660000000p-5, -0x1.18367c0000000p-3, -0x1.3e7d280000000p-3, 0x1.db14b40000000p-4, -0x1.4ebe7a0000000p-4, 0x1.1b96b40000000p-3, 0x1.608d800000000p-3, -0x1.1f80d20000000p-3, 0x1.b8f5aa0000000p-4, 0x1.7a09220000000p-4, -0x1.0a34f00000000p-2, 0x1.c9ab560000000p-3, 0x1.78b9e00000000p-3, 0x1.2b256c0000000p-3, -0x1.fe98ca0000000p-4, -0x1.b57df80000000p-3, 0x1.6412b20000000p-4, -0x1.e61a140000000p-3, -0x1.83ea580000000p-3, 0x1.50ddae0000000p-3, -0x1.0830ba0000000p-3, 0x1.94c67a0000000p-5, -0x1.00c0660000000p-2, -0x1.7643f60000000p-4, 0x1.0a91f60000000p-3, -0x1.6a44880000000p-6, 0x1.875fac0000000p-3, 0x1.a9eb7e0000000p-4, 0x1.3e881c0000000p-4, -0x1.fadab00000000p-3, 0x1.deb1e80000000p-4, -0x1.1584060000000p-2, 0x1.e449b60000000p-6, 0x1.4eb06e0000000p-6, 0x1.0127320000000p-3, 0x1.5f06d60000000p-3, 0x1.4cc2e20000000p-5, -0x1.0bfe4e0000000p-2, -0x1.9deab60000000p-6, -0x1.65a3400000000p-4, -0x1.cd5f800000000p-3, -0x1.ddb9040000000p-5, 0x1.cb72c60000000p-4, -0x1.3e98ba0000000p-5, -0x1.2dd20e0000000p-3, 0x1.6f22840000000p-5, 0x1.0e88160000000p-4, 0x1.3a24620000000p-4, 0x1.8f4c520000000p-3, -0x1.28f0260000000p-5, -0x1.31941c0000000p-3, 0x1.1485340000000p-3, -0x1.6b97100000000p-6, 0x1.22bf5e0000000p-3, -0x1.568dde0000000p-3, -0x1.126f2e0000000p-2, -0x1.abd1fa0000000p-3, 0x1.53ea0a0000000p-3, 0x1.0902260000000p-3, 0x1.036be80000000p-3, -0x1.2bc8080000000p-4, 0x1.f7423a0000000p-4, 0x1.452c6c0000000p-3, 0x1.cdf54a0000000p-4, -0x1.0a231a0000000p-3, -0x1.1754c40000000p-2, 0x1.43e8780000000p-4, -0x1.ca71540000000p-5, 0x1.fdab4c0000000p-5, -0x1.c66e140000000p-3, 0x1.025e7c0000000p-3, -0x1.1267ba0000000p-2, -0x1.353e2e0000000p-3, 0x1.29f8c60000000p-3, -0x1.07075a0000000p-3, 0x1.b684ba0000000p-4, 0x1.7c58680000000p-3, -0x1.5d24840000000p-3}
, {0x1.5d794c0000000p-4, -0x1.ef86e80000000p-5, -0x1.b006b60000000p-5, -0x1.54ef6c0000000p-3, -0x1.d725d40000000p-4, 0x1.3a01520000000p-3, 0x1.e69fae0000000p-4, 0x1.68d63e0000000p-5, -0x1.2c082a0000000p-7, 0x1.11d9100000000p-3, -0x1.be057e0000000p-3, -0x1.0e94560000000p-2, -0x1.00718a0000000p-3, 0x1.c9d7e20000000p-4, 0x1.e0e7c20000000p-4, 0x1.3ca0a60000000p-3, 0x1.fe86560000000p-4, 0x1.4376040000000p-4, -0x1.d85b940000000p-4, 0x1.a9ce0c0000000p-4, -0x1.555c2a0000000p-4, -0x1.166f580000000p-4, -0x1.66fc2e0000000p-4, -0x1.38bdbe0000000p-5, 0x1.e29e1e0000000p-4, 0x1.1f271c0000000p-3, -0x1.01a2d40000000p-3, -0x1.3144f40000000p-3, -0x1.c023b80000000p-4, 0x1.30bcde0000000p-3, 0x1.b6860e0000000p-3, 0x1.add6e20000000p-4, 0x1.719e4e0000000p-5, -0x1.584ccc0000000p-3, 0x1.1b65f80000000p-3, 0x1.be74740000000p-3, 0x1.3db5160000000p-3, 0x1.6dfea60000000p-4, 0x1.e513460000000p-4, 0x1.9d9ca80000000p-4, -0x1.7550e20000000p-3, -0x1.b90fb60000000p-4, 0x1.10d6d20000000p-3, -0x1.2b8ce60000000p-2, -0x1.a1ba7a0000000p-4, 0x1.5c22100000000p-4, -0x1.fd62d80000000p-3, 0x1.ba438c0000000p-4, -0x1.15d8a40000000p-2, -0x1.cbd73e0000000p-3, -0x1.813c300000000p-3, 0x1.fcea900000000p-5, -0x1.a32dfc0000000p-2, 0x1.b1cd320000000p-3, -0x1.bb7c940000000p-4, -0x1.dd60f00000000p-3, 0x1.533eb00000000p-3, -0x1.a038fc0000000p-5, -0x1.5baeea0000000p-3, -0x1.8adfae0000000p-3, 0x1.44e3180000000p-3, 0x1.4ae3ea0000000p-4, -0x1.1c561e0000000p-2, -0x1.8e918a0000000p-4, 0x1.970c200000000p-4, 0x1.8c3af80000000p-4, 0x1.3daa160000000p-3, 0x1.05e7440000000p-3, -0x1.c99c020000000p-3, 0x1.aace420000000p-5, -0x1.26776c0000000p-2, 0x1.44433a0000000p-3, 0x1.12d8540000000p-4, -0x1.7603f40000000p-3, -0x1.0fc78a0000000p-2, -0x1.819a840000000p-3, -0x1.0110360000000p-2, 0x1.2758b40000000p-6, 0x1.e33fc40000000p-4, 0x1.7945aa0000000p-3, -0x1.07ede40000000p-3, -0x1.d787b00000000p-3, 0x1.4caf220000000p-4, 0x1.6731b40000000p-7, -0x1.6077240000000p-3, -0x1.1289520000000p-2, 0x1.11bf880000000p-5, 0x1.6e0b260000000p-4, -0x1.29c0160000000p-2, 0x1.3ca2b40000000p-4, -0x1.c491ec0000000p-3, 0x1.d60fdc0000000p-8, -0x1.2b20fa0000000p-2, 0x1.434acc0000000p-3, 0x1.e79e780000000p-4, 0x1.b78f840000000p-4, -0x1.7e1bf20000000p-11, 0x1.9f55dc0000000p-3, 0x1.0f74640000000p-2, -0x1.1630b40000000p-4, 0x1.5bc9780000000p-3, 0x1.37aaf40000000p-3, -0x1.5001c20000000p-3, -0x1.0ec84c0000000p-3, -0x1.4e75200000000p-3, 0x1.3469fc0000000p-3, -0x1.ef53a00000000p-4, -0x1.a700720000000p-3, -0x1.3f47540000000p-3, 0x1.37c9a80000000p-3, 0x1.9b1c700000000p-3, -0x1.9c36680000000p-3, -0x1.9c0ba60000000p-7, -0x1.6971d40000000p-3, 0x1.2cba340000000p-3, 0x1.fd3c320000000p-4, -0x1.0582040000000p-2, -0x1.46e0a60000000p-3, 0x1.2a3c900000000p-3, -0x1.4bcd5e0000000p-4, -0x1.441c4c0000000p-3, 0x1.1869020000000p-4, -0x1.15cf1e0000000p-4, -0x1.d472840000000p-3, -0x1.32a7420000000p-3, 0x1.6f8c3a0000000p-3, -0x1.3871100000000p-4, -0x1.0006440000000p-2, 0x1.7f9aae0000000p-3, 0x1.9596c60000000p-4, -0x1.39584e0000000p-3, 0x1.2998c20000000p-4, -0x1.3bd9880000000p-4, 0x1.0b836c0000000p-3, -0x1.574ff80000000p-3, -0x1.8194900000000p-5, -0x1.47d5c00000000p-2, -0x1.6e8e140000000p-4, 0x1.493b640000000p-3, -0x1.148a560000000p-3, 0x1.7e5e620000000p-3, -0x1.d3fe240000000p-4, -0x1.73476a0000000p-5, 0x1.17bec60000000p-3, 0x1.3b8ce20000000p-3, -0x1.9b00860000000p-3, -0x1.8324600000000p-3, 0x1.5da7e00000000p-4, -0x1.128bc80000000p-2, -0x1.cd13a40000000p-3, -0x1.3394dc0000000p-3, 0x1.8189960000000p-4, 0x1.e29b9c0000000p-5, 0x1.1f0ffc0000000p-5, -0x1.a5cad80000000p-3, 0x1.eb95fa0000000p-6, 0x1.60f2420000000p-3, 0x1.7e3ef20000000p-6, 0x1.08e1ca0000000p-3, 0x1.071af40000000p-3, -0x1.f2faec0000000p-4, -0x1.9615f40000000p-3, -0x1.1567c60000000p-3, -0x1.bce55e0000000p-3, -0x1.de1e4a0000000p-3, -0x1.4752c00000000p-2, -0x1.d61ecc0000000p-3, 0x1.0dd3b40000000p-3, -0x1.c4a3440000000p-3, 0x1.5555a00000000p-5, -0x1.9f66940000000p-3, 0x1.b36d000000000p-4, -0x1.b733500000000p-3, 0x1.b71c700000000p-5, -0x1.f6763a0000000p-6, -0x1.90031a0000000p-3, 0x1.bbfb920000000p-4, 0x1.25c5b20000000p-4, 0x1.b55fba0000000p-4, -0x1.f9340a0000000p-3, 0x1.3f0fe20000000p-4, 0x1.dc38cc0000000p-4, 0x1.5412360000000p-4, -0x1.9266b20000000p-4, -0x1.3b658a0000000p-11, 0x1.7becba0000000p-4, -0x1.9f5b3a0000000p-4, -0x1.7d0cee0000000p-4, 0x1.1a6d960000000p-3, -0x1.a74f320000000p-3, -0x1.095d660000000p-2, 0x1.edfe6e0000000p-4, -0x1.6d26f40000000p-3, -0x1.ad50940000000p-3, -0x1.3c7a4e0000000p-3, -0x1.413b420000000p-2, -0x1.4b0ad00000000p-5, -0x1.dd16fc0000000p-4, -0x1.1a9e540000000p-2, 0x1.c63fb80000000p-4, -0x1.8adc120000000p-4, -0x1.e2c5860000000p-4, -0x1.aea9da0000000p-3, -0x1.770ae20000000p-3, -0x1.afa10e0000000p-3, 0x1.1e4cec0000000p-3, 0x1.acb3640000000p-4, -0x1.3a5c480000000p-3, 0x1.4c47600000000p-7, -0x1.fa5e180000000p-3, 0x1.22b1f80000000p-4, 0x1.352fda0000000p-3, -0x1.8353580000000p-6, 0x1.2cb8620000000p-3, 0x1.0e0c940000000p-4, -0x1.236a120000000p-2, -0x1.804ef60000000p-2, -0x1.77050c0000000p-4, -0x1.1d081a0000000p-2, -0x1.f989180000000p-4, -0x1.eb5e640000000p-5, -0x1.2751720000000p-2, -0x1.5fde7c0000000p-2, -0x1.4fbb740000000p-4, -0x1.4961460000000p-3, 0x1.7c43ce0000000p-4, -0x1.2cd17a0000000p-5, 0x1.b9f2fe0000000p-4, -0x1.eed8960000000p-4, 0x1.0880720000000p-3, -0x1.f549c00000000p-4, -0x1.4ecd6c0000000p-3, 0x1.96dfce0000000p-6, 0x1.04a5360000000p-2, 0x1.f865fe0000000p-4, 0x1.8e651c0000000p-5, 0x1.3c4a180000000p-4, -0x1.3f8f9c0000000p-3, 0x1.0309ca0000000p-5, -0x1.c2b8220000000p-4, -0x1.b0fca60000000p-7, 0x1.ed00d00000000p-4, 0x1.98d4620000000p-3, -0x1.a1b2420000000p-3, -0x1.e9c7500000000p-5, -0x1.b9b8880000000p-6, 0x1.43b8160000000p-4, -0x1.f093380000000p-3, -0x1.81dc5a0000000p-3, -0x1.6f11440000000p-3, 0x1.3bd0da0000000p-4, 0x1.11a5920000000p-3, 0x1.6e78c20000000p-3, 0x1.d882620000000p-4, -0x1.23a47c0000000p-3, -0x1.0039700000000p-3}
, {-0x1.07a2640000000p-2, 0x1.408d420000000p-3, -0x1.2fc7ee0000000p-2, -0x1.a6eff20000000p-4, 0x1.a3fd4a0000000p-7, -0x1.5e1bd80000000p-2, -0x1.1ff1860000000p-2, 0x1.290c9a0000000p-3, -0x1.5de06e0000000p-6, 0x1.be62b80000000p-4, 0x1.16e7740000000p-3, -0x1.e9ee5a0000000p-3, -0x1.343bda0000000p-4, -0x1.59349a0000000p-5, -0x1.8ce7180000000p-4, 0x1.8e740e0000000p-4, 0x1.2ee8140000000p-4, -0x1.4535ea0000000p-4, 0x1.5153540000000p-4, -0x1.71df320000000p-2, 0x1.2d6e800000000p-3, 0x1.bff5740000000p-6, 0x1.73adea0000000p-4, 0x1.7d3df60000000p-3, -0x1.72bb9e0000000p-3, 0x1.fb17780000000p-4, 0x1.c208ba0000000p-3, 0x1.4ac4020000000p-4, -0x1.c753e80000000p-5, 0x1.424c640000000p-4, -0x1.52d7080000000p-3, 0x1.08c6a00000000p-3, -0x1.6f00380000000p-3, -0x1.9ccca20000000p-5, -0x1.f2d3040000000p-3, -0x1.63a7620000000p-3, -0x1.40c94a0000000p-3, -0x1.3336ca0000000p-2, 0x1.17a49a0000000p-3, -0x1.2b71560000000p-2, 0x1.2d0f6a0000000p-3, 0x1.a0a9f20000000p-4, -0x1.e0acac0000000p-3, 0x1.2f12f60000000p-4, -0x1.1beed20000000p-4, 0x1.2fb6f20000000p-4, -0x1.c408040000000p-5, -0x1.80ea0a0000000p-4, 0x1.c7a3180000000p-4, 0x1.b9a39c0000000p-8, -0x1.25f46a0000000p-2, -0x1.dfe2e40000000p-3, 0x1.d501840000000p-5, -0x1.e116bc0000000p-3, 0x1.3467600000000p-3, -0x1.c9f4960000000p-5, -0x1.db2ec40000000p-4, -0x1.7c03420000000p-3, -0x1.5534de0000000p-3, -0x1.8786f00000000p-3, -0x1.134ba60000000p-3, 0x1.66c7980000000p-3, 0x1.a1f17a0000000p-4, -0x1.fcaabc0000000p-3, -0x1.9ff71e0000000p-3, 0x1.fe32820000000p-5, 0x1.1495760000000p-4, -0x1.0802140000000p-2, 0x1.2b24540000000p-3, -0x1.54898e0000000p-3, 0x1.bd82d80000000p-4, 0x1.edac720000000p-4, -0x1.c327de0000000p-3, 0x1.a2a1260000000p-5, -0x1.3b0fc40000000p-4, -0x1.fd825a0000000p-4, 0x1.9d515a0000000p-4, -0x1.55afd80000000p-3, -0x1.440a8c0000000p-3, -0x1.dd69e20000000p-4, 0x1.5f75d00000000p-3, 0x1.6e23680000000p-3, 0x1.3db9be0000000p-4, -0x1.8883f80000000p-3, 0x1.6694100000000p-3, 0x1.319e780000000p-5, -0x1.7bd5b80000000p-3, -0x1.f0b9400000000p-3, 0x1.77ffc00000000p-3, -0x1.dc7c720000000p-3, 0x1.8d4fd40000000p-3, -0x1.7dcdd00000000p-2, -0x1.6159ec0000000p-4, -0x1.8a09ac0000000p-3, -0x1.750f180000000p-3, -0x1.5813180000000p-2, -0x1.22a1620000000p-3, -0x1.449e860000000p-5, 0x1.1e33920000000p-3, -0x1.4728280000000p-4, -0x1.5e93c80000000p-3, -0x1.e891f00000000p-6, 0x1.10e7ae0000000p-2, 0x1.273a2c0000000p-3, 0x1.0e41140000000p-3, 0x1.6b28f20000000p-5, -0x1.129fe80000000p-7, 0x1.149c2e0000000p-3, -0x1.41617e0000000p-4, -0x1.8496be0000000p-3, -0x1.2b84760000000p-3, -0x1.29ebde0000000p-7, -0x1.8cb7920000000p-3, -0x1.782b700000000p-3, 0x1.d0c1760000000p-4, -0x1.1134b20000000p-3, 0x1.46f0080000000p-5, 0x1.0fa91a0000000p-3, -0x1.6525560000000p-3, 0x1.2d84a40000000p-4, 0x1.30a50a0000000p-6, -0x1.dd66680000000p-7, -0x1.95c6e00000000p-3, 0x1.5a6f560000000p-3, 0x1.7fdc1a0000000p-4, -0x1.7be5a80000000p-3, 0x1.2380940000000p-3, 0x1.69797c0000000p-4, 0x1.7669060000000p-3, -0x1.b6db600000000p-3, -0x1.40952a0000000p-4, 0x1.fce3000000000p-4, -0x1.9b3c1e0000000p-4, -0x1.ae85560000000p-5, 0x1.09eb800000000p-3, 0x1.11214e0000000p-3, -0x1.ffddb80000000p-3, -0x1.680b600000000p-2, -0x1.d67f8c0000000p-4, 0x1.7e762c0000000p-4, -0x1.492d480000000p-7, -0x1.a2f1100000000p-4, -0x1.498e920000000p-3, 0x1.631a040000000p-4, -0x1.06d2220000000p-3, 0x1.6ed09c0000000p-3, 0x1.0153380000000p-4, -0x1.ccb5760000000p-3, 0x1.184d480000000p-3, 0x1.9971f80000000p-4, 0x1.3e76d80000000p-3, -0x1.d417820000000p-3, -0x1.109a3c0000000p-2, 0x1.d0c2520000000p-4, -0x1.95631a0000000p-3, -0x1.d11dde0000000p-4, -0x1.da37740000000p-6, -0x1.054ae40000000p-2, -0x1.a8ed2e0000000p-3, -0x1.6d04ba0000000p-2, -0x1.6e4af80000000p-4, -0x1.5649600000000p-4, -0x1.19d21e0000000p-3, 0x1.c7b6760000000p-6, 0x1.ec08e00000000p-4, 0x1.48c16e0000000p-4, 0x1.e4df060000000p-5, 0x1.e7bcbc0000000p-5, -0x1.ce794c0000000p-9, 0x1.32a54e0000000p-5, -0x1.1d51ba0000000p-3, -0x1.fad5dc0000000p-3, 0x1.d762480000000p-4, -0x1.3ae5660000000p-3, 0x1.feb2aa0000000p-4, 0x1.3ee1de0000000p-3, 0x1.52aad60000000p-5, -0x1.acb2360000000p-5, -0x1.8a05120000000p-3, -0x1.41628a0000000p-2, -0x1.cee5340000000p-4, -0x1.97dd880000000p-2, 0x1.d95f400000000p-4, 0x1.101d660000000p-3, -0x1.1cb2400000000p-4, 0x1.a1b54c0000000p-4, -0x1.9405b20000000p-4, 0x1.303c6e0000000p-3, -0x1.b857cc0000000p-3, -0x1.7dee260000000p-2, 0x1.b9b4880000000p-7, -0x1.17bd860000000p-2, -0x1.9b5b3a0000000p-4, 0x1.a7c1580000000p-3, 0x1.5b58400000000p-5, 0x1.73e64e0000000p-4, 0x1.1a84120000000p-3, 0x1.2e43840000000p-4, -0x1.7fa9de0000000p-7, -0x1.8305bc0000000p-3, 0x1.0a8bc60000000p-3, -0x1.91027c0000000p-3, -0x1.cac0e20000000p-3, 0x1.4d0acc0000000p-3, -0x1.85482a0000000p-3, 0x1.eca4d80000000p-6, 0x1.7ee76c0000000p-12, -0x1.f322c40000000p-3, -0x1.047dc80000000p-3, 0x1.9cabb20000000p-8, -0x1.42e88e0000000p-3, 0x1.a178000000000p-5, 0x1.fd89020000000p-4, -0x1.adeff00000000p-3, 0x1.196a420000000p-4, -0x1.632b3e0000000p-4, 0x1.3e48300000000p-3, 0x1.23b1c00000000p-3, 0x1.836ee80000000p-3, -0x1.71bfac0000000p-4, 0x1.1735220000000p-7, -0x1.2f62c00000000p-5, 0x1.43b7120000000p-3, -0x1.16e9e60000000p-3, -0x1.1ad6be0000000p-8, -0x1.39678e0000000p-3, 0x1.8ed5a20000000p-3, 0x1.1b12bc0000000p-4, -0x1.daca640000000p-5, 0x1.8f44360000000p-9, 0x1.7a848a0000000p-5, -0x1.114b5a0000000p-9, -0x1.06fed00000000p-4, -0x1.3ba3f80000000p-3, -0x1.9828940000000p-3, -0x1.bf768e0000000p-4, 0x1.0adb1a0000000p-4, 0x1.2013840000000p-5, 0x1.72d0540000000p-7, -0x1.9476340000000p-3, 0x1.22502c0000000p-3, -0x1.d37f3e0000000p-3, -0x1.4759700000000p-4, -0x1.15ad480000000p-5, 0x1.34ea660000000p-3, 0x1.8e086e0000000p-4, -0x1.92a81e0000000p-3, -0x1.0ed6d60000000p-4, -0x1.4e360c0000000p-5, -0x1.ef46a60000000p-4, 0x1.c38a620000000p-4, -0x1.46d35e0000000p-3, 0x1.036b500000000p-3, 0x1.94817e0000000p-10, -0x1.d3b01c0000000p-4, -0x1.ec5bb80000000p-10}
, {0x1.b0611e0000000p-4, -0x1.5b78c40000000p-2, -0x1.81739e0000000p-3, -0x1.c9e1b80000000p-3, 0x1.25bd7e0000000p-3, 0x1.a09b800000000p-5, 0x1.4425820000000p-3, -0x1.dd24740000000p-5, 0x1.21f1820000000p-3, 0x1.133c7e0000000p-4, 0x1.181cc20000000p-4, -0x1.440dee0000000p-5, -0x1.a8e1de0000000p-4, -0x1.40521c0000000p-2, 0x1.cea3fc0000000p-4, -0x1.7e3a4e0000000p-3, 0x1.0a04e40000000p-3, -0x1.4b2d7e0000000p-4, 0x1.b6405e0000000p-5, 0x1.3862f00000000p-3, -0x1.7f98a60000000p-3, 0x1.f3082c0000000p-4, 0x1.a691800000000p-4, -0x1.6546520000000p-3, 0x1.2b67200000000p-4, -0x1.594fa40000000p-3, 0x1.47cf1e0000000p-4, 0x1.35812c0000000p-3, 0x1.2fde440000000p-4, -0x1.9bdbd80000000p-3, -0x1.34511c0000000p-4, 0x1.f45d4e0000000p-4, 0x1.4ef6b80000000p-5, -0x1.093dcc0000000p-2, -0x1.15c2e20000000p-4, -0x1.5777d40000000p-4, -0x1.2ea4b00000000p-4, -0x1.f0d24e0000000p-4, 0x1.ad35600000000p-3, -0x1.2099f20000000p-3, -0x1.cb9eca0000000p-5, 0x1.25ad340000000p-4, 0x1.9a8a360000000p-6, 0x1.5ad5100000000p-4, -0x1.d7253a0000000p-4, 0x1.5305620000000p-5, 0x1.d569180000000p-4, 0x1.063ff40000000p-3, -0x1.1b7ff80000000p-5, 0x1.c6161c0000000p-4, 0x1.29485c0000000p-3, 0x1.1ee0740000000p-3, -0x1.4f44260000000p-7, -0x1.59a9d20000000p-3, 0x1.35bc580000000p-3, -0x1.f1a9a80000000p-3, 0x1.f2617e0000000p-4, -0x1.3d0ff40000000p-4, 0x1.4d12ee0000000p-3, 0x1.4ea4dc0000000p-3, 0x1.1011540000000p-3, -0x1.40099a0000000p-4, -0x1.77cc600000000p-3, 0x1.c45abe0000000p-4, 0x1.d91d380000000p-6, 0x1.47767c0000000p-3, 0x1.f453c80000000p-4, -0x1.b24e700000000p-4, -0x1.33f2aa0000000p-2, -0x1.1f51540000000p-5, 0x1.69108e0000000p-4, -0x1.7e804c0000000p-2, -0x1.44311c0000000p-2, -0x1.4bd9b80000000p-3, -0x1.db3ee60000000p-4, -0x1.cbc3a20000000p-6, 0x1.0240e40000000p-3, -0x1.1dd6d00000000p-4, -0x1.6cd99e0000000p-3, 0x1.ce77a20000000p-4, 0x1.2f35620000000p-3, -0x1.213fac0000000p-2, -0x1.da3e440000000p-4, 0x1.8212560000000p-4, 0x1.2937520000000p-3, 0x1.3e13380000000p-5, 0x1.8ec9f20000000p-4, 0x1.99630a0000000p-4, -0x1.9250760000000p-4, 0x1.3bb7040000000p-4, -0x1.5141f00000000p-2, 0x1.0afaf20000000p-6, 0x1.7d78360000000p-5, -0x1.9ebdac0000000p-3, 0x1.2076d40000000p-4, -0x1.23eb3c0000000p-2, -0x1.f763e40000000p-3, -0x1.f1becc0000000p-4, -0x1.7766f80000000p-6, 0x1.1049740000000p-3, -0x1.4e6f2c0000000p-3, -0x1.c955600000000p-3, -0x1.8617520000000p-3, -0x1.d128900000000p-3, -0x1.e55ad80000000p-3, 0x1.424b260000000p-3, -0x1.c745040000000p-3, 0x1.f1b13c0000000p-5, -0x1.b6d1160000000p-3, -0x1.ffc3600000000p-6, -0x1.3db1560000000p-4, -0x1.f1cdf80000000p-5, 0x1.12d4ba0000000p-5, 0x1.3cb4b40000000p-5, 0x1.e35d9e0000000p-7, -0x1.152d0a0000000p-2, -0x1.467e040000000p-4, 0x1.426fe60000000p-3, 0x1.1ee5e60000000p-3, 0x1.6dc1260000000p-4, -0x1.b5c65a0000000p-6, 0x1.3055b20000000p-6, 0x1.3976380000000p-3, -0x1.d73e240000000p-3, 0x1.5c31da0000000p-6, -0x1.05736e0000000p-3, 0x1.26f7180000000p-10, -0x1.c119080000000p-5, -0x1.2d557e0000000p-5, 0x1.5f6e460000000p-3, -0x1.4f54ae0000000p-6, -0x1.ebb5de0000000p-10, -0x1.2e3ec80000000p-6, 0x1.b100880000000p-4, 0x1.d04c5a0000000p-5, 0x1.9e0de20000000p-4, -0x1.e617d80000000p-4, 0x1.0008b40000000p-4, 0x1.45fd160000000p-3, -0x1.89f0500000000p-2, 0x1.f083120000000p-4, -0x1.95260e0000000p-4, -0x1.0395bc0000000p-4, 0x1.33eb6c0000000p-3, 0x1.9312b40000000p-3, 0x1.dbae9e0000000p-4, -0x1.d27d9e0000000p-3, 0x1.198c5e0000000p-3, -0x1.4d11380000000p-2, 0x1.3b2dac0000000p-4, -0x1.3a0f240000000p-2, -0x1.92425a0000000p-3, 0x1.a8b6e00000000p-4, 0x1.d676f00000000p-4, -0x1.71fc680000000p-3, -0x1.2c6da80000000p-2, -0x1.ee1e8c0000000p-6, 0x1.d265b60000000p-6, 0x1.41003a0000000p-5, 0x1.6692b00000000p-5, -0x1.5846d80000000p-4, -0x1.1e50dc0000000p-3, -0x1.5a3c360000000p-4, -0x1.2f90c40000000p-4, -0x1.ff9b1c0000000p-3, -0x1.6a1c520000000p-3, -0x1.097de00000000p-2, -0x1.d4486c0000000p-4, 0x1.0810d40000000p-3, 0x1.e51dee0000000p-4, 0x1.4ef4a00000000p-4, 0x1.4187ba0000000p-4, -0x1.f9b0b00000000p-3, -0x1.4a86a80000000p-3, 0x1.c4f0220000000p-4, 0x1.1059da0000000p-3, -0x1.6e8e340000000p-4, 0x1.4d1e2c0000000p-4, 0x1.151cf00000000p-3, -0x1.0326920000000p-3, 0x1.1f85340000000p-4, 0x1.03d9520000000p-5, -0x1.298c6a0000000p-3, -0x1.0751d00000000p-2, -0x1.4416cc0000000p-5, -0x1.23ef660000000p-2, 0x1.73d0740000000p-5, -0x1.1454020000000p-3, 0x1.2d4fb60000000p-3, -0x1.134fca0000000p-7, 0x1.e976700000000p-14, 0x1.8a0bce0000000p-4, 0x1.a49cb20000000p-4, -0x1.69bfc00000000p-3, -0x1.73cf3a0000000p-2, -0x1.b683a00000000p-5, -0x1.930aee0000000p-2, 0x1.839d8c0000000p-4, -0x1.006e440000000p-2, -0x1.20e4920000000p-2, -0x1.f586ba0000000p-3, -0x1.9b7d4c0000000p-4, -0x1.b6e2d00000000p-3, -0x1.11f0640000000p-3, -0x1.fae9920000000p-3, -0x1.36603e0000000p-6, -0x1.1802700000000p-3, 0x1.6bc1b80000000p-4, -0x1.3297cc0000000p-3, 0x1.00fe880000000p-4, -0x1.24becc0000000p-3, -0x1.484cfe0000000p-3, -0x1.5c35fa0000000p-2, 0x1.5bac200000000p-3, -0x1.24d2820000000p-2, -0x1.4b28660000000p-3, -0x1.8469880000000p-4, 0x1.71c9ae0000000p-4, -0x1.ad2a3a0000000p-3, 0x1.8d791e0000000p-5, -0x1.f5bb7a0000000p-4, -0x1.da3e900000000p-3, -0x1.dff1440000000p-3, 0x1.f02d760000000p-4, -0x1.07572e0000000p-2, 0x1.0a4ab20000000p-3, -0x1.2b6f0e0000000p-2, 0x1.2189fa0000000p-3, -0x1.5757600000000p-3, -0x1.24897c0000000p-4, 0x1.1721b60000000p-3, 0x1.7b3f7a0000000p-6, 0x1.68a7820000000p-3, 0x1.e517120000000p-5, 0x1.600ae00000000p-3, 0x1.b1fdd40000000p-4, -0x1.cb3a500000000p-6, -0x1.23b8960000000p-3, -0x1.b261460000000p-3, 0x1.d7d5180000000p-4, -0x1.14c7a60000000p-3, -0x1.eeff160000000p-4, -0x1.2699e00000000p-3, 0x1.d1b0d40000000p-4, -0x1.dca54e0000000p-3, -0x1.a2df5c0000000p-4, 0x1.3332c60000000p-4, 0x1.cdc46e0000000p-4, -0x1.bc63880000000p-3, 0x1.36ccc20000000p-3, 0x1.637b820000000p-3, 0x1.7323be0000000p-4, -0x1.39d4e40000000p-3, 0x1.faadda0000000p-4, 0x1.0876b60000000p-3, 0x1.0896b20000000p-3}
, {0x1.05fe8a0000000p-3, 0x1.d2e4d40000000p-4, 0x1.2252c00000000p-4, -0x1.1e2ac00000000p-4, -0x1.8768920000000p-3, 0x1.848cfa0000000p-3, -0x1.f47e100000000p-5, 0x1.5fe0660000000p-4, 0x1.26066e0000000p-4, -0x1.80830e0000000p-3, 0x1.c5384e0000000p-4, -0x1.5394040000000p-3, 0x1.0839340000000p-3, -0x1.14b6cc0000000p-3, -0x1.b5bffe0000000p-3, 0x1.1715380000000p-3, -0x1.40e2820000000p-2, 0x1.7b79a60000000p-4, 0x1.9466400000000p-4, 0x1.d3cb0a0000000p-5, -0x1.1228620000000p-2, -0x1.4f80160000000p-12, -0x1.ba4b940000000p-2, 0x1.e16cbc0000000p-4, 0x1.266d260000000p-3, -0x1.91f6c20000000p-3, 0x1.34c5160000000p-3, 0x1.1139f20000000p-3, -0x1.982c780000000p-3, -0x1.5478180000000p-2, -0x1.aaed7c0000000p-3, -0x1.034d960000000p-3, -0x1.13bb340000000p-2, 0x1.cb86340000000p-4, -0x1.57848e0000000p-2, 0x1.92db8a0000000p-3, -0x1.311de20000000p-6, -0x1.3492e40000000p-5, -0x1.fbb4c20000000p-8, -0x1.3822a00000000p-3, -0x1.ac36cc0000000p-4, -0x1.3313620000000p-2, 0x1.05e1000000000p-4, -0x1.a0a7b00000000p-2, 0x1.90c2480000000p-5, -0x1.a901f60000000p-2, 0x1.1fab7c0000000p-3, -0x1.84291a0000000p-3, -0x1.cf4c4e0000000p-3, 0x1.4ff65c0000000p-4, -0x1.134d600000000p-3, 0x1.2fb0280000000p-3, -0x1.3cabf60000000p-8, -0x1.82992c0000000p-3, 0x1.2aca540000000p-3, 0x1.1407320000000p-3, -0x1.a833880000000p-3, 0x1.96fe520000000p-3, 0x1.1d9f6c0000000p-3, 0x1.19ee4e0000000p-3, -0x1.fe60040000000p-3, 0x1.4cb7b80000000p-3, 0x1.a046600000000p-4, -0x1.f3903c0000000p-3, -0x1.aa68740000000p-3, -0x1.3ad1a80000000p-2, 0x1.edaeb00000000p-4, 0x1.fb51100000000p-6, 0x1.1e45460000000p-3, -0x1.ebd5540000000p-4, 0x1.c41f260000000p-4, -0x1.b06eea0000000p-2, -0x1.1bab660000000p-5, 0x1.9ede980000000p-5, 0x1.1d51fa0000000p-4, -0x1.588ad40000000p-2, 0x1.59d0500000000p-3, -0x1.c23c4e0000000p-3, -0x1.13f3060000000p-3, 0x1.d337c20000000p-6, 0x1.ba36420000000p-4, 0x1.992dc80000000p-6, -0x1.f296320000000p-4, -0x1.613a8e0000000p-2, 0x1.38cb920000000p-3, 0x1.03a5440000000p-3, 0x1.e5a1840000000p-4, -0x1.f0c1940000000p-3, -0x1.069a2c0000000p-3, -0x1.d2d06c0000000p-4, -0x1.844df20000000p-4, 0x1.a2be120000000p-5, -0x1.c27aaa0000000p-6, -0x1.144d540000000p-4, -0x1.0235380000000p-5, -0x1.ae126a0000000p-3, -0x1.88b57e0000000p-2, -0x1.46a1980000000p-2, 0x1.46fcf20000000p-6, 0x1.0150e80000000p-3, -0x1.4e08500000000p-3, -0x1.0886260000000p-2, -0x1.9105d80000000p-3, 0x1.406d820000000p-3, 0x1.039d8c0000000p-4, -0x1.2d55b00000000p-2, -0x1.b1e5180000000p-3, 0x1.42d7dc0000000p-3, -0x1.24e10a0000000p-2, -0x1.e8f4d80000000p-4, 0x1.b8d9340000000p-6, 0x1.12cba40000000p-3, -0x1.a248480000000p-5, -0x1.8bb5840000000p-4, 0x1.383b4e0000000p-4, -0x1.a3345a0000000p-2, -0x1.0ca1ac0000000p-3, -0x1.79bc060000000p-4, 0x1.64cb460000000p-4, 0x1.f7fa2e0000000p-4, -0x1.c63e100000000p-3, -0x1.01a1f00000000p-2, 0x1.1817160000000p-5, 0x1.4946d60000000p-6, 0x1.bf64d60000000p-4, -0x1.4cb35a0000000p-5, -0x1.b7d3e60000000p-6, 0x1.9f386a0000000p-4, 0x1.7bbb380000000p-4, -0x1.2d498e0000000p-2, -0x1.1870340000000p-2, -0x1.147c8c0000000p-4, -0x1.3d2e0e0000000p-7, -0x1.9a3d520000000p-3, 0x1.15b9cc0000000p-3, 0x1.07618a0000000p-3, -0x1.83f9dc0000000p-3, -0x1.66364c0000000p-3, -0x1.03ebf20000000p-2, -0x1.0b0a0e0000000p-2, 0x1.4f11680000000p-4, 0x1.800c260000000p-3, 0x1.09581a0000000p-3, -0x1.89df680000000p-3, 0x1.3056480000000p-3, 0x1.21c3060000000p-3, 0x1.8e9cc20000000p-4, -0x1.3bcaf60000000p-3, -0x1.4d8a440000000p-5, -0x1.7aab800000000p-3, -0x1.e3fafe0000000p-4, -0x1.17a8a60000000p-3, 0x1.d0c1980000000p-4, 0x1.21d0540000000p-9, 0x1.81b3800000000p-3, -0x1.7cd9e00000000p-4, -0x1.d3b5fc0000000p-7, -0x1.362fd40000000p-3, -0x1.4f9b8e0000000p-3, -0x1.b7b7200000000p-3, 0x1.23a68c0000000p-3, 0x1.098c8e0000000p-4, -0x1.0b652a0000000p-4, 0x1.0c143a0000000p-3, -0x1.878e240000000p-2, 0x1.930a7c0000000p-3, 0x1.b5b9200000000p-4, -0x1.0c2de60000000p-3, 0x1.aa36f40000000p-5, 0x1.0c7df00000000p-3, 0x1.1bc6a80000000p-5, -0x1.bc887e0000000p-3, -0x1.97228c0000000p-5, -0x1.0133180000000p-2, -0x1.37b33e0000000p-3, -0x1.01ace20000000p-2, -0x1.f03cd20000000p-5, -0x1.3ba3ee0000000p-2, 0x1.d92a7e0000000p-6, -0x1.a673b60000000p-3, 0x1.61fd620000000p-4, 0x1.075cc40000000p-5, -0x1.7b246e0000000p-3, -0x1.009bfa0000000p-7, -0x1.7206dc0000000p-5, -0x1.9778ba0000000p-3, 0x1.2e1cb00000000p-4, -0x1.6b52b60000000p-3, 0x1.7b62e00000000p-3, 0x1.e48aa60000000p-5, -0x1.2b772a0000000p-5, 0x1.154c800000000p-3, -0x1.fa4e2a0000000p-7, -0x1.3a1eee0000000p-4, -0x1.08504c0000000p-3, -0x1.2d0dae0000000p-3, -0x1.26fba20000000p-3, -0x1.27fc100000000p-4, -0x1.61326a0000000p-3, -0x1.105da80000000p-2, 0x1.a033ba0000000p-4, 0x1.01a9da0000000p-4, 0x1.81aef20000000p-4, -0x1.75d81a0000000p-4, -0x1.8b516e0000000p-4, -0x1.2b93320000000p-2, -0x1.0d70dc0000000p-2, 0x1.d04f100000000p-4, -0x1.521e140000000p-2, -0x1.1506580000000p-3, -0x1.a884860000000p-4, -0x1.8b63b20000000p-4, -0x1.ef748c0000000p-3, 0x1.62fcb60000000p-4, -0x1.9da2440000000p-2, 0x1.2dd5ee0000000p-4, 0x1.b66ece0000000p-3, -0x1.b7fb9a0000000p-5, 0x1.0981700000000p-3, -0x1.4b1ce40000000p-4, 0x1.e287a80000000p-4, 0x1.0b4d980000000p-2, -0x1.8ca4540000000p-3, -0x1.d72bbc0000000p-3, -0x1.dd87080000000p-3, -0x1.2f1a160000000p-3, 0x1.01e8860000000p-3, -0x1.75aabe0000000p-5, 0x1.9b24820000000p-3, -0x1.e22fce0000000p-3, 0x1.9a5aa80000000p-5, -0x1.4d11660000000p-2, 0x1.a56eda0000000p-3, -0x1.a362300000000p-4, 0x1.2fe3240000000p-4, 0x1.126d2a0000000p-3, -0x1.93234c0000000p-2, 0x1.34c93e0000000p-4, 0x1.ad39360000000p-4, 0x1.2cbf460000000p-3, -0x1.b6dee60000000p-4, -0x1.429c020000000p-3, 0x1.1871b20000000p-3, 0x1.7aa6720000000p-4, 0x1.79079c0000000p-3, -0x1.50073c0000000p-6, -0x1.ee35020000000p-3, 0x1.deaeb80000000p-5, -0x1.4b34d20000000p-4, 0x1.fe4dda0000000p-4, 0x1.0a19360000000p-3, 0x1.2a7f800000000p-5, -0x1.656bea0000000p-5, 0x1.a07eae0000000p-4, 0x1.3161e80000000p-4, 0x1.2caed60000000p-3}
, {-0x1.22057c0000000p-2, -0x1.adcb8c0000000p-3, -0x1.79fe980000000p-5, 0x1.62878a0000000p-4, 0x1.3be3120000000p-3, -0x1.1a44f20000000p-2, -0x1.47914c0000000p-3, -0x1.ccf6fc0000000p-5, -0x1.38e7700000000p-3, 0x1.4fa26c0000000p-8, -0x1.210a440000000p-2, 0x1.b84a700000000p-4, -0x1.0464aa0000000p-2, 0x1.12192e0000000p-7, 0x1.4885da0000000p-4, -0x1.0b032a0000000p-8, 0x1.4bf4940000000p-4, -0x1.fdca1a0000000p-4, 0x1.666e040000000p-5, 0x1.c51c4c0000000p-5, -0x1.0a34fa0000000p-3, 0x1.c98f240000000p-7, 0x1.0584400000000p-4, -0x1.17533a0000000p-2, 0x1.4cba6c0000000p-4, -0x1.4e3c640000000p-3, -0x1.6444fa0000000p-3, -0x1.43056e0000000p-3, 0x1.471eba0000000p-3, 0x1.debf580000000p-4, -0x1.1e1abe0000000p-4, 0x1.49a9fe0000000p-6, 0x1.00004e0000000p-4, -0x1.bb5f5a0000000p-9, 0x1.9d50c20000000p-4, -0x1.f63c4a0000000p-6, -0x1.057b480000000p-4, 0x1.b03c9c0000000p-4, -0x1.b46f740000000p-3, 0x1.e9b63e0000000p-7, -0x1.1d4c760000000p-3, 0x1.76aa340000000p-4, -0x1.3edd1a0000000p-3, 0x1.a52ace0000000p-4, 0x1.bc8b500000000p-6, 0x1.7c67820000000p-5, -0x1.2a932c0000000p-3, -0x1.5ca4520000000p-2, 0x1.2808ec0000000p-3, 0x1.add4ac0000000p-7, -0x1.224c7e0000000p-3, -0x1.0d56340000000p-3, 0x1.af0ac80000000p-4, 0x1.9490260000000p-3, -0x1.573fa00000000p-6, 0x1.7409f60000000p-4, -0x1.97cbc40000000p-4, -0x1.c66a6e0000000p-5, -0x1.5effc60000000p-3, -0x1.a379960000000p-3, -0x1.05e25e0000000p-3, -0x1.45236e0000000p-3, -0x1.5a6a4c0000000p-3, -0x1.5ad1620000000p-3, 0x1.7fb7140000000p-4, -0x1.8451680000000p-4, 0x1.4bb5c80000000p-5, -0x1.3812460000000p-5, 0x1.1355f20000000p-4, 0x1.ab59ea0000000p-4, -0x1.3a6e5e0000000p-3, 0x1.0226d20000000p-3, 0x1.cc4ec60000000p-4, -0x1.af948c0000000p-2, 0x1.5e81120000000p-3, -0x1.a505960000000p-4, 0x1.430c180000000p-3, -0x1.6332c00000000p-3, 0x1.0698e20000000p-7, -0x1.9fa9120000000p-4, -0x1.6651c40000000p-2, 0x1.24433e0000000p-3, -0x1.484b580000000p-6, 0x1.759eb00000000p-5, -0x1.4779140000000p-2, -0x1.a0dab60000000p-3, 0x1.1cd2fa0000000p-4, 0x1.0150b40000000p-4, 0x1.49f5400000000p-3, -0x1.0073d40000000p-4, -0x1.0465760000000p-3, -0x1.3422f00000000p-2, 0x1.ebb49e0000000p-5, 0x1.7e08b00000000p-5, 0x1.0465360000000p-3, 0x1.f760b80000000p-4, 0x1.e0ca440000000p-4, 0x1.d36efa0000000p-5, -0x1.c689820000000p-3, -0x1.92c5d20000000p-9, 0x1.3af8600000000p-3, 0x1.3b100e0000000p-3, -0x1.e4a7420000000p-3, -0x1.f9a3420000000p-3, 0x1.69b18e0000000p-4, 0x1.de719a0000000p-5, -0x1.8741280000000p-4, 0x1.247fb20000000p-4, 0x1.81a97e0000000p-3, -0x1.36fb280000000p-3, -0x1.0784dc0000000p-2, 0x1.0ab96e0000000p-3, 0x1.746c2e0000000p-5, 0x1.8395360000000p-4, -0x1.5055b60000000p-3, 0x1.47b31a0000000p-3, -0x1.d6deba0000000p-5, 0x1.2f1b560000000p-4, -0x1.5541420000000p-2, -0x1.dac5420000000p-3, 0x1.2e36700000000p-7, 0x1.149e240000000p-3, -0x1.1ff8240000000p-3, 0x1.e25bb40000000p-7, -0x1.5955440000000p-5, 0x1.7d10420000000p-5, -0x1.93621c0000000p-3, 0x1.fba3d80000000p-4, 0x1.a6d4660000000p-4, 0x1.f2bdc40000000p-4, -0x1.33f1320000000p-5, 0x1.1506aa0000000p-3, -0x1.85f6d80000000p-7, 0x1.ad26c00000000p-4, 0x1.935a420000000p-4, -0x1.7eafae0000000p-2, 0x1.3d5b740000000p-3, 0x1.b818540000000p-4, 0x1.a88df60000000p-4, 0x1.2ee96c0000000p-7, -0x1.d902560000000p-3, -0x1.3cf4e40000000p-2, 0x1.1dbe4e0000000p-3, -0x1.216eec0000000p-3, 0x1.05e7b40000000p-3, 0x1.a5014a0000000p-5, -0x1.9fe9580000000p-2, -0x1.6d1c3e0000000p-3, 0x1.1a7f940000000p-3, 0x1.5e189e0000000p-7, -0x1.171eb60000000p-3, 0x1.5e93f80000000p-3, -0x1.099c800000000p-2, -0x1.0559520000000p-2, -0x1.2ae5840000000p-3, -0x1.304a140000000p-2, 0x1.1684ac0000000p-3, -0x1.84e4480000000p-3, 0x1.f7bdb20000000p-4, 0x1.58f2560000000p-4, -0x1.84a9500000000p-3, 0x1.2bee720000000p-6, 0x1.c6bee40000000p-3, -0x1.6812ea0000000p-3, 0x1.735c660000000p-3, -0x1.5bb82e0000000p-3, 0x1.9cc4500000000p-4, 0x1.63fe880000000p-3, -0x1.c7e4da0000000p-3, 0x1.9ad5b80000000p-4, 0x1.7320a40000000p-3, 0x1.acf26e0000000p-4, -0x1.f18ae80000000p-4, -0x1.cee9ea0000000p-6, 0x1.08b8420000000p-4, -0x1.c535020000000p-7, 0x1.5f311c0000000p-3, -0x1.a69c780000000p-3, 0x1.45b7540000000p-3, 0x1.a317120000000p-4, -0x1.b071a20000000p-3, 0x1.1e44240000000p-4, 0x1.5a038e0000000p-3, 0x1.2870e40000000p-5, -0x1.481ea60000000p-3, -0x1.c07cf20000000p-7, 0x1.7517780000000p-4, -0x1.8c23f60000000p-3, -0x1.e70cf00000000p-3, 0x1.42cb400000000p-3, -0x1.5a7c540000000p-3, -0x1.1ffe540000000p-3, 0x1.0615d60000000p-3, 0x1.7eb81a0000000p-3, -0x1.250ab80000000p-2, 0x1.703c060000000p-5, -0x1.58cf900000000p-4, -0x1.2afe980000000p-4, 0x1.37a52a0000000p-4, 0x1.0d05ba0000000p-3, 0x1.082c380000000p-3, 0x1.7e86b80000000p-3, -0x1.b59bfa0000000p-4, 0x1.b235de0000000p-3, 0x1.ae662a0000000p-6, 0x1.5e17000000000p-3, -0x1.b345540000000p-4, -0x1.7191b60000000p-3, 0x1.6b83a40000000p-4, 0x1.4a8f680000000p-6, -0x1.e0fa540000000p-3, -0x1.e4e4480000000p-3, 0x1.a7751e0000000p-6, -0x1.8a0dde0000000p-3, 0x1.e27af60000000p-5, -0x1.4ff8920000000p-3, -0x1.91b6c60000000p-2, -0x1.eda4c20000000p-3, 0x1.21da7c0000000p-4, -0x1.02dd6c0000000p-2, -0x1.bf4db40000000p-3, -0x1.bf305a0000000p-3, 0x1.a24bb20000000p-3, 0x1.28e39e0000000p-7, -0x1.3b8dd60000000p-5, -0x1.2968ca0000000p-2, 0x1.6b2c200000000p-3, -0x1.6223340000000p-4, -0x1.b6dfd60000000p-3, 0x1.227a860000000p-3, -0x1.c934560000000p-5, 0x1.11b9ce0000000p-3, -0x1.33a99c0000000p-2, -0x1.549c140000000p-4, -0x1.25df940000000p-4, 0x1.6547f60000000p-6, 0x1.6d666e0000000p-4, -0x1.e83eb00000000p-4, -0x1.6a63120000000p-4, -0x1.3afaf00000000p-2, -0x1.a4c0640000000p-3, 0x1.5683140000000p-5, -0x1.74ce020000000p-4, 0x1.b2787c0000000p-5, 0x1.a508780000000p-4, -0x1.ae57420000000p-7, -0x1.6411e00000000p-4, 0x1.94a2f60000000p-4, 0x1.e2837a0000000p-4, -0x1.10b1040000000p-2, -0x1.d031980000000p-3, -0x1.77d1e80000000p-3, 0x1.8a11d40000000p-4, -0x1.8640000000000p-3, -0x1.3ec6120000000p-4, 0x1.1b82d60000000p-2}
, {0x1.78b68c0000000p-4, -0x1.ce4a220000000p-3, 0x1.bd97620000000p-4, 0x1.2452780000000p-4, -0x1.04b24a0000000p-3, 0x1.260d900000000p-3, -0x1.0a2ce80000000p-3, -0x1.41e59c0000000p-3, 0x1.eb95620000000p-5, 0x1.b29c8a0000000p-4, -0x1.eeaba20000000p-6, -0x1.7120dc0000000p-3, -0x1.ed82d20000000p-3, -0x1.84c53c0000000p-6, -0x1.2aef580000000p-2, 0x1.32b5f00000000p-3, 0x1.2ad97e0000000p-4, 0x1.14b8680000000p-3, -0x1.f4d37c0000000p-4, 0x1.7bc6040000000p-7, 0x1.c769300000000p-8, 0x1.bdde2e0000000p-4, -0x1.f698320000000p-3, 0x1.d3595e0000000p-4, -0x1.f97d0a0000000p-3, -0x1.bb71a80000000p-7, 0x1.816b9c0000000p-3, 0x1.7490e40000000p-3, 0x1.0aa8900000000p-3, 0x1.06bf2a0000000p-3, -0x1.bfe8180000000p-4, 0x1.3cf9800000000p-4, -0x1.b6ac8a0000000p-3, -0x1.b5e0960000000p-3, -0x1.a8f2140000000p-4, -0x1.7242260000000p-7, 0x1.3e9b820000000p-3, 0x1.3af2740000000p-3, -0x1.18f2ea0000000p-3, 0x1.ad51f80000000p-4, -0x1.969eec0000000p-3, 0x1.df53260000000p-6, 0x1.96f5fc0000000p-3, -0x1.8d82fa0000000p-3, 0x1.2046da0000000p-3, 0x1.7ff6640000000p-4, 0x1.bb90ce0000000p-4, 0x1.25bfce0000000p-3, -0x1.e986a20000000p-3, 0x1.4186cc0000000p-3, 0x1.bcef3e0000000p-5, 0x1.1101ce0000000p-3, -0x1.2ff8c60000000p-4, 0x1.ffc46a0000000p-4, 0x1.2aa76e0000000p-3, -0x1.142db40000000p-4, -0x1.18579c0000000p-3, -0x1.6258880000000p-3, 0x1.9dc1c00000000p-4, -0x1.dc1df20000000p-4, -0x1.78d61e0000000p-3, 0x1.3565620000000p-4, 0x1.cfb6e00000000p-4, 0x1.af38f40000000p-3, -0x1.3155560000000p-6, 0x1.13e35a0000000p-3, -0x1.698c0c0000000p-4, 0x1.659d380000000p-4, 0x1.17946c0000000p-8, -0x1.908dc40000000p-3, 0x1.b6b1de0000000p-4, 0x1.12ba640000000p-4, 0x1.4ee8320000000p-4, 0x1.2487a00000000p-3, -0x1.03ccd60000000p-5, -0x1.273a720000000p-3, 0x1.261a060000000p-3, 0x1.37f1220000000p-3, 0x1.21a3800000000p-3, -0x1.cc14660000000p-8, -0x1.e0d9c00000000p-8, -0x1.90c9e00000000p-3, -0x1.5a6cf20000000p-3, -0x1.fd75c20000000p-5, 0x1.b92cce0000000p-5, 0x1.e98abc0000000p-4, 0x1.5579ec0000000p-4, -0x1.a153680000000p-5, -0x1.4576820000000p-3, 0x1.22a92a0000000p-4, 0x1.35fcee0000000p-4, 0x1.e4a9600000000p-5, 0x1.5423440000000p-3, 0x1.1686a00000000p-3, 0x1.35942a0000000p-4, 0x1.6433e60000000p-3, -0x1.c8c49e0000000p-3, 0x1.3f207a0000000p-3, -0x1.6abc1a0000000p-3, -0x1.3cc6220000000p-3, 0x1.dd8a9c0000000p-4, -0x1.88aedc0000000p-3, -0x1.b416c80000000p-4, 0x1.9b78c40000000p-4, -0x1.d7e5f40000000p-4, -0x1.cb74080000000p-4, 0x1.72dd6e0000000p-3, 0x1.0c62e00000000p-3, -0x1.990b3c0000000p-4, 0x1.bf2b560000000p-4, 0x1.88a2540000000p-3, -0x1.62b6120000000p-3, -0x1.2b7d8e0000000p-4, -0x1.fb69460000000p-3, -0x1.ed69e40000000p-4, -0x1.81d4080000000p-5, 0x1.2292800000000p-4, -0x1.a6c4c40000000p-3, -0x1.ce93420000000p-8, 0x1.bf8ee60000000p-4, -0x1.fb70320000000p-3, 0x1.6f85040000000p-4, 0x1.78994c0000000p-6, 0x1.01de2c0000000p-3, -0x1.76a49c0000000p-3, -0x1.c3ac1a0000000p-5, -0x1.00ca620000000p-6, 0x1.b9ea420000000p-5, -0x1.8d28400000000p-3, -0x1.3156960000000p-2, -0x1.78f09a0000000p-3, 0x1.0950b60000000p-4, -0x1.c65b5a0000000p-6, -0x1.2a27180000000p-2, 0x1.0651f60000000p-5, -0x1.2ba0200000000p-3, -0x1.e139160000000p-4, 0x1.6e4b9a0000000p-4, -0x1.1f85300000000p-2, 0x1.f0d9ba0000000p-4, 0x1.4942ac0000000p-4, -0x1.b19a640000000p-3, -0x1.3e2e240000000p-5, -0x1.6aef760000000p-3, -0x1.5fd00a0000000p-12, -0x1.5c9bf20000000p-3, 0x1.5863540000000p-7, -0x1.da5dde0000000p-3, -0x1.8540f80000000p-3, 0x1.7cf45e0000000p-9, 0x1.c9c0300000000p-4, -0x1.1657660000000p-2, 0x1.533c3a0000000p-4, 0x1.42cfcc0000000p-7, -0x1.5058720000000p-4, 0x1.93e0080000000p-3, 0x1.ccc1f80000000p-4, 0x1.8170040000000p-5, -0x1.802dac0000000p-3, 0x1.3013b40000000p-5, 0x1.0771de0000000p-3, 0x1.3ad92c0000000p-4, -0x1.5fb37c0000000p-5, 0x1.58b6c00000000p-4, 0x1.7d15ba0000000p-4, 0x1.4185d60000000p-4, 0x1.49e10c0000000p-3, 0x1.f4b1000000000p-4, -0x1.c672960000000p-3, -0x1.4b3a020000000p-2, -0x1.28132a0000000p-2, 0x1.4231b00000000p-4, -0x1.cf4cec0000000p-6, -0x1.1649e80000000p-2, -0x1.8a50dc0000000p-3, 0x1.6f8fa80000000p-5, 0x1.e7079c0000000p-4, -0x1.f20d360000000p-4, -0x1.160e3a0000000p-4, 0x1.828b020000000p-5, -0x1.2bee300000000p-6, 0x1.58e2a40000000p-3, 0x1.0225600000000p-4, -0x1.5ab7000000000p-4, -0x1.0298360000000p-3, 0x1.ecf4900000000p-4, -0x1.3424a40000000p-2, -0x1.0aa9700000000p-7, 0x1.f61a3a0000000p-4, -0x1.3704ec0000000p-2, -0x1.91ecf60000000p-3, 0x1.90a08e0000000p-3, -0x1.07a3720000000p-3, -0x1.1d0ebc0000000p-3, 0x1.83e18c0000000p-5, -0x1.3d3f1c0000000p-5, 0x1.6e57f40000000p-5, -0x1.ccfc9c0000000p-3, 0x1.ec97660000000p-9, -0x1.55e2a60000000p-3, -0x1.0aedde0000000p-2, 0x1.756ddc0000000p-4, -0x1.1862a80000000p-3, -0x1.83d2300000000p-3, -0x1.d818a20000000p-5, -0x1.8848bc0000000p-3, -0x1.f6e63e0000000p-4, 0x1.bc2ddc0000000p-5, -0x1.9dd86e0000000p-4, 0x1.fa7f380000000p-5, -0x1.25322a0000000p-4, 0x1.dba2400000000p-4, 0x1.cb69ce0000000p-4, 0x1.1808300000000p-3, -0x1.4101ec0000000p-5, 0x1.4dfaae0000000p-3, -0x1.f2d63a0000000p-3, -0x1.b979160000000p-9, -0x1.9c4bb60000000p-3, -0x1.ca7e1c0000000p-4, -0x1.187a0c0000000p-2, -0x1.3920b80000000p-3, -0x1.dd39fa0000000p-3, 0x1.5d88f80000000p-4, 0x1.c007300000000p-4, 0x1.b36f420000000p-4, -0x1.34b89c0000000p-5, -0x1.fb35620000000p-3, -0x1.24f2f80000000p-3, -0x1.11c41a0000000p-2, -0x1.0632d60000000p-2, 0x1.3a54840000000p-3, 0x1.9b70ba0000000p-3, -0x1.30b8540000000p-3, -0x1.4860e80000000p-4, -0x1.a679480000000p-4, 0x1.339c120000000p-4, -0x1.fe698c0000000p-3, 0x1.bf6a4e0000000p-4, 0x1.60a19a0000000p-4, 0x1.be92860000000p-4, -0x1.3dcfa60000000p-2, -0x1.1aad700000000p-2, 0x1.8cbcbe0000000p-4, 0x1.bd70dc0000000p-11, -0x1.ad74940000000p-3, 0x1.05deaa0000000p-3, -0x1.06dfca0000000p-2, -0x1.1950f00000000p-2, 0x1.c6d4ce0000000p-4, -0x1.c733000000000p-5, -0x1.83d2da0000000p-3, 0x1.e7b6400000000p-8, 0x1.f545aa0000000p-4, 0x1.e81c520000000p-4, -0x1.e154560000000p-4}
, {-0x1.be5eb60000000p-3, -0x1.02096c0000000p-7, -0x1.6a7e080000000p-2, 0x1.8e8d000000000p-4, 0x1.fc1a260000000p-7, -0x1.e17b080000000p-3, -0x1.c4c5080000000p-4, -0x1.10fd840000000p-2, -0x1.14c7a60000000p-2, 0x1.8089a40000000p-4, 0x1.6472d40000000p-3, -0x1.0082160000000p-3, -0x1.57fada0000000p-3, 0x1.f8d5f40000000p-4, -0x1.a40cca0000000p-6, -0x1.03bb380000000p-2, 0x1.11db1c0000000p-3, -0x1.db39d80000000p-3, 0x1.16a77a0000000p-4, -0x1.49d97a0000000p-4, 0x1.e0f2c20000000p-4, 0x1.24b4ec0000000p-3, 0x1.6458860000000p-4, -0x1.e4163e0000000p-4, 0x1.513bdc0000000p-4, 0x1.3932320000000p-3, -0x1.44d6980000000p-5, -0x1.43f2740000000p-5, -0x1.08d9940000000p-3, -0x1.a306da0000000p-4, 0x1.9b9b9a0000000p-6, 0x1.3332460000000p-3, 0x1.3f94340000000p-3, 0x1.6137480000000p-5, 0x1.82130e0000000p-4, 0x1.f5006c0000000p-5, -0x1.6796380000000p-5, 0x1.0cb49e0000000p-4, -0x1.3211560000000p-4, -0x1.314ac80000000p-3, -0x1.3681d40000000p-2, 0x1.1f2ae40000000p-3, 0x1.3f95020000000p-3, 0x1.7a45940000000p-5, -0x1.3940a20000000p-2, 0x1.0d3d360000000p-4, -0x1.7357b00000000p-4, 0x1.9bd6a60000000p-4, -0x1.987f2a0000000p-5, 0x1.34a1800000000p-4, -0x1.37e39a0000000p-2, 0x1.1626900000000p-3, -0x1.17d90a0000000p-3, -0x1.8dc35e0000000p-4, -0x1.37a7400000000p-3, -0x1.783f0a0000000p-3, -0x1.a10f3c0000000p-3, -0x1.0ef26c0000000p-3, 0x1.5d58980000000p-6, -0x1.8ac5180000000p-4, -0x1.88c9ec0000000p-6, -0x1.428a220000000p-2, -0x1.30d5800000000p-3, -0x1.a080980000000p-3, -0x1.d2bfbe0000000p-4, 0x1.5c37940000000p-4, -0x1.2578380000000p-2, 0x1.8a74a40000000p-4, 0x1.c711b40000000p-4, -0x1.9537320000000p-3, -0x1.60ceb40000000p-5, 0x1.0177280000000p-3, -0x1.335ff40000000p-3, -0x1.46e5180000000p-3, -0x1.c3b9d40000000p-5, 0x1.8c8cf20000000p-3, -0x1.38084c0000000p-3, -0x1.89944e0000000p-3, -0x1.cf28480000000p-3, -0x1.7e81f00000000p-3, 0x1.c9f46e0000000p-4, 0x1.25bfbe0000000p-3, 0x1.efa3820000000p-4, 0x1.2dfcc40000000p-3, -0x1.6c776a0000000p-4, 0x1.19d6be0000000p-3, -0x1.a875f80000000p-3, 0x1.8d62320000000p-5, 0x1.81dd500000000p-4, 0x1.082a7e0000000p-3, -0x1.5b20a40000000p-4, -0x1.4a7c2c0000000p-2, -0x1.f986b20000000p-3, -0x1.84706e0000000p-3, -0x1.97e0080000000p-3, 0x1.0082480000000p-4, 0x1.1fd5520000000p-4, 0x1.377ca40000000p-5, -0x1.eb9f3c0000000p-3, -0x1.13f38e0000000p-3, -0x1.a08b580000000p-5, 0x1.a77c860000000p-4, -0x1.f566cc0000000p-4, -0x1.01cfe40000000p-3, 0x1.ffb6140000000p-4, 0x1.a8fd300000000p-6, 0x1.6778780000000p-3, -0x1.16be4e0000000p-3, 0x1.f504740000000p-4, 0x1.40ddc20000000p-4, 0x1.c483860000000p-7, -0x1.2e7cbe0000000p-3, -0x1.f3135a0000000p-3, 0x1.90bca80000000p-4, -0x1.30367e0000000p-2, 0x1.634aec0000000p-5, 0x1.2c06c40000000p-4, 0x1.609bac0000000p-3, -0x1.34a5e80000000p-4, 0x1.28ec280000000p-4, -0x1.1ae0c80000000p-4, -0x1.72c2e40000000p-3, -0x1.f985980000000p-6, -0x1.096ab40000000p-4, -0x1.f7cd080000000p-4, -0x1.92c25c0000000p-3, 0x1.58d5ee0000000p-3, -0x1.39207c0000000p-3, -0x1.33477a0000000p-2, -0x1.80121a0000000p-3, 0x1.314af00000000p-5, 0x1.63ffb40000000p-3, 0x1.f256d80000000p-4, 0x1.27b1ba0000000p-4, -0x1.68b9260000000p-4, 0x1.461d2c0000000p-3, -0x1.55dd520000000p-5, -0x1.77d9da0000000p-3, 0x1.92c7a80000000p-7, 0x1.52a1f20000000p-3, -0x1.70c06c0000000p-5, 0x1.19e8300000000p-4, -0x1.de5b960000000p-3, -0x1.c3eee80000000p-5, 0x1.8508100000000p-5, -0x1.8204c60000000p-4, -0x1.79deea0000000p-4, -0x1.c86f980000000p-3, -0x1.3d9ec40000000p-5, 0x1.ac450a0000000p-4, 0x1.7549d60000000p-4, -0x1.27c8a00000000p-2, 0x1.c2806e0000000p-6, -0x1.34e4700000000p-3, 0x1.8cceee0000000p-4, -0x1.523efe0000000p-4, -0x1.3ac1780000000p-4, 0x1.2b32f00000000p-4, 0x1.5515880000000p-5, 0x1.0fc8560000000p-4, -0x1.ae921c0000000p-5, 0x1.b317880000000p-4, -0x1.401e460000000p-5, 0x1.76173e0000000p-4, 0x1.dc8b6a0000000p-7, -0x1.c7aa900000000p-4, -0x1.ddde180000000p-6, -0x1.f7b6620000000p-3, 0x1.237f340000000p-3, -0x1.8a4b120000000p-4, 0x1.e6e2da0000000p-4, -0x1.b109a00000000p-3, -0x1.6829220000000p-3, 0x1.b7e6600000000p-5, 0x1.347b520000000p-5, 0x1.dd44580000000p-4, 0x1.9db4300000000p-5, 0x1.16eb880000000p-3, -0x1.b8d0000000000p-4, -0x1.b664280000000p-3, -0x1.4d85e20000000p-2, 0x1.2eea0c0000000p-4, 0x1.736b1a0000000p-6, -0x1.67f9580000000p-3, -0x1.5e17d60000000p-3, 0x1.f10b120000000p-5, -0x1.49d7660000000p-3, 0x1.200e0e0000000p-3, 0x1.7a594c0000000p-4, -0x1.0758a60000000p-4, 0x1.5276220000000p-6, -0x1.eb5ba00000000p-4, 0x1.9913420000000p-4, 0x1.f35a8c0000000p-4, 0x1.11fac60000000p-4, 0x1.83db9a0000000p-5, 0x1.a44e4a0000000p-4, 0x1.afe9260000000p-3, 0x1.674e800000000p-4, 0x1.185e820000000p-3, 0x1.a7479e0000000p-4, -0x1.cde6e20000000p-4, -0x1.3cd2a80000000p-4, -0x1.2038060000000p-3, -0x1.1bbe0a0000000p-4, -0x1.2930ec0000000p-2, 0x1.f58c780000000p-13, -0x1.b1b1080000000p-3, 0x1.05a9980000000p-3, -0x1.eaff340000000p-4, -0x1.5699140000000p-2, -0x1.276ef20000000p-5, 0x1.0008a60000000p-3, -0x1.f1e6d60000000p-3, 0x1.0ee5740000000p-4, 0x1.64edfe0000000p-5, 0x1.27aaf20000000p-3, 0x1.1fa19e0000000p-3, 0x1.cabdb80000000p-4, 0x1.fe11800000000p-4, 0x1.3a75480000000p-3, -0x1.0095920000000p-4, -0x1.a7624e0000000p-4, -0x1.88d1c80000000p-4, -0x1.a069fc0000000p-3, 0x1.5939d20000000p-3, -0x1.87baf80000000p-4, 0x1.db23ea0000000p-5, 0x1.f8d2a60000000p-6, -0x1.2109900000000p-2, 0x1.8ffe9a0000000p-4, -0x1.b4f4800000000p-5, 0x1.716e8a0000000p-4, -0x1.ca16020000000p-5, -0x1.30708c0000000p-5, -0x1.b9fb220000000p-3, 0x1.38c0540000000p-7, -0x1.4c40120000000p-3, 0x1.27e85e0000000p-4, -0x1.6534100000000p-4, 0x1.8810500000000p-4, -0x1.e715380000000p-4, -0x1.ec7b2a0000000p-5, 0x1.1b53820000000p-4, 0x1.68b7ec0000000p-3, 0x1.6442360000000p-4, 0x1.95b7d00000000p-4, -0x1.889a240000000p-3, -0x1.f9b97c0000000p-6, -0x1.3d20520000000p-3, 0x1.40e47c0000000p-6, 0x1.9fb7240000000p-5, 0x1.400d820000000p-3, -0x1.a676300000000p-5, -0x1.3a440e0000000p-2, -0x1.1509720000000p-2}
}
;

#undef INPUT_SAMPLES
#undef FC_UNITS